3A3BDDFA
3B34B846
BB4F414A
3C00F243
3C2E0116
3ACB35C0
3A8A6089
BBFE3A1A
BA2252AE
BB4627A7
BA1A42E3
3B895025
B9F07917
3B4D6BB7
3B9E3730
BB9C7E4B
3C022F4A
3BF75472
B9A9CE51
3CBA6AB6
BBDA185F
BA98C8F8
3A689A2F
BB822C89
3B6A91B8
BC01A7A6
3B3E8EB2
3BE66D80
3B553F3F
BB60932B
3B7BB49D
BC239D29
BB1EC204
3C097D8C
BC26F935
3C75E87D
3A930F5A
3BFAC42E
3CA289B1
BC553ADE
BC04F6F4
BBD65970
3A893263
3B3876AF
BB7F5106
3B6F8E58
3BBFD163
BC158EB2
3CF30BB2
BC4AA597
3CDCEBF9
BCB93BE0
3C99D906
3CE5E2C1
3C4496BE
BCE0CB3F
BB86D590
3C5D8867
B9FDF158
BB4FD132
3C2C9612
BCA61786
BCDB8F61
3B8B1070
BC3AC521
3B8A4ED7
3A211C16
3BA7F4BE
BC4B0D81
3B7408DE
3C7FCDAD
3A80EC96
BBA40009
3B958A8D
3C2FF394
BB8D79DF
3C12D4C0
BB1DDCD0
3A36E91C
3BB80040
3AEC2540
3C2B39F5
BC1BC35D
3C9E476F
3D2094A6
3C026433
3C23BF37
BC99BECD
BBDB28CD
BC147C71
BB8AB8FD
3C52463A
BC1E74E1
3C0C03C3
3BBE89B3
BC04E26A
3BA19286
3BFB2257
3BCB3EDD
3C57FBD1
BC1AD80F
3B8DABCC
BC091D19
BAE103BF
3B1B2AF1
BB32D5B1
B9C67219
3B763678
3A43D505
BC106908
BA224DFC
BB356BF2
3B4CAC5E
3BBB5E05
BBB7428F
3C6151A4
3CD80A87
3B74F46A
3BC7A360
BC4DE044
BB375FC1
BBBFD1F7
BB359BF5
3C256B4D
BB8C5411
3BB0A42B
3BB5014F
BBE1BDFF
BB58E4CE
3B97E01E
BBF8F6D2
3C0BAC56
3C6641A7
39BDB8E4
3B0768C1
BBDA7394
BB13A5AF
BB98675C
BB361305
BAA0D6B4
BBF5E118
3BC7EA30
3B94C4DA
BB553CEA
B96E6676
3C2A49FF
BAB47BFD
3C6337F3
3C06DFC6
BC1D4B8B
3C31801D
3B9DC9A4
BB403D44
BB695E5B
3BCB2551
3AB45FDF
BBA69750
3C07F013
3B9DCDF8
BC232A98
BB222529
3C726A30
BBEFCF80
3C828026
3CB12F1A
3BFFFF1F
3C50D79C
BC70A159
BB11937F
BC44EEE6
BB71E834
3A86E1AC
BC750938
3BD00D5F
3C62E515
BC3287FE
3D179357
BC2BCD1E
3BECB26E
BC3DC60E
3CBA74D0
3D1200B5
3C0097B4
BBA7828F
3CA3744D
BC1B7C7C
BBBD34AC
BB44081A
3CB2B232
BD027631
BD106EEB
BC4B0735
3BBC385A
3A63A277
3BC264AE
3A0434D5
3BCEECDD
3AA7CC58
BA85EBDF
BC37F58E
3B768839
3AAF3480
39DD8DC4
3B69DED7
3C1F18B4
3BE41269
3B939994
3AC46628
3B1EB1E0
3C904BE7
BC864797
3C97FD05
3D0C2686
3B5CB3B2
3C564631
BC709A19
BBA9DE60
BC846198
BB6CAEDD
3BF7D288
BC43E224
3C0D1E41
3BD4E69E
BC35DFA1
BBAFD9D6
3BF288D4
3B0A79D7
3B4BD949
3B6978C5
BC35CA5A
3BA32675
3C67AD33
B9991845
BB50B880
3BED531E
BAC7C463
B84A05A6
3B4AB162
BA29CAF8
BC43039C
391536E7
3C24A11A
BC44617D
3C772DDB
3CC892F2
3AF7A62A
3BE58BD5
BC335D55
BB83675A
BC258D44
BB7A9A79
3B6DB04E
BC219A8B
3BF67D43
3BC09600
BBEF9FEF
BB4E4582
3C072683
BA8A5079
3B7C9E1A
3C7E1B79
3B2BE767
3BD6AAA1
BBA0CCCC
BACB3FFE
BBD4B1F9
BAD8BDC4
BB17A544
BB9CE79B
3B21587E
3B8A175D
BB360B77
3BCDFEC9
B9A462FA
BC3D3675
3C2A31E4
3C8BCD36
3B5A2FB9
3C874CEB
BC1BC1FF
BAC1C358
BACEBDEB
BA5FAF07
3B324C09
BC03DECD
3AFB32CF
3C0ACFB4
BC02A091
3A686501
3C000E7D
BB1F847D
3C0C9D93
3CBE147E
3C06443E
3C885A33
3B53CB16
3A66DF18
BC0E7547
3B651EB5
3B790CDF
BC8D73EF
3A458402
3C617796
BBDC3CA1
3D14BFCC
BCAB1C70
BBAAD090
BCD7FB2B
BC08209C
BC1EA091
3C9EAE31
3BF2115C
3C8E4189
BCF7B826
3C3AC9C9
3C13AE47
3CEDC7BA
BD07709C
BD34B173
BD0C50D6
3C1BB73A
BAF5608A
BB1A4FDE
BBBF7A6A
3C39C3FC
3B9C9769
3C6A6575
3B1639BF
3C273E51
BA0087A7
3BAF7CD0
3B31FE5F
3AC18D7F
BB71A69F
3B9E17B2
BC7509A2
3A296643
3C8D453E
BBE11EC9
3C7D7497
3D0E9EE7
3BF733FC
3C85E530
BAF5CE27
BB88E9D5
BC46043D
BAA27290
3BC5B384
BCACBCE3
3BCD0E92
3C377F98
BC02B0D6
3A808128
BC10BC93
BC1BF606
BAE24EC8
3AB315D3
BBC5B1AC
3B2BEC7F
BB531830
39C51120
3A64176D
BB35D26A
BB64D579
BBEAFBA6
BB1011CD
BA77B480
BB135B47
B99345D5
3C475D73
BBA2E6A5
3C2E51B4
3CD8CD10
3B957021
3C5DC863
BB5D28FF
BB381DE9
BC19D2C4
BAE0AFFE
3B587C3B
BC5293F7
3B604324
3BFDB11C
BBA59C63
BB8114CE
3BDB0D40
BAA09354
3BAD1240
3C95FBFF
3B72D660
3BA89E37
3AB357C0
BAB242FE
BBC2B1FF
39FBB04D
3AF168F6
BC71FACE
3B35E21A
3BC83E9F
BA8AB5F7
3B532DE6
3BFC9A2E
BA6233B0
3C0C2A75
3CB5CA1A
39F71271
3C29D011
3AF06D75
38A1D347
BC0F6649
3B3E9D74
3B65D495
BC2516E6
3AF0BE80
3C162DEF
BBF76205
BC13C159
3B8C1117
BBB552D5
3BF4B01D
BB214DA5
BB0BCA49
BB608FA2
3C9D1FC3
BBD3D443
BC8A6D06
3ADCF604
3C680DF9
BD068705
3BDAE2DD
3C8F05C9
BC24BF3F
3CDE2210
BBC4D75E
BBF70BB5
BBB7753F
3C9AF003
BC62D906
3C7D4A2A
3C61E39D
3BCEEC8C
BCE46351
BC01274B
3C9E2452
3C38A1E0
BD4786DF
BD2E1260
BCA3DBE8
BBA20945
BB9335D9
BB1F407A
BB8A4685
BACA2C29
39898ECA
BB28CCEF
3C1EF515
BAC0FE38
BC2C2307
3BBC631B
3C58DCBF
BC21566C
BB2C2532
3BE85679
3ADCC482
BA82059B
3C629307
BB0309DC
3C6C3912
3CC0BCE1
3C16FF4A
3C3DB624
BA94D201
BBC6F7D9
BC2FEB96
BB83B276
3C92F954
BCC91591
3C2B6363
3C9A6C37
BC255EA6
3B8861F3
3B53880F
39E8AE00
BA0E3CAF
3C1C4322
BB464AE0
3ADF7EEC
BAB9E5CB
3ACC5DBA
BB16F68D
B7FC87C0
BBA47398
BB63F466
BAB71CB4
38B5F3DE
BA90FD57
BA93B370
3C1CD668
BB08D11C
3C21133E
3CB6B2E3
3BC239E7
3C2CF606
B9227C7A
BB6582F1
BBF643B4
BA7C341A
3C23B121
BC896E55
3BB7037F
3C4C260D
BBCCF930
BB833B2B
3B92B4EA
B9A5B9E2
3BB2B000
3C21741A
3B31C5A5
3B4AE731
3AEA57B3
BB28530C
BB597522
BA7179C3
3C03F2BF
BC845404
3BBF6972
3C5176C3
BB04BC56
B9D4688E
BC0893A6
BC817C0B
3C613A07
3C81A711
387124CC
3C2C3618
BB810E3E
3B1B7DE5
BB920CD3
3B200DE4
3C2379DA
BCCFC6C6
3BC4BD6D
3C3B671B
BC020E84
BBB74773
3C181DD4
3B168ED7
3BE0D8AC
BC053FDC
B9B0E91F
BB80E77F
BA224655
BB6356E6
3BCA20AB
BBC27156
3C4C9882
BC9B0F71
3C78E68B
3C7B3C41
3A850428
3D34C3FC
BB90724F
3CA44FB8
BC84CC16
3C7D7C19
3C1CB42A
3CCA5CC9
BC4C0866
BBB00AB6
3C3E6990
BBC94432
3C6A2657
3C299428
BD22243C
BD2C63E7
BBDD73DA
3A073D8E
BA227486
3B6C1320
BAD633BF
BBE2AA95
BB8ACBE8
BB109DD5
BAEDA542
BAA1C7E8
BB05F6B1
39193C72
3BE5648C
3B21FA2E
3B4BCAEB
BBDBD42C
BA62379F
BB149ADF
3C5B2C20
BB9064B1
3C8A7A3E
3C7D0909
3C45D222
3B4D67B3
BAF733B8
BBE6015B
BBB0D8CB
BBEC6234
3CB8B50C
BCDE4931
3C7D3EE9
3CB22BBA
BB7403D8
BB313011
BCA0087B
BC8FE2AD
3B355996
3B41FF6C
3A99FF40
B9A3E128
BC7DE96E
3BD24DD1
B9585C62
3A0F4B85
3B0732BD
BCB78B48
3AF0E2C8
3A86A3FF
3A41104B
BB000C77
3C086FDA
BB3E1646
3C3B1E3C
3C6277D0
3B6F5AB7
3B9171F0
382C4D9D
BB8D5B88
BB5B659F
BB4628DA
3C771734
BCC376B1
3C2C6ECB
3C87B8CA
BBD9E0E1
BB57E4DD
3B5F2723
BB839326
3BDEE008
3C1DE257
3B5FA127
3A8BAAA0
3AE489C3
BB4CB940
3A155354
BB9A5704
3C1AE858
BC928540
3C147E3B
3C4D04A1
BA3DB47C
BBC5D82F
BB441B72
BC003072
3C86F7C1
3C61A177
BB67E4AF
3C1E7B6C
3B3D7B83
BAC43E71
BB031DC6
38795305
3C4B0F1F
BCBF1A87
3C59F1B5
3C7465A7
BB9FFCC0
BC1139A7
BAE227CA
3B2CC37C
3BE2A128
BACE80FE
BB41F559
BC3E6169
BC39CF86
BBE76CEC
39A49022
BB838487
3ADA446C
BB6C005D
BBD68ECE
3C07703D
BB32D249
3CF3C6E2
BBB91147
3C1D914F
3B65E5F3
3CA2D21A
3C255F1F
B9A5B9FE
BC5D73ED
BBDA7AE9
BC0A4B5E
BC2D72A9
3CA99A83
3CB59F5E
BC93364B
BD49B30D
BC0DDF19
3BA0EE12
3C04FB6E
3C4F6DF2
3B211F04
BA1C76CB
BBF05B62
B9A9FE3C
BBABBB91
BA84DB73
BB892D07
BB58454E
BB2FA3F8
3C0D175C
BA1D3A04
BB5764F4
3B23749D
3B218CA2
3BDC19F2
BB8AE716
3C480221
3C0FF161
3C248750
BA8174D2
BB033613
BBEC6BE7
3BB14967
BBC3C280
3CA11997
BCBA4BEF
3C0AC317
3C97A26E
3A8401B1
BC7AF15F
BCC0F543
BC834CFF
3C3A2B1E
3B9284F5
BB1FE314
3AD78E59
BC1C5EB1
3AF0AA6D
BA16D9A0
BAA0A129
3B745E95
BCCA5AD8
3C79B112
3B9F3F9F
BAE5DBC5
3910A60E
3BC8F427
BB928F71
3C1B0E3F
3C380D83
3BB44C7A
3A8A29DD
3883634E
BB9B247F
3B02FE96
BB9A09C0
3C677E3E
BCABF17E
3C0106B6
3C80F128
BA1EDE7B
3B16DED5
3AE38605
BB3CC663
3B37B21B
3BEB8E1B
3B26E1A4
BB061523
B98E899F
BB07283D
3B3529E1
39CC5722
3BBEA27C
BC2C1DC0
3AA26A3C
3C177B90
3B52EC5C
BA09BBA2
3BB62CEF
3A6B4070
3B8273BA
3C697F83
BB544D3E
3BDC9A63
3BCBCBA9
BB5AD770
BAF9F2C1
3B28F687
3B01FE8D
BBE1E6F5
3B59115B
3C47B4BA
BBFF6B98
BC085A36
BAC88234
3B8C4A57
3BA0F396
BAE985A0
3AAD974E
BC313517
BBFCEB44
BB74A313
3B8F5EED
3B79C12A
3B7FD09D
3B860258
B92AC106
3BB43DCE
3C171656
3D33E547
BBA7B576
3B382C78
BB051394
3D03C19B
3CE307F6
3CAE743A
BCC3FC0E
BBD62E00
3CF6BA3E
BC372786
3CF8D7DD
BBB982BB
BC91F2FB
BD17265D
3C5034CF
3A8ABA48
3A0E8061
3C7F97D2
3A8C0903
3B00BDF1
BB7F557F
BB6A797C
BAA0EAAD
3B373D5D
BB335B27
3BB0924D
3AE39A26
3BAC3ED0
BAA5566E
BB3656CA
3AF23ED5
3B9F63B9
3B12E77D
BABAC11C
3BF63B90
3B8A36A1
3BA78618
BB3CD283
BC0BBE1D
BBC888EF
3BE5DF18
BA1B3569
3C75AF5C
BC2A5EF7
B9AAB1E4
3C577E9B
3BEBA64E
BAFBD238
3A105552
3B3DFB3B
39E56974
3B865DD1
38C5D4EB
BA1698C4
BA4FDC00
BAD6464A
3BB49568
BA540B59
BBA2E04B
3A95FC88
BA2C63AB
3BCA34B8
BB7B9E2E
3B8CD734
3AFE637B
BB234DB6
3BAEB9C3
3BE750D0
3B3F5D4F
BABAFEEB
BB89CBBB
BB8414E7
3B90E5F9
BA3EA33E
3C370296
BC21FFD8
3A5B5D01
3C38ECDB
3B84418D
3B520962
B9037FC1
BADD6A51
3ADE70AA
3B46F215
3B24E3FE
BB0DBC3F
BAF1ACDC
BA93936A
3B8C15F2
B99C5C53
3BB3B6F0
BB89DDD7
BB0C4A73
3BF70F08
3B9536C7
BB72F060
3BE506C0
3A946E4E
3BD65E66
3C67766C
BB1F3470
3BCCEB6A
3C19339C
BB185C24
BBF393FC
3A2571C9
39CBA291
BA8B1E97
3B30DAD8
3BF5924D
BBD76455
BC058F9B
BBF5EA1A
3C00599D
3BC269C0
BB6DA6CE
3AACDC93
BC2F3505
BB8F9C77
B8D874B5
3BF70C54
3B4CC96D
3BF48CF3
3C523C86
BC47CEF8
3B85A48C
BB2088CF
3D27FA0C
BC2F04BC
BB95157B
3C090D41
3CF09B4D
3CC44097
3C25701A
BC21BC30
B88D7795
3C94F4E7
BC5366D7
3CB167D4
BC3DA8E3
BC3BC221
BCF45092
BC859140
3B40F8EA
BAF0683E
3C1A3E57
3B9E9477
3B88557A
3B75686C
BBC82C2D
B9BC8A0C
39C05E70
3B46C868
3A784185
3C564AB5
3C31729E
BC0513AB
BB5F4E85
BBDC3FA0
3BC3BE4D
BAFC1850
3B299877
3BEABC94
3B4ED351
3B6F6E87
BC195C48
BC15D2A9
BB6E888D
3C02C96A
BAA7779E
3C570E33
B9EFD107
BC15D9D4
3C23BFF6
3BE343C3
BBADD5E0
3B5B4974
3942DF70
BB2C57B2
3BC22CC9
3A364338
392F47E8
3B69DB35
BA889F15
BA9F5FEF
BB427A5E
BBB4FA5A
3A2B89DE
3B46B6F3
3A50A2FA
BA244647
3B8BBA81
BA043C64
3A508115
3BA4BE61
3B898472
3B19E4E1
BBB630E7
BBBDAD60
BB0931C9
3BBB6A2B
B940114B
3C2196D3
BB1392DE
BBB1389D
3C1A31BD
3B9338A0
3B13CFBF
BA5486CD
BA629CE1
3B44AE25
3B0756C9
3AC2C15A
BBE3DC4C
BB02BC04
B83DEE8C
3B958BA4
38C7004C
3B85AB94
38E36398
BBC3C0A4
3B81BCB0
3B5D9AD1
BB080DD7
B9465804
3B80FDE3
3BD5FEBD
3BA483FE
BB4BBF8B
3B48833A
3BE5F3FA
3A82FC6A
BC1EEA4C
3BBD6AB9
3BA388F4
BB206AC9
BB47913B
3BA14EEB
BBF60CB3
BAF3FA63
3A9A6932
3B05283E
3BA2907E
BBF5889C
39CF5337
BC35098E
BACDC71B
BA19D870
BAA4987B
BB365550
B9EB5C08
3C348165
BC70FFAE
BAEA7056
3AF66811
3CC9BD4D
BC2768FD
BC23DF03
3CBCA94C
3CE4795F
3C92C7F8
3BD73D50
BC87710C
3B0ADD6F
3CFFA794
BC8027A0
3C41D189
BB79CAD3
BA3C2E2E
BC526DEE
3B5AE06C
3C26B759
3BED414F
3C266D21
3BADF363
BB1C830C
3B99CA77
BB78F151
BA9CC78F
BB0505CB
BB04AB05
BB3C3A41
3C374374
3C3E2C6D
BBFD65F8
BB8102FF
BBF19A73
3AF85815
39F9AAF2
377460A0
3BFA5C74
BB8F2404
3AFA7813
BC36639D
BB5612F7
BB034D59
3C1017E3
3A70B0BF
3BCA48B9
3BD3D4CF
BC6CA3E0
3B4CE14F
3BACF5F7
39C2DEC8
BA2C2FA1
36BF6F90
BB4CF5CE
3AEB2382
B99B09D6
3AEE863E
3B826FA3
BA7CC38B
BB1154DE
3A560229
BAE671FE
BAC72469
BAEDD5F3
3A0A1CC5
BB02E7B9
3B22A77C
BA4CC448
BA218DA0
3BC91B43
B95AF20B
3AA408BB
BC0E2980
BB625E06
BA43BEE0
3BA7B8F2
3A379F24
3BD94DE2
3B80DA8A
BC2814F0
3B5E65BF
3B2689FE
39541693
3AB7B2BD
BA942D4F
3B5C429D
B7D5F92C
3A83E64C
BBE47568
BA82EE89
390570BF
3BD93DDC
B93B7F15
3A0E6FD3
3B489C69
BBEF113F
3AABD644
3B8EC78E
3B208171
3B24D41C
3B8C2929
3BBEAE8E
3AA8DDC6
BB774F4F
3B6778E1
3AD5C2DA
3A798F9A
BB2C19F0
3B184CA8
3BEF24B9
3C071F79
BBCB955A
399B00CD
BB8474EF
3AE97280
3BAB13CF
3A943424
3BC25A6A
BB9CD870
BACE163C
BC7562A4
39901557
3ABAAA73
3BD8BBC5
39889FE8
3B825CA2
3C8CF220
BC5C262C
3B7E82BA
3AC1B23C
3BD26597
BC7DC47E
BC3007AC
3C68B756
3CF3A3B6
3C365714
BBBA5D73
BBC2D420
3B8BF391
3CF1EFAB
BB90FF80
BC353E26
BCAEDB57
3BF7DABB
399D9912
3C795BCB
3C13513C
BAAD59F2
BBF2B6E0
3C0D62D0
3B9E1465
3B526D79
BA991E7F
BBC07EFD
3A097AB5
3BC73384
38F17072
3C123009
3BAA7DF3
BB3821CB
3B27DD32
BC0269F3
BA9EBE27
3AF9B449
3A4742DD
3BECB462
BC0852B6
BB135673
BC803686
BADCA9FD
B91A44F8
3C0EB9E3
3A96F895
3B9EA8EC
3C6FCD76
BC7C9AC0
3ACDE5A8
3BED6EEC
399E1683
BA82A55C
B8CA207F
BAFED8D2
B9E9025A
BBBFACE4
B9C1C8A9
3B0ACEB1
BAF6225B
3B5CC34A
B8D681C2
BB458874
BA1C8444
BAE844E2
BA87D330
3ADD5BE4
3965C120
3ACC657D
B8FA7F3C
3BBDB25D
BB7A6EB6
BA0E8796
BC21DF5F
BAB7ECBC
393990B1
3BC9A539
3A4C1D98
3B456E22
3C2165CD
BC4005BE
3A7BDCC4
3B91F7D3
BAB7A46B
3B21F904
BA92ED7A
3B4EE5A8
BB3ACA5E
BAFA2F11
BC0AD38B
BAD6EF14
39E1149F
3BB7A192
B82D94E2
3A93C182
3BD09052
BBD154A5
3AF3EDA6
3BBD806B
3B6EC3FC
3BE3DA5E
3B22467A
3BC0B0F4
39497BBF
BB8E9B52
3B7C5F14
3B05072F
B9B7F58B
BC2549D0
3B2FCA62
3C140381
3C4BB5FF
BB96CF47
3AA96527
BBD8D52B
3A60055E
B91FCEE7
3C057ED1
B8B64270
BBBF3286
BB9C1656
BC38D79C
BAFBAF3A
BAB60DC6
BB98F0A9
3B2E5D27
3A8378DC
3C965114
BC24DB52
B6F863CE
BB1B4C6A
BC2814D0
BCADC28A
BB9C3C30
3BB6E8FD
3C8D1ED1
3C39022C
BC72233E
3939A0B6
3B399964
3CBC2852
3AFD41B0
BC70AD03
BC6B0A35
3BFF6E69
39243D70
3D142F38
3BE7A091
BBA1EFAE
BB5875E8
BAE7FE9A
3B9E6040
3979B7A4
BA3BCDF5
BB9936F4
BB65B91F
BA9DFEB5
3B762122
3BB4326D
395DC637
BB4067C5
BA758DF0
BBF2DF45
BA7C5D6D
3B828C87
3BC361B0
3B6BA269
BC3C3B59
BBB07643
BCA2EC9C
BBAE8A35
3A918316
3C1062EC
3A6D9B83
3B661DBD
3CD17063
BC50C566
3B1DDD68
3C0F7CAD
BBDB1CB6
3B32B891
B93A847E
3A2DDC84
B7AF1E14
BBEB657A
3A5B27A4
3A30CF40
3B05AF9F
B9686B96
B96B36FB
BC28FCE7
B9D401D5
3BCB6460
3B17BF87
3A348CDC
B7B4D980
3B6A21BF
3B411A9A
3B67901E
BBD3B0CA
BB5D960E
BC6D2D61
BB7705DA
3A37386B
3BE6462C
3A36CF50
3B6CE467
3C848B13
BC27B93A
3B02FE94
3BC9A141
B885B013
3B2C8E02
3B963F91
3B0B5AF3
BAE614F6
BAAD17CC
BC191034
BB7316D4
39DDC2EA
3BA8484A
3A04A0AB
B96BDD02
3C262B1A
BB9F1963
36B24F10
3B5FE19D
3C12FECF
3BA0FDAC
3C2445F7
3B674CA6
BBCD9070
3B31A4AB
BBED5DAA
BB9439D4
B9645497
BB677D1D
3B91F0FF
3B879295
3C811B7C
BBAFF353
BADEAE52
BC03A1C3
3A5E16B7
3B3CA1A0
3BF9C432
BBCB8C26
BBB85DC7
3A5C74D0
BC9782F5
3B6BF1E9
3B6625D3
3B84D25D
BAC9EC6A
BA2E8DA7
3C586650
BC10433E
3BE168FF
39C29F3F
BCB62592
BC391157
BC1BFD69
390740DF
3C34008D
BB2C2679
BC071B4A
3C0AED5A
3BA1F304
3C2AA583
B90C0474
BC3DC515
BBCF457A
3C1AEA76
BAE06643
3CC480BF
3BE2A605
BB6A9041
3B01B706
BAB9B72E
3BF154A6
BB43B45C
BB9E7940
3BDECD6B
3AE44ADD
3B2848F6
3B66D805
3AC70B51
BACDF51B
BBACD209
3BFE7449
BB4B4C95
3B010DA1
3BC08458
3C35F8F1
3A61B1B2
BC10372B
BB50C574
BCACD97E
BB21CCEA
3AF1235C
3BD73390
BA82284F
3BBE01A6
3CDCC6BF
BC3C701F
3AA00CC9
3B5E9598
BBC393DE
3A33EA35
BB2591C3
BA9EE7DB
BC246CCE
3B227D64
BC664112
BC536087
3ADAFAB5
BB20D726
3A54BB6F
BB3F3DFA
B99CDC44
3BFECD17
BA30BD0E
BA79CE4D
3AAB44B5
3B71E5D4
3C028BB0
3AD0669A
BBCF5A54
BAB41523
BC83FEE3
BB78E831
3A9AB30E
3BB0AD1D
391C08A8
3B4E61F3
3CA7D073
BC11FB2A
3A0A9B10
3B46231A
3A66F726
3BA01B7B
3B8F787D
399AB480
BB0D7144
BA4F383A
BC18DDFE
B987DF2A
39F32D99
3B5BC5FA
B9AA3DBC
3B35FD18
3C0E3892
BB7872C6
39F47EE3
B931BB8F
3C3EDB23
3ADAD433
3B1A02CA
3B75C342
BA786FD8
3A5FDB34
BB636F7D
3B6CCC22
3AA14E06
B9F63760
3B0C4C6C
3BA13AE5
3B831CE9
BC1151D4
3AEEA739
BBEF21ED
3B71E355
3C222992
3BE19C40
BB3933B9
BAFFC813
BC140CAB
BC3EFFFF
BA386EB1
B8C5C91B
BAAB6E95
BA835D15
3AF3AB85
3C8C3699
BB319EF6
BAFF0A56
BB606D27
BC8F35DF
BC3892BB
BB5BFF21
3A9430F9
BA855D40
3BB14A07
3BAE4460
39D910BC
3B75892F
3B34EEC8
3C3E357E
3959AA4E
3C91FC7F
3B5FDF5B
BC2A1E3F
3D017C93
3BC55E3A
BA0F5E99
3B883130
3973E01A
3B979B40
BC4F3467
BA39CB4F
3B8BA9B0
BA62B184
3B74727F
3A88C07A
BADB462A
3BCB9F9B
3A82F8F2
BA0F9C56
3B3E7914
3BDCFBE7
3C472CCD
3C4963F5
BAAA191E
BC07903F
BAE01681
BC998C7A
BB045E33
3B175127
3AC858A1
BB48CD35
3C3CC964
3CDC8B5C
BC0C89B1
BA0C04C3
BB878EB5
3B3A64BA
BAEC3800
BB491635
3A38D386
BBB5019A
36CC9010
B9DFE5ED
BB24FA6E
3A92AD4A
BB38C820
BA695D77
3B5FE3ED
BC0493CE
BB7D6F4A
BAB85F55
B9F33058
3B60BF16
3C0717ED
3C124645
BA31C3BD
BBAE3CDE
BA4E9087
BC74D909
BAA45819
3A9C2CC7
3B1D44FE
BAAFC45E
3BE9F280
3C97B60D
BBD74ED0
B81750B0
BAA9FEB7
3B7CEDF2
3BB7201D
3BE83816
3A5FC186
BAA52EEA
387CB5A0
BBFD9C04
BA841516
3998641C
3A87DC88
BA39262C
3B91620D
3C393F0B
BB40E530
BAD0D552
BB60CB14
3C7DEBE1
3C132C88
3CA7521D
3B87F613
3B880BDE
3B5373A2
BA9A1A28
3B248A43
BA93A6E8
B9F11216
3B1DB1E6
3C208B91
3C6BBED8
BC053EC4
BAB5D02D
BBF8DD85
3C222890
3C10B1E1
3C2B9108
39B52007
BB91E676
3B75DB33
BC9ADC02
BBDB8EE6
BA234713
BB29E46E
BA8E1D2C
3C426710
3CAA4A20
BB68B2AE
BA07EEAF
BC14B19A
BCC0F470
BC846F41
BC1A598F
3B7E7871
BA66043A
3C1CCBE7
3C26A16A
3BA4B56C
B7FE5F08
BADE8F8B
3C026EC5
BB7B879A
3C0EFCC5
3B1AC724
BC742C29
3C87742B
3BA31257
3B0BD43C
3B959193
3B0FD972
BB845999
B96012FE
BC805855
BC24B206
BB3331DF
3B23A2AA
3B3443F3
3C2C5D40
3C1C30BC
397977D8
3A4E7C73
BAA02203
3C51F51F
3C53ADB9
3C5C2E9F
BAAEC56A
BBDAE391
3A16A9FA
BC82663B
BA52E5A7
3B2F6954
BB4239DE
BB792AD3
3C316E74
3CF454E2
BBF4AAD2
BB346DD7
BC30AC94
3C1D48C9
BB97F87B
3C99C661
BA3156F0
3A92CA22
3B269925
BAADD0D6
3B15816D
BA9D2171
BA7B445D
B6020B90
3A82FDA7
BA10BBE8
BA5F7E27
3A61C3AE
BA6EF094
3C0CC4A5
3C19EE54
3C2A7F65
B9A8EC6C
BB6A2100
3A6076CC
BC523819
BB0ADD60
3AA53469
B9CF391C
BB2CDA74
3C1138DB
3CB09334
BBB928B0
BB0AE269
BBE1A32C
3B9888B6
3BD56A7E
3BDA6FBB
BA59D55E
B9FE5F30
BA33039F
BC16CFFB
B9F9DD01
B7D15BA2
BAA25024
BAB0BBDB
3B8C8589
3C1DE0A5
BB66FD8F
BB192A28
BBA5745F
3CA29018
3B84833C
3CABC546
3B89DA58
3BB54896
3BBE1D75
BBC1D868
BBB02A96
BA210B29
3B176069
39EF23C1
3C5C1E18
3C3090EE
BBFD0D98
3AF12E23
BBED1864
3C318DE0
3BAEA279
B9F374C4
BB260C76
BAF5AB98
BB53829E
BC66F182
BB6AB774
BA2A5E41
BB0A4A06
BB3DB83E
3C0B4AE1
3C129270
BBFAA40F
BA6A87F9
BC2ED854
BC5FDB62
BC83A9EA
B8D2C18E
3B99CC70
3BF1A48D
3BF0933D
3C396DFB
BB941556
BBAEF616
3B5C2B63
3C5D353F
BC1219E4
3B6842EE
BB937DCD
BCA34DBF
3C541393
3B874F48
BC0868C8
BC2180AD
BAA17B4B
B932AD15
3AE642B9
BC4F56CB
BC22D976
BA518B49
3A55590F
3AF7077F
3B906656
BA92B089
398F126D
BA008759
BB012086
3C6F83A3
3C5BE5E7
3C0EE720
BACF4C4C
BB7FA7EB
BBB70AB2
BC56C68E
B97C4532
3B0F765A
BBADD73D
BB50D01C
3C3C90F1
3CB2CE1E
BBD7B0C8
BA469C19
BC50D35D
3CC7917F
BC2C06A1
3CC48D38
398BEBA8
B9DA7F82
3B45C3B7
BB6609C4
BB8CC711
BAAB69FE
BB078056
B98F43AE
BAB49E4C
BB61A587
BA997F3B
3A66F9AA
3B7879CF
3C257D93
3C1F6161
3C0E2932
BAA16E35
BAE3AF7A
BAC6F383
BC3EC9EE
BA815CF1
3A894AC2
BADF3CF0
BB31CB55
3C147E88
3C90E103
BB9EB008
BAAA9C61
BC08F876
3BCF9F43
3BCB2366
3BBE4C7F
BA978C3D
39710C51
BB83AFF3
BC2538D3
3AF8FE7B
B9DD7E86
BAACFA0C
B8CC1258
3B2E0E64
3C028BAE
BB24E1B2
BA8FAD4D
BBC55F61
3C5232B8
3C156E21
3BE48241
3A4132D4
3BDC53E9
3A45284E
BB6BBBFA
BC027B60
B9D223CC
3BC628C5
3B216F20
3C64E4E3
3C8AA29E
B8B5563F
3AFC74F2
BC220F2D
3C60C583
3C0441BA
3B9BB229
BB47F1F3
BB67A1AE
BBCB05D1
BC9036CC
BB4B4A83
BA274072
BB143FC6
BB242D48
3B94D9FC
3C4329E6
BA4A7C28
B9B2C2FA
BC3E0A67
BB702DF1
BCD52466
3C80509D
3B442763
3C534BDA
3CA8D741
3C152AFE
BC4B636F
BC175750
3C5185FD
3B9B967E
BB8482A7
3AF1760D
BBA86ABE
BC9FB241
3C92E19D
3C0C66EA
BA90132B
3C27F5BB
BB88BD7D
B9BE96B2
37E81E84
BC1D6587
BB739E82
3A52635B
BB9379FA
3B612F6C
3C052A1E
3C2A6FD7
3AF6CFEB
3B141556
3A6CCAF6
3C8E265D
3C612F7C
3BFAD0A6
BB3B91FE
BBAEC40C
BC1635AC
BC533129
3BAA000F
392F173D
BBB3C41D
BADC4A24
3C0C63DD
3C8318E0
BC396C75
BA0137E6
BC82AB19
3B33BEF2
BAC128D5
3BD9EA4B
3AFDC3AA
3ADAB152
BA4412B2
B9E8597B
BC10E48F
395A9026
3C2CC320
3A98ED13
BA86873C
BB180C92
3C03F4A4
3AF25442
BAE59BFA
3C4679F2
3C1BB63A
3BCCDA22
BAF19E17
BAF8F661
BBC25C34
BC36EA81
3B2F75FD
B995C1BA
BAD9E953
BAB024BB
3BE4751E
3C582548
BBF248B0
BA79F620
BC215008
3C0C7605
3B9E1BBC
3BBD3C92
BA42B4FE
BA945177
BB88AEB8
BC0EFBF9
3B5E7687
BA434A26
BA68FD3E
BA919364
3B2CD92A
3C047979
BB9DB7AB
B94939EB
BC0772C9
3C4B1707
3C1AF03C
3A3E3C02
39E45AB4
3BA25027
3A3A6297
BBF26354
BBDAB2B5
396D91F6
BB13D6C4
3A80E7AF
3C54FEEC
3C41B0A4
BB2D173D
BB50BEE5
BC7E63CD
3C8D49BF
3AAE8760
3C13ACE1
3B575890
BAE8A886
BBC6EBAD
BBCD4FF3
B90F94B5
3A840EEA
3B84E74D
B84271DE
3B383DED
3C09D86C
3B934B28
3BDFD32F
BC0C204C
BAA8854B
BC7C4970
3C8B044B
BB141041
3CA6A903
3C586245
3CA2A055
BCBE8834
BC5CE2F3
3CEC51FB
3ABBEC83
3C1275FD
BCA09E42
BC858D5B
BC754749
3B13E460
BB9D6A0E
BA20980E
3C27F735
3906876E
BB5E4837
3C349199
BB8871F7
BB89B8CB
B9AE0685
3B46B98F
3B2670AA
B9AC195F
3BF6A1EB
3C215FC1
3BC78A25
3B71594D
3CBA0CB1
3C176BBB
3C43E74E
3AE31FDC
BBAF5846
BC0EC8C8
BC2150C6
3C0AEF37
3AB74105
BA6EA0D8
BB44BE07
3BD64799
3C6CE33F
BC16C30E
3B309C48
BC9D0FFF
3B4E1821
3AD60174
BBE9B43A
3A947234
3C138ECF
B95FECA1
BB19D8B4
BBC5A8FE
3B477AA1
BC3740DB
BA9A2AEE
3BAED230
BB93AC5D
3A83A852
BBFA0605
BC6B153D
3C8138D5
3BDE994F
3C10F379
B8A05883
BB521BF4
BBBAE8F0
BC2034C2
3BA1F83D
B900198C
3993C538
BB1BF185
3BA7BD39
3C4C587D
BBEFBF47
3A914158
BC52E626
3C222654
3B7057CD
3BBBC209
3ABB292D
B926D1C8
BB5347D5
BB180F60
3B8E5A04
36039A20
3A212333
BAE9E120
3AD0E49A
3B9E0FFD
BB5CEDE3
3A67F112
BBC797DE
3BE068C7
3BA63633
3B401D98
3B4A4EC1
BA35E948
3C682C20
BBA48A15
BC021DDF
BAA94EEF
BB3EC890
3A44E03B
3C5FB23C
3CC54C51
BA9E30AF
3B3658EC
BC33C329
3C3C4DBB
3B9A8761
BC37D30C
3C347519
3CF06527
BA067453
3B6A5F2B
BC6D0376
3C0A8158
3B9954FB
BBF3110F
3BD566DC
BC0ED110
3B0DFE45
3B6ED9B0
BBBD979D
BB65F52A
BADFBB51
3C1BB3F1
BBD904DD
3D028DDA
3CCD078F
3CBFCA03
3C39BE68
BCB7B3C7
3C901E96
3BC6F775
3B9AA57F
BCF084F4
BC6E56C0
BD0212EA
3A860CEB
3BF4690A
BA47798A
BA853152
3BE299A8
3CDD1E4F
3ABCC529
3C0251AA
BC7C75AD
3BB5650B
BB2BC251
BB04B74E
3C06AB11
BC0EDBEC
3BC04E97
BADB6BD3
BB6EF4C4
3CCC9286
3BF1ED8B
3AF2914A
3B934916
3B41AA71
BBA19D0C
3B39AB16
3C0CDF22
3B4B7852
B8047EA0
BB8A86B0
3B87ACA1
3C39C2BB
BC38A432
3BA60FEC
BC73E6FD
BC040932
3AF7D587
3A655F3E
BB49193F
BAF44FFA
3C9A26A8
BBB12009
BBA40707
BB43C826
BC038F9E
BB0EC7AB
3B869448
3C99906D
3AF34522
BB159090
BB23765F
3C92400C
3BA52EAC
3B9FFFC4
3B3F43CE
3A2DF7B6
BB8C0957
3A271250
3BC853C4
3A5C5127
3AC220C3
BB319A0C
3B76D1E4
3C1792ED
BC047972
3B4CFA13
BC1F80A2
3C1A6E32
3B49B189
3AD3C5C3
3B267D13
3BEFF50A
BAAE2EE3
B934EECC
3A9916AE
3A40C910
3A87155D
BAB8DCC2
3AECD051
3B80DF4B
BB6C4F52
3B9E556E
BBB87757
3C5536E6
3C0F3122
3BE58816
3BB1E41B
3CA79DE0
BB7B35A5
3BAF86A4
BC2BC5FA
BB498651
BB91B62A
3B273D40
3CE4AA62
BAA01E38
39AAFE8C
3C55EE7C
BC93CCFB
3BF8E6C8
38816FCF
BA8E05B2
3A9CA78D
BB80714E
BBE4796E
3C6348D3
3B99B773
3BA5A547
BA45E277
B98F8ABB
3BC635FA
3C297D7F
BC366AC6
BA6803AA
BC13D09A
BBC57CD2
BB046725
3A811818
BC63A973
3C868D9F
3C871A89
3C073C40
3C9DE2DA
BCECC0FA
BB6EE842
3B3D028B
3BA43611
BB268D2C
BC45D100
BCCB1CFA
3CB55E32
BB804B5B
3A86D93A
3C7164D5
BAFB8A27
3AD22C6D
BA449826
3B9C407F
3B10580A
3B54834A
3B4E053D
3B181985
3A64DCA1
3AB65BD7
3B79C58D
39B5B2CC
BACA3D07
3CBE2380
3B738F3F
BB714C2F
3B55AC20
3BAC4CE2
BA7711AB
3C37BA08
3C02EBB5
3B35E330
3B33A114
BB5D9B6E
3B419207
3C612C1B
BC33D4DA
B9A52942
BC43820C
3B2463CD
3C1D97E4
3C5111CA
BB823DCA
3C7A0889
BC194DC6
3B46A104
BC3C60EF
BC226BBE
BBFCDED5
3A52E8B0
3CD15E9D
BBDC176A
3B887750
3C1DFA03
BC0F2FEB
3C86C84F
3B3840B5
BA279393
3B483FAF
3BB85BA5
39FF6A00
3B91EE30
3B639285
3B0E2DAF
3B4EB0A1
BB3D018E
3AC6AB74
3C1D87DA
BC0DB39C
39CC5890
BBF10E80
3C119FEF
3A331A30
BACCB97D
3AF9E2ED
395F32FD
BB389FF9
3B908E3C
3B8E195D
3AA5EA56
3987C244
BB039623
B9BCC716
3BF62AE3
BBC54285
BB132AF4
BB9CC998
3C848C96
3B622662
3B2AF395
3BE6E6F6
3BD28C82
3BB2256E
3BC17605
BB3C5FD1
3B80CA50
B92CF024
39D2203A
3BA3AD0F
3BD99F38
BC023C8B
3B0B3388
BC27B5BA
3C3511D3
BC364E9C
BC8D5068
BB3A0B2C
3B7FCA1C
BBF3674D
3B88B760
3AC19F6B
3B2EA1DA
BC5ABD78
BB71A4C4
3B89F3B3
3B76B045
BBA5102F
3AB01D99
BB9C1214
BC44E883
3B768983
3C306943
BBEAFC1C
3C996885
3BC9C0BA
3BCBBE58
BC0FF0FB
BC96257A
3B7CB2D5
3BDBC370
3C978E15
BAB615F4
BB9DBE3D
BC4B1BDB
3C6293E6
3C2B2877
BBEB30EE
BBF1FA56
BBD26C07
3BD7D915
3BBE45B0
BC0EFF2C
3AE555BD
BB301591
BC73ADB0
382F491B
3C17285D
3BB22E63
BBCD2CA3
BB3BFF79
3B8CC431
3CABCC29
BAAFF591
BC14C232
3B2381E3
BA76347C
BC27DC57
3C27B6DA
3BB78C38
3B86C0CE
38558680
BBABC62D
3BE7D87D
3C77CE75
BC3CD401
BB019FB6
BC85561E
3BF5F8FC
3B8E95CC
3BAF425F
3BAC59AD
3B97376B
3B83FFEF
3AC7BFA4
BB448CC7
BA6A23C9
BB25EB69
3AA70ABF
BA948066
3B96A722
BBC8D694
BB279EA0
BBBBAFF9
3C75C5A2
BA1B6DBF
BBBBB561
3B03CCB4
38522AD1
BBB3A9F1
3BF03244
3B92AE7C
3B20F3EC
3AA95087
BB6FA1C3
3B6CC8E9
3C3F81C3
BC0C22F4
BB01D0C4
BC2419CD
3C04642F
BA990C92
BA9236ED
3910C326
BB2D187F
BBBF5DD6
3B85D6FB
3B7C117B
3AF42569
BA42E144
BAE6978A
3AB7CE1F
3BF15521
BBC5EE49
BB1BFA45
BBBFFB94
3C3B309D
BB0D20A1
BB75B8A1
3BBA5288
3C077946
3ACF6FF2
3B8ABF78
3AE60188
3B75176E
BA25A564
394ADA6A
3C15369B
3B8CF19B
BC2A5A04
3B875C4B
BC087ED7
3BDD4AE6
BB7EB4BD
3A371FB0
BBC93056
BC23022F
BCA83A50
BC05A81C
3B81334D
3C008A8F
BBBCB538
BB87505E
3C142689
3C863635
BC27C351
3B53A8AC
BC60CCE5
B928E04B
3C3A87CA
3C94C362
BC3BCFBB
3C3F9583
3B81E163
3C7054F0
BC1E4D40
BC0C6928
BA5B545C
3B72A177
3BFECD77
3CDF98CB
BC8F555B
BC04AFC3
3BE7B2BE
3C1A1BAA
BBEF0694
3BAD4C37
BB8F108E
BA992945
BBE56DC2
BB709DB8
3A6B49C7
3B0B5A71
BB2E33E8
B943CC59
3BB5E034
3C32A2BE
BC06610B
BB344245
BBD41A45
3CA34326
BBAE815F
BB691B3C
BAEE45BB
BBC235A2
BC502B37
3BECECD9
3BE1B263
3BCC19D4
BBBA0A85
BB9CBF42
3C204D11
3CAF046F
BC16DC60
BAE58266
BC9383CE
3BC1FF31
3B90CF6D
3B6F37D7
3B8810BE
3B7B9A27
BAD4AC8C
3B09D276
3B959692
39A1034C
BACB2C3B
B9C3F14A
3997BEAD
BB2FA382
BC59DCC3
3B6BE2F1
BA092417
3C66E590
BB8DC87D
BB6AA34F
BA0F4DA4
BB5D4415
BBEF8033
3BC9FD49
3B89CAF3
3B7907D8
BAD76AAE
BB5CF661
3BD65D47
3C650F9B
BBD9FE6B
BB2C1371
BC3A34A0
3BD79F7F
BC03940E
BBBF1A65
BAF19FD2
BB5FD720
BBC34058
B7FED6F6
3AF490FC
3B57F0EE
BAF7963F
BAEB1A09
3B37CB06
3BAFAA45
BB517F2F
BAC0D924
BBD29B55
3BF9CED5
BCAD7D03
BCAB5F9A
3B27222D
3B8FAA5A
3A706BF8
3B2F539D
BC47E38C
3BCD3FF6
BBCDEAFC
BABCA3D7
3C368867
BC505BFD
BAB2F610
BAC64280
BC52C3DD
3C2B5223
3B45B373
3C2224DD
BBC1746F
BC08BDE2
BC407142
BBCA8360
BA4C700C
3C21F416
BC38FF6A
BC021D04
3BD0B0D9
3C077DAE
BC1DDE2C
BAA75C9C
BC830561
BB8FF22E
3B896154
3C5CB414
BC2D8BB8
3C98F79E
3C937412
3B3F3BE1
3B4C6620
BC4E09C7
3BEB4409
3C55814F
3BA381CF
3BA83931
BCA26CEA
BC25227B
3CB48327
3BE3518F
3BB3B21D
3C263269
BB48ADD4
3A7637EC
3B1BB857
BB32537B
3B012E7B
3B73C81A
BC5854DC
BB37A0CB
3B197D76
3ACA53FA
3A0EE0FA
BB297C0C
BC462790
3C96F03E
BA156822
3B3AD28F
BC0AE75A
BC31F599
BC833FA8
BB5D418E
3BB7E328
3BFDB783
BC148E93
BBC8BF34
3C3C2CF6
3CC5A834
BC13F854
BA9E1B6A
BCA2978D
BB0B51FB
BCA18BB9
BCCDEAC7
3B810155
3B9A1231
3BDBD094
3BD0EC39
BC7D098E
3B80AD98
BBAFD6A1
3A972719
3A392CC6
BCBFF9AF
BADF0D8E
BB38C68B
BACDBF2D
3C54732C
BAEEFF94
3AD75251
BBA8CE5E
BBDBF22E
BC314C80
BB1EBFEE
3B997BD9
3BA39673
BBC17FC9
BB81F976
3BFA5899
3C9743FD
BBC1F2EB
BAA13D3F
BC644FE5
3BDA2993
3A88A90E
3B3301C5
BB57EE87
BB80168A
BBD5B1E9
BB453460
B9365EED
3B4EF811
BB177517
BB2CF37C
3BA598ED
3C188306
BB9CD3C6
BB242FF7
BBF49511
3C29F5DC
3C412B05
3BD39195
BBABBA7C
BB2DA4C5
38947AA8
BB4CEE34
BA6E69AC
3B8A8AAF
BC0A0148
BB246AF0
3C5DACE6
3C839343
BC27CD40
BA356730
BC63D181
3C0A32DD
3B6DC302
3C0AB335
BAA5481D
BBD6DB32
BB0D8F54
BBB499D0
BB9C411E
3C0ADCF0
BBAC1009
BB70A49E
3C42A32E
3BA1BDF5
BC3C22BA
3B17773D
BC3060F2
BBFC8071
BC12DD4F
BB186E37
3B2006D2
3C6A3B06
3AB74C6A
3C073F27
3A983EE2
BC95F347
3C890768
3C80A708
BB25FF3B
BB9FDCB3
BCA42C60
BC221B24
3C98AC9A
3B9CF215
3BCBC42C
3C6CB2C6
3B83464E
3989F1B2
3B8C23EB
BB9B962F
BBE3DDD3
39B44403
BB4B07EC
3B09CEDC
3C0F0A70
3AD03AA3
BC479E6A
3BCBCD7D
BB4B4406
3C93548E
3AF86F91
3B91FA20
BBF9D8C4
BC3EFDF5
BC7F3540
BB91A3CC
39584873
3C3764D6
BBAA0BD0
BBDEB6BC
3C45CE8B
3CAC073E
BC152944
BB3E5197
BC8844E4
3A4F59D8
3C7F74F7
BB8B9771
BBA4D35B
BB2F4105
3B73D920
3AF7BA2A
3AA3F81E
BAAE2234
BBBF7B74
B9932E40
3A52C3F8
3BD0DB2B
BC018FE5
B8417744
BAFAD7EF
3C47C275
3AA1094A
3B85576F
BBBB532C
BC0AB3F5
BC38B668
BB9707ED
B9FFD252
3BE381B2
BB826DC0
BBA07577
3C18D5F2
3C846D12
BBBCD88C
BB33CC7C
BC4F859E
3BBE81C1
3ABB9416
3B442C88
BB4BEB85
BBBC2144
BBC9F112
BB5B2079
BAD46B1D
3B3FB04F
BAC41BF7
BB01427E
3B8019DF
3C27E443
BB3D627B
BB2A1A91
BBB4DC47
3C3236C4
3B85254A
3C825FFB
BA9413F9
BB84113B
BB22C724
BBFA2FEA
BB263385
3BC88861
BBE5C357
BB0D85F6
3C5C1782
3C807860
BB9123CA
3B5DE165
BC3AF0EC
3B03D570
BC808F06
BC95CE11
3BF5D924
BC38D05C
BC047AD4
BB5D141B
BC3C1D7F
3BA17614
BB7B6C41
BBBB4034
3C3D0409
BB2B81EA
3B292387
3BCF14AF
BA8E3E01
BC2C67D4
BCADEFD9
BC6D7C76
3BB99F35
3C290C78
3C172CED
3C846724
3C5AAFE7
BC9AB91B
3B961E91
3C982D71
BB87AD58
BB6C9B29
BD029943
BCB50213
3B025DD6
3B824729
BB92ADA8
BBD60301
3BFA3D78
3AEF1FDC
3BDC0D49
BAE239B8
BBC60C33
3A1AE61E
3C303823
39B5765C
3C4C3200
3BF1E984
3C19EAC8
3C170963
3BE54ABF
3C7C14ED
3A704DD0
3BAFB76F
BC0529F5
BC5CA4D7
BC720EFF
BB4E0607
BB9719EE
3C11EDBB
BB98B8A6
BBE70D14
3C2FD651
3CB8A160
BBCE826B
BAC5B11E
BC4760DE
398CC38C
3B58D6F1
3BB68DE9
3A9A822D
BB886522
BB54798D
BBC8E2A6
BBA4CBFB
BA5DCCEC
3A8CD877
BA56316E
BAC429D2
3BD13F83
BB14A28D
B8D8E06D
3A3CAC80
3C39204F
3A9DD7E5
3B9D7B53
BBBE2EA7
BC276CBD
BC259387
BB7684AB
BB468FC2
3BCC2379
BB288E45
BB9B8B03
3C112860
3C8896BE
BBA60404
BB090736
BC191CD5
3B79BD25
BB17B3DC
39D79B3E
BB6CE40D
BBD1551B
BBC979A7
BB28AB90
BB4F4CDD
3B2BE993
BB1D6536
BACC478B
3B7F5B24
3C120B2E
BACCC513
BAF87351
BBA8EA96
3C48E619
BC2DAE87
B9DAA465
3B5C2A39
BB50ED87
BC217EEF
BBBE265B
BBF796E2
3BD9D2E5
BB274867
BAADF7E1
3C4839BC
3B8D2EA3
B9B1EDA0
3BBCE004
BC5ABC57
3C624D92
BCBD1E71
BCA089E2
3C023E0B
BC1F98F3
BC12B5CC
BAA611BB
BCB6CA49
3C08EC73
BC0A28C6
BB3DC357
3C60A778
BC08E08B
BA8D005A
3B7644DB
BC08904D
BBFDD904
BC3F0B17
BBDF0ABF
3B1343CC
3C3F3326
3A00091A
3CBE2607
3C46C3F8
BCB6129B
3B16B25B
3CE53483
BC5CE43E
BBE06C2C
BCF5E839
BCCB1C6C
3A3F19EE
3C1C5EB9
BC821038
BC833EBF
3BABB5E1
3AE06EA0
BB1E1521
39C36F16
BCA0FADC
3B73BF8A
BB325515
3A6B279C
3C778576
BC37FEA8
3AB69D07
3B83268E
3A4971DC
3C75B073
BA73F3B2
3BEA9780
BBAD5534
BC87B6E1
BC28CD6C
BADF2851
BA312E2A
3BEFB401
BC06665A
BBD1A8B6
3C50EE92
3CCA4BE3
BBDE3E16
39841FA4
BC19EED2
3B020978
BBCCC00A
BB03685A
BB88CDC1
3A666247
BB6E2DE0
3AD039F9
BBBB656F
BAF0CE4A
3AA2B667
B9CD7E83
BA8E4DD6
BA6F500B
BAD2A8E8
BA6E6FCD
BC3F6A17
3C20E96D
BA9014C5
3B878096
BB924AD2
BC2ED57B
BC0AB126
BB39DBBC
BB34B18A
3BB09AEA
BB9FF313
BB8CEA59
3C13BB3B
3C8646E4
BB8D07FA
BA46B215
BBFD89CE
3BCFC660
39488758
3B96054F
BAFD6889
BBB39B5B
BB9A78F4
BA2BE647
BAC77F13
3B0E34BC
BB553EE0
BAD32912
3BB1D296
3C3BBDBF
BB155756
B9CDA836
BB887D8D
3C372660
BC20D449
BAB46EF7
3B94F974
BB069A10
BBC363F0
BC18B87B
BC1160DC
3C18CAAC
B9C3BFAF
BB0416B7
3C63E675
3AD8E80D
398E3DB4
3C12D1A8
BAC4B16C
3C600091
3B93926C
3BB585CB
BBA1F674
BC20E812
BBE5DEEA
BA52F214
BA88AD1B
3B9BAD1C
BB3EB458
BB540619
3C0E4826
3C90CFBF
3973A484
3B22FA78
BBAE8176
BCA60586
BC060F79
BC55FE31
3BCB4962
3C60DC90
BBB6832A
3D0BF038
3CE5CCC6
BCE836E9
BC9A53C1
3D1465CD
BC3FD59C
BCA7590F
BD0A374A
BD0EFB21
BC75E43F
3BA353E8
3C629BF9
3C6EA6DA
3B61A255
39EBFC44
3B2890B2
BC623FFD
382794D4
397F2C7F
3BCDF4A3
3B8B7062
3BFC7259
3C8B714D
3ABA1B70
3B844AFE
3C045CBF
3C9B4A3E
BB09B6C8
3C02AB45
BB8BA1C8
BC877867
BC344298
3B0256F8
BAED15A6
3BF7A178
BC2D6863
BBD0ABAF
3C623BC1
3CB9D3CA
BBE518D7
3B484C58
BC23740D
3A43F065
BC2BE076
BC4081DB
3591B480
BA12C6DD
BB6F31FA
B9B830DF
BB0FB879
3AAD5AE1
BAA38DDA
B8AD1634
BABA0254
BC2BB0E1
BA2B2AE1
3B4FD2BE
BB7AEA41
3C52C9E6
BA8B89F8
3BDEDF5C
BB48B935
BC2B7BCE
BBF3796C
BA0FA035
BAE7244C
3B9FECFA
BBDF34B3
BB87470C
3C1EBD7D
3C8E0005
BB9A33FA
3AC99A49
BBDADFED
3C0270B5
38C81BEA
3BABC2A2
BB1508FF
BBA2CD85
BB937E71
39AF0970
BB02484D
3A935673
BB434AA3
BAD49018
3BA5A104
3C22AA51
BB6F08AD
34F6DA00
BBBE9626
3C81B5DD
3AC562F4
3C289F9A
39FC17D9
BAEE7E75
BB1E3DC8
BBC7508A
BB091EC6
3BF3EAC3
39C783FD
BB3D824E
3C8CC517
3C5D56C4
BA2CDA6D
3C10814E
BBA219F0
3C4C2FA9
3B971517
3BEED4E6
BB197466
BC290F2F
BB90DD4C
BBC8CFB6
B98E284A
3B6439A1
BC27947D
BB69C279
3C27746E
3C97FB51
BC0505B9
3A7A264B
BC3EECE6
BC910B39
BC6A80EF
BCAA2992
3B33C4B8
3C8D0FA0
BBCD1E35
3D58E9E7
3D1458D5
BCD03417
BAC40A5E
3D03B4CA
BC8536C0
BC7F1FC7
BD0060B7
BD008672
3B9F42CC
3A8845D9
BAB99AE8
3AAC2669
3C029BA3
3B7899EF
BB05C5A9
BBB3E32D
BBDC3C97
BA813CBE
BA8CD6B9
3BB00701
3BCEC713
BA371B9A
BB803E30
B8E83B11
BB1C79CC
3CA69EFB
3ABF7930
3C0E2F62
BB820E14
BC7D2FA3
BC0BCBA5
3A26A3B7
BB22AD86
3BD112DD
BC6AB93E
BBD4E8F4
3C761ABC
3CB42B01
BC062CAF
3A5C2668
BC5B2D53
B8C5A79D
39ADC619
BA4079C4
38F85527
38CFE10B
392D78C2
3A2257D8
39EDCAFF
B943DB8A
3A3FF053
BA4B30D3
38292DCD
39CC63C2
3AE7B366
3A4ABF34
BA4FAFDD
3C6FB942
39BF30DA
3BE0E823
BB5B3F71
BC1BF663
BBD6BC0C
B9D1803F
BB283C53
3B868D29
BC012F1B
BB88B231
3C2B81B2
3C8A8736
BBB427CD
3A540A85
BC17EA96
3C0236D5
3B23B784
3B6579AC
BAC10997
BBB41283
BB6EA8A7
3A0D7D69
BB0F0EB7
3AA893D7
BC213794
BADA415B
3BB1774E
3C1E1DFA
BB8E6681
BA6599F1
BBC6D24B
3C745F36
3B250CE7
3C1BFEFF
3BA87F9E
BA92DDAD
BB98CF73
BBBF5AE2
BBC443DB
3BB3B4C5
BBFF793C
BACCFF2F
3C8DA3FB
3C1B8E97
BB427083
3BD3BA8E
BBB3C691
3CCD647D
3BA004E2
3BAE3E8D
B9479CBA
BC5DF955
BC296C35
3BAF7E3A
3ABC8E79
3C0780A8
BC834784
BBA364FF
3BCDF4BC
3C5510E7
BBE33C31
3A4C6637
BC3E007A
BC4F125A
BC9A7779
BC70348E
BBBD6A5C
3C655001
3B0C4D74
3D5317F7
3D279388
BCC15072
3BC2F49C
3CFE3ECE
BC6A5ED5
3B4A59C8
BCBAD6A9
BCF8CD6E
3C0CBDA6
3C4A97D3
3BB0A65F
3B83E4CD
BB24E2CC
3B877E68
BC082E13
3C78F6B1
3B1BA75B
3A87F111
BB91D49D
3B61D9E6
397F406F
3A5663EC
BB389613
3B04C679
BC6934C3
3CAF2901
3B857161
3BE4EA20
BAE95CD6
BC6C9A79
BC01CDAD
3A8C6795
BB192EBD
3BD8601F
BC986698
BBD54BCD
3C82D5BB
3CAC5BDE
BC1A5D2F
B897F2F0
BC626324
B9B0956B
B8D68F10
B880F65E
3889783F
385F1889
B728F369
37AEFED0
B8383EE2
37A4DE4B
390C3E90
36B59D50
39702133
B825482F
3A669043
B80B1CDD
B7383E89
3C759607
3B44A8FE
3BC538BB
BADE02A1
BC2A05AD
BBA9C6D7
B99BB230
BB32F611
3B9213D2
BC5A8197
BB8B5A14
3C41694A
3C870F34
BBE3195E
37F133D8
BC16A989
3C0DC7D8
3B354E6D
3B680C0B
BA82D408
BBBE18D3
BB5EBA9C
3ABDEC85
BB09D27C
3A9B469C
BC0B57CD
BACC2B0D
3BB53CBE
3C1B36C2
BB6F7866
BAF0963C
BBAAC6C3
3C90EDE6
3BEFE446
3C1DB572
3B6C54F2
BAFA53F4
BBFCFF7B
B81AAE5C
BB62A85F
3BD4B048
BC0A7DB7
BAD98999
3C8A2EA6
3C175D16
BB6F89A7
3BAB7C03
BBB00FFD
3C31FE38
3B3F3E1A
3B8FB4FC
B9283EAC
BC13F2CA
BB5E79A4
39C6D45D
36048B00
3BA3DBAE
BC7023CA
BB8DCD53
3C6D64CB
3C8AE849
BBCB6F0C
3A262060
BC4550DE
BC539B0E
BCB07678
3B1CEA6E
BC726E9A
3CABED94
3C96847A
3CF7EFE2
3CEA0AA5
BCD720D1
3CCA47AA
3CE4B7BA
BC86EE90
3C244813
BC9E0CF2
BD12AB66
3CC199AC
3A2D0BEE
3AA635B6
39EC3A86
3A13C152
3BC07F1A
3ABAC85B
3B07C889
3BAEF18A
B9C5C2A5
BC1602D1
3A4986B4
3C0D6C1E
BAC92A98
BAA30C0E
3BD836B0
BC0AF503
3CAA0F85
3B23B64B
3BA88C32
B9E4A967
BC91692A
BBD62C91
3AA7B9BD
BB31C1BF
3BC678C2
BC8C2474
BBC9170D
3C852641
3CB16FBF
BC1A2516
39179F25
BC1B2630
B94BD4FD
39122B21
B9BEB538
B9D2352E
B85E0096
B989654E
36EE9C19
38E7E4E0
B88376EE
382B03C1
2CFB4313
38B3CDD1
B9224811
B9C4DAAB
B98789E9
B97EEB9E
3C7DBDF8
3B2F1F4A
3BA4787A
BA1B8B42
BC33C244
BB98B8CA
39C36473
BB408D66
3B8A65A1
BC3147D4
BB8AEDE4
3C40A62E
3C811285
BBDBFD89
BA5CDB52
BBFC9DEA
3A3458A4
BAD84817
BB954928
3B8F0BAA
BC155F57
BC732C3B
BACA3B87
BAA27559
3BA82652
BCB299AF
39EF35C2
3B8F1D02
BA815BC7
3A7B7C19
3C235260
BC4C7313
3BC131C2
3C0AC730
3C382820
3C01D436
BBD34B50
BB0C38F1
BBD53B39
3A1091C1
3C19CF02
BCAE4DB4
398F4289
3CC48E93
3C51910B
3BFECC24
3CDB6A6C
BC964F4D
BD4C98EB
BCC9E415
BC96F114
3C3C1AAB
3C1142A7
BCA89EA9
BC9C120C
3CB8AD2B
3B37C2E0
BCF7DC0A
3D02853D
BCBAC72C
3CCA0605
BCEEB6C4
3BF62960
3B928592
BC1AD3C4
BC8B4524
3CA70CF1
BC95B1A3
3C956195
3CB815E0
3CACB044
3C9B7757
BCD47EE6
3CFDE7E5
3CC5857B
BCC5FD60
3D071B65
BC949B93
BCF7A522
3D00A995
BCA0CAEA
BC9FDDDB
3BEB1BF9
BB81E749
BC3F9C05
3BE5CBA2
BCFD6677
BB941775
BABE31BA
3AB32BA0
3C4AA218
BC25F01E
3CE4E972
BC06BD1B
BB0E5F08
3C806EEF
BCB7748E
BC73B6CE
BD10517A
3CF42743
BCC87B17
BD22B1BC
3B4E8841
3C9340D2
3C0E9368
BCFE0E1C
3C1DE491
BB875211
BCE89531
BC504541
3B8BBD15
BC99C196
BB383913
3C2361D8
3BD72F9A
3C267D28
BB705679
BB61310E
3ACB4D3E
3C4CE546
39154794
BCDBFB1E
3AD78DE3
3C183200
3AC36AD2
3C144BD5
3CB5A14D
BC9C973C
BBC6AFB7
BC08723E
BC910AE8
3C8530D6
BBF5AAC8
BCCD08D4
3B42C29F
B95172D8
3BFF8B9A
BD06C380
3B6326A6
3A9B9DC9
BC226B3D
BBE5B3CA
3B8FF071
BC969C2E
BC8FB267
BBFD80D4
BC8AD753
3C711ED8
BBB252B7
BCAAC5E6
BA9E107D
3BD7745B
3B45B6EF
BC95E34B
3C7178EB
BC6C2A9C
BC7AF8DB
BB907FA3
3A4179F9
BBF00808
BC4A4A79
BB5794E9
BC0516F0
3C69508C
BB8CF6D1
BAF9839C
BBBCB6A4
BB6EF1CC
3C0FB644
BBC3462E
3B50B200
B9E06E79
BB028E2C
BA2259A0
BBA7F038
3BABCD75
BBDE7519
3B578AAC
BCB1FBCE
3C9A1042
B7E2E904
BBF7BD02
BB51FFAF
3CD4799A
BBF4C624
BC4282E0
3C6E9BFA
BC8C84CD
BCADC220
3C68483C
3766211C
BC66F342
BA801A4A
3CCC8DDC
BCAF506D
3CFE3A70
3BAA7C55
BCE21FA4
3D8A9B20
3D9B3D64
BBBDD598
BDACDD67
3CC4A214
3BC3C703
BCE1A8A0
3B8CC875
3D245D8A
BD83EC2D
3BF15B53
3BBAB5A7
BBCC3F7D
3C7F5E3E
3C40A258
BBCB4DDF
3BBA7CE7
3C4D0C66
BA5AD087
BA92A6FA
3C04863C
3BC4C6A5
BB80BD40
3BA04A02
BA7B5F98
BB45506A
BC35A00F
BC8E5D12
BBC829DC
3C3E39ED
3C0DBC79
BCD7D515
BB2A0522
3CD139D1
BAF2BE03
3B0E449A
3C8BEDE1
BCE0E357
BB1FD4CA
BC026EA3
BBFC0715
3BD8FDBD
BC3038A1
3B98921F
BC38F789
3C849F56
BAB06CDE
BB1E4866
3BD4FFC7
3AE03FEC
3C008DC4
BB85A3A4
3B962BF4
BB138525
BC44AC90
3B93A846
3B0AB2FC
3A29CE4D
BC6DAD50
BC31F627
BC8036E2
3C1D678B
3BCD9536
BCEA0BCA
B91EA572
3B91A38F
3B0F00BE
BA9F5B9E
3C377B4E
BC8B72FA
BBE3D849
BBC27203
BB9139E1
3C1217C6
BBAEC29C
BB7ECEE7
BB828225
3BB4B2A8
3BCE73BC
BBFBA6D7
BC49E2A0
3C37689F
BBA186C9
BAF1387A
BAA5F02A
BC929960
BC9FD60D
3B7F6B91
BA2F6669
BAC980E6
3BE95005
BBAB5864
3BE00463
BAB60C4F
3B8BC26A
BBD41AFF
BC77E477
BAF26812
BBA23491
3C18F64F
B8516DCC
BC1A265C
3BA5286A
BBC7D864
BC152501
3BCD0CD4
3BDC9C43
3C41B8A9
3C5D7355
BB990FB3
3C7570C1
BB32C7A1
BC34D121
3C058224
BBC0B444
3950123D
BB8641A9
BC5974D3
BCF58282
3C0E7870
3C035990
BB4CBA57
BB8688DC
3D1957DB
BBC6C1EE
3CFEA108
BBBDB11B
BCE2275F
3D6C97EB
3D598284
3BC3F282
BD6DA216
3C09646B
BBDB62FE
BD06E4C8
3BE86B13
3CE7A4FB
BD0728FA
3C6D7D8C
3BF18557
3C61BBE7
BC1B3FE1
3C19438A
3BF3C9AE
3AA028E9
3B0D689F
BB6375B6
BBB92DAC
3A2C9A18
3C18CE79
3B06784B
3B027679
3C1B7CCB
BBF1A8AA
BC00CC88
BBDC027F
BAF333CE
3C004D84
3C0D470A
BB5C7EDF
BC4D91E7
3C360B5D
BB22A13E
BC31DFAC
3C9C54A7
BCC82476
BC4186E5
3C1EB5CE
3BE0D53A
3C40420C
3AD2A095
BB36D70E
BAEFFB81
3B0BFA78
3B38DB66
BCB88E8D
38597150
3C151B12
BB9035EF
BBA91B53
3AF352C4
BC91B516
BC910496
BBCF4B01
BB2F1C4B
BB851BE5
BBAAFCF9
BC166DFA
BA43AD7C
3BC05AF6
B9129B65
BC11266B
BC532451
3A6820ED
BB8865F8
3B4674F0
3C9656F8
BC88B7F2
BC0B25DC
3BEF1569
3A95C828
3C46018F
BB2B37DA
BBE21DC9
BB703F16
3B52840A
3BE4D280
BB48A93F
BC046374
39A6AC98
BA895780
BAA9B586
B88B1F52
BC1F3C71
BC8E715A
3BD58D4A
BA7600BB
BB238378
3BFB2CFD
BC07C71D
BABB13C9
3B4A61FF
BA8691F3
3AC721E9
BBE15793
BBD75269
3AEF19FB
3ABED7E9
3B4EEAAF
3B054CB6
3B0AAB98
39A214DC
BA2F7649
3B33B3B9
BC2512CB
BB92CC06
3B8126FB
3B3DB505
3BE04F2E
3B4B9760
BC0FE013
3BB36B10
BB923016
3BDD5689
3B1BACC8
BCC49839
BBFAFBA1
BC067429
3B7482AE
3C26D062
BCFEDA42
3C93A7D6
BC0498F8
3CFB6E4B
3C25C4AB
BD2BF85E
3D25E7D8
3D1B03A6
3BD5E0F6
BC657CC8
3BB0E0C0
BCE7514E
BD50BD2C
3CF82139
3C98B88D
3C41A2DE
3C55DF82
BA9323D9
3B52FE2B
3B0E9394
3B798070
3B4140D8
3B2B7C88
B918EEB8
3AE2D6FA
398D6210
3AEF71C6
3BC18FBF
BA86B5E0
BC165C03
BB18E24D
3A4C9D04
BBDC09D8
BBF080A5
3A9F1055
3B2246EC
3CA813B2
3BA6D301
BC5B4EED
3C915148
BB9E8BD2
BB9964EA
3C08AEAB
BC8CC01B
BC9CC6B5
3AF0162D
B9F61056
3C5125D8
B898AB38
BC23EBDC
BC04AC06
3BA1A87E
B8A06710
BBEE5ACF
3B360662
39FBF220
3B3B6952
BB7DE34A
3975500A
BB858375
BC3AFC25
BB1F609E
39816A2E
3A102C60
BAF91188
BC158DD1
3AC524E2
3AC76CE5
3B2571CF
3AA9E31F
BC3ECC22
BA6E526E
BB248126
BB6B8BA7
3AD56C31
BC35DE4B
BC000191
3BB93BD3
BA45139C
3BF964DF
BC29F24C
BB343233
BBB04D42
3AB94186
3C066FD2
3B9BA825
BC04AE22
3BDB12DC
BBA337D9
BA0AE869
3AA3D7A2
BC53334D
BC995514
3A773008
39997A2C
3B7AB050
BB93A9E2
BBDE63DC
39EC4163
39A09D72
3C047793
3BEFF52B
BC64D3F4
BBE6808D
BB1A6D12
3ABE04E8
3B8B1470
3B618298
BA6560D4
BBE16025
BBC74177
BA1615F8
BC0F5389
3C794CC4
3C8ED981
BC805F5F
BA1D1FF0
3C23082D
BB3E757C
3C734840
BC6A545A
3B920B4A
3B05AF83
BC974E50
B94CA71A
BBB85311
BBC4F7C8
3C4EA763
BC8CD75C
3BFE29BE
BD0B8D52
3C8FB912
3C2ABE95
BD4E35A8
3D17B5BB
3D2FCDAD
3C00A606
BC813861
3B91FCF0
BCA6BBFD
BD425155
3CBF6A9D
3CA74E7C
BBFD5D00
BC0CDA8A
3C803CA7
3C5F76B0
39E28478
BB067125
3B883F86
3BF4D1A2
BB28AA71
BB530A70
3B3061B9
3AF0B3A9
BBF5A81F
3C0BCD9C
BAD98D04
3BABA40F
3B89172B
BB0A432D
3BFAFD67
3BA7FA42
BC142E6C
3C3AFC9A
3CA16D29
BC0A895A
3C4AB59D
BC4E91DF
3B83DA54
3B3A02FF
BC94C5A1
BB838BAF
3B128254
BAA03FBC
3C7B1DB5
BC5F04BA
BC06C67A
BC2ADC3F
3A0280F6
3C07342E
BB96FE7B
BBA5A96D
BB675D9C
BA22C683
BB88EAEE
BA5DC3EA
BB1C3BA3
BCA88209
BB9840EE
BBB6C618
B9FBA253
BBC09D96
3A5BBD61
3A7B03B1
BB027590
3BEB9E42
3C4F5CEE
BC08A7E6
3BFA6F07
BBEEDB93
3A09CDD1
3A51896F
BC66F284
BC89BE4F
3A4B49D8
3A22FDBE
3B7549EE
BAD198B2
3C0AEE1B
3BBE5DF7
BBF84194
3B1F7474
3C22E49F
BAE1EF4F
3C8D76AF
BC00FB54
3A264C42
3BA8C8E5
BC289BE7
39AA871B
BAC41CA3
BB04251A
3B479110
3BFF901B
3C2656FF
3CA75A18
BA1E32BA
3B8D92EA
3C9E3110
BBA5C065
BAE3549D
BBEA1184
3BEE3D3A
3B44821A
3B26124C
3C96D4E0
BA68F9BE
BB0B6BE3
3C1531D4
3BF4FBE3
3C5D81EA
3C1245DA
BC9528DA
3ACF9A81
3C2BC529
3BE6B05E
3C90ED57
BB7C3725
BA24459E
BABE82C7
BA37B4BA
3B8D4301
3A15A024
3AD895F0
3BFF3A2E
BCC01DAF
3B82BA1D
BD0D5C70
3C7BB06A
3C414936
BD45FE39
3C89A564
3D87494A
3C307B25
BCE47835
38EFEACD
BCA302F9
BD36DCA2
3C759CE7
3C3080EA
BC67184E
3C521577
3B8E2294
3BECD0B6
BBD02C36
3B753877
BA1A0732
3C21CDA3
3BDB12CB
BB5F9944
3A99957B
BA176DB2
3BC78E6C
3BB6A234
BB90F377
BB238037
3BD122FC
3A90E06D
3C90A7E6
3C3D2A43
BCAC46B4
3BEE63FA
3C80CCB8
BB6152E0
3D1CA6EA
BC10E8AD
39FFE9BB
3B7AC04B
BCA15775
BC0346DB
3A1965C1
3AF2422C
3A2133DA
BBBF985B
3C1936C9
3C34CB28
3BA2E2D0
3B3C2275
3B3228C5
BB2DECCA
BABC8423
BAFDBBCE
3BCAB34E
BAE8D4CC
BB67A906
3B71B8E9
3B4F1D8A
BA848EF5
3C1CC652
3ABD4534
3C464A97
3C1C8BB3
BC630600
3B2396CA
3C733DC2
BB8BE356
3CBC250E
BC00FDCF
3B52CDE0
3B8C84A4
BC58DFC8
BA9FBEA4
BB5BC0F9
B9FE5BC2
3BF29674
3B8E1E17
BB08D599
BC16A279
BC18F35F
39811E9A
3C2244CA
3A508229
3C2CBA8A
BA53F233
BA75BD91
39B90015
BB5D427C
BC5C8A31
3AC330F3
3B66E337
BB5322FB
3C90A026
3BD0CA4F
3C145B4F
BBA71D06
3B19E23A
3C9D1AB1
3A1523F6
BA8A586D
BADB5E4D
3C151CDE
3B8AEE11
3C5963E2
3C12FC02
3A1E14A5
3A51758E
3A9F703F
BC1D2D53
BC9947F3
BC2B209C
3B4F3773
BB020384
3C6B8275
BBB1DDC8
BC2FA838
3BBF518A
3BE9F76E
BBB82650
3B1C033B
BC8DBC9E
BB7386BD
3C0F66AD
BC1393B2
BC889759
3C48A989
BC8DB216
3C5F6C5D
3C3FF251
BD03CD6B
3CA63BA8
3D451F0C
3B8BF04A
BD117437
3A0E4B35
BCE3FF36
BD0050C5
3C889CDF
3B8246DD
BC0E1E90
BA01C6C3
BCAD58E9
BBF01A0B
3B9E959A
3AAFFF04
3B9DBE06
BC0A6016
BC6FECE3
3C1F38D1
3BF230F2
BB63E25A
3C1E4FD0
BBBFFCA1
3A663F48
3BD492F3
BC007ECC
3A7429E1
BC1DDAA9
BC2B49B4
BC638D9F
BB6CA68E
3C63705A
BB0DF8A6
3C1FB5C0
BA9CCF88
3AE4F242
3AA54397
BC3D95CE
BBCC3355
BBD9CCA9
3BE05D8A
3BC3A5D4
3B257C07
3BA8B24E
3BAD1BE4
399A2061
3BD4D196
3BCC987C
3B8F8EA7
3B8C0EB9
BB2347D4
3B084336
3A07CA8C
BA4DC165
BC2B7BE8
3BB3A502
3AD6523B
BABD4EA4
3BADA678
BBCA95F2
BC1B5FFF
BC47AC7E
BB6A3605
3C408C27
BB2D5096
3C239E2F
B9F8B7BE
3AC926AE
3A1A57D5
BB6EEFA8
BC21AEDE
BB1A512F
3BB52626
3A7634BC
3B1FB8C7
BC54E18A
BC5412ED
BB1EF3A7
BAA1F298
3B648214
BAD74E60
3B07BD1F
3A8D010B
B998432E
3A2E777A
BB8D0702
BC7F1C26
BB6F6CCD
3B8B604C
BBE9CF8B
3C6DD898
BC2749DC
3AC66B26
BBA98108
BAFE1012
3C84A41F
BB8C5895
BC38363C
3B7100C9
3C3BE5FD
3A2E6864
3C662B05
3C357CC5
BBEAAFD6
3B5811F1
BB912034
3B9A20CE
BC839B8F
BBB29FD1
3BACC1E7
BB877393
BC51DECB
BC63AD7E
3AACA214
B8F51C90
BA701A01
3B85E214
BC3598CF
BC909BCC
3AADB9D0
BB9D773A
BBF29DDF
BC60FB00
3C7C03B1
BCD94EC0
3C6D1973
3CB8DDB9
BCC7D8D8
3CD0CF3E
3D4B5A53
BBD432CC
BD03952A
3C374BA3
BCEE1958
BD454060
3C95D449
3A7C55BB
3B61FF26
3C380F2D
BB86B572
3BC3025C
3AA0C96D
3ABF0DFE
BC6B780F
BC03AAAF
3BB365DC
B775E279
BBADCCFA
B99DCE28
BB5F3A44
3B98CCC7
3AEDEBEE
BB370A3F
BBABD948
3A054176
BC7D6BBD
BC29F6B6
B97F621D
BB801657
BA7F6F5A
BC21A93A
3A2726B9
BA489322
3B79AA11
3BD18BC4
BC621C9C
BCBF5EBF
BB85FCF6
3B866C66
BBBDA082
3B363C09
BA01439E
BB52C1D4
BAD9CF3D
BB466565
3BE2A6C8
3B9BAF87
BBA441E4
3B602517
3BE0343B
39C40E67
3B2CF85E
3B1FEFBA
BBD930D5
BA423A3F
BAFC660E
3B919273
BC5EDFB3
BC2309E8
BB071F47
BB6F85D0
3B937A1F
BBB245F4
3B9E5D37
398E6166
3AB05354
3B58CA5E
BBBFB4F8
BC3F5E74
BBADEED2
3B8EE9D2
BB2BD8CA
3B59BCB6
BC824747
BC2BC563
3AF134D5
BB3A5A1D
BB22A89D
BBB6C083
BB1D8F28
BA28D6AB
BAB098E0
3AB2A681
BC17BE91
BC89B084
39F0E66C
BA268C9E
BAF7C5D5
3C8A6711
BC87AA19
3A36882C
3B34AC71
BBB3352C
BADC8704
BC532719
BC20D9A5
3B6D9ED5
3BD802FE
BB09FCAD
3BB8D210
3B2B34F0
BB8418B6
3AE8B111
BBBC9CA1
BB9EF5F6
BC9E050C
BBC847C1
BB0A94CD
3BCB6218
3C02901F
BB42E9CE
3B9CDC91
BBAA6F14
3B77A577
3B8FE1C8
BBBB214E
BBF41D40
BACD09B6
BBD574FD
3C57BA89
BC1DD87D
3C94683A
BCA76154
3C2C4911
3CA60286
BB8A13AE
3CA4E8BA
3CE137C1
BB38B36D
BC5F511D
3C4EC5D1
BCC2F558
BD1ADA7D
3C91D764
3BDFCF59
3C30988E
3BBDF39B
3B1C2ED3
3C09B93C
3B350938
3C06AFA6
3BCD01A8
3B14C425
3B100E7A
BB2015AF
3BE1E495
3B2DFE31
3AF68994
3BAF9947
395F3F8A
BB45BD0E
3BCDE6D1
BB0FA3D3
BCAAF889
BC26E815
3A9FCDE6
BB832892
3A80F94A
BB92081C
3A31BD88
BBB157F3
BAE4567D
3C2FD840
BC4AE035
BCDD900C
BAED2C58
BB804AFA
3B4C5E2F
3C1C1D55
BC8C9E91
BC7E1103
3BFCAC85
BA5BA1F6
BBB5E26F
BBC60B91
BC7626A6
3B9BB45A
3B8F2966
BB9052F3
BBFF09F3
BC6EBE34
3AEE259B
3A1F17F3
BAFE64A0
3B47AA72
BC91EDFE
BC10C268
386783B6
BA8EE795
3ACF0EBD
BBBE0863
BA69CF60
BAEED30D
3A82BA82
3B8ECF59
BC06883A
BC89107A
BAF7B4A0
BB285D19
B9E56FA6
BB8C03B0
BC376ECC
BBCFF062
BAF29941
3B320D2D
3B8BD1FB
BA999324
3BDA28D9
BB5E0EC1
BABA1983
3B9060ED
BB880AAE
BC469627
BAC58D6D
BB368839
3B5CE9CB
3BF12C46
BC50EFE6
3A80A099
B9F55115
3B0051CE
BACB0CA2
BBB427AC
3B035B05
BA9EF3B1
3B760FC4
3B21184C
3BB16EA7
B98A0950
BAD4DE84
BB138B33
3AC751D8
3AC1A89C
3B34CF7B
3C6A1D6B
BC0EC26F
B9A24A08
3C10CFC6
3B645F12
3C3DEABC
BBA0AE06
3B93AEA8
3C4A76F1
BB067CD6
3C590A35
BBCCE74E
39B6C222
3B97EA32
39D8E510
3C7174EF
BC063011
3B920E2E
3BB0E841
BC3D68A4
3B91E25F
3CB1AFD4
3B44686C
BC24F72F
3BF43784
BCB4D150
BCCD89ED
3CB350A8
3C11D01C
3A1AD5FD
3BE92FAC
3BD4D964
3C0C4E63
3929BB2D
3B0DD9BE
BAFBEBD1
3A374ADF
3B87DC6A
3AA01366
3B878A95
3B9958B7
3A81DAA6
3C7687F8
BAC686A1
3B1A2D6C
3AB3A17F
BC008716
BBFF3311
3B9CE30A
BC116089
382BE1CC
3C50AC69
3A2EE6F9
3CA239C8
BC084291
BA28D4A9
3C820792
BB79E539
BB2509FF
BBF6771B
BBB296D0
3C0F537B
3A7F2D1D
BC80A645
BC8CDDBE
3B575AFE
BB9B5ABE
BC43524E
BA951672
BA9704B5
3A96E495
3B2F8A3A
BA15BA86
BBBF5C3C
BC724F12
3B902275
B985B98A
3AB8685A
BBCA394E
BC2596E1
BABE1969
BB98D6DD
3B63D250
3C1CE222
B9811D5B
3C0BD598
BBAF0E43
BA87DC85
3C20F8DE
BB3F0A91
BBDC4836
BB98CC5F
BB3E504A
3BD44F88
3A829126
BAB7362A
B8EB2454
BB2C970F
3B8E9894
3B4C20E6
3B5F8294
3C0CB910
BB844ED1
39F8FFE4
3BE7B2CA
BAB275CE
BAE9D46B
BB047C21
B9F6DB27
B98AB144
3C0BE739
BB0A741A
3BE79B52
BB081E56
3B88B9EB
3B872509
BA4731D6
3B686D0D
3A992B68
3A5B1A76
3BABF3DA
3C45AD99
3C37769A
BBBA80E4
39B2C041
BB1651A0
3C31D640
BB52FF70
BBBEDC9B
BB8A6384
3B6DB06E
BBE9A8A3
3BFA5D87
3C202F45
BC14258A
BC396B7D
3C6968DB
3A1EC72D
3AC1C050
BAAF8922
B881D542
BBA13E05
BB92C2C6
3C8888BC
BBE91C72
3C017017
3C0BBD95
BCC80A97
BC1778D4
3CC2177B
3B80DABE
3B262D15
3AACE817
BD00D6C8
BCC89F4D
3CDA846C
3C3A8D23
3A817FA6
3C2E9187
BB4047D8
BB9EE28A
B9D903E2
3B3A176D
BC05B3E5
3C07ECA6
3BBC3A13
BAB31A0F
BB4D2A19
3BB3119B
B89B7726
3BAA7EB1
3B81F3EC
3B801293
BBA42F67
3A93FECE
BB361169
3B909724
BBA104B9
3BD34318
3C3CB493
3BA9C535
3C4A0F79
BC3FCADE
BABC036F
3C9AA9FF
3B0E52F2
3BE4AFE8
BC058363
BB971476
3A95DF0C
3A873294
B9B36F39
BAB42E1F
BABD7912
3B6D09D4
BB374382
BA099484
3A6EB30A
B95B65BB
BAA949BF
B9A8AB7E
3A4EF987
372B105C
BB2EB354
BA4BE1DC
BAFEF0B9
3AD962A2
BB3954C4
3B67541D
BB9EDD1B
3B743CF5
3C2B31AA
3BA99DD4
3C395DB3
BBD32E3F
383E3AA0
3C475267
3B1125AC
3BC7285B
BBAA2AE2
BB120E6B
3A7DD776
3B5EB9B6
BAAE2C9E
BB0A0C48
BAE77CAD
3BB78801
39BCC026
3BAF2872
3C0DFA55
BBF8690D
BB01391B
3C0091D6
BB800FA6
B9C905A5
3ABB4CA9
3AAB8E6F
BA19990F
3C2A3026
BB16A9D4
3BA456D0
BB621872
3AFFEAA1
BB5B31C0
BAAC6E08
3BFA37CB
BAE88D63
3A8BC933
3BDC0D3C
3B000400
3C6CD794
3B03FF7C
3BAE6E3D
3AE13010
BAC9EC18
3AB387CA
BBE05B60
3AB8D5EF
3C8AD857
BAB7063D
3C975401
3CCAD343
BC8DAF1C
BC22CD0B
3C55F6AA
3AF95BE2
BB326314
BB5B9625
BB77ADA5
BC5D0393
BBBECC2D
3C089CEC
BBCA8784
3C0861CF
3B8BDF6A
BC8E22DC
BC499C32
3C500433
3B79CDF0
3C03A06B
BB0F9C24
BC9388C0
BC90FC15
3CAC40BA
3C0F86D3
3A4517D4
3BDB804C
3BAE52FB
3A3F3387
3A98A78E
3C6292F9
3A733E3B
3AAFB250
3C11E2A1
BBB8A9C1
BBB9C916
3B87EA08
3BAF1832
3B94A9A9
BA65BE92
BA8BD30E
BB9AE9C6
3A11EA5F
BB5CC205
3A2F2E5A
BA3CB1C4
3C17DDA9
3C06981A
3C839D5F
3C838688
BC8999BD
BBE43A20
3CB50332
3B82D409
3A2AD33F
BB9F500C
BB8CBD2D
BB7627E6
3B382DDD
B97D63AD
BB3703B6
BAC7F660
BB09DC70
BC441FDF
BB696BD0
3BDC3662
392AAA0E
3B42BD59
39D58250
BC30DA76
3B8FD218
3B21C3BE
3BEE9288
BA2CD9C0
3B4E7759
BB0F1B27
3A385DA7
BAC7FC98
3BD25D81
3BE59FF1
3C1B018F
3C238EDB
BC344B77
BB914256
3C631162
3B3D96DB
3B107CFF
BB0F1ABC
BADC5B61
BB817C82
B8C5218B
BBA38FD6
BC0FA415
3A32154C
3C3B2EDD
3B95BF13
3C36ABDE
3BB61F2F
BC066B6E
BB995D38
3C11AE0F
3B66E654
BC2B7A54
BA1DF2D5
BB1494F3
BBBD8050
3C34A861
BBE57EC0
BB926F92
3AAE5891
3C3BA7A7
3B8EAEB2
3BB8C91C
3BAD2356
BB8E0EAC
BBA7D1BF
3BC9CA1C
3C03A9FA
3B0491FD
BB8E51CE
BAD0F18E
BB9B1DAA
BB30A2F7
BC0893EB
BC7FF514
3AA6B2F8
3C5A5D40
3BFAC5D8
3C8F4C34
BAFAD710
BBB15818
BC659D99
3CA2CCCD
3C547C5C
BC8F8A3B
B96AD067
BB04648A
BC9EA192
BC3A0AB3
BB0F09C8
3AB370BE
3BA64968
BC33A723
BCD5FCEF
BCC7893B
BA9EC26E
3C36C118
3BDB9A15
B9EDD6D0
BC93F930
BB9C16A8
3C9DCF64
3C76F20B
3B87B067
3B4187F0
BB6C3AEF
BBC99C00
BA9961EB
3C23E9D4
BAA5C1D0
3BEE7221
B9C8E803
3A65091C
BB1EA4A8
3B9D79BC
3B9EDCB6
BC031925
3B24C89C
3AB8852B
BBAB2C4D
3A6A15F3
BB78B40C
BC1B8F9F
3AF6535E
3C37BD7E
3C7803D1
3CA0FF2C
3AE71BE0
BC6A239B
BBAB2F51
3CC148B7
3C87146A
BC33E33F
BBC42659
BB9AD6ED
BC822ECD
39CB6D15
BC2A5642
BC64CB8B
BA821623
3B19BA17
BAF4DCCF
BB40EF42
BB73C510
39E0D489
BA69B71B
B993C9AB
BAF2F4CD
BC28FC0A
3971A596
3993359E
BA321D85
3AEEBA6E
BB2A8FF2
BBA216DF
3A8A7674
3C3526E7
3C32C918
3C6FD11D
3BDB0718
BC334EF8
BB94C1A2
3C7F4183
3C3A5892
BBDDE002
BB4FAEBB
BB4BC49F
BC07E07B
B99CCD12
BA41D873
BB99011A
3A08A1DC
3C03B54E
3C184ADA
3C24AA81
3A837172
BBC686CF
BBCFCF5C
3C25400F
3C11FB7A
BBDB32A0
3AB2C2C6
BAB71F3C
BC3229E1
3B81D86E
BA7DF64F
BA0C696C
3851D9D0
3C021754
3C204CE5
3BE8EBD9
3AA9F1C6
BB6C0511
BB026D23
3BEA3681
3C1BF0BC
BA30C7FA
3BB0700D
B93C411C
BB9F5536
3A3E2C99
3B1DB549
BC084FD8
3C22CFAA
3A0FEDDC
3C00030B
3BDD13A6
3C3F333B
BC38D320
BCC35493
3C947F7B
3C3E7924
39C5E314
BA5C766F
BBFE5FF3
BCBB8A1B
BB80AF3B
BAFF2BA6
3BD0620C
3B810B7C
BC183D56
BCACA6F7
BD127010
BC1875AA
3C3C779B
3C87AE4D
BB4B8D40
BBAFF875
3ACEF094
3C9EBEE7
3CAA6B21
3C1B22B6
39CCB609
3BD3BF13
3B638707
3AD7F443
BA550B86
B9EB3F1A
BBE4D1D1
3AB5426F
BB1AF8F3
BC09D57D
3B17318A
3B12DC3B
3C012CDC
3BD87CF2
BAADFD67
BC01F2E8
3B498193
3B5E9D3D
BB65B72B
3BE30345
3C008BA4
3C670978
3CA1450C
3C4FBF88
BC684965
BCA4FD06
3CEABA84
3CA95EF7
3B946F91
BC0C4358
BBD810EE
BCDE58D1
BAFEEA96
BC0D01B9
BC21881D
BAA694D8
38B7E87D
3B265B31
B9C2283A
BB2460D6
B8F697A1
39BA9FA5
B9FBC854
BA855CF9
BC1F606B
3BF81204
39F32E16
BA0AE8E1
3B0B1974
3A93FC97
BB8C9ECC
3B4FCE02
3BF5AA40
3C42B0C3
3C6CD67D
3B9B76AB
BC157359
BC3E0BD7
3C929D3E
3C7760E3
3A200B45
BB5F1593
BB5C82BA
BC882A40
3B58951A
3892508C
BB9DF802
3B653419
3C068045
3BAA5643
3C0E258E
3B475073
BBF6874A
BC59E399
3C4592F6
3C450638
39C210FC
BB9C7AA6
BB8931A4
BC82B424
3BDF8FEF
3B9DC6B3
3A82FBD4
3B152BD7
3B255444
3B9AA107
3AC7CABF
3B868059
BBD461B0
BC530108
3C30027D
3C5CE2A8
3C52747C
BB897EC5
BC09F86C
BC2F25F5
3C2364C3
B9BB92F4
3BF487BD
3C2FE3E6
3C665435
3C2AC5D8
3BF40BA4
BA7B5570
BC4B2758
BCA9AEAE
3C8D8FCD
3C98A433
3B1B3268
3AC0E3E7
3B616AFE
BCAE505A
BB8C9FB2
BB286DF5
3C015A97
B95B85A2
BB61E0DC
BC8AC170
BD063E78
BBE324A6
3C8ECFCF
3CA41C19
BB5EA5ED
BB40FE18
BA6B7F34
3C719CC1
3CEE65B5
3C50705F
3C6A62DD
BAC8FC6C
3C3A425F
3B01FE19
3C1A0D52
3AD63ED5
BACFBB6F
BBA3038C
BAFB3232
BAA1D831
3B4CB454
3C30A10B
3B79AE40
3A935F3E
38D94761
BBEB66C4
3BF3F6C6
3AF44D24
BB1E8FF7
3C49A416
3C1C200A
3C434C48
3C94A40B
3C41EA12
BC7A9B8E
BCD38240
3CDFCE80
3CB64219
3B0F36C8
BBBFF8B4
3A842628
BCC23199
39AEEB6E
B92486C4
BAC6ACB8
3AB50042
BB4C78EE
39E51777
BC22993F
BC215F36
BB1E1866
BB947A6D
3988AE90
3AA36BAE
3ACE7194
BA75257C
BB564050
BA479ACA
3BBCA8B1
3A734E80
BB45879C
3BF6C032
3C1EF9B9
3C19AB34
3C55C615
3B8E3FD3
BC2EFA4A
BC99DD22
3C92A426
3C8F6BE9
3BA5C1B2
BBA81651
BB32EF4C
BCB669A8
3B888CDB
BACB4FDE
3A787E5D
3BD11863
3C73C88A
3C0EF883
3C49A034
3B80327E
BBE39D1F
BC531987
3C181F8E
3C185ECA
BB0489AA
BB1E1CC1
3B8CAFA6
BC7FC8F6
3BD218A0
3B0797FD
3A20E9DC
3BDE48F1
3C858C6E
3C13F5AB
3C3D5D58
3B7EA1D1
BBB9EF3C
BBF84907
3C080262
3C7D3961
3C2952CF
3ADC3435
3B04B1CE
BC555A0B
3C52EFCE
BB2FEDDC
3C9FCA40
3C74AB6E
B9F8E203
3C6AAFF5
3C51FA38
BAD40E41
BBCC6D52
BC81690D
3C3A8F13
3BE7B541
BA33DE4B
BC02FEEE
3C11BF8E
BC85E93E
BC2BC5D5
BA1B90A4
3A4C578A
BBAE7420
BC0A47D2
BC913DDA
BD26CB16
3A44C93C
3C83B6D2
3BC1F603
BBECDB98
BC170A42
3B0C8EDD
3BB731C8
3CE2C3F6
3BE7A424
3C1471F8
392E7898
3C5B967D
3B8EDE96
3B080538
3BD86C03
373E77C8
BB84986B
B9B7A610
B9BF0EFD
396CDD68
3BC0045E
3A90D062
BAB72CAA
3BC7B3CC
B769BFA0
3C2BB524
BB0E906A
3C464ECC
3C75E891
3BE9E897
3C690B5C
3CB02470
3BA84F77
BC4AD73A
BCEAD25A
3CB98D5D
3C5F46E4
BB79C93A
BC0DBBD2
3BB1AB9D
BCD6E42D
BB01F8A0
BAE989DF
BB22F3BD
3A21AD9B
3BFD94A3
3B64F948
388BDEB3
BB2B3858
B9441710
BACF846A
BAB06BD7
3B5DE278
B9FD1294
3AF4DEE3
3B738A7C
B9CB0DA8
3C067A9F
BB08F937
3BE424B0
3C210902
3C326ED4
3C2F194B
3C820A85
3C021B6E
BC137603
BC9E975B
3C867973
3C520453
3A33C8B9
BBB8801E
3B56ED6B
BC9D74FE
3C0A50B4
BB0E0E1E
3C191940
3BF705F2
3AE42CAB
3BDD120F
3C145E33
3B801278
BBA6E216
BC5B24F9
3C1C13FF
3B874B5D
BB82AAC8
BB9FBEB5
3B7021B5
BC5097E9
3C38F1A9
3A0247C0
3C2F97D4
3B8BC800
3B357A35
3C258220
3BDF5583
3B8F0522
BB818746
BB2296B6
3C02AFE9
3C1DB5F3
3BFC090A
BA726D2E
BB2AE50B
BB93C419
3C3D2B40
3C9EF8D2
3C7F98F2
3C590E7D
3ABBBDC6
3C057F4A
3B67F804
3ABD962C
BC0A4EB1
BC8302DF
3C74CB9E
3C71B708
BC521D4B
3A8FB038
3C05F89A
BC94BA15
BCA1211D
BB932C73
BC011266
BB6ADD90
BC57FDB4
BCC6A77E
BD269F50
3BFBD41B
3C6D13EF
BBFF7075
BB620B3B
BC97A18A
BBA103D6
3C496F2B
3CEE604E
3A92981A
3C6A29EF
3BE2D6D4
3C80C3CF
BA88B32C
3B518EF9
3ADD4D1B
BBA95BD2
3B1362A8
3AA33234
BB3FD139
3B0B9CFA
3C14FABA
3BEB4915
BB4508AA
3B14BA64
BAF30E81
3C5E340D
3C49068D
3C8BE996
3C8742F6
B9121E7E
3C713323
3C72BB80
3C01F3A5
BC4C4B1C
BCD5840F
3C91EFB7
3C782635
BC49CB5F
BC061321
3BEFDE5A
BCEECE18
BB80C150
3AB8E780
B9FF954C
BAFDDA6E
BB831388
3B1855FC
BB095401
BAC793B0
B9E67F35
39A78A26
B9840708
3A0F6B6D
B9320244
3B5E270F
B9AB2156
3890FEA9
3C46B8ED
3B50702F
3C65E36E
3C40653F
3B33E0ED
3C062B85
3C4EE3A4
3BC80AC5
BBF0BB53
BC93DB62
3C7A9F31
3C269037
BB8D8357
BBD908CB
3B96B41C
BC91CAA8
3C06132F
3C0838BB
3BFB23CC
3C03495E
3BB8395D
3B9267EB
3BCE2A79
BA7A335B
BBBA1875
BC8CA881
3BFF2169
3BD62B5F
BBC21137
BBDB5C19
3BFDE357
BC8E15D8
3C3F59EA
3C405109
3C6BEE89
3BA3B1B1
3BB07F06
3BDA0888
3C294926
3AC3E5AD
BBB7ACC8
BC23F05C
3C1505E7
3C4B2792
3B7FD121
BC1205BB
3A7B369B
BC758928
3BB7E467
3CABC8BA
3BB55579
3C001728
3C8F0FC3
3BB8FEDE
BB7DD91B
BC3E3AA2
BBB9C786
BC373906
3B759359
3C8E9893
3BB668BB
BB8DA234
3C1F4280
BC615EA7
BCB9E0D7
BBE049FC
BC82B743
BB3919F8
BCB10235
BD03E22D
BD153B25
B9E30491
3C64E60D
BC47889B
BB2DF00F
BC4CDC18
BC9E34DF
3C5DA171
3CBC12BD
BB0113CC
BAAC591F
3C51762F
3B9B57DB
B95DAE15
3AC4E02B
3B9D7A6F
BBBC7ECA
BC3A35E1
BAC48E71
BB30B475
BAA278D8
3BE40818
3C61B49E
3A0ED24A
3BB0DB29
BAE21A33
3C50998B
3CB00EBC
3C3BFB90
3C98CA6B
3C8C7DCE
3BDF6F90
3C43933E
39EE3E5D
BC1E86C7
BC9E7895
3C42E661
3C896B37
BBE5C3A6
BB232CA2
3C2B274E
BCA2DD8A
38F1CD74
3BAEBBE3
3B6AE661
BA5DF240
BB502097
BA210FB9
BB589B44
BBDF8061
BABDB3B6
BBCD9B9F
B958DE5A
3B217178
BB911166
BBDAFF9D
3A7F1DC1
BBDBA9EC
3C3532B4
3C4ADC5D
3C31491D
3C4EAD89
3C25DD12
3C142589
3C0E04B5
3969ADFD
BBEE7529
BC826352
3C342735
3C4295FC
BC10D5FF
BBC15A2C
3C0FB475
BC8E8DC7
3C08B391
3C84A3BB
3B8C5D22
3BD2E418
3C8D084A
3B98BA89
3B81CBDA
BB2F581F
BB233C1E
BC27AF63
3B352EB5
3C37B6CC
BC1AA5D2
3B1EFF43
3B9FBA92
BC476552
3C5B68DB
3C8B1A60
3C288904
3BBF7EE9
3CEA1768
3BDB2407
3BD9BB99
BBDCBC60
BAE2CBB3
BBD868E8
3B9523AF
3C991D61
3B429753
B99F77CB
3AEACF7F
BC1D4DE2
3CB5F71A
3C5B92F8
3C57CD86
3B123735
3B15198C
3C1EBEF2
BB09E8F5
BB91939C
B9989306
BA97CE73
3B0796E1
3CA79254
BBA20B68
3C11DE70
3B5FC653
BCA66F87
BCBF3EEA
BC14B03E
BCBFEC1C
3B618358
BCD0ADBA
BD065B2E
BC67F482
3C88D84A
3C380212
BC3F2696
39423916
BC515543
BCD58C7B
3BBDF785
3C3E554E
BB174A09
3C2DA74F
3C131F58
3B1B1435
BB56421F
3B9A6797
BB8598EE
BBA21609
3B4261D5
3B818ACB
3A439969
3AAFBEDF
3C3AD7DA
B9EBC5BD
3B5926B3
BAADDB40
BBD18D4C
3CABAB60
3C86B96A
3C828B36
3C4725E3
3C586146
3C9AA840
3B35EDD1
BB394281
BBD257A4
BB36CBA9
3B9CA7C5
3CB516AB
BBAD6D89
3BF1059A
3C4EADF3
BC7EAFD5
3A1B1D54
3BCFF658
BB8E20AD
395B4577
3CDA1427
3A8AABDC
39B379B0
BC61C522
3ACECE45
BA666460
BAE8E7E6
3C0A3646
BC547FAD
3B96A2B9
BAA9D8A0
BB638F63
3C7D38BF
3C8E3702
3C47DAE1
3C0920C5
3C59BCF9
3C686E8F
3B2C607D
BBAA318A
BB9250F1
BB95B374
3BCD9068
3C86B5E5
BAB0BBA5
3B201197
3BE25966
BC47263C
3C72FD49
3BB00383
3C8A2F6E
3B431DFB
BB399B68
3C32DA58
BA8D3112
BB2CD52C
BA9451AF
B9EF375F
3B92BDB6
3C08B20E
3BA1B6DE
3B3B3B96
3C030A2E
BBE09A90
3CC2E141
BAEC9777
3CBDC82E
3B40AEB1
BB8FDD46
3C0E1769
BAC53928
BB868382
3B6E461E
3BC345DF
3BD2A384
3C7220AB
3C7B6C14
BB176453
3BFE2955
BB941A98
3CADD0C3
3BB24609
3C8078D5
3B7E4DE9
3BFA2875
3CA3426F
BB20B977
BC261E16
BBE0FAC1
BBFE821B
3C0DF849
3CBA64CE
B86FE058
3B39D5DB
3BBB435C
BC459BC2
BCFB4888
BB8D972B
BCAEDEA6
3B71A0AF
BCA9856A
BCC5F0F4
BC420016
3C370668
B8751E5A
BBF4C261
3A86E005
BCB01247
BC72D51D
3BEAA4D1
3CA685A1
3C56B5B6
3BF97383
BBF2261A
3C5A8181
3B7A462F
3ADE8113
3BC1566C
BB57C733
BA9AF070
3B7E0430
3BE97139
3B4DCDE8
3C135A82
3B7A1950
BB86B273
3AED9BAA
3B57E057
3CE4E29C
3C79A098
3CC7CAFF
3BF21AAF
3BF97ABC
3CCD176F
3B04C6E1
3A11A5BF
BC0E4C3E
BC176A97
3C3767B2
3CE10A2A
3BBCD908
3C20D6F3
3B5367F9
BC84B111
3BB22D30
BC34702D
3C3535B4
BAF2F2F5
BBBD64EA
BA5D3ECA
BBAF8ABF
BC1F5102
3BB29242
3C0A086F
BA18BCF5
3B3DB451
3B7718EC
BACC4D87
3BF6377A
3B1CD019
3CAEA631
3C3AC71D
3CBC47B5
3B9DB532
BACADA72
3C7B9D0B
3AF1D926
BAE7E8B7
BB5D4FCC
3A99A54D
3C03517D
3C9EFA39
3C3A3808
3B9BD5D9
3BBECC30
BBFFAAD6
3C46EB1A
3C0EB754
3BFDCC67
3B3D416A
3C2195E3
3C1BE001
BB198736
38E27D54
BB979BF5
BA4A2726
3B550907
3C8A227E
BACDDD96
3BC9D2D7
39F686C6
BB65CE8D
3C80EE72
3B645377
3C8E60C5
3AD97E07
3BF03331
3BB9EFCA
BB4ADBBA
3B14FDB2
BB43E809
3B350A5F
3B80A7D1
3CA286A7
3AC66333
BB795CAC
BB7EC436
BB094169
BB9E274D
3BAE4562
BBACC6B0
3BD92B60
3C3B04EC
3C51D105
BC8315E6
BC44CDE3
BBBC5BB4
BB78EFE3
3B2F5D2C
3CB7A3B2
BBC4CE55
3C4EAD2C
3B39FB8E
3BB70425
BC41E2EF
BC963271
BC83B31D
3ACEFDDF
BCBD5F63
BC33F738
BBCEF8CA
3BBF7BA1
3C028DB2
BC088726
399603E9
BCCB6AA0
3AC14DB7
3C22C485
3CD745A9
3C31AD36
BB326514
BC049673
BC136783
BA79051B
3C632A28
BB966B3D
BBE7E54B
BBB93A16
39FA6C26
3B920000
3AE780DB
3C4EAFCC
BB9F4A7B
3AF0B4BD
BA0F7AFD
3AC0DB2A
3C9804DC
3CB0557D
3C17ADE3
3C044357
3C24C0D0
3CDF8466
39DB0636
3ACB1CAC
BC6A7155
BA0E97D7
3BEBB16B
3CF6E83B
3B8C099C
3C817688
39CD404A
BB034ABD
3AF1B08B
BBD2045B
3C474428
BB360BEA
BB4F9956
BA2D4A26
BC27478C
BB8E098D
B5B3C2ED
3ADB2D32
BB0199EE
3B19A4CB
BBC8C715
BBBBA2D4
BBB3DD12
BAC704D7
3C944541
3C85E25C
3C267F2A
3BA4F261
3C6C2A29
3C78DE4A
3A290110
3A202716
BC06FFA3
39F2AA86
3BA7B2C2
3CD223F4
BA6FA2F9
3C2F1D89
3A12B84E
BB4BD971
3AC503DF
3BD00483
3BBCA83F
3B8B30AC
3C176EBE
3C5FD086
BA5DCC59
BB552EBC
BBC0C6D8
B8991ECA
3B468C22
3C6B5D52
39DBF39D
3C27F7EB
3BA43759
3B467A46
3B800C0F
BA9361D0
3C2C0B66
3BCB34B2
3C0D204D
3C34A262
BBEC6C8A
3B4ECB84
BB5BE5D2
3C2BE22B
3B85B92E
3BFDE41B
3BAD5067
3BBE4A92
3B005FBC
3B895B44
BC312985
3B89AC3B
3C720B24
3BE019C4
3A317AF4
3CA19BEF
3C19B95F
BCB9A113
BC3A336C
BC3217A6
3C267ADB
3CB71066
3B937E09
3B4A55C7
3C61008B
3C42F9A6
398A74CA
BC346F49
BC1C529E
BB898AD4
BC9FAD68
BC122D3F
BB6428E5
3BF90D43
3BF41A8F
BC6B1F21
BABD651F
BC831707
3B9FD657
3C166758
3CA4FAA5
3B4E182D
BBA04B7A
BBCCE2D8
3BBD54AF
3A8D7E08
BB57E92D
3A595F4D
3C0C1D66
BBE0A77C
BBA97E72
BC3F8795
3B4EFCEC
BB45E5BD
3BF9CD91
3AF479F9
3C35CC58
3B90F784
3BE70527
3CB28CF8
3C9252C6
3C36496E
3BD8C4A6
3CDE49F7
3B9C4903
BC3FF437
BC1D7E5B
BAAB4C45
3BD6E732
3D0FB945
3C606C56
3C682240
3BDC1053
3C16F2BE
BBBE70C8
BC3D82D7
B9E0586A
3A8BD8DB
B92B5D0E
3B3E0076
BC92D68F
3B4C2987
B931E5F2
3C394D9F
BB036A83
BC6A72AB
B9AEC19E
39A1E9BC
BB1CC951
3C27B9D5
3BD282F0
3C743BDA
3C4A9C7A
3BE11F28
3C6E0F9F
3C9BA2A9
3BA29450
BC08A25B
BBFF0EAE
BB1069A8
3BD8BA4D
3CDF0747
3BFDE0B2
3C412885
3BB61445
3B9A647A
BBB10690
3C33B96F
3C1B0A54
3B33C482
3C134215
3C56C7D4
3B5734AF
BC3A6575
BB7F3974
BC028EC6
3B99F742
3CB76336
3B85350B
3B294933
3C02889C
3BBE93E2
3A7A691A
3BFA2307
3C2C5F18
3AE4D650
3B96054C
3B772E34
3BE31AA7
BC64DA4D
BABB90E4
BC4FE2AD
3BC89E3B
3CB75AA2
3BD41560
3AB52622
3BFAD0F0
393B3AC8
BC6D024A
3BAEA361
3C3D52B0
3C18C798
3C8EAB6B
3CB523A4
BCCD76FE
BB448327
BA45C27B
3C80229C
3A2D0F6C
3C17AC04
BC08F47F
BB9587A8
3A3FEE04
3CBE7FD1
3864A54A
BC82FCD3
BC551705
3B5D23EC
BC7664A4
BC2260C4
BBE399B6
3C1C7411
3B85606B
3C5565F7
BB108FFC
BC9EEFF0
BBDF2CEF
3C4429D5
3A254E0F
3B65BF7E
BB1C7EB0
BAB69F8B
3B0DFE60
3B32F530
3C04F63F
3AE651A2
BC93514F
3B9C3305
B9429DDD
3BAB644F
B87FE7DC
3A632FE0
39424FEC
BC384617
BB4EAF01
3C13E760
BBD38AA7
3CA133E3
3CB7C554
3C255957
3CC627BE
3CFB085C
3A78C8A6
BC817D3E
BC03A19D
3BB04CE9
3BCD9618
3D075B30
3B333754
3BD210CA
3BFD5098
3C61BE1F
BB9067D7
BA0199D6
3ABD8340
BB25A94D
BAD52D21
BBC38C27
3AE41E48
BBEA0722
39B1349E
BC2D2030
B9A0D95A
3ADDE80B
BB6BD82D
B905B994
3B865119
BABCDF73
BB8D1F3F
3C850ADB
3C84DCDB
3B9E05D8
3C4C7038
3CA5A8D6
3AE57798
BC65AB59
BBAC3076
BB15E6A2
3BB379BB
3CF64051
3BD53A57
3B449A85
3C0D142B
3C1E033C
BC0AFF12
3BABC9FB
3BE1C06F
3BF75633
3C0ACFAF
3C755E22
BBAB8F37
BB9E706A
BB54C12B
3C4F36EB
3B219E9C
3C500A85
3BABA4AC
3B3030BE
3B03C421
3C7B4D7F
BA6C46D5
3C08DDC4
3C8B6689
3BA68E9F
3BFD6C47
3C605DCF
BB104DBE
3A8DA7DD
BA9D4FA5
3C1B962B
3AE876A7
3C2BC542
3C8343EE
BB0608E8
B92E0242
3C6A1985
BC1583B9
BAB42618
3B5B8CBE
3C0460D6
3B9B97B4
3C19BA22
BC372159
BC1C18DE
B92FBBB6
3C9BF88F
3BE5AF36
3C989E2E
BBF0DD41
3BD07AB9
3BD90232
3C7BBBC0
3C27B7FF
BC389C70
BC22A17E
3B5B3BDF
BC8AD291
BC714C54
3BA2E314
3A9444C3
BB4482D3
BC33B2E6
38BC0429
BC057999
3B03D730
3C68C065
3C078CA6
BC812CA9
B99939B2
BAF252F8
3BC45259
3BB1C131
3B315DFB
BACA367C
BBDC1756
3A6E481F
3B1542D6
3C294D0D
3A89579C
B9DD0D34
BBA7618A
3B47B1CC
BAB4ABDA
3C0C8093
BC11A290
3C10F951
3C3A362C
3C40C966
3C848467
3CA1A84C
BC62A012
BC8B9636
BB6AD371
3CBCF222
3C080B0E
3D043132
3AA92BB6
3BDA57BE
3BE6C71D
3C836D86
BBECA930
BA056638
39AC2900
3B38AEE6
3AF557C4
3BC7B5A0
BB0A9A3A
3B717B30
3A020932
3B9895D3
BB8044E5
BC1C6CC5
3BE8692E
BB44E4F3
BAB0D683
3BB0B74F
BBF24760
3BDCCFF2
3C343D45
3C193876
3C706A88
3CA32838
BC097FDF
BBF278A2
BB4C45F3
3C9B759D
3BB1CF7F
3CCB083C
3B91B6E6
3B8D3887
3B8A71A7
3CAD6046
BBA105FC
3AE73AAD
3B900390
3B61BA60
3BFCCEE5
3BEE5852
BB44AE5C
BBC0C824
BACC8BA6
3C39092C
3BF7A3E6
3C9368EA
BC2C5BD3
3B175B47
3B93AF0A
3C09A8D3
3B89572A
BA13F2D4
3C287B2B
3B46CDDE
3BD86552
3B99B228
3BDBA41E
BABE322C
3A4CD621
3C59763B
3BDC7D4F
3CA70F13
3B12956A
BB7A850B
3A755A0A
3BA6802F
BC647D37
398A5A59
BA0C9B1A
3C030092
3C6AD6F1
3C8526A3
BC8471A9
BC2C6494
B9A893AA
3B5B6C27
3C5BEC70
3C9674CB
BCB731E9
3BEFA46D
3BBC9153
3B2F839B
3C34C1C9
BB3F4505
BB9FAF4D
3BA897D4
BC3E609E
BBA6C400
3C4888B1
3B5A3B93
BB9679F8
BC92ECE8
3AFD73B0
BC54C4DF
3C6A98AA
3C20967C
3C2583C3
BC510F09
BB283C0C
BB35A063
BAA00356
BA4E7D0A
3B04B97B
3B0BB4EA
BBD19B1D
3A54E705
3A86E4B4
BB35B465
3BE18798
3B977D0F
3B25FB95
3AFB6D21
BA73BC84
BB81245E
BC2854E6
3AE69333
BA20C6BA
3C32EAF0
3C8942A3
3C89AFEA
BC8E875B
BBFC2503
BA069F3E
3C19ECDB
3C4DE095
3D068B45
BCB129E1
3C5445F3
3C3D1EB8
3C32641D
BA9C1463
BBE4D3F1
3B001F01
3B164A50
BB6F803D
BAC801DD
3BE4CC42
BB8C6D68
BAA92029
3C03738B
3B61442A
38D465C5
BBCF3165
BB81638B
3A40B8FE
3BA58D30
BBC7CABC
3B184A5B
3B88B563
3BB5E97F
3C23FDE7
3C38E26F
BC100350
BC13F400
B9C42234
3C410E6E
3C3EDEF4
3CD5184B
BBCD2CC0
3BC776C3
3BCF8AFC
3C2DD61B
BBDECD38
BAD68138
BBDDA62B
3BFE0907
3C066EB4
3C335645
BC32CDC7
BC17775B
BA0D9A0E
3B5A67DA
3C178457
3C506B20
BC52DDF6
3BD98334
3BB8FC1A
3BA77AEF
3B127B5A
BB9B3D6F
BA5F485F
3BC4960A
3BCA9478
3C617ADF
BC4B39E2
BC2428A9
3AD4EBFC
3BF9E36F
3C10A79B
3C96BD24
3BBC0A5A
3B872153
3A8084A7
3BC05686
BC870EC5
BB9669AE
BCA31CFE
3CA1ECAE
3BBB18EE
3C74B95D
B978FB08
BC3CC20F
BBF0EA05
3BCB0021
3C55CD34
3BDFAEF8
BC63D99B
3BA52F3C
3C2FCB85
3B2572EA
3C60DE1F
3C45A333
3BCC1E49
BBFFBEF6
BC042F5C
BB54AC7D
3CCB22CE
3BEC5476
BAFCED4E
BC993E4F
BB8C2D2C
BC384439
3B9B986D
3B9C155B
3C0B2F3C
BC66B70A
3AA7A110
BC1BFC61
BC548AAF
3C09FAAB
BB8245E9
3BD28773
BB4D0390
BC59283D
BB04F95A
3B813FC1
3B40E4C4
39EF364E
BA6EF9E1
3AD0452E
3BAE1000
BA96BB70
BCA1F820
3BE33E41
BC029798
3C92661C
3C42604F
3C3EB46F
BC46382D
BC4B8942
BB6FF196
3BCDE2CE
3C7C38F8
3CA68DD9
BD013518
3C2F6C71
3C718DB0
399F2836
3A193829
BBB34437
BBD43C0B
37DD3180
B7A461B0
3B9A1631
398CB576
BC00F293
B9C0B560
3AC4129F
3A68F2F8
3B895C95
3B9345F7
B99C4788
BB314CE7
BA858FF9
BC3A05FA
3AD5C1A5
BBE8B47F
3C51A90B
3C494B8E
3C6A3B3E
BC654936
BB980A19
BA15C657
3BD7FC7C
3C440766
3C89F6DE
BC91F466
3C047572
3C146B6A
3BCAFFDA
BC1AD4EF
3A66F6A0
BBFCB8D8
3BCCFECC
3C0A7BBD
3BE4F0FC
BA589342
BB6713F2
BB733604
BAA24A67
3C0C587D
3C0C4DA1
BC8B90B2
3B430C05
3BA50CDD
BB9C930F
BB246539
BB28344B
BC1DDDF6
3BF028D1
3BB91C33
3BEE7DAA
BADB5451
3AB8638C
BACE8294
BADB9D49
3C0F7935
3C322B4B
BB38884F
B9AFD77C
3B9195E1
BAC932E9
BB9EA64E
3C872586
3BC0D483
BA8989C3
3C4EB9C0
3C178CE5
3C8FB868
3A4B3E69
BC145058
BB16BCC9
3C41D363
3BB9F532
BC8744DB
3BFE3209
3B6445D0
BC38510D
3CC80C76
3C2B1A00
3CB66D11
BBF43824
BC195A9E
BBB1149B
3BB60C3B
3C51EDE1
3B88EB5E
BC1C7C24
BA8B511D
BAE84FCF
3C03027C
37058F16
BB48DA31
BB5691A8
3C3C737D
3C425368
3C122D95
BBD83E16
3B98C5B1
3A22575E
3C6EC640
3BB33918
BB78B4A8
BBBFF8DB
3B4EB8AE
B93B72AB
3BE7EF93
BA908B00
BB9664B4
BC68B6CD
BC98D044
3C825590
BA84BCA5
3C12EEFD
3C4CAD7F
3C6D8F0A
3A397743
39B0922A
BBE8412A
3B4ACC1A
3C859691
3C6019EA
BCA75C09
3C3F0C79
3C59CDE0
BBFFB6A6
BAB9F672
BC059B26
BC54B346
3AB1D352
BB09F387
BB5FAAD3
3A4605C1
37DDE808
3AB34417
BB989677
3A09A82E
BA997022
BC0D04A7
BACA550E
B951567C
3B310F5E
BC55C9E9
3BDD7F93
BBB82874
3C0704BF
3C478FA2
3C31C305
3A43A090
BBC539DD
BBA9CA62
BA9DEC9B
3C47FFBA
3C4371AB
BC80F523
3BC78908
3C090BB5
BB8022E8
BC2C27E1
3C0843AF
3BA30876
3B03EB5C
3C1D3672
3C0D560C
3AB87BDC
BBC97DE2
BB53A403
3B08CFD7
3BE5C8B8
3BC95E03
BC60E572
3BC9DE36
3BD45830
BB96D898
3BCDDD78
3BF1925B
3BDBFD54
3B8DBCE4
3C17B5DE
3B630AAC
3B55C580
BB3A61A3
B95C1DDC
3B68071D
3BD6D116
3C0F217A
3B2B13E2
3B555681
3B4E25BC
BBBB07B6
BCC311D7
3C338A00
3B0E0E80
3C53C01A
3BC8862A
3C638E5F
BAF6AC8C
BC646D28
BB931C6C
3C269927
3C24CC7C
3C135349
BC36515D
3C8ED4FB
3C6FD7E7
3B055F4D
3C4323E1
3C15F503
3C88087D
BA9549B2
BC3CB57B
3A82429A
3B5E86E6
3CB8B17F
3B3C0BB8
BC5C2D17
BAE1C093
3BC608DA
3A8D4918
BB174D1E
3BBBFFDA
BB318C69
BA148614
BAD44541
3B2ED063
3A9E9C27
BA9F0DE5
BAEC04FE
39D1FE1C
B97DE5E1
3ACC5924
BA2DC149
3B1B2714
B9897A52
3BB8B63A
3BA7CAF0
3BBD67EA
B9BCF06A
BCDD920D
3C875F8B
3BAE649F
3C5F00E0
3C39F8EA
3C8C345F
BB21AEB0
BCA05E12
BC1B82AB
3C096DB9
3C8D0533
3C69F647
BCA1C947
3C794048
3C61E0F8
BBA3CE19
3BF009A5
3AAB8DE9
3890945B
3C24D2AB
3AADA74D
BBCCB760
3B353B96
3B3F34D8
BA71DA39
BACB4F8F
3A84F374
BB95EA28
BBD5D788
3A593FDC
B971ECAD
BB884694
BC831AFD
3C32DE5E
3B84E67C
3BC8BF3E
3C3CA956
3C3A8AA8
38E0E398
BC34B982
BBA0288B
3B62D319
3C492E85
3C231DBB
BC5B5C8B
3C1D36FA
3C20CC44
BB277BDB
BC837A9A
3C0B5412
3AEC9A5B
3B3361DF
3C1CD9C9
3C354872
BA94AAF9
BC187C10
BBCC75A7
39143DE0
3BD102BA
3BCCD725
BC33653A
3BFCF4D5
3BD3710A
BB124413
BB793D4A
3BCB2D47
3BE17ED3
3A620363
3BAE6D1E
3C30A3E1
BAF0BEF2
BB0F71DA
BA5C987D
38D01CC2
3BB16E97
3C49693E
3B3ADE2D
3B886C31
3B9A470C
BBB65724
BC96E78E
3C75C588
3A8A762F
3C244804
3BE0BA7B
3B5661A3
BC03A9C4
BB9C5B34
BBD5F4B6
BB7345D1
3C5BA1E9
3B4D9B8E
BC8C331D
3C829DAD
3C1EC406
3B1E6589
3CC20A31
3C35FFF6
3C84FD0C
3AD83E73
3B6C89EA
BB24F5EE
3BEF49F4
3C5507CD
3AB59AFA
BC2AEDB3
BAE37AE2
3A753195
BA5369BC
BC14A95E
3BDAFFD7
BC3EA338
3C0777C7
3BE013E1
384505A0
3A0E2204
3A194FE5
BBCFD244
3A978FED
3BF06DC6
B913CA86
BBFDE36D
3B868CA5
3A52EE73
BB14EFC3
3AD7B7F7
3ABD3082
BB9A3C9B
BD0DEA56
3C834561
3BC157F1
3C6C5F0C
3C58CEFC
3CABCDC5
BC4C28DC
BC91E4F3
BC3868D6
3BF3362C
3C8A6DE2
3C531C56
BC6045F0
3CA4A246
3C76CE00
3B97E9F3
BB37708D
3A258528
3B3A3C0F
BABB4C32
BA9536DB
3B07EF8A
3AA875F0
3B04CE6B
3A9BDCFE
BAC4CCBE
B9E7A844
B901363D
BB6B0C30
398FCAC8
B6D61A30
BB954695
BCC03165
3C36A8FB
3B3C6891
3BF6CC3F
3C39482F
3C6198FF
BBD045EC
BC61E297
BC05E6D1
3BB81E58
3C45B6DB
3C25C059
BC41CC7D
3C5435B0
3C19830B
3B31F2E4
BC7C3822
3BE28890
3ABB6686
3B385663
3C0D17F9
3C01432C
BBB63223
BC143F86
BB6B1495
3B0DAC09
3C0269FA
3BA3467A
BC2D4096
3C14FB68
3C0E87FC
3B256FC9
BA48358A
3BC1E9CB
3B44ED95
3AD086BA
3BBB744D
3BBAE89F
3997CF10
BBE1A338
3B13CE92
3B43B9CD
3C0CA20D
3C802671
3BD6BEF4
3B6BCE6D
3C012CE3
BB64401F
BC964CD9
3BABFAB7
3C18FC5A
BAA30EEA
3BFB1215
3C1B2C5E
BCD4CB35
BC08CECF
BA6162FE
3C7607D8
3C022215
BB4646FC
BB798054
3CA53A22
3C7AD4A1
3CA5E483
3C9C01E4
3BCB6352
3C621C4C
3BBDD0D2
3BEADD1E
3ABB7B4F
3C0E9F2F
3C5CD477
3BA00DED
BC47BC67
BB35334E
3C111B5F
BC4205B3
BC12082D
3B87E7D3
BC4B3981
3BD60B4D
3AA8C053
3C0C9683
BB00306B
3AD86BBA
BAB03026
BBF9F251
B7E60FF8
3ABAE314
38A5246E
3AC8BB1B
3B116169
3BE566DC
B602BEC8
3B702A7B
3B6D1884
BD012258
3C4436F8
3C325079
3BC653DA
3C49888C
3C88AB63
BCCD5CB0
BC939F1D
BC2A5D0C
3C84CAE6
3C5B45FA
3B831D7B
BC1428B1
3CD503CD
3C99895E
3C8E71E8
3A92D8EF
3B2EC8E5
BAEF0F94
BB1FE9AF
3AF505BF
3B292988
3C36C349
3A1CAC7E
3B51DFBD
BB0B9C63
3B01D8B7
3C216E32
BBB0B423
BABE4AC9
3BB6599A
BC2D966C
BCAEF8B6
3C0D9351
3B8ADCF8
3BA2E1D3
3C2D67FE
3C218E4E
BC4AF3E9
BC1A128B
BBDC4C07
3BE4E413
3C44B34D
3BC3E5E0
BC0B2E4C
3C7E8809
3C41963D
3C11B1D8
BCB82105
BB274271
3B21E4B8
3BC2BD77
BAF25071
B994D62A
BCD42072
BC87C86D
BBA256E5
3CA87284
3BE77291
BBC30366
BB49EA65
3C74C311
3C42C267
3CA12B22
BB25374B
38D4BB8A
3C5E37B8
BAEE34B2
BB2A6D89
BC1F9606
BCC1687C
BBCFABFF
3904CB19
3C8E897B
3BA2A6F8
BBCD2CF8
3CB7B08D
3CA7D449
3C3B781A
3CBCBF58
BD136992
3B0DB5BA
BCB4F17F
3D279B6F
BBF037B0
BC4B7A60
BB99CD35
3A8643FC
3B37EA19
3CCD1C57
3CC7F501
3C2DDADD
BC436C5E
3BB125EE
3CFB6B61
3C5272B8
3CA7387C
3C2B56BD
B9D37DBC
3BE11DE1
3C4EAB40
BCE3782D
3D122DF3
3C721A1E
3B57A140
BCA0089F
BB82206B
3B95CFB8
BB6D6BB1
3966892C
BB08E3B8
BC51870B
BC0F9B38
BC193F83
BBDD49A3
3C844D00
BC0AEE40
BB7E6C90
BBD7721D
BC0D2CE7
3BA2C276
3C9DF8A2
3BFD640E
3BDE43B2
BB3886E9
39C74C1A
3C484BA4
3BBEE198
BD03544D
3C3A1FA8
3B095D7C
3CCD58E2
BB050BBB
3BBA07A3
BCA3DA6C
BC75F23C
BBBFF0B1
3CD69FE4
3C943AA1
3C3BCCA6
BB574048
3B948C32
3CC523E2
3CA98A7F
BC156416
BB84CA2E
B98463A8
3B3E6036
3C115D1B
BCE1A681
BC96C3E0
BA386DC6
3AA016C9
3C7AAC70
B99D4165
BC9F6D68
3C1CFC6B
3CAC65AB
3C52B8B9
3C82091A
BCDC8741
3B54D064
3AB082A4
3C8AEFD6
3B18A976
3C287FA7
BCBA4C94
BCB55CB0
BBEB2BB1
3CA62AC4
3C5F1F24
3C2588A4
BC441DB9
3C57DF09
3C8F5B5F
3C986746
BC87C927
3C24F01C
BB7D658A
3C68A201
BAE9E7B6
BB1FC2A2
BBCDA3FC
3C14695C
BB88BFC6
3BA32558
3C2AF587
3C0EDB02
BC6B0087
3AFA0224
3C834FDA
BBC3A187
BC57ABC4
BA94C221
3B9FD9CD
3C179CBC
BC1D9A0F
3C18E127
BC7F3E72
BB8A87D7
BB235C4A
3C5893B9
3C50EB2D
3C2F63EF
3C2305A6
BBD786C5
3C209E10
3AC7FB12
39122B6E
3CB1AF69
3C038AC5
BB6DA0F0
3C8BFF2E
3BA09EA1
3C1E7BAF
3CD28D72
BBB34741
BB04F0A5
BBFEFE6E
3B28D859
BC07ED98
3C282974
3C281207
3C21030A
3C242AED
BC8A0E57
BB8911DF
3C1756CD
BB723EB6
BD1A85A8
3CEC63B2
3CDD50D5
3BF74E99
3CA6A0AC
BC124892
BC920D60
BC3ECB56
3CCC8EB2
3BA08346
3CAF3C24
3C05A7F2
3CC0917B
B8172A2A
BBAC8B81
3BE6CD71
BAA23604
3C22F0AE
3C92346B
BA7E9354
BB8E466D
BB438ABE
3B6FF168
BAEBA8CD
3BAFBD7B
3BA58240
3A654F0A
BCA10A8A
3C9D7A21
BBCF27DF
3C43B227
3BB08056
3C04FE35
BBB29ABD
3C336293
BB713925
3BAEEBBD
3C503225
3C90B40F
BCAAB0B6
3C4EB2F8
3CF74CCE
BA92DDB2
BC035F43
BC18FF9C
3BBF36CF
BB6241E3
BC505AA9
3B749E94
BC79B30C
BB8CB273
39502AE1
3C96AB0D
BA5B4959
BB4D8DAC
3C10788A
BAC1B75E
3B5A995B
3C13C332
BC9FD535
3C9551CF
BB16519E
3C6732C0
BAA26BC0
3BEA23D7
BC0EC4AF
3AF0483C
BB80DE47
BA9E4CB7
3C6FABEB
3BAC46C7
BC954FCE
3C284BC5
3CBA5A93
3A0F9645
BB798803
3C29C1AB
3B506F5A
BA601DB0
3C164DB5
3C4595EF
3B79872E
3BED5B7E
BB37B561
BAA9A972
BBAD0173
3B704CC6
BB9D9BC5
3C13F95D
3C210FA8
3C3CFEA3
3A7E4598
3C2BF87B
397922FA
BB683019
3BD80222
3C25D7D3
3BAA1832
393DC0F4
3A9951A0
3BA25A98
3986D026
3C47ADC6
3C5E1231
BA115CBA
3B8D37DC
3C35C495
3C9122FB
3C0FB0B5
3D0FBB03
BC981776
3BF24DE7
3D3B568F
BC013F87
BC944FD4
BB435003
BBEE302F
BC2DEFA1
BC09E7B4
3D1AFCAD
3A98C637
3C8BFC01
3C117F2B
BBA48197
BD298FE4
3C85E557
3B8CEC2D
BD0AD4F9
BCA4EAB9
BCCC6034
3C804AD4
3C4F5EB3
3D227866
BA287CF2
BD1037EC
3D1C5AF1
3C86E677
3C8C68C2
3D09C976
3BDA19DC
B93C53C3
3C9920EF
BBE6F284
BC110083
3BEA5084
BBEEFBB0
BBF3B538
3B86DAEF
BB16292C
BB326944
BB51E32E
3CC1DB39
3B451C61
3B83301D
3C15AC32
3BB2A590
3CE652C3
3CB57D30
BA4C2187
3CAA5B32
3C01EE40
BB7BC8F6
BB0792AB
BBF8ADDD
3C2D3DDE
BB89A664
3CB63F27
3B14098A
3CBAA2BF
3C579F02
3CC10582
3B672DE3
3BCCCA07
3A935BDE
BBC144D2
3BED71C3
3BF4DE2A
BA70E42A
37B17F9A
BA30EF40
3A94A639
BB97AFFF
3C3A2073
3C4338BD
BB145194
3B2A72C9
3BFF2489
BB034814
3C679894
3C14B2CB
B9C217A8
3BD2EA5B
3C49555B
3A8636F2
3C35FB60
BBCB7F3C
3B3993DE
BBDBCAA8
3A9ADB8E
BC7511FD
3C5B9E9F
3C2D9D6B
3C9B4700
3C1248FD
3C5EA7AF
3CAA92D9
BB3D30C6
BC1B50E7
3CA4CB5A
BBE5DC8C
BC07CB67
BB5306A7
BBE5C279
BBFC934B
3B00CA46
3B56D7E9
3C6BC066
3CD04F01
BC0C70E1
BBA6304B
3C34946C
3C6FE5EF
BB097F95
BBFD8081
3CA84A15
BC8E524F
BB537A0A
BB38BB5E
3B6868B0
BAC44D06
BB2A1928
3CE9091C
3BD0ACDD
3C7A49EE
3C7C7172
3C87C7BB
3CC80179
3D15E9C9
BC121255
3B991A72
BC0BDED3
3C05CE74
3C0F8D82
BBE41A05
BC787CCA
3B3AAFB2
3C746E95
3C5E599B
3C42EC5A
3CB2DB45
BC805889
3AE84D58
BD487E8E
3BE82765
BC2D203A
BCA25874
BBB4FA3D
BCD77226
BBE7D9FE
3C2BF753
3D9718FA
BC872865
BC8454C7
3D005A0C
3C799A11
BBB55AE3
3C6F8B3C
3C1BEB4A
3B0D91C9
3CAA42D9
3A2C3DEE
BBAF10CB
BB676BE8
BB4E6B8D
3C2CB14C
BB88E951
3B1A560F
3A5C6383
3B896BBA
3C16A500
3B2D98B1
3BDD1A87
3C383DDB
3C6FAD98
3D158D0F
3CD6EEE0
BBE81D6F
BC43836D
B810C47E
3AD3922F
3C8D6E0B
BBDA34D8
BBA45A07
BC4E531D
3CB834B4
BC5D41D0
3CC3C33E
3CB13175
B85D5798
BBC6EBE6
3B1C0C78
3BD1158C
3B2F6BB5
BC7002C1
3C71D9E6
BCB4D521
BC398983
3A005F9E
BBD7C11B
BBA8AC27
BC6C2BA1
3CBB8EA2
3A7B5859
3B8F1F37
3C56D906
3C32D455
3CC2BCE3
3CF337C0
BBA54B90
3C1F904C
3C707377
BC14549B
3C80B1BE
BBA174EF
3B53103A
BADE817F
3B524DA1
BC2C90AE
3CACE735
3CA8A5A5
BB140E91
3BF1FF55
3C33C88C
3C68291A
3B51DA43
3C01DC56
3C152D42
3C187475
3B6DFBEE
BB79B885
BB3190BF
BAE7B9E6
3B38AF41
BBD2F216
3C5342AA
3CAD7DC1
BB958CD1
3A8CF786
3C14D56F
3C94C437
3B2199BD
3B2FC477
3B6251B3
B9A0A6A1
3C8E1368
BB23D88C
BA1DBE1D
3AC5410F
3AA52249
396EDCED
3B758E20
3C8785A9
BB58BA8A
3C4AB8E1
3C7DE3D0
3CBAFDFA
3C981BC9
3C132FEC
3CF92580
3C904BA9
BC37ABB8
BC69111C
3BBE51E0
3C0B8D86
3C1E8BF3
BC1A38CE
3C72811D
BBB1FC43
3BFF784E
BC038EEB
BD194B57
3C9F6165
BC9C6BD7
BD1DC005
3C1BE548
BD20C171
BCC92A58
3CD82FBD
3D696EAC
BCA81C43
BCDE4A9B
3CCC540A
3C99B797
3C2D0ADC
3CB271B8
3BADC38F
BC53F801
3C0E0745
3BFE3CBE
3BD1AE1F
3B881A30
3B397DBC
BB93B4E1
BB562E34
3C4A2D9D
3C04639E
3B6016D7
BBA46AC4
BAE6B664
BB9F4B71
3B36EF18
3C7B333E
3CFADE9A
3C9D31FA
3C1B156F
3CA8B5B5
3CB682D6
3CD07A06
3D14E6D1
BC33A99E
3ADDA92E
BB3DEAE5
3C8F5866
BCAD37F0
3CC157F0
3CA8C04F
3BF3949F
BB7A7D37
BB66BE3F
3C9BE105
B9FD2FCA
BBC0FC9D
3BABE880
BC088D69
3B8C59FD
3B107746
38231D54
BBEBAC4F
BBA15026
3C01C86B
BAB14DC3
3C0FCCEE
BB083A44
3C13A33E
3CB8E93D
3CA5FA3B
3B9CF31B
3C24C98C
3C39BEA5
3C7244E8
3CC30070
BC0A4271
BBC07E2B
3AF65236
3B3F597C
BC79E180
3CAC18B2
3CB96126
3C1528CE
3C0890F5
3C912FD8
3C30B886
3C238806
3C00021A
3CA8C2EE
3C246431
3B7B6584
BBE3CD17
3BBA4685
39FC3EF2
3C4F1A14
BCA678C5
3C6C5B92
3BEE6C9D
3C3C03B5
3BB58333
3BD604CB
3C425F02
3C243396
3BC4B3E8
3C551833
3B7A4349
3B8FE289
BBBE0D26
3C19E102
3BA8213A
3C1E7AD4
BC84CDB7
3BC85828
3B64739E
3BB33202
3C150F73
3D04222D
3D1CE50D
BB93A142
3C286480
3D3AB3F7
BC28311C
BC6C2D83
BC4809FC
3A30FD81
BB234286
3C96699E
3C891E27
3C174D6D
397B2F00
BB610501
BC1CBE45
BC1EDAC2
BBE7A89D
B8A17464
BCC2385E
BBD8CA17
BCE110C5
BC720077
3D0AECF3
3D3A7D95
BCF6C5C6
BC54FC83
3C5F17F7
3C9B7D27
3C96FCCA
3CE57F60
3C48654C
3B871D28
3C8CA152
BB7622A4
3A7E6DBC
3D05D8C3
BC5B81DE
BC0579F6
BB4B7F5F
3C1EF0CB
3BA5D663
3C0FD5AB
3C8C94D7
BB05E652
BBC79E00
BBB0695B
3C236FC5
3D26FAC3
3CDC6CEB
3BFF4242
3CFA9BA9
3BCDCEA1
3C27CC39
BB0F4F70
BC71C311
3ADB32E1
BA330495
3CC0FC7C
BC5C95D0
3D05CC96
3C317574
BA0FD05C
3B8F9C84
BBC2A13A
3AB31FF3
3BBAAF60
BB1D3A00
3B9B2495
BBABA02E
BBC2A9FF
3B3C01DB
3C83D1D2
BB574628
BAABFCEB
BB82DD51
38BA333C
36D574C8
3C4044B6
3BCE83E0
3CE3A505
3C972D89
3C1007C6
3C9F86F0
3C819A3A
3C6F14BD
3CA9058F
BC382E46
BBAB5A66
3B5E259F
3C94A3E3
BC9767A2
3CB6EA59
3C290B7D
3BB89ED6
3BFA5240
3CB467A5
3CA3C24E
39847BB4
3C366E88
3C7579CB
B9DD3592
3A4FCA34
BC003133
3A8CB657
BA8BC761
3C626F7A
BC2810AB
3C581EA6
3B9394FE
3A5720F8
3BD71C32
3C51D036
3CCAE108
394263F4
3C35608F
3C277BD4
BBCEF40F
3BAB52E3
BB87F8E9
BB5F55FF
3B8E90AA
3C086A26
3C4C5803
3B6BB045
3BD02755
BB85443A
3A73559C
3C66C166
3CFF0C2C
BB50CB83
3C6C8107
3CDB8803
BBAB0AB6
BCE58263
BBF3FB0E
3CB2F7E5
BBA76FDE
3CB71223
3D0499DB
3BF71F2B
BB3DCA6F
3C8EFB45
BC1E5180
BBB23C04
BCECD69E
3C9CA263
BBD02FB6
BCFAF349
3B44F7B6
3B7F81F1
3D068695
3D5BC73D
BD16742A
BAB17A6E
3AC34916
3CF13264
3B9C7685
3CCF79FB
BBEA7C82
399B68F2
3C623FC2
3B14AD02
BBD0238D
3A4F0C32
BC14A985
BC1A99EC
3B090492
3AC6656E
BB3D4998
BA2143FF
3CFEB620
BB779347
BAA426C0
BBBA8BA3
3C047D1D
3D23C489
3D107DD6
BC14467C
3D0145FD
3D12B4D5
3C50F2BA
BB995B71
BCA7A7E1
3C47BB93
3B3DD75F
3C913ABD
3A4DD282
3CCC5936
3C14089C
3B9B4753
3BAB4498
3A5CED16
3C4A90D1
BB808843
BBA15F53
3AF3328A
BC0D3169
BC21A354
3B147996
3C2B2478
BB55A305
B874E808
3C6B1708
BABD7C9E
3B518206
3B24BED2
3BDFAF58
3D022057
3CE1FE37
BB94FEFB
3C756617
3CD3C967
3BCFA901
3C7464E5
BC5E23CF
399EB57A
3A7D8CC1
3C9B95A2
3B77A838
3C8AD45D
3C3A850C
37AD0F48
3AFC68E4
3C69FB49
3C65395B
39FECE12
3C8629B2
3C81C49D
BA5D7B42
3B761FAA
BC19C062
3C4043A0
BA9B5178
3C7C3AC1
3AA2676C
3C351C48
BA4F7524
3C2308EC
3B67085A
3C0D3CBC
3CD0FAFE
BB79A779
3B0357EA
3C54CABB
BC6B0B60
BAA004BD
BC101449
3C58D177
3B8B979F
3C0D8F77
3C9CEAE8
3B00E7C2
BA913D9F
3C302AB3
B8D1D0AE
3C352374
3CB66E1B
3BD8C737
3C31A2E5
3CD21299
B93BD089
BA927924
BC3D1C30
3AE0F6DA
BA4243FA
3C97BFE8
BB087E34
3C1ADD86
BA19B4E1
3988FA71
BC2D80B0
BC34BAE2
BD12848F
3C484296
3BAD12E4
BD222E77
3B8D7762
3C2325D7
3CDC8342
3D36E45C
BCFF5ED7
BB6A30BE
BCCBFCFF
3CE29255
3B67E276
3D27B20C
3B0EFE77
BB340DA9
3BB99CDF
B967E609
B9879852
3B2B5300
BC2D7F70
3AE50100
BB252E8B
3C600EAF
3B594007
3BAF085D
3C762295
BB017516
B946FDB4
3C22089E
3B39D643
3D06486B
3CFBE024
3BA8CF77
3D0C769A
3D12A1AF
BA89F8AC
3BF33222
BC97C95B
3B33CA03
3A9A6536
3CAECCE9
BB442F21
3CAF3EF3
3ABB85FF
BBE5A859
39AC257C
BBBE830F
3C37C394
BBD144EB
BB031BE4
3C03BFDA
BCAC279A
BC3EA4DC
BB2B3934
3CCA0245
BB845128
BAC86190
3CACD268
BAA4550B
BB86A6B0
3C978DF3
3B0104EC
3CC9249A
3CAAEE87
3AA4070B
3CB30FBB
3CDE114B
BB51ACCB
3A8BBBA2
BC5E5A11
3BE38A46
3ADD4743
3C817F6F
3AC091FD
3C81F18D
3AD4C9D4
3B8CA151
3A47D047
3C4F18B0
3C47C984
3B65A5DC
3C5759D0
3C816CF3
3C08C5A4
3B911086
BC189166
BB863C48
3AC1944E
3C63B9C5
BB41ABA2
3C0612DE
3B0C6340
BBAB1B56
3BD6E474
3BF3C9A5
3C9EF432
B9633D4E
3BBD9D56
3C5F7665
3B96AA99
3BACABB6
BC189808
BBCFB741
3BB3F896
3C56DBDB
3C3459F5
BA011361
39F40E71
BA700C41
3B39B9F0
3BEA179F
3C974A3D
3A2A0EEE
3C221C29
3CC12E9A
BC252F0E
BC850F4C
B957E8CC
3B22CFC9
B9D2C6EA
3C83C73F
3C0810A4
3B9DAB39
3BE6A8BE
BB2DAB3F
BC0EBDF5
BC6215F7
BCBB029C
3B8292C5
BBDE2336
BD1ED3DA
BB8E8B74
3AC4014C
3CCE002E
3D1BA651
BCE13C38
BC5A018C
BC960FC6
3D09EB9D
3BD85BDC
3D11B582
3BE305F0
BB447120
3BEAE89D
BB8B28AC
3A088FD9
3C195095
BBC2A685
BC24845D
3B4D6702
3BDD06E6
3AC8B2DF
3C1F260A
3C91C1B8
BB7B83C0
38C8FD3C
3B5AE297
3A9EA1D2
3CE272D8
3CA6EA63
3C07007A
3C995436
3D033223
3BBC9924
BB092FAF
BC5F9CB0
BC3115DD
3BEE0D69
3CCBAC48
BC87CD8C
3C915EBC
3C14CB95
BB9351E1
3A011526
B8473253
3BC44319
BB1F228B
3BB0E4B0
3BCB3CA0
B98A313A
3AC66F58
BB350EE4
BAB5D7D8
BB553BAE
3858E918
3BAE8844
BABEC548
BAF9C73C
3AE07ECF
3A29DEC4
3C9D7A91
3C90769B
3BB65FE3
3C12DBFE
3CA6168D
3C18462E
3B6AD1C6
BC3E5260
BBD295CD
3BA79C18
3C999EE0
BBC60C3F
3C42FA69
3BBCDD5B
BB90B972
B9D55904
3C232858
3BF34FBE
3B8D797B
3BE34017
3C3EDFEB
3B53647F
BB0E826F
BBB03EA4
BB5360E6
3B4DA070
3C56E4E9
BBEEC1D3
3BC779EA
3B63C29F
BBC12B57
3BF726B1
3BCBF2DB
3C3BD21E
BA0A2A9A
3BE737F1
3C63823E
3AB16586
3B969AA6
BBE53E1B
BBA244A3
3BEDAC3F
3C7FE443
3B86D6A9
BB87BAEB
B9AB953B
BBB380A9
B9BD023C
3C555D34
3C854A7D
3BD9ADDE
3C272926
3C9C0F42
BB2367C7
BC2FD602
BB5F6E81
BA8E7C47
BB506A36
3CA06C26
3C0FBE4B
3C0F7EE4
3A68D2B2
3B95BE93
BC2E4311
BB84E2F7
BC3E0F07
3AB6B2E0
BC61DC70
BD48CB2B
39E305F0
3B4E7503
3CAB8621
3CE76C2A
BC97D09E
BC91D08C
BC4D4C6F
3CF26352
3C242C28
3CA6A52E
3BA1506D
3AABCB02
3B3D5FD9
3A1EBE24
3BB4F0A9
3B2A0FC3
BAE9763C
3A869FD5
B91D242F
BB9E8B42
3A87E67C
3BC7AA55
3BB05C4F
B952650E
BBBB2E59
BB03D83C
BA3D3FDA
3CAF7201
3C96BA17
3C41BD00
3BD13535
3CBADF59
3B29DA64
BC0B87C2
BBFC0624
BB6FEC59
3B8C6456
3CC75903
BBD1B590
3C8C3842
3C3FDFA5
BB167C68
3A5626DA
3895C57E
3B312C8B
BB8C08E7
3B4441D8
3B149A82
3AE92B5C
3ABE97C0
BB48FC63
3B0FCC98
BA8CE7B2
B974C966
3A0E6E57
BB87E2A0
BB31CC4B
3A5CFEF4
BA2203D8
3C7456B7
3C5BE008
3BE99FDA
3C1F7295
3CA9AEE5
BA915991
BBA8F23B
BBD9CB5E
BB4449C8
3B987B9E
3CA25A15
B925C528
3C28371A
3BDB7DEA
BB98B9B1
3A18F2B2
3C150E84
3C027A39
3B99CB2C
3C246172
3C1A64C2
3B34C86F
BADDCF4D
BB32466C
BB8AA30A
3A59450B
3C55E1DA
BAB28C73
3BD85A57
3B9388A8
BBBF612D
3B98B38C
37CB3764
3B59BCF4
3B435FD3
3C3E13A8
3C74F083
38008CEC
3ACC1D8B
BBA58F39
BC0602EA
3BD06BE8
3C8EF36D
BB269884
3A002BE8
3B13F7C5
BB07C98D
3B127C92
3BD947D7
3CAEABC3
BBDFEEF0
3C170CEF
3C580597
BB8FB837
BC3F3D98
BADC19E4
BC092B17
3B231E67
3BBD48CE
3BE1E3DE
3A831B20
3B12F423
B7F49A5A
BC3D0415
BC0211B8
BCDB635C
3C2A8BA2
BC4FEDA4
BD700F81
3BB101D0
3C821048
3CA9D4EE
3CF2F905
BC60C725
BC8078C5
BCC11588
3CE6E3C5
3C3F0FD3
3C704FAC
3BBE0DFB
3B3C1DB6
3C3C8316
BBC142EA
3B44DA02
BB5BF7AC
BC2CA795
BB091FAE
BA631511
3A406D1D
384EEB93
3B0B90FD
3C77C297
3AAA45DA
3930099C
3AFA1B1F
BA06D934
3CA6D9CF
3CC8FECD
3BD5EA54
3C5C84AE
3C9DEA87
BBBCADF7
BC3DFFC6
BB780C3B
BBE85F37
3AC52736
3CA912D4
3BA187BD
3C392203
3C1B87D9
BBCBC326
BAA80144
BC1238EA
BC06A030
B8059FC6
3B197A68
3944A3CB
3A56207E
BB90D936
BA08CA10
3B3BC277
3A4C8990
3A9ED1DB
BBDEDCE7
3A0F7572
B9B1AA38
3B9AC661
3A0B43A8
3C815199
3C9508EB
3B988895
3C1CF912
3C87CEDC
BB249432
BBB70DCE
BB5C7D36
BB972358
3AC74BCF
3C9854E0
3BC5DD2D
3C135316
3BEA36E3
BBB1F771
3A5FCB7A
3BAF5D96
3C07F6DC
BAC97CCA
3BEBC194
3C090958
3AB77001
BBCF4FA8
BA861867
BBABDC47
39FA8B66
3BD8B9D8
3B57F84C
3AFFE58F
3B433B5A
BB9FF091
3C03B165
3C084257
3CA27BD9
BC042F51
3C119B45
3C8E7C65
BA951582
3B019176
BBB0E9F4
BC57F416
3BC4A7C0
3C1C3A84
3C92EEE7
BBA388F7
BAC4DBB4
BBB7FD99
3AEB8AEB
BBAF139F
3C49CE90
BBF8AFDD
BC8FD2D3
BB3605F3
BCBF6398
BC8E51C8
3ADA261C
3B87E0EF
39FF6082
BC1B9418
3C39AC78
3BFCF50F
3C715685
3BAE8ED8
BC878F74
BC2130E4
BD32BE21
3CE33340
BB1C0236
BD69AD6E
3C0F95F4
3C46C46E
3CD0850B
3D14E703
BC5BA6DF
BC0DFCC8
BD119391
3D008827
3C9B96B7
3C6024CE
3B90C8B1
BBA6FAA6
3AA8CA1B
BB9B2A06
BB0B8C2D
3A9DCB79
BBB26668
BBE12CCA
BADDD12E
38D642DB
3B1D635F
BAEA5A36
3B8A1112
BB2B2FA3
B93CF7C4
392C4D12
3B429FF3
3C092CFA
3CAD4914
BB04C002
BB3B6180
3B82ACEB
BC9E042F
BC94F162
3A5151E9
B9C276D7
38BAE3DE
3C1013BC
3C483FF7
3C3F2FDA
3C701B84
BB0EF76C
BACBF557
BAB0E6A3
3A89488E
BC1C3428
3B251BDE
3B22FDAD
38DA2BBF
3B15E764
BB4681E7
BBEB9CA2
3A05B7AB
BB6A0700
3A73D28E
BB860E8D
BB811606
BA853152
3B08F9E7
3C037857
3C88D30A
BAB134EF
3B8BDF10
3C53B48D
BC10D13D
BC62EDE5
BA328D1A
BA4A65D3
3A552020
3C3F5691
3C1D47F9
3BAA7586
3C04A164
BB051577
3B921990
3A386D0E
3BC01D7A
BA4A77F3
BC1BE0CD
BC29CAA0
BC4631AB
BB87B2AC
390EE521
B9BBE178
BA634F68
BB722AFE
3B95F36C
3C005A1A
3C153770
BB1B1A64
3C771F60
389C5F03
3C568490
BB94DB24
BC027F94
BB3C15F8
BC5D5E25
BA60C721
BAD880BB
BC030269
3B680E73
3A932511
3C4B8371
3BA1FE88
3B95089C
BBD1FFE0
3A1F9509
3A72FBB6
3C86BC6A
BBFDAF78
BC9DC52E
BC1DA48C
BCF18B01
BBF8B7C3
BB604642
BA50AE0A
3B2F5492
BC479D00
3C64BA6A
3BDA1C38
3C1F8D3E
3B494640
BC455AA4
BC0565D9
BD159305
3CC56492
3BC6AFA4
BD424617
3C132349
3CC53284
3CCBE9F4
3CDA6FBF
BC49E0E0
BB814633
BCCF4924
3CF46B58
3C973839
3C9538C9
3A90DA21
BA5BA2FF
3B13B22E
BBCD6954
BC8DD666
BC88C6B1
BCA85D07
3B46EBC7
BAA869A3
BA6EB9E5
3AEE69F5
BC6AE86C
3B3B1846
3C2A809B
3B8C3B58
B9165675
3B0AFFF0
3B64E7E0
3C96287C
BAABF5F8
BC1EF45E
BA490E5C
BCD5E697
BCA05B01
B8AB04CE
3B8A4CE3
3A4822E6
3BA58ADF
3C8F1649
3C03877E
3C6BEABB
3B3EA6EA
3B5CC0E7
BBADE9DC
BB409210
BB74C2D1
BC99DE60
BC809EAC
BC910824
B92F83A1
BA175B9F
BA572C71
BA0C1573
BC5EB77D
BB493BE7
3BFCC264
3B5729F4
BA79C41F
3B792CE2
3B25BCA2
3C62AADF
BAE7FB6C
BC07ACF8
BB1D375F
BC99C9E7
BC3F37CD
39026706
3B8368A4
B8D006CA
3B49F51E
3C69D49E
3BF50955
3C442D3B
3B02B697
3A81F286
3A73A236
3BCAFA99
BAEEEB8E
BAE74477
BBE616A4
BC26FED8
BB8DB7D9
BAF5086A
3A861C5F
3A9CF029
BB025225
3BD2DC48
3B2FF7AE
3BCC6438
3A849887
3C070C66
3B84B38A
3C73C826
BB6C255E
3B0DDA71
BB37B345
BBF3927C
3B4C583A
BBB2D916
BB845D28
3BBD2247
3BC7168F
3C9B3EE3
BA2E1EE2
3B85A39B
BB8D6AC0
3AF1EB81
3A7278E7
3C8C9CA5
BAE13F4D
BB1B2B55
3C3D59FB
BCD06DC1
BCAC6BBF
3A365B48
3C47EF08
3BC6DED8
3C010ABB
3C92A911
BBB1CC8F
3C139FC7
3BBA0E26
BC204FD2
BC5C0702
BD2FE103
3CDC8F53
3BC038EF
BD387A15
3C378EA6
3C857300
3CD8740F
3CAFFCBE
BC542238
BBC5CD76
BD01E3CC
3D042A74
3CA76C45
3CA0C2BD
BA8C8999
3BB2CEAF
3C23C671
3A6A8A8E
39FB56F9
3B75B2DB
BBFBBB1C
395C9381
3A431FA0
BA00249A
3B800322
3A653F82
3C40EDB3
B9907246
3B8BB2C4
3B2A87B0
3B2BB41D
3B8B3649
3CA93F03
BAD465B3
BB7A7E11
3BDCF455
BCEFC3EF
BCC4233F
BAC2B5D3
3C33E46D
3B8DB73D
3C3DFF56
3CA72B25
3980CFA4
3C511D97
3B7E7C98
B821B871
BB3F1F76
BAEE43C1
BB9CA655
BC020C15
BC64C90A
BA910F14
3BF653F3
BB6C53F2
3AB83F41
39A2CA32
BC6576F7
3A709E63
3B5F30D2
3B3F046B
BAD2599D
3AE1B2A1
3B3424F1
3C756E2D
BB4E1808
BB8137F0
3B0736EC
BCB9C0AF
BC7C08A6
BB02F329
3BB06A0F
3B21DFAE
3BC62F09
3C8223FC
3B00DCE8
3C005640
3B9F73AA
3B458E93
3B0D9236
3BF8B1AB
B90BE934
BAFB999F
BB598A88
BC54C224
BC10286E
B9C74103
3B2F3B54
3B0D2842
39A4F679
3B84F810
3A9934E0
3BD3C432
B7C2F46C
3BCA788D
3BF496D7
3CB6B8DF
BA846F47
BAB8AC4D
3B63FA3F
BC56788E
BB2F5E89
BBB21DED
3B078E82
3C16EED9
3BCF65F2
3C902A9C
B9ED7F09
3BAD8559
BA91720C
3AC09BD7
3B3F094A
3C4C6F72
B848F540
BC04E75C
BB6C9028
BC984B40
BBAB549D
3BB13242
3BC944EC
3A93FBA4
BB44C3BE
3C866481
3B966F4B
3C4DFA4D
BAB96220
BBC1FE9B
BC632050
BD29C438
3CAE070A
3BA25684
BD2663AC
3C3CE58F
3BC2FDEC
3CB908D1
3CAB1CBF
BC4B81CF
BBB6B02C
BCBB4328
3CE76F38
3C28EE25
3C8D35A1
3B9B6B72
BA02935D
BB03EE03
3B96E32F
BB40A2A2
BBAD5576
BBC20897
3A886AC2
3A3CE20B
3BB54F90
3B2085DF
BB7962DF
B9B9AA09
3B95D9A0
3BF37F6F
BBDDD62D
3A6009C2
3B325FBF
3CA5F59C
BB60DBE7
BB95E240
3B6D22BE
BCCF29AC
BC750BF8
3B3F732C
3BB399D9
3ABEE55C
3B2E55CE
3C8B2F22
3B62FED6
3C180CCD
3B8CED68
3B2CCE5C
B942837F
3B685854
3B3299C8
BB2180D7
37B8A67A
BBCA9AC2
BB9DC602
BB0906BA
3BA80C53
3AD7B8F1
BA7E6CE0
3AE2A396
BAB8C2FA
3BBF494A
BAA7BDB3
3AE7AE34
3B0FF8CD
3C75CA1F
BB324153
BB7BFE65
3B25A68E
BCB388E1
BC69DF16
3A25E679
3BC7E775
3B2AECF7
3B154735
3C63BD8C
3B001657
3BE9576B
3BA6DDC3
BA51B9AD
3A55A9A4
3BD0CF31
BA34A000
BACF4409
BB9484E9
BC08BACF
BB61490C
3B6A3561
B92ACFEA
B9B8C308
BBCF57CE
3BE6396C
3AD5C259
3B887499
3AA9510C
3C02EC27
3BD18728
3C8ABFBD
BAF91CA9
BA4A50ED
39883EB8
BC12CCFC
3C2A1645
3AA74373
BC26974F
3BC31AE2
3BA32FC2
3C90604E
BB7E0C42
39EA1E56
BB6F608A
BACF48F5
3BBD8324
3CA4AD0E
BB64A34A
3B54C1FF
3B832DD6
BBD5659D
BC775B02
BA90915A
3C9C95B2
BB08B54F
BBB51BB0
3C61EDF6
3B4682EB
3C467B74
3BF3FFBE
BC3DF6B8
BC965FEE
BCE5CDFF
3C0DED82
BC291FFE
BD3FA493
3A5CC033
3B68BA53
3CB4AFCF
3C792541
BBFA6F78
BC6CCA3B
BC23BBB5
3C942771
3C3B96E5
3CCDFECB
3BDC75C2
3B6B3057
3C336091
3B4B7E49
3B539B4E
3B1E0B07
BBDC0CCD
BB98A0B8
3AB9A910
3C02C269
3AA853C9
3AE4083E
3C30EB19
3ADC2613
3B07C375
39D55884
3AD57647
B7B2DDCC
3CB44DD6
BBAC29A2
39985C98
3B4CC42E
BC923EE0
BC899680
3AB57275
3C3CF13C
BB61E9E6
38F06378
3CAD9926
3A40F052
3C311104
3BF563A1
BA23C1D9
BA2F87F0
BA2264ED
BA95588A
BAF571D8
3A235CB7
BA549D10
3BA9C680
3B7D1193
BBC63E63
B8A2D652
BB9637DB
3ACE46F1
BB4C6A22
3A109F64
BAC1127D
3AADE7EB
3A06FA68
3C845EE4
BB2C546D
BAE6F1F0
3AF6392C
BC8D5B02
BC41349F
3B2C3C47
3BD21F32
BA976B33
B9E22C4D
3C89A581
39239B5C
3BE3EE9B
3BADA952
B7436EE4
3AA928CB
3C052159
BA001DB3
3A87059E
BB1FE226
BB2D2B4F
BBFDA762
3A8CE1AE
3BFE102D
BA89AF0D
BB942718
3B85474F
38A0C04E
3BBF4CBB
39AB9477
3C0D25DF
3BF3D60C
3C8A7FD3
3A2EA8B4
3AD8316A
3BD736E6
BB85A61C
3AE109ED
BB291735
B989B4E7
3BC41A6E
3BBEB19A
3C941D9D
BB13A309
3BC701DB
BAC4EE52
BB5E94BE
3C096B90
3BFAB323
B9F2FF93
3C8A2436
3C115ED1
BC6FFF93
BC9A695E
3BDBB006
3CC2E209
BC149570
BB25027D
BB3FE864
3C283394
3C207B3F
3BBE02E4
BC671187
BCAD76C9
BCCA9359
3C005C2B
BCCA3006
BD3B4CFE
BB4743A3
3CC21D21
3CC17261
B8AD8431
BBA12BAD
BC925FA5
BC73678B
3BC4C1C6
3C8BCDA6
3CA79E6D
BB69BDE5
3BD8B686
3B2C9CB3
391897E6
3C224A46
3AEB2114
BB3B6E86
BBCCD666
3A856C1A
3B895036
3AFE3743
BBBBA41F
B9392D96
3C15E3AD
3AB967AA
BB3BA152
B9A9BE0A
3BA3D52E
3C8F09A3
BB206BAA
3C51F051
3BB0F42E
BC34C2FE
BCA6F079
3BA11D41
3CBF7866
BBDB9D29
3AA014C8
3C4E8964
3BF011CC
3C415CEF
3C3E7727
3AD0AD5A
BA0F96A8
B97D3D5A
BA82B882
BB39E503
3B768CE4
B83917BC
3A72B7B6
B9A2DFB6
BACDD606
3B19F249
3A2602FA
BA44F167
BBA9C864
3B88D749
3AB6650D
B9B621AA
3B8918A5
3C5DD551
BB1A8C0E
3BF115D4
3ABF7A96
BC21F1F7
BC6F5DA6
3B2098D7
3C8DBA89
BB4C5145
BA4A7A33
3C345203
3B793595
3C15985A
3BD1D2CF
BA324D7D
3B8A6E4F
3C1AF299
3A70D07F
3C11DBCF
3AF6263C
BBD086F3
BC23FC6B
3B8F59A2
3C840C07
BB63EE4C
BB3CEB19
B9F11B86
3B77233E
3B8A82A8
3BC073B0
3B494D72
3C35A6AA
3CB0BD18
3B3EDE56
3C3BE89D
3C31D2D1
BBA114EA
BC507BBB
BAB57436
3AC23CE4
3AC31C06
3C04608D
3BEE4F65
3B471585
BAAB3511
BB034FAC
BADE1354
3A7D2170
3C55B1C6
BB918F2C
3B2AE9C5
3BA89618
BD0AC95A
BC740D22
3BADD380
3C884DF7
BB2893ED
BA8AF28F
3B2B5494
BBAEF99D
3BC83AD1
3C76313F
BB93A2B3
BCAFA181
BC9CE8D1
3C479D99
BD0C6159
BD1BFFBF
3B97479E
3D10E8AD
3CC98A94
39669BB6
3B962602
BC1820BC
BC567820
3A928683
3CE8671A
3C52D22D
3A1E0CFC
3B6145C5
3BD0CC4A
BBAE3CFE
3AE66C4A
3BB9A178
BC6F35F1
BB7C2ED5
3B16C391
BAA23BA6
3A1992E4
3BAF42C0
3B88FF0F
BB2DE170
3AD3A1CD
3C38F09D
B91AE476
3B02D346
3C763042
BB1FC6E8
3C22B893
3AED6A01
BCC29168
BC87E07C
3BFCB289
3D11FA4C
BB925E4C
BA977C10
3C2431D3
3BD5FAAA
3C30589E
3C84E562
BB04DA70
39804259
3BEF2F80
3B5B136E
3B4B807A
3ADA62E5
3B6822A6
BC65F727
BA96CCFA
B81D6E1E
3A746401
3AF8F4CA
BBFD2614
BB3ABDA5
BADE3606
3B35BD20
38B156B0
3B86FC1D
3C513C3B
BAEAB9BF
3C31DD5D
3B9B2F01
BC93BF3B
BC7EC3A5
3BBC02BF
3CCB78B3
BB9E436B
3A857B42
3BFB0178
3BBE2DF9
3BE82A1E
3C2D9028
BAD6D6EF
3B4C4030
3B6B6397
BB35AA49
3BB3A3D9
BBAC5AD7
BC7CD655
BBD370D4
3B99AA4A
3C4D51EC
BABB5CBF
BB5EE61B
BB01637A
3A2CB455
3B9EB3FD
3BE292A0
3B2F0D9F
3C0CF218
3BA98BD4
BABD006E
3C784F4E
B9D110A2
BC512347
BB9551D7
3B160D7D
3B949757
3B3C08C6
3C1CA361
371C7DC0
3C02D9E6
3B8D58AE
BAC7986C
BC05F7AD
3C14F7C1
3BD603EE
3B5B32CC
3B970739
BB63B896
BD0C9F4A
BBE493EE
3C57C386
3C40E1F7
BB801C43
BBEE4B91
BC40F69E
3C0AEDDA
3C4F65F1
3C2C0ED3
BA0CDBD4
BC9B3811
BC9444D5
3CA4D58D
BCDDFBDF
BD11D469
3B8C7ADA
3CCE7CEB
3CF75AEE
3C7836A5
3A511360
3C117F2D
BC898BD6
3C71A81F
3CBF509C
3C2EA1FB
BA621741
3B1E02DD
3BA49AB0
B9F925C1
3BA777C4
BAFB7336
BC29F2B3
BB193F4B
3B8F09B5
BB87686A
3B7D59B3
BB7FF0BB
3B9F83A1
BC007F67
3B9B16E3
B9242A80
BAFCA95F
3C0C0BF6
3C7F54EB
BB0F600A
3C6D6775
3B5256EE
BCFA1050
BBCC4C70
3C365EDA
3CD5DF86
BBC3C2A0
BC114884
3AF440F7
3C1FB529
3C5A8EEC
3C59CD66
BAC5415D
3B1DD4EF
BBDFCC31
3A2B4345
3C862560
BAC2DD18
3A35398D
39CC6B36
3B938853
BB39DDE5
BA78C300
3B9345F5
BC8AA432
3C522584
3BCED7F3
BB36D281
BADD1284
3BA10247
3C40A20D
BB6B5106
3BFA31FA
B9FE23CB
BCCD8BCB
BC4024E6
3BC77EC2
3CA70596
BB220302
BBA4BD3D
3BFBA048
B8319DD8
3BF041E4
3C55A9CF
BA4FBEE7
3BF99AC9
3C1069A6
3ABBB2B0
3C257595
39CC388E
BC3FF1F7
BA4D16E3
3BD9FED2
3C85122F
BB0BC4CE
BBA02D5D
BA12F46F
3BEDE1B7
3B848FFA
3BBDA84F
3AECDF01
3BBC5A31
3C52D8C1
BB07D07F
3C898A28
3BBB6BD3
BC85EE7E
BB464125
3A98ED21
3C023283
3B3E0AEF
BAA980BE
3C584A77
BA8E1DFD
3B9254C2
B8E9DA2C
BAC87782
3C93BBD5
3B910568
3C436383
3B2636FE
3B147DE9
BBBDC7E5
3BD37A8A
3C30BC36
3BF80883
BC0D3F5F
3C3F0A82
BCA9E2EE
3C823D22
3BF83629
3C0F264E
3BB687C0
BCC71408
BCFEFA6F
3C8419D3
BCDB3F08
BD1947F1
3C4588EE
3C36DA82
3CDFD15B
3C0C8C82
3A89662B
3CA73318
BD00BC6A
3CA8A1FB
3C32E90E
3BB2C09A
3B85BB0A
3C11AF45
3BE3450B
3B9CF294
3B2D3D2E
BB4EFA6E
3BEC1324
3C088CEA
3B5A54A8
3C12C466
3A0A8466
3C274B41
BC0E8686
3B56C185
3B5E1038
3AD2C260
BA43A9EF
3C8719FC
3C5EC10B
3C034CDD
3BF0AE3A
3AA3F9F1
BC957381
BBBA43F4
3C3AE7C9
3BEC5D7B
BBD52152
36EE5C40
B9367696
3C8B4F99
3C068CB7
3C2DD13A
BB4469DA
BB9136B4
BB442922
39329538
3C574102
BB56CFB8
BC32CB7D
BBD8C2A7
B8F16F2D
B9F14766
39E394D0
390A28DE
3B457AFE
BB075487
3B1E100C
38672DE0
BAA72073
3C4C7EFF
3C596488
3B8E5740
3C358299
3BB17CB8
BC6F1EF2
39CE47A4
3C13A13A
3C93909C
BB8ECC9C
BB1AB0EC
BA62D479
3C464165
3BC8E908
3BFAF76C
BA3A78D0
3C278F50
3BB981E0
3BAEFDF1
3BA93E70
3B12DC89
BB8DA554
3B8D2078
3BC9E0A5
3BC724B1
BB58927E
BA501B9A
BBB38187
3C0170ED
3C089295
3C0D8426
3B854D25
3C372014
3C3F8A8A
3B2F6227
3C2043EC
3B096BCB
BB1316DA
3BA26A71
3A263354
BB9A4419
3A26BF82
3BA9E222
3BC00FC5
3BCD99B5
3BACC927
BB2F0ABA
BC05C6E1
BAA3F885
BAD9370B
3C6AD528
BBED247F
BC2473BA
BC585375
3B90210D
3C006030
BB7394C2
BB71C675
BC20AF14
BB28DD0F
3B3AEDA9
3CCC12BE
3B811E30
BB330260
BD03F17D
BD051FA1
3C824AA1
BBEC1969
BCCB15BE
3C2CF31A
BB8DDAE2
3CA6F37F
3C22C52D
3BCA8BF4
3C3660CA
BC28CC69
3C6B2EAA
3BE66A49
3C3F7B73
3BA79C0F
BB464F75
3BEC241C
3BB58957
BBEFD98A
BB70CCD7
BB60F098
B79744DE
3A17FDDC
BC5B0698
3A994E4F
BA2B9CC0
3C01498D
BB131BD2
3BD99FC2
BB619878
BB4DA3F1
3C478049
3BEF62D2
3C381C16
3BF31145
BB3B6A42
BC78D63C
3BE51F59
3C6BBF8A
3C859B5D
BC081F78
BB37A5AF
BC45381D
3C14F7F9
3CA3DDA4
3CBA65FE
3A9B9F36
3A771E57
3A3DF60A
BA646F60
3C34C4B5
BB26C04F
3AEE1B84
BB6C6E66
BB64D77E
BBEAD6C1
BAF36524
3A625B7B
BAE21223
3C2C2A8B
3AF003CB
BBA0967C
BB2B77CE
3C44EF94
3C177CF6
3BF00EBB
3B4F335F
3A59FFAC
BC48B81A
3B9A185A
3C20E226
3C8F9484
BB8088C6
BB75FDE3
BBF52090
3C0C8F3C
3C6A34A5
3C33F65C
BB02BD30
3BBDDDD4
BA01F3F0
3C05F4A7
385E7DA0
BBBC0FF8
BB730065
3C2551FF
3BADF9B8
3C34B8B2
BB4BB3A5
BBDB8A8A
BC5F0315
3B9FAA18
3C470730
3C10206C
3B3603EF
3C825A63
3C0ED69E
3C183A34
3BCC9ABA
3A252076
BBCFE209
3C3B3FA8
3B3CA78E
BA35565E
3A85FE45
3AE0FFAA
3A6CBF14
BB695BC9
3C09F473
BA98EB18
BBA14157
BB92CB17
39E4D046
BACC543D
BBB22563
BC3FC0D6
BC2631C7
3BDA6BEA
BA08D14F
3C91AA22
BBC8C64B
BC7743A9
BBE8B098
3C726B54
3BF06B40
BBBD6F59
3B00C80B
BD00E88D
BD110839
3C9E7351
3C90F45C
BCEAA18D
3CBA0579
BB85A5B1
3C93C7EB
3C446D80
3B0454B1
3CB711BA
BCD5AD78
3C7E0BE6
3825C54E
3BB021CD
BB44C901
BBBA96F7
BAB54478
B92CB111
3BE8E5C4
BBAE8426
BAD2B3A7
3BDB66A0
BBBC6F03
B91B62FF
3B8D4CBC
BB8132C2
BB0382A7
3C4165BF
3C005ED3
B9F5A480
BBA1E470
BB517FCC
3B79C67C
3B9EFE06
BBB5A69D
3AAB9CC7
BC03FA3F
3B69596F
3C0E00CB
3C42519E
BC0EC568
BC56B491
BC207571
3C417F41
3C6BA5DF
3B06471A
BAA6886C
3C354A86
3B68B6C6
3BFE17F5
3B4A8A95
BAE9CA9A
BB14827B
3BC4D7E9
3B923597
39DD8F0E
BA962B0E
3BCA5292
BB97609E
BBDDF024
3B69972C
BB0CE0FC
BB539221
3B4D038E
3B64E7B9
3BDFD244
BBD5B425
BA84E711
BC616ACA
3C1F33BE
3BC5A718
3CB2B526
BBACBD9A
BC16BD03
BC0CF4A8
3C180130
3C4AD7E0
3CA2DBDA
BB4F9162
BBEFA56A
BB46E28C
3B12D5E4
BBEE8D33
BB877ECB
BB60C9E7
3965CA7E
3AB7B3FF
3C124438
BB731275
BC4521A6
BC156C32
3BE29CD5
3C066F56
3BEA3675
BA9BE288
3B02B2DF
3C1C812B
3BD1D9B2
BB886539
3A1D11E3
BB5BF308
3B8F3E57
BB109367
3A6B94E9
3AAAAFB4
BB997982
B96685FC
3B78A825
3BE4C1B4
3B54031B
BB9A62BD
BD131CBD
BC636719
3BBE21C7
BC99B4FA
3B536FB5
BC987CAF
BCB5F8B4
3C05C4C4
3CC418CF
BC317E33
BC93CFA7
BC4F6117
3C768AEC
3BC36F6E
3C5203C0
3C8B0E47
BBB072FB
BC8B31AA
3CA05E3F
3C7D6A7C
BC7AA41D
3CAD4971
B9B93661
3CCAEB50
3C4E37ED
BB4947DE
3CEF7C39
BC40F742
BA323C7A
BC0936F2
BC2CF1D6
BB1BBFBC
BCB20773
BC77F9A7
3AF2DBDE
BC0E1675
3BCA4B7D
BBB6B048
BC10BA33
3B19042A
3B62804A
39136FB6
3B1D1A29
BC334548
3B76EC9E
B8320989
BB574802
BAC8B4C7
BC7DEAB1
BC0DCDB6
3B808FB7
BC9BD41B
3B75EAD4
BC95549C
BBF7F7D1
3BEF69D3
3C88143C
BBF16E5A
BCB5F982
BC619122
3C906144
3C9330C6
3C9EB332
394F8618
BBC2368D
39874E4D
3C1A1078
BB4D8831
BBB9DBF4
3B1D652F
BB908D45
39BD7F58
BB378DAF
BB3030AC
BA66AD88
BC2752D8
3AD3FACA
BA71F5B5
BAEE4E6B
BB17B29F
BC8E97A0
BB84CB57
3B0CD9B6
BC3D388A
39D4DF54
BC3F82F4
3B0B7630
3B6E6C79
3C8AAAB9
BBA3488E
BC797EC3
BB955903
3C33F7B3
3C313936
3C4C3971
B9D78A6C
BC9A7DC4
BC141B8E
3AFC9520
BC1409ED
3B3C25A5
BC47FCC8
BC0F7673
3B3F486A
3C93AF53
BB2F47A9
BC5FA094
BC113BF7
3BE55C0E
3BEC3B5A
3C35AE09
BAF9BFF1
BCA4A68B
BC52D9C5
3B5F9296
BC173A66
3C313C79
BC303D9F
BC06EEBE
3A71EA7B
3BA9E068
3AF06BC9
BBAEAAF7
BB6EBE9C
39D58969
3BDAC2AE
393B7240
BB8783EA
BC0AED00
3AB73907
3BC5CC9F
3B3D913F
3C3FD93E
BCAB4AC3
BC9DEF1C
3A4CD72D
3CBE1EB8
BB347C22
BC4F3A84
BC5D2BB7
3C1A518D
3C51B6CB
3C9418BA
3CD730A4
3C87657E
B998DEDD
3CEDAACF
3C97895B
BC601271
3CE8B64B
3A06A76A
3CD73270
3B87E8F5
3A234AD6
3D29E35C
BBB618AD
BB2A7FF7
BBDAA65A
BC420204
3B471103
BB8C7776
39B0FE24
3B1B1044
3B90E3D8
3BEC2EB9
BB872128
BBB2AC01
39C37BFB
3B1EAE4B
3B20692D
3C19C3DB
3B2FD6A9
BB59B713
3B3755B0
3A02A8A7
BBA21AA5
BC46A939
BB0DD377
39E3C6AE
BC4CE2AF
3B3D755C
BCDB835B
BCA9FB83
3B468A3C
3D184268
BBDC183C
BCD74868
3AFE8CA3
3C9359A0
3C841928
3CFBD35B
BB8E8D2B
BCDAED07
BCC6640F
3BAF96AD
BBF74337
3BE1AA20
BBADD9E8
BC89A22F
3B86BE32
3AE965DF
BB25E0D0
BAC87A1B
BC9F51C3
BBC885C4
3AD95D5E
3A026576
BA9FE49D
BCAA6CCC
BB888C51
B97DD3B2
BC2BDA98
3BA6E41D
BCA609CE
BC3C1810
3B0F7F31
3CF12A67
BB97DEED
BC92BEA8
BB20C082
3C4E0AE1
3C295909
3CBB4805
BA8C7764
BABE06F5
3B917D4D
BA966E09
BADB1E60
3B96398A
BC3CC1C5
BB07214D
BB1150A4
3C8D9EC6
BA9BEFC5
BC3C7FAC
3B9450F0
3BEBDAD5
3BD3A80A
3C14AD21
3977F0A4
BACE25E2
3BB95C80
3AB0255A
BB145650
3C1A3EAB
BC1D9720
3B34919B
BBE20346
3B68B4E5
3B6FC554
BB888AB2
B9D7A653
BB3C48B5
3B9E8958
3B8A67C9
BC867D18
BBD5373D
BB51AB70
3C0A10D1
BB400993
BB60479E
BCC5A431
BCA85E69
BB91E5C5
3CABE51A
BBBA497E
BBC114FB
BC024582
3C8B16E2
3BE2257C
3C87E0E8
3CFAC376
3C0FCDEE
BC02EEE2
3CBD0648
3C451A97
BC2588E1
3D128B1D
3A90564D
3CFB01F5
BAE1B4A2
B824332C
3D3FBCDD
3BB8B878
BB4B7C32
BC2AEEA1
BCCD3790
BBAA7C4F
3AB919C2
39BD40B3
3BB5C22C
3B300F26
BB1FBAA6
BC39D50F
BB81A2F9
BAC4D38B
B90E63B7
BAFEA68C
3C0E0895
BAD38D91
3AE4FD86
BB2ECA8C
3A198F74
BBB5196F
BBC465F1
3C0716D2
BB8B426E
BB660182
3A491B85
BCF120E5
BB8F2974
BB55BE9E
3D12458B
BB97225D
BCCEBA16
3BF770EA
3CA59205
3C8BC6C2
3C878C0B
3BB261F7
BB0DF44C
3A91EF33
3B3E8986
BB4AA376
3BC695FE
3B3FB3D0
395C4616
BAEF58EE
B9B16F8A
39A96966
3B42E31E
3B07C5FF
BC3D5DAD
39288556
BBA4FA6C
BB90B5EA
BBD7D5C3
3C12C5B5
BB7E2122
BBE18DA3
3B44E1C3
BCA76013
BBEFE582
BB504A7D
3CF2798E
BB3E6C4C
BC908195
3C51DA63
3C6264C7
3C222F6E
3CBAD523
BBD1C692
BB9D1AB1
BB1DF8CC
BA573427
BB18843C
B9E33AF8
BC335C37
BB80DA83
BB19AFE5
3C9FC06C
BAEF5D31
BC3766A1
3AC1A8DE
3C1BA342
3B67E031
3C51E286
BBD7E5CD
BA9E4FA3
3B42B0B5
3A0F5D8A
BB0E826A
3B91C621
BC27ECCD
BB2658BF
BC0277B4
3BDE1D00
3A9F1DE3
BBB1CEB3
3C08C6E3
3B845086
39F6717A
3C2B9060
BC7FB995
BC41BD47
BC790E23
BB4AE1EE
BB9FB1E8
B99B4422
BC5A8E3A
BBB27341
BB87ACDC
3CC217CE
BB58E3FA
BCC90510
BC13D399
3B1F044F
3C229C65
3C753256
3D300E91
3C1C8FE4
BC2DBB5F
3CCABA83
3C9A6E45
BC4F6D3F
3D4F3405
3C60E18B
3CE7450E
BC175C24
3B182024
3D31437B
3A151AF7
BC6C8798
BBCE1AC2
BCF4504D
39C21C8E
BB679742
BC2863B0
B9D4186B
BAA86BDD
3BB5D1A7
3AD501D4
B9CAB9D2
BA890C11
3B00912D
3A2D777E
B9F955DD
BB92E0B8
BBD8697E
B9FFB590
BAC03AFE
BC508B5F
BC2488EA
3A3DCB63
BC017A8E
BBEFED44
BBAE25AC
BCF5B5D7
BB14067A
BAEC5B64
3D17D4DA
BBBB2CB6
BCE3DF2C
3BA3DB7C
3CABDE9B
3C631938
3CF8DC83
BB4F646F
38B71303
BB850ADE
3BA4BBE8
BA04B122
3B653C18
3B0032F3
BB79290A
BB1F4383
3AF70CEC
BAAC8CC5
3ACE8C4F
BAF21180
B7F8A4B0
BB77F68F
3B2707F2
BC155A18
BBD6E8B5
3AA27B6F
BBB5B65D
BBEC84AB
BB5F89F4
BCB66C64
BB40DBD7
BB460CC7
3CEDE52A
BB4EB365
BC962B0A
3B6AA70B
3C68C21D
3BCB77FD
3CBC00EF
BC431E2A
BB4B36D9
BBC87970
BBA8A58E
BA0426E9
BB835599
BC54AC03
3ABAA28D
BA9A2AD4
3C9057FA
BADA4102
BCA38012
BBFAC15D
3C023766
3BAC1701
3C1D629D
BC0CBF5D
BB6B1688
3AE88CC6
BBB6F07F
395AEED0
3B1940B0
BC3FAE37
B78AB778
BBA4A5A1
3C0B91E2
3AD4A3E1
BC3AC985
3AE42E6B
3B194EA0
3B884264
3BD8BD34
BC853442
3C4BD2D6
3B56E0F3
BC1DD291
3B809E51
BC21BCDD
BD0BDA1C
3BCCACAD
3B9ABE4F
3CC10438
BBB26FD7
BD27E01B
BB9E4C73
3C9CDA58
3C1C50B6
3C5D66BD
3D360EA1
3B79CE7D
BC3D4EF5
3CFF3ACA
3CED8868
BC894C64
3D56B0CD
3ABC12DD
3CB0A8D5
BC312817
3BC6766D
3D41F227
BB8E5185
BC531482
BC52487D
BD061CB1
BBA273A8
3C875C05
3AE912CD
BB6C2E80
39EF45EA
BB72ED38
BB9E2FB3
3BCC7E23
3A8338FD
BB054324
3AF08561
BC0830DF
3B9E0E5F
395F4AD2
3AAF16E8
BACB742F
BCBF248B
BACF9D55
B8CDC367
BC5ED2FC
BC775DC8
BC324A50
BD2404DD
3BAD3EA0
3B0D743B
3D177D31
BBFE5132
BD2FF90B
BB9E3A03
3CB47C80
3C76480D
3CD9180A
BBA9AAB4
37CBC564
392C2EC2
B9991B05
3902A322
39A9EDD5
BB8438A2
BB216506
BB1D54DF
3A107CC8
B82C94A8
BB4135B1
BA18F4CF
BB7DD4EC
BAD4FC3D
BAE40C08
BC8D0CBF
BB29F4F5
BB472251
BC22AD24
BB6D16DE
BBAC7634
BCD938CC
3A9D6DF0
B9F8F047
3CE4BC12
BB70EA1B
BCEA3A88
B89DCE3A
3C66F399
3C17EFB5
3CA22763
BBA07D59
3BE08CD7
BAA01617
BC0EA2A8
BBCB1769
BC185019
BC9FB9A3
3BD11D1E
3A86CC28
3C827227
BB5AC88D
BCD5A9C8
3A5B01F4
3C57A50D
3BB7179C
3C3D1488
39CCBABC
3C5972F6
3B324D98
BC3FF28C
BB19AE5E
BB2C6102
BC811826
3C36A2ED
BB711B0E
3BCB1EA3
3AF5AC1F
BC662A4D
3BEB06BA
3C18611A
3BB485CE
3BCA9F50
BA9E6642
3A5F6BA7
3C1BFC85
BC97862A
BCC70D0A
BC91B186
BD1F997D
3C22B1CF
3C78DA18
3C9222D3
BC0F8810
BD2286E7
3C9A56F7
3CB192EF
3C83D2DF
3CBDFF86
3D190CA1
3B6BEB48
BC3646C7
3D197299
3D212688
BBF17949
3D6A2749
BC2F69E0
3CA0AC7C
BC5EF7B6
3C0E5D4C
3D6FB893
BBAD9822
BCCBFC12
BC84D770
BD2D13C1
3C3BF962
3BA99095
3BF64F5D
BB92F66D
B9706C62
BB99EB0A
BBE03E16
3B6AD880
39EF3004
BB0A9732
3ADE4F54
BB6F0B17
3C5CFC94
3AC11261
3A149E8E
3A664D41
BC5AEA6E
39C85798
3BF9B7D3
BC91AF67
BCA6D5FA
BCDD48E9
BD51DB27
3C5C845A
3C5A2245
3D083161
BC3BC905
BD55A9F7
3CC098C0
3CF5AE2E
3CA9D595
3D152971
3BA072CD
3CA7DFE2
B9F16C54
BC52B934
3A4EBB19
B9933C9B
3B80BE7A
