BF3CC640
3F04D1AF
3EC93A85
BF109501
3F0AA508
BEB4A7C7
3EA5F478
3F10A7E2
BF326B91
BE85DE13
BF1152C6
BEC5A012
BEFF4F16
3D9BE7B6
3F06CC34
3E7C2803
BEFDF14E
BF1A98CC
3E080723
3EEB1C38
3F2C5768
3E8B3185
BD5BE437
BF0A7A8E
3F236E8B
3F31C4E8
3F37D89F
BDF68A51
3E67877A
3E3C03AD
3E9A5BE2
BF2A9F08
BF310234
BF26229E
3F243398
3F0A87F0
BEBB4C45
BF1F754D
BEB5CB1F
3D99E6E0
BE344DB4
BF50C76D
3ED03E44
3D85A317
3EC3D258
3EB1B80E
BE6A713C
3EC8B155
3F238AC8
3ED1B30F
BF45152B
BF350EAF
BE9CA89C
BEDA7EBA
3D0073F8
3EE15C53
3E87C50F
BF2A7D89
3F2E0DC4
3E24A3CF
3E6C2AE0
3F3BBED6
3F0A7BC6
3F0C6551
BEBCA440
3D744BB5
BEF34149
BD96DF24
BDA31841
3EF981CC
BEA3DD2B
BEEAD7B4
3F1DF8E3
3F1DCED0
BEF24459
BECF6FAF
BF0ADD18
BEAD897B
3EDFE3C9
BEA4AB66
3F07265F
BF0A615D
BE9BCB5C
3F00A7A1
BEEA8EB9
BF07F4FF
BF1C2927
BECB6A9C
BE88E387
BEED479C
3E235468
BF023B7B
3F1966B7
3EEA1535
3DF3137B
BE409A93
BF258706
BD9BDAB4
3ECD20EE
3ECDDDF7
3E8D97AC
BEC66C14
3F1F0723
BEAB2EF9
BEB2513D
3EE4DACE
BEB7D0A2
BED50596
BE09CE60
BE892765
3F2640CC
3EF71B52
BE63E8BE
BE28EBF5
3ECCF5B6
BF036DB3
BF06C523
BD43BA80
BE35E801
BEDE0485
3E3FDD2B
3F050366
BF1C31FD
BF1290BB
BEBF2D27
3F094D5D
3F33E09E
3F29509E
3F2ED638
BEDBF1A3
BF14BB3A
3E1482B0
3EE4BA98
BECBCDEB
3F166AD0
3EB51601
BEBC9196
BF01D96C
3EFC5A15
BF26937D
3F05B1B9
3EC34F44
3F1C320B
BE5D64AF
BEFE08E3
BF036E6B
BE92179C
BE3C5DB1
3F0F9C48
BD3FE97D
BE47AA1A
BECDCF08
BDF5D58C
BE5A5F46
BEE801FB
BE5D9753
BE0B8F05
3DA5757A
BE147E85
3F252F73
