3F396B13
BDEED93A
3F43135C
3F2BF9B9
BB0A35B3
3C8BAD5A
3C843B35
3F290788
BD002CCC
BEA6198A
3F07CF17
3F202F10
BEC1F7AA
BE5F685C
3EB9E43D
BEBE8607
BEEF92BF
3EFE95F8
3E4EC117
3EF3C95B
BEB861B0
BE8EBFFB
3F4DCF0C
3F2BA8AA
BE053765
3F39A70B
BE7501F8
3EA5D357
BE9E2263
BD4C9CDD
3DA946EC
3F362DD5
3E481F64
BEC42D25
3DB74464
BD4803C6
BEF06481
3BDD3327
3F11F4C5
3F0D3F78
3E21F801
BF133737
BE1AF669
BDBE34F9
3F2EF3C5
3F34762F
BDA75732
BE78B495
3F4253FE
3F26C1AE
3E9D2FD2
BEE4B7EF
3F272BE6
BEC32905
BE401E2C
3F301200
3EA9713C
3ED8BBBC
3EED2CDB
BF19586C
BF0ACD13
BF259CF2
BF1F2A8E
BF188EF0
3ED943E4
BDCE397B
3E765E1C
BF1B10A9
3EA60438
BF1412E4
BEECDA57
BEB96126
BED40532
BEFDC874
3ECB6299
3EDDA02D
3F210661
BE9D4130
BE88B222
3F26E7A9
BEE2D62B
3F19F06B
BEFF8ACD
BEDC4A56
3F2E5493
BEEA688D
3EA3638A
BEA99F5F
BF22CB12
3F1F24FE
BF06D218
3ECBEDC7
3EF664C3
BEDCC005
3ED39EE2
3E29A458
BF0E2D95
BF11F435
3E8A19D6
3E8209AB
BF2B3E89
BF2D9BEA
3E5AB3F0
BF1659D3
BF354895
BECC3D91
3F2ACB13
BEBF3887
3F070458
BEAE6934
3F1AC09F
BE3AFAF7
