BDF8018F
BD956997
3DEAFB24
3D6AF064
BC5629B6
BD65A8B8
BCDA8A8B
BD8D9294
3E42759F
BE2F635E
3DD50DB9
BD9E0370
BE26997C
BD03E4AF
BB116ABE
BD5D7EB1
3D948C35
BDD18896
3DBC68D1
3D92CE6E
BE1E0258
3D5E1FF8
3D0CB0E2
BD13C49E
BE56DCEE
BE471EBD
BD83B617
3D2417E0
BDF8924C
3D0A6F8D
3C17A120
BE343E1F
BDDDD2F1
3CF2ACD7
3D4A3AFC
BE4179D7
BD9C689C
BE621F6C
3C956CA1
3E23D925
BE58B397
BDFD107B
BE4876D9
BE20AE83
BD016779
BD80028C
3D9FE8BF
BCC8D211
BDA454CF
3C85828F
3E3DC558
3D34B1F6
3E5A02CF
3D8584C3
BD0AEF26
3E000BEF
3DD0046D
BE1CBF40
3DE0F8A3
3DC9553A
BE2EAB70
3B0C2CF1
BE0AF0FE
3E328C28
BE1330E0
BCC907D9
3D4F0B09
BE3F2CEB
BD808683
3E2AE222
3E098D2D
BDCD5397
3E35D195
3E1108BB
3E38A550
BDAD1A47
3CB97859
BC8EEB97
BE3D5176
BD90F87E
3E15AEB5
BCB33067
3CDDED77
3D6D1955
3D3863D0
BC62DBC9
BCC19D61
3BDDF4FB
3D847C26
BDDC9733
3D4485D4
3E067D4E
BD8701C5
BE082B0A
3DC9AC82
BD33EEBC
BD8B0436
BE4E2AF7
3E1BCC39
BDA5CA4B
3B969E48
BD9DBC01
BE782A50
BD99F0A8
BDDC0392
BDEB3B60
BC84E48B
BD249A68
BE12741F
BDFDB30F
3E0F1410
3C8AE99B
BC470E58
BDD70405
B90499F7
3C14B20E
3DDABB23
3DA97821
BE7C4B44
3CCB8416
BE2DFD16
BE835230
BCA849A9
BE7EBAD5
3CD3AC7C
3D925191
BCC8C333
BDAE6EAF
3D731A1D
3E5F030B
3DF2AA55
BCE96FC7
BD896AA5
BDB38558
BC806FCB
3E36392A
BE269C53
BE4BBABB
3E4BD3F5
BD378590
3E84AAD5
3E35D46C
BBFB5DF5
3DC6636E
3E4B0429
3E3FA15E
BD8250E2
3C9B825C
3D6E49CE
3CFDBABA
3E59106E
3E21BFF2
BE27086E
3D144C3C
3DDFCB03
3D7EBA8A
BE00B2D5
BE294CC4
BDC17B85
BD88B80E
BDF96E2D
BE6B9A57
BDAE0395
BE004CDA
BE0B5AF1
3D8D7C4B
BDBCB036
BD87FB0B
3E7631F3
BBF62AE3
BC02856F
3BB85E2B
BBC40586
BDD49E32
BB2E2285
BD291E87
3E0D2ADB
BE386C36
3DE1958D
3DB1A715
3D142A70
3CF79B3E
3C8DA993
BE4DD480
3E1B3F09
BE1615EB
3D895F75
BE04001E
3E126B5E
3E28E454
BDC1E72A
BE746C17
BDCE138E
3DE766C9
BD775202
BE312A82
3D16806A
3D43491B
BB225171
BC223710
3D76157F
3D872071
BD326526
BD2AA374
3DACC017
3D39A911
3D8284D7
3D8741E5
3D55F36C
BE5C2461
BD45799D
BE49AE5D
BD28890E
3DD6053B
BE2770BF
BE19332F
BE0C1682
3CD1CD62
3E64E8DC
3DC1A796
3DD99C08
3D790195
3D923F0B
3E2C4522
BE3F7B21
3DD87EB1
3D945C50
3C74544A
3E8D8A74
BDC08088
BDCC3B7A
3DE95F15
BD610190
BD79BFB7
BE436AD2
3DE7CA0F
3DE90660
BD893D8F
3DCAFECB
BD936092
BE4FEEC5
BDCC6F65
BC0F3FD8
3C584385
BDD962B5
BDCD13C3
3CACD587
BD90EA83
BCE18900
3D027759
3DD5D7C0
3CCF5681
BDA642B8
BE488865
3D430736
BE52EDCC
BCBB1427
3DECCF0E
BDE97C0F
BE098880
3B555555
3DF685BD
BE5FBDE3
3D9F2DC2
BDC1947E
BD0AD745
3E04F5FC
3CB2CF12
3C5C5466
BE4107BE
BD51C637
3D417265
3DC04138
3D402258
3CCC8C09
BDBCD2A9
BE773AEF
BD7920E4
3CDF749A
BD813563
BE302ABC
3D80D2D6
3DF29CE0
3E4ADBFE
BE09EC4D
BC9CF7FD
3D2AB06E
BE02BF7F
3C107C49
BE6B6FFD
BE618DB4
3E2FA994
3E056035
BE14C113
BDF6F98B
BDBF1216
3E1500E7
BDEACD0C
3CF56AEC
BDB5BE1B
BD5EC083
3DF3F9A6
3E1BC947
BD8A9FBB
BD2A5C22
BDAB6598
3E78E4B9
3D9888B4
3DD5A79F
BD43A5F3
BE1B8F1E
BDC8FC4B
3DF97E45
BDF252D6
3D59676A
BDEA69DC
BD243D5C
BE0543FA
BD7E2358
BDC3CA03
BE396DCD
BE7A0DB7
3E0663FC
BDAD80EB
BD38EB27
BDBA7104
BE4C770E
3C740DE1
3DC0E6D5
3DA1EECF
BCDC0BDB
3D643781
3E094C4C
3D922FB7
BE181B39
3D9A0E9B
3A995904
BE63CEFB
BD126034
BE37672F
BDACA4F5
BD41026B
3E338FCD
3E032672
BD404AAC
3DECBC22
BD60AA31
3D76F054
BE13EB8B
BE07E28A
BD889D5F
BDBD5C16
3E21CBDD
3C8B0126
BCABABE6
BDFE209C
B8D6B7BA
3D9BDE01
BD1D0891
BB104E57
BE0727BF
BD012B94
BE0B9443
3DBC5F4F
3E07AA18
BCDAD2A4
3D1D7584
3E46DDCD
BD96AE1C
3C85DFF1
BD144134
3D017814
3E529B1A
BE0FD131
BE0E4DCD
3DF1DA9D
BD0AF641
3E0E0A5B
3E07E721
3DA7B90F
BD01EB8B
BE072452
3D9FC501
BD837AD9
3CEC22A5
BE05C119
3E4C1E30
BD4B4FD2
3D18BFBF
BE48DE18
3DEEFE3A
3D854554
3CB54DB8
BC5B0626
BDFD4B4E
3D8DFD3A
BDC5A4C4
3E717C3D
3C92A0C9
3CCDF9AC
3DBDCD8E
3D47D5F0
BE9CB039
3E1F6054
3E6CE769
3E1E34A6
3DDFD4A2
3DB8AFF2
3CCFFA72
BD3999A1
BD997DC0
3E45BE25
3E9E9CE4
3C7F4C62
3E34C1FF
BE30D354
3E824AAF
3D13D4DB
3C2A006D
3CB58974
3E0AA37B
BD801BCE
3DFED84D
BCEE6E74
BE25C685
3CB93C27
3CCF70E5
3B7AF666
3E636CEF
3D31D9B1
3C82AF2B
3E1D2403
BD546AD3
BDCDAD94
BC2364A4
BE7E0B4D
3CCCECEF
3D4E641D
3D2ED378
3E26BA55
BE42CF8A
3E2B9861
3DCFB99A
3DB56488
3D7D70A0
3DC0B97F
BD242A75
3D4298B6
BBB753B3
BE3CEF0C
BE4C4DDC
3E0013BC
3DF49341
BE213E4E
BD433315
BE490ED9
3C01A423
BC28A125
3E7BE120
BBD273EA
3E2BC34E
3DE23199
BDDE3D47
3D0E7948
BBF0FA81
BE0CC3A9
BE034693
3BC9287D
BC73F96F
BE1F0FFB
3C65C6AD
BDD93C5F
BDC7B5A3
BDC32B36
BE535879
BE055F5A
BE551FFF
BB6F81FF
3C8C0F3B
BC4F6B5D
BE17894D
BE16573A
BD4E51F9
BD57D0F0
BE36EB27
3DA6F0B0
BC828B32
3E1433E3
3C299DD8
BCDD73C1
BD41090F
BD23F7F7
BD4345D1
3DCE1A50
BE0443BE
3D1C5518
3D57C6D2
BDEF48C3
BD5819C3
BE0E3A6C
BDD03930
3DF2FD03
BE51C533
BE124AC4
BDE72D53
3D3EC42D
3DBC23F5
BD8ACF2E
BE04AFDE
3DDFE3F3
3C59AE8C
3D5C6D43
BE43EE4F
3DF145A4
BE3298EA
BB86D77F
BD5B59DE
BB1F8CFC
3DA67202
BDFAB564
3E1BEA65
3DA81DF2
3DB4C67F
3DC0CFBB
BE01F170
BE599CC9
BE18F38C
BDACE05F
BD6134DC
BE41F8C7
BD81ADEB
3D97C2E4
BDF49B3B
3E79B905
BDD66CA4
BE36AAB3
3D0B994D
BE0D8893
BE044CC3
3E0A33B1
BD5AA127
3C82A738
3DC7B6DC
BE04C5F8
BC2ECC9A
BDF7C33C
BDEACEAE
3CF5BEC7
3E30C478
BDBA6D43
3D066ABF
BB89FED1
BD7D0677
BD8C3CD4
3BD6CA5E
3C9A4BA9
BDACF979
BD5FFC34
BE4F0FEE
BC5C3AAA
BD1E1A5D
BE124206
BE005714
3E43AF23
3CF11FB8
BDD74422
BE9CA30E
3DD55FE7
BDB5B72E
BDED617C
BE2E6990
BB450A50
3CC5054C
BDAC59C7
3DF58AF7
BC586E57
3E02CAA8
3DFF13BF
3E037CF7
3D7B244E
BB461EFD
BCC44AD6
BE5B92C4
BDA8A5CA
3DDA42D9
BB8AC614
3E1C7198
3CD6BD12
BDF85028
3C1DBBE8
BD7860D2
BD89AE1A
3E0C3349
BE005113
3DD31C1E
3DD8B6FA
BE107395
3E467240
3DE69583
BE0F40EF
3D8F0AD0
BE2FD46D
BC27BF25
BDAB0C6D
BC294A5A
BDD1C20A
BC3674A1
BC27A87C
3E555F86
BD33A6F8
3E21E5BC
BD7C97E9
BCF167D9
BE0012DA
3CCD8FAC
3DC530A7
BD511F90
3DD895CD
3E048467
BD541068
BE0C2631
3DC21F8A
3D73EB91
BD43DF67
BD478CF8
BD3E507E
BE41985A
BDA478B3
BD50BCE2
3E226936
BDDDF6F3
BCC33C72
BE3CC97D
3D360863
BDD6159D
3DDA6438
3E09327A
3D2DC319
BD98A71E
3DE45B1B
BCAE2102
BD9291CB
3E6446DC
3D525E1D
3DBD0F77
BDE370BF
BD650C62
BDC69C0B
BDEE8838
BE2FCA91
BDB53782
BE772EE5
BDA51FAD
BE6A3E62
3D1A0C39
BE533A8C
3E0824B2
BC797001
BC3AE118
3B074441
3E1C573A
BE6532D4
BD9AFCB6
3E416361
BE1CD8B7
3CB4F9E9
BC98D628
3E0CD73A
3E0CD85C
3D52EABD
3E0071CD
BE59A3AE
BDA741B9
3D276371
BDEBEDDF
3E1384C8
3D218310
BCEA9B9C
BDE79E27
BD90E0F3
BD0ACEAA
BD9A6F15
BCD93B07
3DA2AE5C
BD5B73D9
3D98B597
3E31060C
BE96D03D
3E45EFD3
3C88A64F
BD7C3245
BD3A6CFC
BE02B544
BE2A7626
BD431BE3
BE1D7CB9
3C8B6C30
3E06286B
3D9A133E
3E0B58E8
3DDFA2E1
3E2FC5D0
3DACEE14
BD76A30C
BE363DC5
BE2D4BCA
3D840187
BE2B5608
3DB93E23
BCA8D976
BDC3E02C
BE564E97
BBA7B160
BD3EA66C
3E289CC6
3C928716
3DC966EB
3D24D723
BE60FB28
3E41E775
BE68B13E
3D7B139A
BD4FC2EE
3D8D2150
3E1C05C1
BDE9EBAD
BDBAF816
3E60BEF7
BE22F4E3
BDB77989
BDF65959
3CAA24B5
3E66DBAE
392C657A
3DEDF364
3D55BF46
BDD1B2F8
3D15B74E
BDF825F9
3C12EE93
BD894415
BD1B3AE0
BDA41347
3DF1EE1E
BD2FB5BD
3CCDA902
BD685523
BE05D7F5
BE5CC9D7
3D62A6D3
BDE93348
3D1F1806
3CE0DF3F
3DBDCAE3
BD1C6DCE
BD9AE7D7
3D37403F
3D765D14
3CC138F0
BDEAF487
3E5ECC8D
3D46F978
BE0760A8
BDA77313
3D2C002D
BDEF77E4
3A2379D8
3DF464B0
BE031366
BE176C9A
BD20AB90
3E0DA554
BD61A65F
BCA11CE2
BE1EE815
3D36AD31
3DA9961A
3DC67D96
BD965785
3E2DCD6D
BD0F7A18
3D132A49
BDE1AD62
BD0A7CFE
BDCD1F5A
BE27E2CB
BDBE883E
BE0AF61F
3D9D2E67
3E224DB9
BD29F294
3DEE3071
3DCFD9AC
BDDE5911
3E3CFAA8
3E645898
3D62FE87
BD92A371
BB1114A9
3D3789AC
BDAE6F22
3C8CCC25
BE132212
BC649324
3C915C56
BE09324B
BD924FB0
3DAB8971
BD4974DF
3CCA71A7
3D1765AA
BD69E249
BDE140E1
BC82780F
3C8BB4E4
BE4A46D4
3D045B4F
BE2B34AB
BD19AD69
3E41D310
3D97249B
BCC116DF
3D37B65A
3DA44B39
BE354178
BD25FD4B
BD34FBDF
BC751980
BE351FE3
BE291CCF
3D2E4C1B
BDF03914
BDF7E748
3D4A0ABD
BDA768C7
BD1B7E09
3D37AD9F
3D0CCBCC
BD398EF2
3DD3D768
BDA10694
BE23659E
BDB690CE
BD383C9E
BE329DAC
BE7CADEE
BD7BEA67
3DF53E80
BD666DF4
3DA86F82
3DD9469A
BDEA5C81
BD38DE1A
BDFBC741
BE3B59FC
3D5E2F72
BCD90BD3
BDCDD9A4
3E228590
3E108F93
BE6F931A
BDA9D2BE
BC87FABF
3DC2FB97
3BE17BC1
3E1802DB
BDECF92F
3D984E0F
3D4C0753
3E3915E2
BDD2D970
BC36F074
3D19DBD2
BE14DE3E
3D2DDDD0
BE2C9984
3BB76369
BDF488E5
BE02D7CB
BD5CCF22
BE07D4FA
BA294242
BD600C1D
BDC70F4F
3DF2E081
3E2D2066
3D2C7F4C
3E646932
3D86513C
3E04E65B
BE38E276
3E976ED2
3D22C35F
BC2D16B3
BE1CD30E
BE4DC07E
BD026FD4
3E1D96F7
BDE3F996
BD215DBE
BE48F59A
3E4193C5
BDAFF841
BDB8D321
BE3D2E11
3DD27D2E
BE181826
3D8FB423
3DFC8718
BDE8421E
BE2E3265
3DE8FE43
3D76D561
3CEF96C0
3DAC24DA
3CE33CB7
3DA969B7
3DCA32D0
BD599DDB
3E7A832D
3D8FA566
3D4897F1
BE1E3CC2
BE03825F
3DBC24B6
3D8EEFBA
BE399505
BE043ACB
BDAF0F37
3DB63C73
BCC80639
3E745A80
BCF581AC
BE2953A6
3D330BA4
3C3D8134
BD679368
BE1AF156
BCA1EEE9
BC837E5D
3DC557EB
3E4563DF
BD456BAE
3D893696
BD15B8AF
BE44D8BF
BCE0AD09
BE70AB53
BE0720B0
3DE31AF2
3D9C623D
BE005D8C
3E2292B7
3DC31778
BDC8360F
BD94333F
3DE8E699
3D891382
3DC420C2
BDCE4471
BBD08099
BD245C8E
BE24F5E8
3D8109D6
3D91BB4C
3CD1722E
3E04145B
3D859AC4
BD64ABD3
BD1D8FA5
3BD1F672
BD868343
BDF055DD
BDB596FA
3D79894E
3DEFABBE
3E0FB081
BD6EDA53
3D9942CA
3DD90477
3C8ACC08
3E3797FD
BE13A176
BD8D3579
BD54D811
3E0F5972
BDECC6CF
3D1D916F
BC673647
3D8EADDC
3D012FDF
BDADEC94
BD5DDBC4
3D1CA529
BD049C64
B99B73A7
BDC83F5E
3E0B1E29
BD54E633
BD39F337
BE0318F9
3DBDA56D
3DAD0673
3E2F7B21
BCB87ECE
3D4037D9
3D08055E
3CE9166E
3E332400
3BC0DD8D
3DFE86AC
BDD1E53B
BDE0F64F
3D33AA17
BD90ADCF
BE10C212
3C22AEE9
BC533306
BE396743
BDE778F8
3D83690C
3DAD7690
BBFD02D2
BDFD17DD
BDE91376
3DAB7797
3E526B4A
3D3F80F8
BE00B907
BE0A86B0
3D675575
BDDA9F4B
BDE03949
3DFD8A96
BCD65A20
BE17F420
3D0B5581
3E4E0D0D
BE80283E
3D96239D
3D0D4D4B
3E19E534
BDD74B2F
BDE1992D
3E1D2F8D
BE191476
BE3F5492
BE3EDC78
3DD66C7F
3E19D40D
3E16988B
BE0F3C51
BE1B2E4F
3DCDB0B1
3C86A6B2
3E2DC8A5
BD8D2905
3C3076A3
3E27EDB2
BD9B6B59
3DD99B3B
BD945201
3E4F616C
3DE68FAB
3D9453C8
BB0C15BF
BE036498
BE284350
BD419DB4
3D637AA0
3D747780
3D93B8BF
BD1D5FDB
3D96F154
3DB730F6
3DD35B70
BE6F8162
BE0DF92A
BE419F93
BD791365
BE0DE0F9
BD1FCABB
3D01B96F
BD832018
BE3AD20E
3E477803
3D260EC3
BC48B44A
3D822164
3DFF15F6
BD4EC432
BC24F6D3
BCA6A160
BE0A0B87
3DF5283C
3D869DEF
3D2E45ED
3E02AFEE
3DAEE164
3DADAD3A
3E2DE705
BE0F0AE3
BD855F85
BDF010C7
3DE0A097
BCF1CE30
3C816F46
BDCE6811
BD69BE78
3D1923D8
3CBD27CB
BDA81256
BB41B455
BCAE98FF
3D435BE5
3D13A6A3
BDB64489
BD43A72A
3E156EE1
BCA4F806
BBBD8D74
3C85EE43
3BCB817A
BE162977
BE05A496
3D93133F
BDEB1A96
3E0C3BB4
3D427643
BD932511
BDB440F6
3DC0066D
BC69DEDB
BE1E39A9
BDD0C248
BD9AA26A
3C5DD55B
BDE26E38
BE40F3B2
3AEF61C7
BD3C5619
BDFD0CF2
BE1F24F9
3E8E23F9
3DD0DD88
BE25BFD5
3E1DF23A
3E510A79
3B441E95
3E49BC73
3DE66ABF
3E1D894A
BCF33391
BC87F140
BCE0051A
3D8AF791
3D7B7C1E
3DEA572A
BDE74A7F
3D99D016
BCDF39E4
3DCB0BFE
3DE881B8
BDC3A804
BE3B9C82
3D0BD5C2
BE222F42
BE11642C
3E427A11
3DB4A86A
BDDA0626
BE669998
3E294C95
3DDA20A0
BD823DE0
3D9F31E8
3DE4FC00
3D82CCBF
3D51BC12
BC06A7A8
3B2F7B6E
3DEB2843
3CC04E78
BE582FF3
BD9F2991
BCFEA291
BE287D71
3E05D23C
3CB9861E
3B97F36D
3D4A37FF
BC717E2E
3DCFAA16
BDAA10B6
BD422184
BE64409E
BCE86D41
BE1454DA
3E6FA89B
BE38E3B2
3DEEDE81
3DAFAA77
BE4A5963
3DAF527C
BD625339
BD18794A
3C5641A9
3D0551FD
3CFDF756
3E0EF8E6
BE578257
3D6E1366
BCADA081
3E02E75A
BDC2A2BE
3E12F498
BE070A02
BE1D8716
3DA1E159
BDBB911E
3D0F08BE
BE0BDD88
39EA71B9
3D5A6663
BD4FCAA9
3D6D65CC
BD7A514C
3DA151EF
BD4EEFBA
3C607EE9
3D8A752A
BDE87BB7
3E1A3531
BE52B2D1
BD46E17D
BD1FAEA9
3CD8909E
398CFEA7
3CFE0B98
BCA841BC
3DA18C6F
BDB5D38A
3D77FBB4
BD9E4191
3B0B56CB
BD0F87FD
3D9B8510
3D09DDDE
3C94A287
BD1267D5
BE233B4A
3D9EB94F
BD5A3931
3B078768
BD3A0E83
3E239DAF
BE358080
BE4093B7
BD411BE5
3D50B4C9
BD9B5C15
3E61C706
3DB53F12
3E5242BC
BDF35FA9
BD4B38A9
BDBA7DE3
BD88C4BA
3E31118D
BD375C46
3C30F24A
3E13411F
3DB57367
BD61836B
BDD016E1
3DCA26C8
3DD73F91
BD526046
3E4E6D92
BE2CF23B
