BF1F3844
BEDC283F
BCEADDE5
3F036238
3EB838CD
3F29F12B
BE4F28E3
BECF5336
BEDD4F9B
BF24F269
3EAAB16D
BEE08A37
3E94B33F
BD22834D
3EEF35DE
3EEE91C1
BDDC326F
3F5125D9
BDA337F6
BEF4000D
BE9C9759
BF14A1FD
3E947F93
3E9D1020
BED78DE5
BF2D88A6
3ED50B25
3F1EA317
3F208369
3F1EAD59
3C62FE0E
3D8AFBB0
3E7DE74A
BE72912F
BF0BD81F
3F567C9E
BF1F5BBB
BE5C9F59
BF3586A2
BEB892EE
BF059661
BD25E0D2
3EBEE8F0
3F007052
3F00C881
BED222B6
BDFAF25C
BEED7AE7
BEA71585
BEF39EE7
3F07A3AB
3F1AA921
BE840564
BEF16845
3EA3642E
3F40894F
BE44B772
BF200DA9
BECABEC0
BF098489
3F1BEE42
3E61FB68
BF1119B4
BF04226A
3EE6AC14
3E6CE948
BF0462D4
BEAEE6CA
BEF284A9
BF117005
BEDDD833
BE87A7DF
3F34EF0B
3F204AA2
BF259767
3CA7D8B6
BED45CD8
3DE94E39
BF1676CC
BE314919
BF069847
BDF3CF85
3F02C450
BEDFE6FA
3E4732D1
3DC64E06
BEFBB3FA
BEED1517
3F03DE85
3F3D3818
BEECDAC4
BF201EC0
BEBAB32B
3EAD0FE0
3F4A0A67
BEDF69BA
BF0021DE
BF08F170
BED292BF
BE7DD877
BF0D47B1
BF121826
BF1D4526
BD3FB66E
3EC38AF3
BF0B4A59
3F270A12
3F34625B
BEF5E63C
BF1E58A9
3F0F817C
BE02E263
BD1C71B3
3EEFA8F8
3EB84596
BEE6E8C4
3F147846
3E93F458
BF2D758E
BF36E9A8
BEEF98A8
BF1FCE52
3F1E0204
BF0146DD
3EB22501
BEC6D7BA
3F035087
BEE5E7A2
3F1A08E4
3DBB0423
BE9E8540
BEE8D11E
3F04D366
3EBB553B
BEAAB8AE
BF0F0689
BEF14781
BF3A30B4
3F28C5F6
3EFCB1AE
BE99493D
3F429E4A
3EB0E6FD
3F149E2D
BF019786
BE8813E0
BE3955A1
BEC18BEA
3EFAF544
BECF29F7
BF19FFE3
3F35DD06
BEEA810C
3F3E3463
BE2EAB94
BF0AC8F1
3F3B21CA
BF02DCB9
BEB7326D
BEA5D4F1
