BDDE63E1
BD9D773B
3E1225B8
BC79C27B
3E2468AB
3D68EC4A
3DC8C118
BB5CAC12
BE96CAB5
BDBAA62A
3C466C94
3C440C18
3D13AAD6
3D92D780
BD890819
3C79A43D
BD190AB9
BD8CA588
BD13EEE8
3A00B360
3B89BB94
BC723109
BB16460F
BB46E03E
BD84848C
BD45CEBF
BC0904B5
BD3E25EA
3D1404D7
BBA7E5E4
3CF13584
3D065F3D
BD1E8135
3D6652EF
3D87F452
BA9C1A8F
3CC69AEB
3DAB69B2
3D191E5C
3C5DDA48
3DCC13FA
3D1E7A58
BBE70E4F
BD8FB7AE
3C93EDC7
3C3A7F24
BDA21C11
3D97EE70
BCE79C82
BD1BB3AC
BC833B3C
3D8D4D2C
BDF8F67C
BD69CC12
BD816CFF
3D4666BF
3B38FAAD
BD088660
3D4715FC
BC2B3F07
3C0257A4
BD660931
3DBF6AA6
BC2A2FC3
3CF9C419
BD108E63
3CA33A5B
3DDB7C1F
BC88763B
3DD53708
3DE40FEF
BD72C6BD
BC9D9171
BCCE73E9
BD245F2A
BDA10456
3D6B01D7
BCDA53D4
3CCB91FA
3DC6D853
3C0E82FC
BC529A93
BCBA1E9F
3C2F285E
BC62DF1A
BCA0175D
BCEFDFCC
3CA990EF
3CBE8D61
BCACEBA9
BA67C592
BC2DA86E
3B8E4EE4
BC14A9DC
3CA36BAE
3C82F3EF
BDBBA5ED
BD6E054F
3E10B36A
3D30F97B
3D2B7EC4
3DCC1E2F
3E0369B4
3D8AEAEC
3A024C70
3D3316CF
BD2D64C7
3BDC220D
3C9B0248
BD42DF09
BD0E56B0
3D9B1373
BCBE770F
BC522026
3A8BBB1A
BB82DA58
3C379A61
3B7A8D8A
3C8003AC
3B9BA28B
BA6B51E6
BC677E5C
BA858E18
BBE7E734
3BA0A7C8
3BBCEC0E
3C09C2C9
3C0CE92A
3DC1D407
BD91C29A
BC71A4AE
BD785182
BC8169EA
3CE4709E
3AC3D955
3D13A7F5
BDD4580A
3D271E40
BD704C60
3D40F09A
BC31A68F
BD9F6F73
3D6EAAE4
BDA48DD5
3CB11017
3DCBAA40
3CDDD888
3D8F1D06
3CB13306
3DD90D8E
3D874156
3D55F686
3E02D9F8
3D10E85E
BCFB0ED5
BDB042AE
BB103923
3C94006D
3B1ED18D
3D852961
BD7D896F
BD75FC7B
3D0B4C4B
BE08B6CF
3DF49E3F
3D6E00DD
3E16D816
BD44401F
BE89DC0D
3B92DBDF
3D864B3B
3DD73361
3BF4FA07
BC7ED5EB
3CA0483D
BDBA49E9
BD11398A
BAF3938A
3CB9440F
3BF35948
BD4D3364
BD329409
BC94BCE5
BC51B5D6
3D022D6F
BC0D3DD3
3CEF50B1
BC13A40D
BCC51B2A
3D27CFB7
3D7F1DEB
BD2B4225
3D5DBAA3
3DB48C31
3C640D87
BD900520
3D87A644
BC6E73B7
3DAADA13
3BE85BD9
3D2FFAAB
3D29FA29
BD081CEE
3DC5CEBB
BD84F7D8
BCF71011
BCC140C0
BCEC6AB4
BCB89538
BB248329
3D356D1E
BD2F1F0C
3D3283E7
BD6556D0
3D0D86E3
BCC48534
3CE0BFBF
BD1D8E22
3D1B4255
3C7F3530
3CE29140
BCA65B5B
BD8A1136
3DAE4305
BD522992
BDCF66DC
BDA25A4A
BC235058
BD0B4F9E
BC854701
BD5A96F0
3CAC3DFC
BE67685A
BDAEF312
3DEE6972
3D5E569C
BD6A761D
3B7CC4A5
3DBB5D38
BD37B90C
3CCEC8FF
BD64D2D6
BC47476B
BD29975D
3C6E5695
BD08B913
BD6755DD
3C7F8C49
3CED7E09
BD5728EA
3DE77BE6
3B7A704C
BCB1904A
BBF07905
BB0ACCC8
3C1A6FA5
BD86C04F
BD9B2851
3D914D2A
3CEEA8AE
3D3DE874
BCA0FA0B
BD0C7A0D
3D7FCEA0
BAA5DE08
BDA230F7
BBD24339
3CA0F9E4
BC2102E9
3C20F1E9
BCB45B87
3D64C1C4
BD7179BF
BD3EED3E
BB108949
BC066156
3C75BD04
3C459F58
3B02D586
3D311CE5
3B9B229C
BD009411
3B7EAADA
3D3F28EC
3C32D346
BD5F8A11
BCB9F1D3
BAF9C107
BD3B95F8
BC0D5B6F
3D6836D1
BC318419
3D0C9907
3C9FC4ED
BD0A9390
3C9183FD
BD2A1BBE
BC81CA96
BC8D0550
3CD84112
BC22DB9E
39C37535
BCC45A3F
3CA507F3
3D7CEA31
3CC82511
3CFB7A93
3C25785C
BC067CE5
3D3B6FDD
3C01BB8F
3C52EAEA
BAAFB85C
BBBC9A05
3CDC402D
3CD8341F
3CBA550F
BDB2B500
3CB203DF
BD2254EB
3D1A33FA
BBB5BB4A
BC4AD502
3DC416CC
BDD93BF8
3CAAAE09
3CF5E629
BD1E6899
3C7192DE
BBC7D0D5
3CA10E10
BDB606B0
3C06A3EF
3D72BC57
3DE39BC6
BB998FF6
BBA0A627
BB22E7C2
3CCE61B9
3BFC9B26
3C4C59B9
3CF11777
BC2E56B0
3CACD6F1
BB03C925
BC0E3B6E
BD0B3F16
3C7A2C87
3C916419
BD240B65
BC9B6265
BD29EAB2
BC50D037
BD436702
BCBB5A1E
3D589C48
BD237072
3D02515D
BCA75093
BC930757
3D8130E6
3C7EA97B
BD9DC450
BA3B8D5A
3C86D89C
BC9515BE
3D0EEFE7
3D45FFF8
BC28C801
BC7D2ABF
3C410AEE
BB2DC2B5
3B4EBE1D
3C7A908C
BC6D8F3B
3BDCBABA
3C262FF7
BC3C15EF
BCE71BDD
3BF36F48
BA71D758
BCA3128D
BC3C4E69
BB0C9FA3
3D1C4D34
BC7A8B04
3B4C00B4
BD7F3905
BCDEEA00
3CF0ED6B
BC35E07D
3CC1C80E
BC7763AB
3CB443D2
BD6F87FD
3BBBA73E
3C0F4BCD
BC35184F
3D035103
BD420F69
3CBE2F26
3D330511
BA27ADE3
3C91973C
BB8FA851
3CEA9DF5
3CC4E0A8
BCA6A931
3B9922E1
BB817CA1
3C8BB824
BD5F3A3A
3C58D2B2
3D1C9CDD
3C8D7941
3D022E83
BBA4C585
BDB606F1
BDA40DEC
BD0F6936
BCC25BDC
BD801D42
BDB8D18F
3C9C9179
396DF01E
BD49374C
3D588688
3CDBEC1F
BBC9B5B4
3C5B09D8
3DA9B61A
3CFCFFD5
BC6A748A
3D4BD5D7
B9D6A909
BDDEE811
3D334011
BC54C72C
3D56B6D7
3C638687
3DA5C229
BC10C0CC
3CC11A58
3CEB1F82
BDA2669A
BD377979
3D7E9BBE
3C995980
BC28300C
3D9592A8
BC7434B2
BD3159F9
3D2A7690
BD6AE49F
BC7947EE
BD10EF12
3CE4629F
BCC28D9A
3D8D4917
3CED79F5
BD355328
BC9E0B2A
BD85E454
3862E6A8
3D242B90
3B883A72
3C666AAA
3C955BD1
3CBACACA
BCE36D9A
BD54D45F
3D40FCCF
BD88A2B0
BD0DF982
BCDE86EA
3C7454E4
3D357F0F
3A27890A
3CA4AAB3
BC711C8C
3BB75D3F
BD7CACAE
BDB93B5D
BCE9AACF
BD1E73FD
BCE45144
BCFAA847
3CAD1529
3D1207DE
BC82C163
3D1153D9
BCF4EB10
3CBB66A8
BC345673
3D29233E
3CDC8F7B
3C7F78ED
BCAFA87A
BD08EC0B
3C31E3B6
3B95A72A
3CD87F2F
3D0C2765
3D35CC6E
BD0A2500
38FA6EEA
3CA9C06B
BBFF0EED
3D08F02C
3C6A7FDA
3C9BBC3D
BCC7DE89
BCE24FD2
BCA685C5
BC926454
BD40F8A7
3D0DB372
BCC5F336
BD1D87DF
BCCE092E
3CB976C3
BC2B291A
BC1532FB
3D42EDFE
3C94E254
BD579DFC
BD9EBB1C
BCFD30B7
BCC9E735
3C93F2B7
BCDE3D97
BD3202A4
3D2CAA86
BC65D8A1
3D144229
BBB82E50
3D4891BD
BC3A5401
3C8591D0
3CA8C24C
3CC66AA2
BD527B5F
BD4C7C71
3D024E5A
BAA3D334
BB17266F
BC250E3E
BCF8700E
3D26D1F2
BCAFE37E
BCB19AE2
3CA34101
3AAE17D5
BCD0C6F1
BC84AC49
3D60D90C
BC86FEBC
BCBB4276
BD98BAC1
3CDAA79C
3D430C39
3C354F7C
3D336753
BBC36B0A
3C6E0118
3D430F89
3CB98E71
3CF0FF5B
3CC04C96
3D4E54AD
3D280DDD
3D2EF573
BCCB0BA3
BDA07C4D
BC0F6D32
BD982129
3D86E55D
BCD2718C
BD11B56C
3BBF5310
BDABC6EF
3D8D0A30
3D6AA17C
3D6F4AA5
BD37E97E
3C8AEAE9
38904FCE
BD43F034
3BBC6780
3CB4DFA7
3DCD4793
3B2E8731
3B729EA0
BC966CF0
BC9EF9B9
BCE685E5
BBDA4BA8
3B83CF4B
BC9292F6
BC44D71A
3CDF165F
BBA97D25
3CB0CBE1
3BA42ED0
3C4C4F9C
BCD9AA2F
BC807B0B
BC81192D
3BB6AAC1
3C015EE9
BBCFD9DA
3D93B045
BBB9E614
3C09CA4D
3B9744AE
3D2EE699
3C64B12C
BD804B1A
BD048325
3C67F29B
3CA49541
BDA11A58
BBE464E8
BA57DD83
3C167DED
B90F186F
B8C8A878
3C3C3597
3C138816
3B04429F
BCA13137
BABB58F5
3C1D91C4
BCB4AA84
BB941B79
3BC84C33
3B9B0805
BC94FE6B
BC0B6045
BCB7F62A
3D648831
BC995575
3D4C7819
3A009861
BC0BFC0D
3C45BFEA
BD50B58F
3D054037
BD53E26C
3B2A231F
BD570CB0
3BA945FB
3D2F955A
BC32846A
3C93CC0B
BCDE3DA6
BC1BFF4A
3D03244C
BD268B18
3B733850
3C9367B5
3BDE4B9D
3D264229
3BAF23F7
3C869EE6
3C28A7CE
BB8EB971
BC8DAA9A
BC6317E9
3B2F024B
3CEF036E
3D0A24E2
BCDC58DD
BD4E1732
BD1BA9D4
BD4C1451
3D1BC68B
BD025BB3
3C89DD39
3D7F586F
3CBAAA2C
BC8B11F5
BC977901
3D0F9443
3D0763E3
BD4826F6
BB133636
3CAF7300
3BCCE62E
3C5FD3AC
BB90596A
BD353EBB
3C4BA962
BD42E0CA
3CC5BE49
3C5C152F
BBE5A3C3
BD15C552
3B9D188D
3C41A20E
BD724D83
BCD58263
3CC825B4
3D71EF40
3D333F65
3CF24160
3B84C875
BC662482
3D1C26E0
3A8D8D05
3BA36804
3C958226
3D19774A
BD416382
3D14ADEC
3C859636
BCB767B6
BCE75363
3CA699F7
3D2481D3
BCFAC074
BC21EC01
3D522588
BC96689E
3C886828
BC124F94
BD33BD55
3B9FE417
3A16EA55
B93A930A
3CE10D09
3D67C766
BB211073
BD1346B7
BD08781B
BCDD93C8
BB820BF0
BD45AEE9
BD7C4E95
BDAA02E6
3CEE05F2
3B979B73
3D231F41
3C603660
3C2EA870
3DC2FE8B
3D008FD7
3C27EDB7
3D1307C8
3C5224E4
BCD0321E
3D26FF4A
BD0A2E57
BD8334B8
BD37D13B
3C387085
BD85D03F
BC1AF117
3C5B5DA6
3BC327C7
BCACD03A
3BC6BC0D
3CF7AEEE
3C9951FC
3D02C4CC
3CFAE271
3CDE8E28
BB9A0FF0
BD9E8A40
3B7F4088
BD8A84FC
BD5B8782
3C12B247
BD83F824
BC376CA0
BDB82690
3D0055FF
3C5909BD
3BA15CF1
3CA8AB17
BBD248E2
BC77FB77
BDAE3BB6
3C7B9350
3C9131E2
3C85C9E3
3CC15EE1
BD9EBDC7
3D4A1AF2
BCB22718
3BE78612
BD0AF746
3D414031
3D28800B
3D274C50
3D0484C2
BCD42AD0
BD34EEAC
BD2EE40B
BC9CD3F1
3B593597
3D1B57E3
BD32859A
3BED7A48
3D551D59
BD165D2E
BC055B7C
BC755CD5
3C196E5D
BD512C5B
BC143D31
3CC70F5E
3BEABEA2
BC661EA3
BDA185CE
3CC86734
3D81104E
3D14B3D4
3C34DDEB
BD1E184D
3C900835
BCC560E3
3AF8C0A9
BCC370D7
3C661C82
3D34870B
3D5B4754
3C091409
3C079529
BCD1291E
3CB92A63
BD887784
3D6A1E7A
BB8EDB97
3D07857A
BC2289BF
BD4912C7
BC8E5D5C
3C0753C5
3D76B9FA
BCA84075
3D5029FF
3CBB68FB
3C4D2C78
BBD3102A
3C960F7B
3D4FEF8E
3C784D80
3CAA7C1D
3BCDBAFC
3B969891
BC585429
3CA6AF8D
3C5F2405
BC6DBFAC
3ADFEE43
3C8C32CA
BD50EB01
3BA67608
3BD61486
B9D859DF
BC39E619
3A6D9ABB
3AE0E17A
BC9E181C
3A9400C8
BD3C4D3E
3CC7AB61
3C97CAD4
BC4C45DD
3C13B4FD
3C970AB1
3B949E29
BD7795C9
39BD32F4
BD064ADA
BD07BF0F
3C6565CC
3D71E48B
BCEA66FD
BA5F398F
3B7A7822
BC4AF55E
3C34423E
3C7E708A
39C9098F
BBCC3D82
BBABECF9
3C43C6B1
BD04A7D1
BC843CAA
BAB94BB4
BC2BEE43
BB137D30
BBEC3227
BAA23E0F
3CEE59D9
3A6D4F67
3D504411
BD41412E
3CED71E7
BCE82B2F
BD103778
3C85E394
3D000AB5
BCE637A2
BD10CDF0
3C7DB41E
3C81A12C
BD838BC6
3C1D06E7
3A811628
3C801121
BC92F4FC
BC35FFD4
BD3F34F8
3BCE56B3
3C7431F5
BBE04F45
3D671514
3BB389C3
3D240451
3C976FDF
3D772F90
3BE21DAC
3C9A1473
3D11AD30
3CAC52C4
3C03996B
3AB72E96
BBDDDF67
BD600855
3D770655
3B8F02FB
3D33BA3A
3C6E48D0
3D157725
3BF400AD
3C84B9A3
3CF0C54F
3D020553
BCF6E25E
BC680EB9
3CD05F25
3D3FC2DE
BD5E5A21
3BF2D43F
BC98DCCE
3CD0B043
3D424BEC
3CC86904
3D2CF4A9
BC4F6AA7
3CADF516
BC78DDD9
BCB2ADD3
BA7C3E01
BBC5738C
BC34E79B
3C62C073
3D49E889
3CA186F0
3CD2F23C
3CC0B2A8
3A14AF76
3CECB564
3D4B50EE
BC0F94D4
3CC0B0C8
3B4FFC63
BA0D670B
3CDF6679
BC72EC3D
BD03648F
3CF13807
3CD59ADB
3C2C37B6
3D561761
3D0BA3AF
3CFA99F5
BD07B8AD
BC135FF5
BDCDE670
BCCEF807
BC8EBF03
BD926C43
3D20E34C
3CD2343F
BB9018C9
BCC77326
BC97CB24
BD0011BC
3CF3B608
BD1C6AFE
BB8E159D
BCA23256
BBFA282E
BD7E93D8
3B43CC21
3B39C855
3D3C290F
3CC0FE5F
BC28A37A
3D56421F
BCAE61CA
3B8F57A2
BB568789
3D53A3E6
BD0213D2
BBA1C65B
B9D163C8
BB2E14FE
BD800DA1
BD1455E5
3CD5BF6C
3B8B3839
BCEABE8C
3DC6BCB4
3D58E9D6
3D2A4076
3BF93AAF
3C3F06D2
BC5745C7
3C305D68
3B853F9E
3D2E4BF1
BD2CB8BD
BC2723DE
3D621DDB
BD990033
3AD0F527
BD109A03
3CA28187
BC3F9086
BC89A0FA
3CC6B044
BD000863
3CF057BA
BD20E08C
BC6FF4CF
3B3AC50A
BC2EEB47
BCC437A0
BCCB0CFD
3D147476
BC8EA0BB
3C6533D8
BBA1EAFC
3BF9E0C7
BD1879D0
3D0A6476
3CA98AC5
3B9AFD03
3BCACBB7
BD32F8A3
BAAE8C59
3BE8F544
BA114CF2
BD3B16C2
3C5A7E71
3C6FBBBA
BD36CF86
3C8A3F01
BC9D9D77
BCBDE992
BD49CC25
BC9CB5C1
BB6BC8A5
3D27192A
3CAF967A
BC09BCDE
BD464EE6
3D34E421
3D63C14D
BBD54AC2
BD69F99F
3B561B3A
3C61722E
3D09F817
3D7A805E
BC1B70BF
3CBD54A8
3DC21261
3D3DDE47
3CB076EA
3CB84808
3CE9AD6C
3C2A7F66
BC82A133
BD6CC1C1
3D6B851C
BD5D17A2
BD005268
BBD0DB37
3C8F3304
3C503EE2
BC31B2F0
3D67D9FC
3CDDD150
3B154121
BC83B96A
3C5052B5
3DA4CC01
3CD2EDC3
3C64D965
BB052D6B
3B12151F
BB548D7C
BC89BE43
3B183CF0
3991F4C4
BC0FCA84
3CAFF689
BC2B711A
BB56720E
BC8B3494
BB0AD262
BB675D4A
3C0FC043
BA7BB2BF
3C03FF46
BD2696A3
BD3CC10E
3CE6F0F5
3D610EC1
3D105488
3C40940F
BD064B2C
BC7710C0
BD8686C6
BCF7080E
BBCB2371
BC9C0BB0
3D028E3A
3C8C560B
BBF69420
BB056C91
BA8D532B
BB2FA4FF
3B98EE05
3C1DF116
3A132672
BC352DC2
BBDF9F23
3BE5BC39
BCDAF60E
BC75FA65
BBFE69D1
BC0742BC
3BAF0AFC
BBBA9136
BC2D4971
BD002D26
BCCB1714
3D2A0AF9
BCE52959
3C4FD5D1
3B7ABB77
3C34F31F
BC0E510D
3930A89F
BCE0A08C
BCE24AE2
3CE46A2C
39C0A349
BC1368CD
3CA7498F
BD70AADE
BBDB3E7D
BCD8764A
3C68FBA4
BD09B306
3CA28486
BC50375F
3C762BD7
BD11FE45
BCB5E556
3D8989BA
3C0B5C90
3CFE16F0
3CC9F738
3C0DCA68
3D849ABA
BB8BAE8A
BBB1DA63
3A0C8CF3
3D149815
BD59D130
3CE458A9
3D7C534A
BCAEDF88
3BAC91BA
3BC31BAA
BD1EA8F7
3AE4AA5B
3D57B115
BC6CA9F3
BD2B4CD0
BD02ADE0
3BF572D6
3D1ACC72
BB519766
3D0D0A0A
BCB579A4
BD226679
3B6E125F
BD310DD2
BC8EDC05
BC86743D
3D1DF570
3CF42BD0
3D3BA18F
3B7DEE7B
3BE09572
3C75A6B3
BC9BBF5A
3D1F4D7B
BB0CB5AF
3D9E5C6E
BC029C4A
3C70B34E
BCBDD22C
3BF1EF33
BCFCA9A3
3D01432D
3D27638F
3C75A318
BBA90218
BC1E75BF
BD1272B4
BCB04E1D
BC9498ED
BC1BF3F0
3D764CDC
3C77C5C7
3D3E23D4
BC3AB4D8
BD0E195E
BC1BFAC4
BCAFBB95
BC242128
BD5543F1
3CC6A459
BD16087E
3BDA1F31
BCE1C6CF
BCDC5F7C
BD83A59C
BC9766C6
BC3AE5DE
BC0158D0
BD93F197
BC854C08
BC40834A
BD41030F
3BD47112
3D211718
3B80BAA9
BC599B25
BC160438
3C29CED7
BD2B162E
BC2A8336
3D0E1AE8
3C8528D0
3CCA13FC
3C47300C
3D147060
BD41EB01
BD82B6C0
3D95DC9C
3A82718E
BB3601BC
3DA17688
3CE15D9B
3C5B298A
BC447FF1
BD213D8A
BCA1455F
38AAFB5B
3BE19B22
3CC04002
BDAF2319
3C364689
3CF00385
BD11D3FA
BC9400D9
BC18ABDB
3D1D738F
BCE86D1A
3CCB5549
BD4937AF
3C461052
3D5110D8
BCA6629A
BB53B348
3CC08B48
BBAA98DD
BCAF44CB
3C4D4E5A
BBA630BB
BD224C8D
BD2C58C9
3C471325
BCB838AE
BC6E5F0F
BD16A7B0
BCDA6E3B
3AA06C28
3C01EA94
BD0CF856
BC0C78D5
3BE747DC
3C214EE6
BD07955E
BAD7861B
3C6B8D93
BD0FDED0
BC8BE216
BC6B1D28
BC72408A
B98E1395
BD2335BC
BD15107A
3BFCFAA0
BB3A1BE1
BD5E1FA5
3CF91FC9
3D8B5F8A
3CA48FBA
3CE9DDF2
BD653B78
3CCE8411
3CD2C8FA
3CECDB63
3D6FA67B
3C2E81CB
BD0E0A2F
BC997159
BC904149
3C4D9E43
BC2D75BE
3BAE813D
3B57210B
3C7FAC6C
BCEEE537
3C42EF30
BD0C1E43
BC6822A4
BCD5DC8A
3C125BE1
3D22B16B
BCDC07D0
3D3144DD
3D2DF0BE
3C6CD15B
3CC70C69
BCBF78FD
3DDC09CA
BCF1E72B
3C367DD3
3BA53AED
3C88FF14
BC4254E5
3A9E7DDE
3CAF8990
3BC8B230
3C49A508
3B56840C
BC2ED216
BBC95506
3C79C355
3B96E587
BBFBDB10
3C194E1D
3C062DDB
3C917484
3CE2EDB2
BB1EDE44
3CAB1EB0
3CF37B01
3D6B149F
3BD2BEDC
BD29AD87
BD3F9ACD
BC083EFE
BD2A600D
3D09D98E
3C2D46B2
3CD87027
BC2FC759
BCD3F5AE
393A8027
3BB796D0
3B101F9F
3BA7D78E
3C68467E
3C8519B4
BBFE96C3
3A1FAC51
BB751428
BC944F73
BC05D191
3C094B36
B97ABE58
BA6D0A5E
BC38A46D
BC754E62
BAF38DC4
BC95CE62
3D7ED736
BB611B75
BC3A91D6
3D23AB41
3CA6F17C
3D3D19B3
3BCCFCBD
BD4DEA6A
BCA12BF8
3CE829EE
BCB0EF7A
BCD071DE
3CA23DDF
BD33B16A
3CC8211A
BCBF0B3A
BCD016C7
BD70AD34
3BD925C7
BB997C90
3BEA214B
BD4F8B16
BC3FD0A9
3D6A668E
BD15E519
398E33C3
3C79C342
3D48DD8A
3DA30843
3C1E1F32
3CC2CEEF
3BB79F7E
3A9C9486
BD4EBFE0
3D703FB6
3C8F7497
BCC7AF1A
3B41A854
3D0616A0
BCBDC0FF
BB913655
BCA5E0DE
3C236BA4
BBFFDD29
3C96316A
3BCAF319
3C92904B
BD467DDB
3CF2B695
BC36E503
BD0FA1F6
BCC425BC
BD0B40DD
3BBD6E01
3825AFA0
3CBF9A23
3CC49428
3CF11D9C
3BFA738A
BC9A0C51
BD69B1BA
3C370452
3BCCD348
BD406C86
BC1DE9FA
3DB25875
3C346A4D
BCA1DF1B
BAEE5100
3C81B4DE
3C9E6DC6
3DC59F49
3D9F60C1
3D09502D
BD32E554
3CF0F05D
3A807AA9
3CA7CE49
36B4AD00
3CA468E0
3CCAEF7F
3D2D8758
BD4DCEF6
BCFCFADA
BBE30F62
BB846A3F
3C8D587F
BD784448
3CDAC0F5
BD3CCB50
3D1C27BE
BCCEE89B
3BE8904B
BC3D3AA0
BD55BCCC
BD0C5CB6
3C080268
BD88EE8B
BCB48630
BCC41EEF
BD96E0B2
BD37B553
3C9CA95F
3D25FDE5
BC2BAE50
BC8F5FEF
BCB58F8F
BD970869
3AB401B6
BC1F06A6
3C6A2505
3D182CC8
3D404D78
BCC7A55F
BD1511DC
BD59E619
3D100C94
BC1F8604
BB655D2C
3D57AAE2
3D32C57E
3BF01734
3C66F14F
BDBCD4F8
3CC1AC15
3CD02864
3CCB6E14
3CCDE4C2
BD53191A
BD2F864E
3D02FB98
3C3369E2
BD65B5E6
BCAE6B5C
3CEFC71A
BD2FB09A
BD293D2C
BD4300F0
3B985507
3D642F04
BCB1FC71
BD230463
3CD8E0BA
BAAA8715
BC1B5C0C
BD1222BC
3D53D0F5
3CB3BF11
BCA19EE4
BC0F9A52
BCA05C25
BC8B88E8
BD3BAC47
BCDB4567
3C5E134B
3C998943
BCE8A18C
BC6A48BA
BB8A8D89
BC602F7B
BCDBC5EA
3B289D92
3CA20320
BB83E480
BCC8E2DE
BBDBC81E
3C34D6A1
BD027627
BD3C7C63
BBAFB64B
3B73DCEC
3C7EF033
BC878C85
BC602B4A
3CFEC6AB
BD3590F9
BC989F8E
BD1E5BD8
3B5DC7FF
3D7F77F4
BC73CF7F
3D5985FB
3C770161
BC805061
3D146C5E
BD151BA9
3CF8F1F7
BC9E4F2E
3B446CD2
BAD60B04
BBA2A4B5
3BEE6CC0
3C93254E
BC78B615
BB501C7E
BD5DD4D4
3CC7090F
BAD75721
BD09AE16
3CF5A84C
BCA71759
3D0C8580
3C64A8E2
3CF0AAB8
3D9C7400
BC5A9E35
3CDAF301
BC942998
3B1B0FD4
BB9D63AE
3A46B540
3BE5CB04
BC5A7260
3B2B6F1B
3C87C689
3BDB3A3A
BB2A97DC
BC3E5B0E
3C4C7908
BB8A4376
3C1B28E5
3C4149A5
BCB8C296
3CD660F5
BC80DB47
3D1785FB
3C8ABFD1
3D1432F2
3D107AA8
BC060954
BCDD11E1
BCCDE3C0
BD4DBDFB
3D0A40F2
3D5FF8E3
BBE6FF42
3AF2BC02
BBF4F6E4
3B072F28
BB71ED8B
BBBD707D
3AB45035
3BBC430A
3BE4493F
BBD027AE
3B35D461
3B7217FA
BC4574F2
BC869C7E
BB1BB3D8
3C0C3C19
BB33D1A5
BBAF1EF8
BAB52BF6
38F3C556
BC148BA4
3D2B6CDC
BD40CC51
3AC2EB4C
BC396304
3C1804F4
3CD4DB9E
3D2F2E03
BCFF4D6B
BC94BDD8
BA351C52
3C974F7E
BD633DA4
3C400734
BBDDEEC8
3CB80B55
BCC90199
3CF0C45C
BD41D114
3BE6D4E7
3C917967
3C519376
BCEEA816
BD17CA0D
B9F68141
BDB288ED
BC9360D4
3C2A40D8
3B08505F
3D6FF8FE
B8AB4574
BCA93536
BC2014BF
3C2D961D
BD83BC51
3D82490A
3D0B201A
BD358532
3C9C76EB
BBC5F800
BD3CDB1F
BCD950A9
3C50FD11
B9419616
BCFA8653
3B0A543C
BCD87C1F
BD59A97F
BD19C6D6
3DA33AA1
3D071966
3CA5CF0C
BD71A5B4
BB3A502F
BB511FDB
BD048FC5
3C5833CB
3D94771C
3D284E00
3CA2B4B2
BD32CF56
3C0EF0B3
BD20584E
BC80F2F7
BD49B2BD
3A562893
BC988DF6
3D853CB3
BD2EB049
BABEE8EA
3C2CE59E
B9DFE039
3C933200
3D0DFA85
3D71D8DF
BCFE951B
3C9EBEF9
BC442C4C
3C2D0CC6
BCA327C8
3CD0DB5D
BC2D2CB5
3D7FD205
BD85F85B
BBF11FCA
3C97345D
3BC41AFE
3CAD5BD2
BCB306EA
3D8B5D79
BD515BA0
3CD0FF4D
BC7F1AEF
BB654B26
3CDCD62C
BD12D4F1
BD009C0B
3CE7415C
BDADB4E8
BD020B9F
BC5DD653
BD371799
BD3E2D84
BBE1B67C
BC1C40A7
3C86B95C
3BBD6D17
3B536FD0
BDB8E448
3C7DDF2C
BD29D613
BB9C8C44
3D2FE260
3D895153
3C442548
BDB42F7F
BD7F4FA2
3C5E4515
BD24E0F4
3D03430C
3D874CB2
3D368F9E
BC387B93
BBDB9352
BD8A86A6
3C2836F6
BC890B8D
3D7B2272
BC925EB6
BDA67BE1
BCCC3071
3CDF28AF
3C361655
BD6045A8
3C323081
3C3CFFA6
3C4CA1D9
BD63E405
BD57F7A0
3CBEDD65
3CEFA3D0
B9866D67
BD2E1F77
3D243483
BCF034CB
BD34E93B
BA487611
BC463E2A
3B6FCE67
BD50BA58
BD068005
3CFCC6C6
3C2DD66C
BC87B048
BC5DC629
3B11D129
BB0B756C
3BA6969D
BC5DD42B
39E96801
BC5AD958
BC8E82D3
BC71707A
3C224140
BCD43E0D
BBAFD9F6
BCA2830C
BCAE45E7
3CD01967
BD2A5754
3D177122
3C176AFC
BD42B604
3CC9F3BA
BB95C0DE
3CA12088
BC3F834B
3D3DCD0F
BD52A041
3CDB249E
3C4E437A
BD5DBBD4
3D020296
3D2366B1
BD12DB12
BCF2A0B1
3C328503
BD07ABBB
3A591C1E
3B2A0D3D
BD622932
BD129284
BBF65690
3C65D100
3D868B16
BD769E6A
BD83CD2F
3C8D1C27
BD5B907C
BC32B2E2
3D044795
BCD4B6CB
3D47B8E9
3C022FB5
3CEC9F34
3D9D7243
BBEFA829
BB93783F
3B6789B6
3C7A5A77
BC656BC7
BC40C469
3B830A62
BBBADC88
3BB8C916
3C2AE1DE
BC1B2664
3A5C0A06
3B89D4D8
3B04BA3A
BC86FA16
3C37FD00
3B7114E4
3C09BAC8
3D561CD2
3CE983DB
3D0C6BB1
3C4988B8
3D21B80B
3D15375F
3D024A22
3C792360
3D2C54F9
BD1EAC53
3D862587
3C44C8B2
3C2ACD13
BC4DE47D
3D1CEC19
3B7C771F
3B105788
3BC80CBF
BCC1E6F1
3BD72ADB
3C20D633
B9D21562
3BE65C92
3BFC60A2
BBEDDC07
BABD3BCA
3B67B677
3B774F68
BB8011F1
BAFBDABC
3A8D3001
BCA0E2A7
BC422F54
3DC90BEA
BD8D841F
BCE9E9EB
3CC2559F
BD0D1187
3D7E284D
3D357EFF
BB92E2FD
3CB175A3
3D08CE5F
3C79F085
BDC49E5B
3C89A4DA
BC19E553
3CDF0FC8
BD02DB36
BB82E6EC
BD3338D2
3C34B41A
3CD5DD55
3C8D50E8
BCB3DBA3
BCF5968C
3C9B1FDF
BDA2F0AE
3D0F8B60
3CF5935B
BD0D9AE3
3CDB4F5E
BC4CD1DC
3C829738
BD26D759
3C9A4BED
BCE6C106
3D248BA1
3CAE4F6F
BD8694F9
3D37AEED
BBD34A99
BCA6AAC5
BBC686DF
BC0232DC
3D2709F8
3A3BF96B
3C45C83C
BC5CFE8F
BC0D4972
BCE4D50A
BCDB762D
3DC64170
BB0535E2
BD5D92B4
BCCD00AC
BC865D4D
BD0A3D4A
BBF8990C
3D87CBFA
3D5EA24E
3AC19F9D
3B9A7A07
BC5AA199
BB2C6A0C
3BC18EBA
BBEF70AE
BD2912D6
3BDFC1CF
3CFBB546
BCE29068
BC846BBA
3C50B1FA
3C3BA7EA
BA5A2764
3C0DC621
3D72B7C8
BC8E97CE
3C28C99C
BC39B18E
3DA43A6F
BB7DEBC8
3C723194
BD350897
3D5FE570
BD6CE01E
BCD1EF9A
3D1F6141
BC710FD0
3CF4BC0D
BBFDE721
BB035008
BD2C9A19
3C912A78
BC5AB7BE
3CE84674
3D21A2AC
BD2AF648
3AFA28F3
3D0076CA
BD4759DA
BD7FA3C6
BCB20EED
BD1BEB15
BC125078
3CCC5E03
BB0C44F4
BB557706
B8A2340A
BA16F6C7
BC69F953
3C84109C
BB221A4D
BD2BC2E4
3B7597EA
3D72BD23
BCB720C3
BDBCD5E6
BD2DFCDF
BBB19370
3B2E6A68
3D35F99F
3CDBB8FB
3C52F442
BC3A96F6
3BFB8435
BC9E8C2F
3BCA6A30
BCE62789
3C9C7D69
3C163793
BD21CFAE
BC91DEEA
BC3D49CB
3C843050
BD69F3C0
3B800DF0
3C74F8FC
BBB71544
BCDE814F
BD16D695
3BC1EDBE
3CCF5BF1
3B46C6D8
BD5DE3DE
3D25EAE9
3B96D7C6
3B977782
BD0C3AEF
3C528199
3D231318
BD0B5B68
3CC35EE7
BB065073
BD01F04B
BCCB4080
3C428AAF
3BFDFA7F
3C824AD9
3BF5636F
BD572846
3C5824DD
3C36BB5C
3C62FAC9
BC80DF07
3B0DF766
BD0C81D0
3AE53B9C
BD057483
BCEDBE50
3C9FD009
BD3D9EEA
3D24B63A
3C577172
BBCC6A07
3BF6C126
BC788BCA
3D045341
BC037051
BBD6907F
BD32E3A5
3CEAE1AA
3D1469F4
BC12DB5D
3D456D9B
BBA6E98F
BC609539
3C090F20
3CB67309
3CBBF3D3
3B539922
3CC5C9B1
BCDF183B
3C47F8EE
3CAEDC9A
BCF5B02D
3D4744FF
BD027AD6
BC1D9B58
BC6AE9DE
BC5B59DC
BD3EAF6D
3C23FF78
BCB6B628
3CCDA567
3C9D409D
3CC93B36
3D6F69B2
BC920DF8
3C4C556E
3B876D5F
3BD36F63
3B7A76D4
3B389FFB
BC3B88BF
3A835038
BA047E37
3B919861
3C265C4C
BBAAA23A
BB2A6496
3C230B03
BA6E2AD6
BB23EB68
39F0D3F7
3CCF19A8
3CC93AF9
3D13B8B9
3C8799B1
BD2433D1
3D3F3D7D
BD4B14DB
3BFED3F7
BCBC1041
3D2F9ACE
BACFF21C
3D9DC9C7
3CA5A103
BB60E67F
BCBB33E7
BC97A51C
3C05ACA5
BAB0A326
B8396B3B
BAA11EAC
BA4E7531
3AD602D9
BC06A271
BA250E63
BB4EDA28
BA39F11B
B9654B56
BB27D88E
3C2244A8
3A8E8D0E
BC05F1D4
3AAEEB12
3C153E5B
BC00F7B4
3C92659F
BC7743B4
3CEB0DC5
BCAA95C9
3CE21109
3D2A2F8E
3C6EDEEC
BCFB51A3
BC056BEE
BC269F5B
3CE76619
BD1DB9DE
3C74CE98
3C61A51B
3D145EFF
BC3E0003
3CA46A99
BCEDAE05
3C3B0E12
3B0CA354
3D4B6741
BC990556
BD151903
BC2361FE
BDB8A8AD
3D51B42A
3D0E66D7
BD34D1E6
3C8497F3
BC103E84
3BFA4A10
BB6A48E7
3CFD0657
BD38526A
3C77DC5D
3C77A073
B814CEA4
BB83A37D
3CD5A1E0
BCF7A9C8
BC1E8E0D
BBFC1BDA
BC4D4235
3AFC84AB
3BF4F438
BD0C4A23
BC3AD763
BB0B950D
BCFAFA2D
3D4BE565
3C91F8D2
BD026ABF
3CB93CA8
3C429E67
3A159BF1
38A24CA2
3CBBB3F7
3CC70013
3CE25F71
3C7490CA
BC3C8E7B
3CB8C7DC
BA9D6837
3C3ECB5E
3CC0B42B
3CE90D98
3CAD57C8
BC2964D8
3D092596
3D02ED95
3C8292C1
3AA34800
BD212821
3D0346A3
3D19EE1F
BCB73A96
BABF1CD1
3C2506B0
3C71EB6C
3CEA01A4
BCBD6AF7
3C65725A
BC75D76F
3C928A78
3D2BBAC2
BB87BCA5
3C4C1DA7
BC210BF2
BD25ED53
BD0E725C
3D1D055E
3CB3289C
3BF3848E
3C82FF48
BCA1691E
3BC2F2F3
3D5DE529
BD1D5F30
BD32B8C1
BC613BA3
BD07F7B1
BCC4B5B2
3D1E6617
3C5439F4
3C21E8E1
3D4EA49B
BD11C7AC
BCA20EF3
BD070F2A
3C023904
BD37D959
BB7E1EF2
3D271181
3CD741B7
BD306DE0
BD635FF7
BAD3D801
BD330C4A
3D00FA8C
3C29D655
3BEDF09D
BD1682F9
BCCB6C22
BCE4B15A
BC90E164
BBAB7DCA
3D35AB40
3D13F07C
BD120823
BC4003E5
3A0D8EC5
BCB521B3
BD93819F
3BEB82BA
BB99A99E
3B83D970
BAB8782C
BCD6E812
3C9B7257
3D2D05BB
BCAF0595
BCC49E1B
3C4A3420
3BADF890
BCA04AFC
BD136D4A
3BEB2912
BBCE87E0
BD0E5997
3C4795DF
BB7F344D
BCE2C324
BC1F6E05
3BE2E918
3BA4A054
BBC5759D
BC8CD781
3C3E7462
BB275802
BC6BFD7C
BC12FF38
BCA8E8D8
BBEDC4A0
BCA75153
3B37C00E
BCD73AA7
BCC3D2F9
3CAFBCE7
BCCF379A
3CDB8F46
3B3DBA0C
BCCBFD14
BC50B731
3BE00B4B
BD127259
3CE2E93E
3D28F300
BD28C902
3C31C5CE
BCD1EAB8
3CACE645
3CEEB206
BBE3C0C0
BC40BD91
BC96E1B5
3CE50FC8
3B6F9EB6
BBF9D7F9
BAFF71D9
BD389BC7
3D58CC42
3BDD98B1
BCD950B4
3C027D24
BBD07456
3D4874AF
BCC82D1F
3C98D373
BD0BCD1B
BBEB1BC8
BCDDE333
3AB54C5F
3CC781A0
3BA77642
3B904BB2
BB96E8F9
3BE74B43
3A9D1B85
3B9FB80B
B94524D0
3C4A39AE
3BABE79E
3BD67B34
3C54EF41
3C691C2F
3ADFDC93
3BD0E346
3AC96A93
3C09BF26
3BCC2909
BBDDB2F8
3BB99FE0
3D33998C
3D0AA57C
3D1F714A
386ED854
BC99A138
3D1EAFD6
3BEE3DAF
3BE5EDBE
BB649138
3D72C47B
BD187A2E
3CEF2EC5
3D2D5010
3B551B4C
BCB27BCC
BCFE2B86
3C3DABD0
3B8D397A
3AE55E5B
BB854EF4
3B27AB2F
3B614DB2
BB9900E2
3A3094CA
3AAFBBDD
3A8655B6
B911F42A
BB11C899
3C0E8BC5
3B722349
BBF9DBFD
3AD3E9CD
3D169A40
3C0EB7F8
3CCE2563
BD20E097
3D202C6A
3CFD87CB
3CADEDE3
3C478BE6
3D33D9D7
BD459DC8
3C2ABAA7
3C2C9108
3C1C672D
BC88BC48
BCA6B4F0
3C4C140B
3C8686D9
BCAF694C
3C4172BA
BCBA97FD
3BC54295
3C8D9A9C
3CB44844
3A01B61E
BCA6BF12
BD4645C4
BD8D3DFB
3D17B95E
3C84D7DC
BD36100A
BC1CBD74
B8A4577C
3CBE980D
BBAD3D8A
BC1E34CF
3B0A9813
BCB05214
3D0A197F
BD02B0CD
B8BC89D4
3AB3AFFC
BC844999
BC8B46ED
BC0CF74F
3C8557F5
BA47310E
BA474470
BD04EB5A
BC3B56AA
BB9444B7
BCF05503
BBDDAF28
3CA159B0
BC92C1DA
3CB7CD52
3C40F6A7
BC2F3BA5
BC6B7575
BC1E8FAC
3CC61EA6
3CBA510E
3CECBC95
BD035BD2
3CC7F88E
3C229DAF
39E0E68B
3D292CA1
BC4604D4
3C809577
BCE36023
3D7D4A17
3C85322E
3D50AAE6
3D005869
3B096299
3D1C252D
3BD39A89
3BA1CF4E
395AD173
3CE8206A
3D062C9C
BC31B292
BCAFDD33
BB80DDDB
BCBBC492
3D4672C7
3D86A128
BD1758FF
3BFC6949
3CD45068
BC554F82
BC94F407
3D0E3123
BC4FC400
3CA4528C
3B19081C
BD0A4A41
BB8DC3B1
3D1F7C2E
3CA9AC06
BC2A093A
BC6C59E0
3C80CA64
BBD4D742
3C7918DF
3B5E86A1
3D1C6E86
3C0338FD
3C728F5B
BCBA5D5A
BC90DCB6
BBE54E94
3C5F127A
BB317EDD
3CE411B9
BC5A01C0
BCA72A78
BD348711
BB61B657
BA72F5EC
3B828610
3C56B2C9
BC0389E9
BCD32E2A
3BAC47A1
BB4D42D9
BBD175CB
BCB996C4
3D330FE3
3D0D7DDC
BC9EE38B
BCC27566
3CCFD99E
BC87113C
BD20915F
BC85208A
BC7012BA
3C0F4430
BCB6F4AB
BD474C57
3D04A28F
3C419779
BC30AB0E
BD2CFFDD
3D0BDDE6
3B84D964
3BE1EC5E
BBAEB104
3CCBBB04
3CA5E89C
BC835B98
3CD7C3AA
BCC33835
BC078D9D
BC81B5C5
BB7EE3E5
3CEF0772
BC674485
BBD3D1E1
BCBD89B4
BB565634
BCB26043
3C303A48
BD4097B1
BC1B1D34
BD135615
B8FE69CE
BD0F814B
3BD25F3E
BC043BC2
BD29EFD4
3B43FCEC
BC89FBD6
BC70B556
3C67E590
3C1AAD37
3AA4AAB7
3C7CEE7B
3D48E718
BCC548CF
BBF25AFC
3CFAAB23
BC101D1E
BBE3AB69
3CD6614F
3CC5F3DC
BCBE3021
3CB18C99
BB754E9F
BCF510EE
BC8EA601
BC5560D9
3CF775B6
3C8ECF41
BCBA0DE3
3C6BF1A1
BC55916F
3D500D22
BC9A05B3
3D008437
BCE2BDC5
BB90B21F
BD0DB691
3B3B152F
3CB331EB
3B3C098D
BA9D2DC9
BCA2D1EA
3C224DCD
3BD219E8
3BEE91E4
BC2ECCAD
3C0EF250
3C3EB1FB
3C666259
BC139E3C
3A36E8F0
BC379080
BBD69490
3B838724
BB963AB0
BB569F80
BC162BD3
3BF6E3F6
3CE76B9B
3D1DF14D
3CD37C35
BCA12F00
BB4E9892
3D6D339C
BC4B9302
3BCF2E79
BCF107B6
3CAF3124
BD1F92B7
3CF161CC
3C692684
3CAAF1AE
BD3E2EA4
BCA17F00
3BF1F0FA
3ADD2202
3B3A8DF6
BC1FE394
3B35E869
3C24ABB3
3B5D1EC5
BB945031
BB2E2C2E
BB45D8C4
BBACC4CA
3886080D
38487F48
B6CC2200
BC117367
BA5316D2
B9E9425A
3BE8F348
3C68285B
BC8A237E
3C888DF8
3CB6BFA9
3CBDD81F
BAF2FA39
3AA7B80E
3AE20917
3CEE0618
3D8A8B6C
B955B622
BC5AAC9C
BD1D6D70
BBDA6FAA
3C27A17F
BD001532
3BC94E59
BD485B49
BC5AC681
3C05C2FB
BB19A0FC
BB43B046
3B40F73A
BD0F2FDE
BD4DA675
3D22C938
BC4BDBD0
BD27D6EF
BBB9D04A
BB6C4AD2
3D3A6FD1
3C2DEFFD
3C1B39C4
BCCC809F
3C284A75
3B80A0CA
BCC45BAD
BBB6E07E
3C1E4017
BC445642
BADF456D
BC16454D
3CB256E8
BC379024
BC36215C
BCC873A1
BC132029
3CB25AB9
3A6A92F6
3BD56873
3B7CA7E9
3CDE0363
3BF849F1
BA9615D1
BCA42001
3C01A778
3C0AFC0C
3C894BA7
3BBA2F5C
3AD1ED71
3A8FA4DF
3C99E948
3C950E66
3C8640C1
3CDADE49
BB060F3E
3C894BA5
3BF6B0C7
3C2EB1B5
BCFB47CA
BC3A82FF
3BA838E4
BC2E5AB0
3B2DD6DF
BC402361
3B85EA77
381364A0
3C3AC7D2
3D16F9F9
3ABE2979
3D3A9B93
BD2495A3
BC924A0D
3CD7B174
3CF2316D
BCCD6DC0
3C497DE9
3A74ABC0
BCDD0C42
BD2F8D00
BB9104F9
BBF7F882
3D611A9C
3A227A19
3C36298A
BA6EBC94
3D107A92
BBF8453B
BD08AE24
BC8348B1
BC3C2925
3C160EFA
BBE63B78
3A3A8C95
BA8025DA
3C34B25A
3C84B26F
BC6FFF25
BC2F098F
BBA82B85
BB9FBF02
BBB7EE58
3D06171C
3B67688C
BD79346A
BD1AF2FD
BD10B888
3C1CB5ED
BC809770
3C526937
3C1CC4AA
BC8FD3BD
3BFAE0CA
BC1B057A
3BFCC56D
BD41943F
3CAB2E07
3CCCBBB0
3C0720B5
BD29711E
BC9A55AB
3B6A626E
BA0A1914
BCE21E9F
3CA4B91A
3CCD909B
BD2EFA00
BC90604D
3C09E733
BC02396E
BBEC2812
BD0C467A
BB173283
BC4A5F52
3B9D0212
BCB9242E
3A0CDF04
3BCCED29
3C300BB6
B914CF5C
3BF53C92
3C1769A7
BCA31DA0
3B87FCE2
38AA23F4
3ACF25BB
BC72967F
3B054543
BD047505
BCBD0949
BBB1B748
BD242096
BC319EF2
BD1A7339
BC82B814
BBCE3B96
3AF3D001
BBBD70A5
BD02EC2B
3B9126AD
BC81FCFB
BC810B5D
3C87D4C5
BB16BFB0
3CE3E7EE
3AE7A648
3CAA51E3
3C0356DA
3D073540
BC3F8807
BCB964A1
BC1391F6
BB8E8245
3B9B2204
BC3FD489
BB27CD04
BD061BAB
3C34E82A
BC4FB8C7
BBB3AFB1
3CB7DCAD
3D022365
3CCE0C57
3C7CA3C5
39C1341B
3D81FACA
BB9C4CC4
3CDD63EE
BC2F74DD
3C8D1DB0
3A0CC7AD
3BB2573F
3A797100
BCD3A973
3BFAD40E
BC8288FD
3B8D848D
BA2BCE23
BAA12738
3C264FD3
BA93EE90
3B78FB60
BB7F238D
BB3780DC
BB1952B6
3BDBFE93
3BF89851
BBFEF8B5
BB58F3DD
3AD59643
BBC065E6
BC0D897B
3C87F774
3D0E901C
3CA7E9AC
BC75A6A1
BCA8F5CD
3DB0BEC9
3B21A7DD
3C7B478E
3BE8E8AF
3BECAB79
BD1588BF
3C2E1049
3AB63E16
BC7FE7A1
BC8E55FF
BBE888DD
3BB45085
391B9057
39EF6C26
BB2A77A2
BA8C6B27
3BBFCD54
3BBFFA2C
BB4AE08A
3A266A22
BB2456FD
BBBD5B2B
BBE0434D
BA4E30BD
BB28C5FC
BBA64DF8
BA8B78E0
3A8F589D
BCFACCCE
BB90C6FA
3B7298FF
3CB20DE7
3B38F4A7
3CDCC7E7
3C00291D
3BFD75FD
BD612B8C
BC0AF634
BC96E27C
BC420B43
BCF7C555
BBCAA7A4
BC86478B
BC38A148
BCFA8F53
3C6442EA
BD342F89
3C0666CD
BC0A7940
BCB9EF26
3BD0F65E
3B01B4EA
BD035D98
BD18606B
3C1B2946
BCB1C5BF
BCD6F288
3C98820A
BCA72DB5
3D05EBB3
3B213079
3CA02F70
BC93352D
BB985A13
3C4694FA
3C269CC1
BCD73CCB
3BC54B50
BC8EC090
BD290F33
BCD49577
BC0C31B4
BC8C8500
BC28645D
BCA182BC
3CBA5A65
3C8D7AC3
3CA1E918
3CB425AF
3D3F60A9
3BAA8ADB
3A86654F
BC15DF02
BCFCA7B1
3A3DBE30
3ACF42EC
BC2AFE84
BC1C1750
3C53FD2F
3BDF8017
3B9D5B3B
BC0E2713
BB9B5CCF
3C0A12E1
3C5A26BC
BC98EB92
BC8F00EB
BB33B1C7
3BEC04E8
BB5E873D
3C1A400F
3C6A9FCA
BC1FE51C
3BD13710
3B973F37
BC676B5D
BBA2A138
3A3B0FD4
BC0A12CF
3C1EF7B5
BCE328EF
BD200DA3
BC3FBA5A
3C61AED1
BABF59E6
BCA830E9
BB2CFF44
BB0C8CD1
BC22FF34
3CB4412C
BBD40402
3CD93D9E
BCF37854
BB842DBD
3A8CFC30
3B09EF69
BCCD23CC
BC880691
3CF17848
3C16C048
BC29BEBA
3B2CE48A
BCEB6DC1
BD125A76
BBA9CB74
B9E9A784
BC7D928D
BC974C5F
3BACD524
BD005393
BADA047B
3C00E8CC
3B110806
BCBB35EB
BA0048CA
3AFD56D0
3C7EBB1C
3C92CA92
BBC3763F
3BE40097
BC20F4DF
3AA0EC5E
BB2714DB
BC8D937F
3BC68BA5
3CE48B27
3CCD8765
BC578086
BC770473
BC8A44AB
3CA49185
BD1DC9A0
BCB91107
3C86951B
3D096484
BCCE8F69
BC9217D1
BBD8D88B
3B03DCF9
BC9F30C9
BD01B4A6
3C67D7F1
3B8B1460
BCDF5A19
BC12C08D
BC52439F
3CB9E564
BC8EB49F
BC4758E7
3CB0551F
3B876BF7
BC5943F4
BB4DE3BC
BBEBE744
BBA34722
BCB14D15
BC1C634F
BC914528
BC672AC3
BC536225
BD0795AF
3CD67DAE
BC49C3B0
3CEA9F0F
3C244428
3C75B893
BC5C8D56
BCE8270E
3C74089C
BC14078C
BBE4EDAC
BBDE2FE0
3C86486C
3B009915
BADE3236
BC9B662E
3CD98414
BC583D83
BC3FA576
BD278C89
398D5D06
3B78026F
BC0CC7C9
BB0A0B1A
BB1D76A1
BC614C98
3C083DC6
BC7D5A19
BC86EB08
3CB070FD
3C94C2C2
BC6504F0
BBC34E5D
3C5980FE
3D4AB270
BC5CC65B
3D2E8991
BCFEFB78
3BD3BB91
BCD72CF6
3B39A7E5
3CDBD226
3D0DCE03
3D06AB7D
BBF7A42E
3C44065B
3A14D81C
BC7825FF
3B7F13C2
3B002AB8
3BDA7AF4
3BA8DA52
3B15373F
3B8E1DF7
3B83CB00
BAD41CB3
3C4E0534
3C34D0CB
3BD3E211
BB8FD1CB
3C44D201
3D823BB3
3CEE8202
3C75E2A8
3CA8847F
BB083C10
3D8136B2
BBC59560
3CE024A3
BCB7121F
3D077F3F
BCB92AB8
3C1F175D
3CC6E7BB
3C1D7598
3C84FDA8
BA96525E
3C22AC79
39E99EFA
BB5FA428
BA3FEA4B
BADB27E0
3B98BCB9
B90E0C64
BB5CF99E
B9E6F1BD
3B73D2B1
BB54F0AB
B9A8ADD3
3AC64F36
3B11E80B
BAD1CF31
BB2C0FF3
3D38A7F1
BBB0AD83
3A544AB4
3C980F04
3CDBEA1C
BACD37C0
3D31D882
BBF41ADA
3CACB7B4
3CA235E1
3BFD392E
3C9DB168
BC5AC93B
BCD658B3
BD1BAEBA
3C8196AF
BCD9DF34
BCB91402
3BB1929D
BD43CB70
3CD38B34
BBAA3916
3CFEDAAC
3C8DA757
BC0EA0E1
BD06A6D3
BD3EAE57
3C6DFCE7
BB436EEF
BC75966E
3BCE3F54
BC1E54C0
3CB6A468
3BE953F6
3D03FA06
BBF1A3B7
BBC3B5AB
3C1C3EF3
BA6B42F5
BCCCE721
3B0FCBDA
3C89201F
3B24CB7F
3A24137C
BC5C4210
BC821D56
BD0B03E5
BCFB75EC
3C9D57B9
39198650
BC07AD26
3D0E00BB
B9C00D5E
3C5E402F
BBD02D7D
BAA9A1FA
BC921661
BCAD685D
3BC5E48A
BBFB6220
3A3F65E5
3B910C83
BC374441
BC5FEB54
3BD97B8E
3B27DCF6
3BB7AACE
3C6473A1
BC958FB0
3B9B37A8
3C96547A
BB22FBFC
3C682B3B
3B3AAE18
BB9440C9
3C65936D
3C77931F
393F2141
BB1B51C8
3C3AEF2C
BCCD67B3
BB756889
3BA82336
B95C460A
BC338294
BD3EB97C
BC2C9073
3CD77C57
3C83A2A0
3BF899A8
BB94B68D
3A94B4B3
BB91EDF5
3C031B81
BA39709D
BBC6E7FC
3C6CFE13
3BA32D58
3CE5EE6F
BB82E82A
BC2D5665
3C177C55
3C63C5CC
3AB6DF98
3C199B22
3C903F04
BB8737FC
3C0F3A58
BB4942E0
BD0B273F
BCFC34E9
BB9030F1
BAC590E6
3ACEE74E
BBAC3E2C
3C618257
3B0F95CF
BBDF403D
3CA40D2D
BA5C784A
BC15A2EC
3B919BC8
BB8999E4
3CBCD0E3
3C0808BC
3AE1C537
BC411A87
BBA2E16C
3D1C7F45
3C8E9EB8
BD706626
3C48DB55
BBFFCCDD
3D09A0E1
BD19C099
3BC1DF60
BCC417D2
3C47363C
BD35806F
397C7198
3C3DACB4
3CE544F4
3C634CEE
BC99DEC7
BA3D40CD
BA10EDE4
BCF21A06
BBB7CB19
3B46C0C0
3C4C5AF8
BC8685CE
BB18A8AE
BC7D8D88
BAD76FE6
BCB178EA
3C0DC441
BBC64C76
3C39DF5D
BAC29300
BC9D2684
3B2720ED
BC36EB78
BC13D2A0
BCDBB2F5
3D02BE1F
3C694DF0
3D0DB8BC
3C5A9DDB
3C38ABD2
BC43157A
BCD047C9
3C492141
BC61EBCD
BC2905FE
3C848FD1
3C580508
BC238E82
3A256F93
BC883667
BA51CBD5
3CA357C4
3A05B250
BB9658DF
3BB02C2F
B994D2FC
BC09DFD2
3B105874
3CE30BBC
B9280A6A
3B681E38
BC9EA50D
BB1806EB
3C5FC1FD
3C3E33F9
BA9FE6AB
B921769C
BB667A78
3D1E7D8C
BBA24B80
3D062F70
BC19C233
BC0D4FAB
BCCEDEA3
3BCC69DC
3BD22AD6
3CA86CAE
3CD8A309
BC483987
3A0A64DC
3B164D64
3BAA7DDF
39A3035A
3ADE8D54
BB034616
BAE10371
3B314A0C
3C1AED9D
BABE4339
BB4398EB
3C93EFCF
BA2ACD80
3BA92B63
3A2C423A
3C11701C
3C76249B
3CA7066C
BB77A43C
3C838C12
BBC6D2A8
3D1E2821
BC61E5EC
3CA2E559
3C04AB10
3CBA8525
BC568B44
3CD3120F
3B8F60DF
3D002897
3BE250C9
3CB714BC
3AB69ED8
39E9E936
BA5C7E84
3AAE6689
B9D5082F
393A477E
BB76EB09
BA082952
3B81E99C
3AED7E19
BB1AD642
3BCBE8A3
B97680E6
3B88DD2A
BB4DDC01
3B23273C
3C6A39E8
BBB44518
BD2D7C5E
BB6BE3DC
3C0646FB
3B77F229
B9CE94B9
BC93136F
3C9DB501
3B688E5D
BC47C1B1
3D171003
3BCB95D8
3CA5267C
BD29EFA2
3D5C9D3A
BC6D0E1D
BC91E93C
3C828FEC
BD3F1A84
3CB28656
3C297AAA
3D091DB0
3BC38C99
3C78574E
BCCF5414
BD1EA939
BC28A6DE
BC930DF8
BCD593CB
3C55F831
39D009E7
3CA4BD73
BAC6E928
BD0B0374
BCB8D9E8
BC993165
3CB63EF0
BCC74B42
BC3B4C29
BBFD7459
BBBB095D
BC9A9B78
3B5E500E
3C214444
3C2FA49E
BBDEBABE
BC75352F
3B0C7846
3B26F123
39839827
3BC371A9
3BFC3DA9
3B25E09F
B9F395A0
B9A1F305
BC3933ED
BC17E5CF
3B84A7C9
BAB4CF45
BB292DE3
BBB07331
3BDF296F
BB663FC6
B9277D2A
3B89DD4B
3BAD6797
3B0F11D3
3B965B4A
BA1D176F
3A40A239
BAC73027
3C146CC3
3B9B02B5
3B2A08BD
3BB62335
BB834C33
3A7A79DB
BBA81711
3C4A35F8
3BF470FC
BB463F56
BBBB175A
3AF05FA1
3C9DF670
BC6F7816
3B1A7881
B9FEFE39
3B83F95E
3B1AC574
B9E666A1
3CD25B95
3AB06C67
3B4EED02
BC3A0AFC
BB40CD83
3C88B915
BB2D3F95
BC61A046
3B856EEF
BC811AC3
3B23815B
3B50603D
BBEEAD4F
BB7959C9
3B23633A
BBAD2160
3C2EF9D4
3C9AE357
3BDE0CDB
BB8F4235
BA9194C6
B9DA41F0
BB6150C4
BAF3696A
B8FF2DA7
BB17978F
38CD7D7E
BB5CF69E
BA21F030
BA3D6F14
BB16EE53
B92C4C8A
B9CEB5FB
BAAC445E
3B024935
BA6B26CD
BBA0AFCF
3C917DCD
3C2B0090
BC07F115
3CCB37C4
BC4D4825
3C563F1B
BC95B0F0
3CC38133
3B612665
3AA2261A
BCEF4543
3C4130A4
3B64871A
3CA90CF0
3C8DFDD1
BC53B0E6
3AAA1894
BB46F2FF
3C8664F9
3C477210
BB051695
3A908E7F
BC3D615C
3C20070E
3CF4D14E
3AE34510
BCC91552
3C68FEAD
BC6919C6
3C422311
3C071DFD
3BAB34FE
3C2CB5DF
BC46FCEB
BCB02109
BCB0BF97
3D26918C
B9FA628B
3CFE22AC
3C95B69E
3CB14617
BCE3E768
BCA7DFC0
3B9076FB
BC7A194B
BC17A197
BBE272C0
3C9CA7E4
3BA39960
BBC9BD7A
3C890537
3BAF3A48
BB640A87
3C13890B
BB91D4E0
BC082D8A
3CA4540C
3B59D23A
BC4E6455
3C9B1D8A
BBF97E2C
3B972154
3B6D7A42
39D40A08
3CAF3E15
3C36A0FD
3C906564
3C5E216F
3C16C433
3C395E1A
39CDE79E
3C39F851
3B832740
3B31AE26
BBBABD63
BA99CA04
3BA1B092
3C0CC436
3CB340F4
39309ED2
3BA7B98B
3A4CCFB9
3BE6284E
BADA6FA9
3AF37B52
3AFC79DD
B94B7366
BC0FDC05
3BB5377D
3B1D5976
BB1D3D2E
BB760472
BB506CF6
B950340B
BB189C8B
BC5A3769
3C14D3D8
3C66E625
3C579A67
BBCDFE54
3A804862
3CF66D1D
BBF3A21C
3CBB8E68
3D077BB2
3A1F88D8
BC0132DD
3C3E34A9
BB8F78FC
3CA28765
BB0C54D8
3C5609DA
3A633743
BA4093E1
3AA5C724
BA177650
BA4C082D
3AA14720
BB32A395
BA85C842
3B8C3F82
BAF82564
BAB574BF
3A675CAA
BA1EDC7F
3AFD19F6
BB21FB8E
BB994282
BC1DACC0
BB9C341A
BC0DB9B6
BCC6E91B
3CAA6B4D
3C87FBB8
3BA842F5
3B509BFB
3D31AA9C
3B508957
BC2F3137
3CB71297
BCF6C4C8
BA474549
BCA7DF01
3C899572
3B07EEFE
BC99E640
BC8C6FDC
BD480E6D
3D2F6AD9
3B105294
3CE1E54F
3C0FB97C
3C9EE232
BCCE1FDB
BD062856
BC153919
BCF0288B
BCB7120F
BAD15880
BB3CFEE2
BC0EC778
3B18CCA8
3A67B82A
BB023784
BBDE8F3D
3C21A1BD
BC8DE594
3C2A77CC
3CC310B0
B98853D9
BCA5734D
3C8E7C18
BC979E39
3B32668D
BB06C5A0
3B87A3F9
3A3C153C
3B6532EE
B8A5BE8E
3B9A588A
BA05FC17
BA220E32
3983B64D
BB2263DC
BAE556FE
3B90C495
3A72E9FD
B9D998E2
3A4755ED
399290B6
3B5CC083
3B64A0E1
3A1B818E
3B912504
39A05165
3B180E07
39D71383
B9D9F0FE
3A62F16B
BB026912
BB454AC0
3BAF80E0
3B0BC2C6
3930EAB5
3A9777C6
B917993F
3B39E70E
3B6AFB12
3991028B
BB49D99B
3A967E12
BAB992ED
3BC38D10
37DFBB12
3BF3E298
BB96CC2B
3BFC0137
BBBD03FF
BAB26B72
3A9C7A22
BB0CE3AB
BA138C91
BA8178F6
3B6096EF
BCA05AA5
BB7A8F0B
3BAB7CE5
BCCDD1B6
BC6E1381
3C405C3A
BC23D63D
3AFDF744
3CD379E3
BC08E69B
BBD896A2
3C54DF2F
BC9B8142
37CCD104
BCA5AE62
3C2DE955
3C15B7BC
BB5C6529
BC625F26
38D1AA95
3C788A90
3BE5FBF5
BB5203FF
BA21E0BA
BA43AB7C
BB51C512
B864FBDC
3C8033DD
3B59D366
3B006F2A
BCB013A2
BC3A54AB
3C6F4595
BBD3FDB0
3C0EA5EA
3C5739A5
BC70E7DC
BB181C48
BCEC9940
3C303BD6
BB9B144B
BC7B72C4
BCA5B8C2
3B0A6095
3BC4171F
3BDE422E
BC14393B
BD2558B2
3C450CE1
BC536F42
BB3908C2
39D59101
3BB5F03B
BBC1787D
BC1D17DD
BAF726B5
BBA7ED98
BC949E28
BC357539
BAF63C06
3A507F2D
BA918474
BC467283
BCF80FB2
BB655055
BC181AE3
BC497426
BBEA89F0
3CA8CC66
BBD26182
3C8A3EBE
3C1D57A6
3C8CEA54
BC9DDB63
BC35EBEF
3A2F3F60
BBDE6D16
BC16DDFF
BBE50EA4
3C3E22E9
3BE60893
BC067C78
BC5160BE
BC2D6B2A
3C9D7C82
BAEAE093
3C180238
3A790154
3BBB45F7
BC5E2371
BBDA44C2
3C0D9D83
BBB5526C
BB99A64C
BCEB9F7E
BC89FAC4
3ADDC849
3B86BF59
3B249F0E
3C3639EF
BA5A1B72
3A4CA459
B95BE4FC
3AC6FCA3
3B347F4A
3AA63468
BAE01152
B72A7CA0
3AB9C8A6
BAD1F7B5
3B674916
3B201860
3B173C22
B9288483
BB9680A4
3B120392
3B837BF4
3B3904F3
3A60BB76
3A98D5C6
3A548B10
38837C10
B9D4794F
3B469295
3A67AD32
B9AA8D52
BC07C2A1
BA917345
3CAD2A96
3C3A6D72
3B8D181A
3C7E9DF9
3C2746DF
3C944052
BB2D41E9
3B8329AB
3BBB00D2
3B05D1B6
BAB06727
38B93648
3BBF9C1A
3C1098BC
3AE2C169
BC370FE7
38F248FE
BA984F8E
BA420B0C
3AB33FF7
BA7E105A
3A2F99A3
BB79AF48
BA8477A3
3A1CAE99
BB06BF0A
BA47088C
B90E75CA
399EBF10
39C35363
BBA4B866
BBB5D185
3CC1C217
3B53CAE7
BC58D3F0
3BBF3DE4
3D17EB38
3C63834C
BB70C5A4
3C425DED
3C441E38
BC221ABA
BC82C290
BB5B6846
3B96A081
3C5F5E5E
BAF482CF
BCB320D2
BBE53865
BC32407A
BCAC27D2
BCB0CDD8
3CE9AADA
BC2FAF04
3C99E44E
3C7E35AE
3CC9F194
BCD86BD2
BCA6F507
BBBA64B6
BC8CA8BC
BC2C19A3
3B0445B5
3C8A5948
3C762AEA
BB4B814E
3C05F5D4
3C16BB4B
38527718
BB499371
BC4E849C
3B93C8AA
3C317887
BC01A0E1
BC6C8D45
BBA99F86
3A082EF5
3C23D33E
3BCD09CA
BCCF632E
3A00DBFA
3B8B50D5
39EB38D8
3B22B6AD
39B7A772
3A97CD45
39B1F019
BADFF925
BA64A516
3B9B9C76
3A89263C
B9D41F2A
3AA62315
39EBC498
3B186003
3B649A7B
3A3FA3D5
3B96B2F8
B9B1A0BB
3B0890E7
39EA0CFF
3A3AF98C
3A3858F2
BAAE1684
BB1E637A
3BC128B4
3B11D392
39C218A7
3AB980E4
3A08DB52
3B5DA918
3B8B3943
3C33BE82
BB52F33B
BB1877AA
B7781A5A
3CCDEAE9
3BBBBCEF
3C9F771F
BC01E18A
3C9782D8
BC72DCAB
BB1897A1
3C7BD2EE
3B4A53B9
BBAABCB8
BCBC38E4
3C1EC3E9
3C65E2AD
BB83CF20
3AF5EA1F
3B88F7C5
3AB1023A
3A167D9D
BBCBED3F
BAF565C6
3BB1F9DE
BA9E40B1
BC232717
BB514598
3A825C77
3C1C8926
3BE9B28D
BCA73697
B8D8E800
BB634E65
BA8C3DCF
B69E00E0
BA92F8C4
39D6B066
BB31D580
BA226368
BA328855
BB18EFBC
B791EDC1
BA93E14B
BB1A0ED5
3B06DBFC
BB8F0CFD
BB982C15
BCBB972B
BC5B10C0
BC324F0C
BBBDA200
BCBEF83E
BB952AD2
BCA228F2
3BF83486
3B17CFCC
BCC90C0D
BC9F53A0
3B771E7C
BBFC364E
BC90B837
BD1B3D04
BCC0BAE5
BC50FAC6
BC16CF65
BC05E099
BBEC1A88
BC373C3C
3A7C3C57
BC827817
B9D38948
3BAAC09D
BC84EA2A
BC540833
BB84D7FB
BBD236EF
BC4B6DE9
BCB008C9
BC6C0F9F
BB5A550B
BC07CAA1
BB8CF731
BBBFEB43
BB7DDD02
BBC5A43D
BA6BA55C
3AD82DD1
3B313693
BC13C76E
BBCAC544
BB0C4003
BBD39D93
BB92A70F
3A881820
BB6957C3
BC0951A3
BBA04192
BC25F08E
BBACDA3C
BB8D30C2
3A93885C
BC0B2FC7
BAAC85F2
3B7996C0
BC14E339
BBA94890
BBB764A7
BB7D58A8
BB60D42B
BC1DEB60
BC094F84
B9025766
3BD7E695
3ABCD540
3AA43D24
39D36700
3B9121FD
3992EEAC
3AB53EA2
3B98875E
3B481B24
BB50FD33
BB2B8919
3A565750
3AA725A2
B8F6E902
3B46082B
3A09328A
BA7982FE
3A306CF3
3A4D04A4
3BB99586
38268C65
3BE67850
BB5D0855
3B985A8A
BB3827E8
BAB5E658
BA9121B8
BAEEBD61
3983897E
BB28D2BC
3BACC3F7
BB0F71B9
3C020C4E
3A26D942
3C02AB85
398F9D2C
3C01FB66
BA33722D
3B764900
3B9E2B2B
BA5093AE
BBC02118
BB46E907
3A6B4246
3B27951C
BBD1D330
3B87186F
BAE66240
BB1321C6
BA1DE20A
3744DBEA
BB4DED34
BA9395FB
BB271200
BA864B43
39F98AA2
BB1063DC
BA97F3C2
BA307695
BA5D07E2
B9C5DAFC
BB4A67CD
BB51131A
BA14BDB4
BBA6EFDD
3B1CD399
3B9F76B2
BBAFB5E6
3BA454A9
BC9B0541
BB321482
BAF24107
BC0CF57B
BC32CBA2
BBCC5F65
BB2F257C
BC00FFFE
BC6CA9BB
BC03FF4E
3B819D7E
BC09A441
BB8E83DC
BC0E723A
3B4BC366
BC193363
3B2F78F8
BAA3B337
3C04098B
BC43C592
BC1BA4F8
BB1830C6
BC1597C8
BB31CDB4
3C4B3C97
BB2EB3AD
BC22DF18
BBFAF14B
BB43833A
BB39F7F6
BC4BF3D5
3A6E17F8
BC76C175
3B2F39C8
3A98456D
BC3EF414
BC3127E6
BB20F96E
BB6261E7
BC1559C5
BC8D3F7F
BC932CE4
39D67856
3B8A9D05
386FC78A
3B2A05B4
38F16E10
3AD5C021
399B3F54
BAC1416C
BA2D93F2
3B9E6D33
3A8903B1
B9D528D0
3AAA3E4D
39CED160
3AE55759
3B64D83C
BA9B252A
3B9D0B77
BACAA7B6
3AC83CBE
BA70052C
BA177AFE
3A0BBDEC
BAD063E5
BB2FB54D
3BC3DAC3
3B12F996
3A0B20F4
3AC4377F
B88EB69C
3B836766
3B8D000B
BA773508
BB49F5F6
BA9AC73F
BB135D85
BB3615C8
BA88E25B
BB655B2A
392EA70F
3974B9A5
BAD8897E
B97EFE9D
39A75B82
BAF7DA9D
39D0DD7E
BB7540ED
BB98CBAA
BB9502E5
BBDBA831
BBA1C5B0
BB66CA11
BBD035F5
BA522C35
BC118A28
BB7CC9E3
BAC834B9
BBC8E136
BBB2C881
BB590F6A
BB6BD959
BACB0F78
BBDC5484
BC58447B
39F66A41
BB64893E
BA7FA181
378C1532
BA8FDB14
39D90137
BB318995
BA228C5A
BA2E33F6
BB1945E1
B782042E
BA957B92
BB1E84B5
3B079BB2
BB9B60AA
BB982A99
BCE9B2E0
BC886AEB
BC3FD9AB
BBED4899
BC92A116
BC562BC0
BC48E83C
3B987DE3
3C0D098F
BCD779A7
BC970012
BACA7348
BC41D0B5
BC6D7AB9
BCF822A1
BC8E3453
BC8D01A2
BC518194
BBC046F9
BBA2766A
BC674106
BC4F9871
BC2AD3C6
BA3A0158
3B8DF06B
BC6DF825
BC527C3F
B9863DCA
BBFD3594
BC0D36D3
BC86E0C2
BC66919A
BAD18194
BBFEA813
BB2849B3
BBD8540A
BC1E80C6
BBEF4B4C
BC12EB87
BB8F54CC
BA84AFF8
BBF7F092
BC025B28
3976FD9C
BB900D93
BBB1D9E3
BBD4476B
BC477283
BC0BCC80
BC0BC9FE
BB3DA0F8
BB390799
BC498DC1
BBD34E59
BBDFFD5C
BB23A164
3AD41F60
BBCD6A44
BB369D37
BAEE62D8
BB5B19B1
BB206E9C
BA6D03F7
BC1B5639
B9807A7A
3B3F3EE9
BA1BC25C
3AB00A4A
B9C36C40
BA91E773
399884F4
BA6B1838
3B911893
3B4B5C24
BB534B8A
BB31EC47
3A33AD2D
BA0407D4
3B12B530
3B501223
BACDB2C5
BA843E04
3B622605
3B830520
BBAC60E6
39CBCA57
BB91A22F
BB9F9E64
3855EF79
B9DAA777
3B03EB13
BB1C13C2
3A8E8220
3B0D8042
3B1C3433
BAA9F8F1
3A02F865
37E46268
3C2B828C
3BE548CC
3A07C9BA
BA261BE2
BBE6C57A
BBF1DB48
3B74BC7C
3950C5E8
3B43B69D
BB58CBA0
3BA49E37
3AE4A911
B998542F
3B52887E
BAF6D8D4
BB43EC63
B99CA712
BA8A2FBE
BB37BEAF
BAD64BEE
BB3D42D5
BADF4AF2
3A329DB1
BB0EC620
BA26DD84
BA3C3BAA
BA1ED2D0
392BA612
BB261CF9
BB4D4524
BC094FBA
BC56AB5D
BC128457
BAF56EA3
BC543B3C
BBEDD59A
BC06BED2
BB13968B
3AEF1204
BC135E61
BC012B64
3A57AD56
BB3A4D41
BA292E0B
BB99BC2B
BC0A99DC
3C057B29
BBFBE2BD
BB624CC2
BC249B26
BC231AE3
BC06D95D
BC3B9DC4
BBCC3DDE
BAF8BB7A
BBDD5531
BC14818E
3C044EB8
BB52CD98
BB9AA26B
3BAB6528
BC79B19E
BC6A18D1
BC4D7221
BBD1A3D1
BB435C0B
BC59E8BD
BC222B47
BC27E8EC
BA00E130
3B64C0E0
BC3E65FD
BC20F98C
3A984120
BBBD850F
BBDE2347
BC8015D2
BC5F4E0B
3A31AA04
3B52972C
3BB829C8
3BBA3E78
BAB09B42
B9F17726
BB862D81
BBEC69D3
BA511E31
3B9F296D
3B6EDEAB
BB304582
3B24596E
B982DB23
3B82772C
3B664167
3B0EF0E7
39E938DA
3C69A48C
3BF457DC
BAC7E728
383E3716
BBE974E0
BC0E6B32
BAFD11A6
3BBF122E
3BA33281
BB3C8FCF
3B887A58
B85F002E
3B9A4C4B
3B89CA78
BA6B2974
BB4A2594
BA9C7FE9
BB042F27
BB1A5A2E
BA892613
BB37BC82
BAB11CF6
397D925F
BA8DF248
BA4F06E5
B9825F74
BAE69F72
39D78F50
BB4DEF81
BB98E973
BB7A6E52
BBFAEEC2
BB654B1E
BB93E117
BBFFC303
BBCD34BB
BBB5FBB3
BB9FF52F
BA8882EA
BBC4D524
BBC6F5AA
BB1603B0
BB6D51FE
BB0480E1
BBBA2723
BC4223A7
39FD51D8
BB6473CF
BA7F3685
3791F3F3
BA8F8EA3
39D5C402
BB318225
BA228C7D
BA2E14E5
BB194398
B782BC8F
BA93F5CA
BB1EDD02
3B078F5E
BB9B7F7E
BB9829C2
BD0AB2A6
BC97B3D7
BBB525BD
3AA130B3
BCCE97B2
BC949A39
BC897D9A
3C4DC4DC
3BB19995
BCDDC8D8
BC8A84BC
3873BE30
BC5E1EFF
BC5F9C2C
BD00046D
BCB3E820
BCD5C087
BC86E87A
B9A9A7E2
3BC4B97D
BC889BEC
BC790638
BC534652
3C1D9F89
3B00D71D
BC717A12
BC40844B
3B465847
BC2AB8E5
BC0F6B83
BCCF1067
BC939AB2
BBA7F6D6
BBFD9141
BB0EA3CE
BBC0126F
BC13640C
BC0113BF
BBBBDE4F
BB8B7ED1
B9824712
BBD6FF91
BBF82DA9
BAE8D776
BB8352D9
BBCBA069
BBA04F41
BC3FC9E5
BCAECE35
BC5852B0
B99521FE
3C4B80CF
BC34A4CE
BC06C29B
BC4FF98E
3C273CF1
B961F35E
BBFC2FD9
BA584B4D
3BDFAB44
BBBA84AE
BB2BA068
BCADBB50
BC4CD00F
BA8A28B4
3B441620
3AB6414C
3C0E46F0
BA65D691
BA4835F6
BB35146A
3B317552
3ACD9327
3B3450F1
BAF04293
BB3F8C0A
BA979DCD
B9CB42B3
B8335754
3B14B289
BB98584F
BA9C58A9
BAD24214
3BCCC375
BA5293C4
B98AA1D9
BB1C664B
3B0025FB
BAE2729E
B68486E0
3B078681
3B0AFD1F
BB1A4105
3B00FFB8
BBC6A5CE
BAC5E205
BC81EF9F
BB52C1C3
3C0359C3
3C99392A
BBA9A90A
BA13F222
BC02E6FC
3C8BC4C7
3AC69BF3
BA24BD86
3BB1C0DA
3BC4D4DD
BA5A1208
3B072C40
BC9907AA
3B425B11
BB841C2F
BB4BE721
BA0EA95B
3B1C5CBD
BB5798CE
BAF1B1E2
BB528D06
39F4DAEC
3A030BDD
BB0F92CF
B9A0A635
38E18474
BA9F28DD
39010652
BB8880E1
BB6A2D0F
BCB37956
BC8B3125
B8ADE958
3C3E3D9B
BC2CE3DF
BC3A6C49
BC4F76E3
3BFF5D3E
3B28C74D
BC04F0B9
BA97F8D4
3BDFAA87
BB90C977
BADBD24C
BCB96E02
BC23C873
3BF820B2
BBEE2711
BB83AF94
BC3C42AD
B9DE65EC
BC13A55A
BBA8373F
BBEA91EE
BA496C06
BBB78D74
BC2FD3E9
3B995FA3
BB5DAF89
BBD525FC
BBA747B6
BC5C2B10
BC2111D8
BC53A4E4
BAC1D518
BBADF6E6
BC5D433A
BC45366A
BC499D66
BB654D2D
3B4F6497
BC33B7CA
BC04968C
BB2AF3AB
BB7B3D08
BBE4EF18
BC3F4FB0
BC75B6CB
BC2603F9
3AE85861
BA5B0989
3C846D31
BB2D0711
BA89708B
BB5EC085
3C26CB59
BB4BDB0A
3B401E29
B9968F3E
3AFC9729
BB672915
38230520
BC18AE15
3B62FA6E
BC55688D
3B1B0F39
BBABA73C
3CCA2061
BBB58C14
BA07D67D
B9248062
3C825768
BBC8434B
3B2A00E0
3AD04E15
3BD15144
BC09DD53
3A4970FB
BC575B93
3B7FC965
BA5FEE20
BB49F695
BA9A8D76
BB03E705
BB194E9C
BA886BE4
BB37DD69
BAB11569
398050C1
BA8E047E
BA4E7A3A
B982929F
BAF2CA5F
39D84497
BB50338C
BB98F5D2
BB5008AA
BC2247B6
3983400E
BB49173B
BBFFBBB8
BC01F35D
BC0D2143
BBDC867E
B954C49C
BBCC5414
BBB59E5E
BB756D4B
BAD5B235
BAFFDEE1
BBA1090B
BC3B5BC8
3982E128
BB6352F3
BA7F5D52
371551AA
BA912B00
39C559D3
BB331706
BA221EEA
BA2E116D
BB193CC9
B781BB33
BA910573
BAA8936B
3B077725
BB983ED8
BB9829A1
BD129CE2
3D8ABC60
3DD1B58D
3DA27315
3D04F538
BB9FB6A2
3E10E7D7
3D2CFAD6
BDF95751
3DEF3C06
3C501F8A
BC4A455B
3D0E29D2
BC91C9A3
3E16F5D4
BE8144B4
3C847297
3DE664D6
3DFF3AB0
3D993A2E
3D1CA0DD
BCFA06F3
3E0A1386
BC96E53E
BDF5F4A1
3E15B848
BADDAAC3
3AAD4D74
3C9F0FB4
3C6733B6
3E1C4D4F
BE6D6D1A
3D0081D6
3D20120C
3BA210C2
BC225043
3CBBE35D
BDCAFE96
3B77F970
BD5E87D4
BCDB64D0
3CF5CDB0
BCD4CAF6
3C946400
BCB41A79
3D061EB0
BC871992
BDBB0BF7
3D172888
3DA8B25A
3DE57182
3D3DB21B
BBEB47D5
BD60AF0B
3DC32985
BC61C661
BD4BBDF3
3E0A273C
BC9DA4B2
3C0191D6
3C90BE84
3D42294D
3D75AF7D
BDB836DF
3ADC1D8E
BC46C174
3BE79144
BC9BB863
BD51D47F
3CE66FC5
BD298923
3AC7F6E4
BC87EFB1
BC2504FE
BC0CCD07
3CC111C7
BC82D52F
3BB98062
BC4B3DD0
BCA052CD
BCE89864
3CDCAD17
3CFF90EA
3CDCD731
3CB432B3
3C003EF6
3D368667
3CF1D5BA
BD176F67
3D1F52B0
3CA34ADA
BC9142FF
BB4AF8EF
BB9F58E4
3D7867F7
BD95F3A1
BCD375B7
3B9368C4
3C280FBF
3CEEE447
BC605947
3C81DFC9
BC3EB9FF
BC94CB0B
3C8AF59D
3D24BA01
BC9EDE3E
3D438423
BD886A3F
3CF7FF35
BCF6AAD6
B9EA7E1B
BC0B9949
3C2DDBBC
3CB86384
3C31521A
3BD0118A
BB1C0D47
3CB954E7
3BFA0B83
BC7D32FF
3CD5C111
3AAD0A7B
BBBDF2BF
BB886279
3B45D858
3CC8919A
BCF77B28
3E0EB833
3DF2E857
3D50911D
3DC0B2EB
3B6122D8
BE64506A
BC569111
BE07A1F3
B8FF7384
3D62A1C9
BD705803
3CD75844
BD7EF091
3E329FCC
BC0972BD
3DCB7E67
3E1A1AFA
3C9A0772
BD2C6391
BC611355
BC940D0E
BE18FB3D
BD7C20FF
BE2E9039
3DEE1BD5
3CB4B23D
BD989AFE
3D8093EA
BD82AAEC
3E157863
BE5582F3
3E6802EA
3AD2E885
3C52FE6F
3BD41A62
3C84A77A
BAF2B9AC
BD3B7E99
3AAF5F37
BCA02C6C
BCAE9C24
3B7D25D7
BC54869E
3C5E0278
BB9E0D8E
BC36D781
BCB9549D
BD8F435E
3C4476BE
BBEA906C
3B6A2BDB
3D4955A3
BDF1DD4E
3C89AAD1
3C85DCC7
BDA6AF34
3C3F0B29
3D62A4E1
3D0932C9
3D7CE1DC
BDD294DD
3D4DF67D
3D453C7C
BCF32AFC
3BB92839
BC279B6F
3B0FB153
BD065584
BD3C7454
3D33BEEF
BCC17B1C
BC8E716E
3CCA5F80
3C01DA4A
BD3155E5
3D4BF699
BD651FBB
3BBDD311
BCE9ADDA
BC2F8248
BAC31240
BB470A9B
BAAE5332
BB0B0AEB
BB28CC7A
BA94B3D9
BB2E3DC1
BAB23CCC
396ACAEE
BA83D012
BA65234F
B963DAC6
BAF7F02C
39A1AC6B
BB0DEF44
BB947F2D
BCCEE644
38E8CD81
BAA30752
3D0991F0
3C074E86
BD140D22
3C8E3526
3B13D42C
BC945A5A
3C265EC5
3C5A209C
BCBD4240
BCBC2F27
3BAB36E3
BC59A245
BD635A1E
BCDBFAF0
BC602598
3C3DC164
3CCDE373
3C42E049
BBAFDB86
3BEE8D4B
3C6C41A6
BCC2F388
3CEE02CE
3CC4127A
BD234077
3B4A13E3
B95C4439
3CCB224C
BD1E2626
BDF361BF
BD2FE7C1
BAC8A05D
3C5CCCF5
BD4130FA
BD1C6D85
3D2696B3
3DF97710
BD650426
3D66A230
3C0C2292
BD8BC593
3D58E14C
BD003353
3DC09882
BDC083F1
BCFAE909
BC8A0583
BCBA53AB
BD2D9019
BDAB1AAA
BCCF225A
BD020393
3CC6345B
3C53C791
BD19D168
BD3E28B5
BC367F3E
3C7BBC0F
BBC753F1
3CD41330
3CDA96EE
3C7661ED
3D08BA7D
BD323594
BD3C9C43
3CA76BBA
BDB8852F
3D1D13E1
BD42DC27
3ADEE093
3DA179BC
BCE34B17
3D8DA5A6
3C40276E
BD9A73CD
BDA4B4C6
BDC27B27
BD786E51
BD0F1B92
BDB02491
BDD32AA0
BCA51907
3C9B39ED
BD29BE79
3CCE00DA
3C2626B8
BD96004B
BCE73381
3CB40B0B
3CEE4ABD
BD58698F
BDA7E8D7
3D90033D
3D39033C
BC9B7ED6
3BD35986
3D02E6DB
BD9371B9
3C1A0353
3BE55CE7
BB8DC68E
3CF2EE7E
BD2C1C52
3D256750
3D97977B
BD64EF7C
BD58F8A4
BD6E43DE
3CDF2FB1
BC993A75
BC3579D8
BB8BDBBE
BD344C97
BCC6BF70
BC58B2DA
BD283964
3C94845B
3D44C844
BD2CFC44
BC9F75F8
BD061390
3C49084A
3AF26E53
3C4999F8
3D7E734E
37895348
3DA7C1AF
3D212047
BB9E6E08
3D84FF07
BD05CC50
3DB7FFB0
3AC091C6
3CC914BF
3D95B186
3BD751D5
3D035991
BD0D8392
3D22F0AA
BCE6B2BB
BD16E1C4
BCC223DC
37550150
3BFE351E
BD083943
BA1417F2
BC988BD3
BBF7F3F2
3C4B1AB2
3C91754A
B9E32D23
BCA04A8F
BC81786A
3ACBC5C2
3C05C2D3
BABC96ED
3BFAE8BC
3D0B8E31
3D8B644F
3CC6DF16
BCFBC451
3DB07378
3D7AEAC9
3B7437B7
3D0ACBF0
3C5A89A4
BC6F2775
BCA6B2E4
3C15D57A
BCD98BF3
BD421623
3DD2F249
BDC2A27F
3DE546CB
3D6F8A93
BBFF09F7
BC8848AA
3D97A6F7
B98D744C
3AAB7E17
BDEEF37F
3D187D13
3C976E1D
3C5CB80C
3DEF0A42
BD20A817
BD50B2B8
BE130747
3AF7B128
BBF0DDA0
3C997B3D
3AB9BCEA
3C403348
3D35E355
3D477370
3C2A089B
3D866C28
BD8394CE
3CFC4601
3D3C57B0
BD603D9D
BCAD25AB
3D3FD7FC
3DEFCCAD
BDDC28B6
3D1C583C
3C26EF58
3C0D95C3
3C904B85
3DBDF0F9
3D39F1EF
BD6CDF27
3C743515
BD504111
3CDBA9B0
3C7004F7
3DF709CC
BD4F1F10
BCAEF207
BCDD78A8
BD82BF5B
3D8B681A
3B3F11C7
3D86B83D
BBB1ECC4
3DB165FB
3C4A25FB
BD6D5AF9
BD353DA3
BCA592B5
BD107778
3BFFFE73
3D99AB98
BC4BAE51
BC03C777
3D817A57
BC52E1B3
BDAE55FD
3BB82AB6
3D0D8FEC
3A94ACFF
3CA35198
BC7AB140
3CF3E2B0
3BBA61BF
BD312D92
3D0A0D4E
BC99D51F
BC8D515E
3B4D716A
BD8F0956
3BB0896B
BE024A45
BD99F212
BD2AE1BE
3CFA4661
BC0E24F8
BDBC9002
BD14CC9E
BDC174CF
3D26AC45
3CCEA49E
BCEAEA7B
3B1CE7EB
BD687696
BC613706
BC928CBC
3D605FB8
BBC0CDE9
BB86A401
BD76FDD5
3D233179
BB8C0512
BD4B0D1A
BD35E636
BD140D7C
3D325017
BB73C2AD
BB9025F1
3BD2FC40
BCAF6B4A
3AC7A9A9
3C033608
3BB5AF32
3D486FF7
BD01C33B
BD450973
3C7D146A
BCE71932
BD19B957
BD48A97A
BCE00F33
3DCDA569
3D4AA705
BBE81FB3
BC3524D3
BD9EFC92
3D08D49D
BD64152F
BB94C1EA
3CB6952F
BD186922
BC28603C
3D154016
BBF14284
BD1B6FBE
BD2DF094
BA4CDF6C
3C4B812C
3D0C1D50
B97E9BF4
BC76DACE
BCBAA518
3BF90714
BCAD8388
3D2D8363
BC5A18C2
BD4613F7
3C820D39
BCCADF30
3B3E9AE1
3C8D7A2D
BCA2B73B
3C195D89
BD499BC6
3CC3DC81
3D642A99
3CAFFC4C
3B9F7D45
3C7B6AF1
BCFB1D77
BCA7B931
BD2EA852
BD4E3FCF
3CB48D3E
3CF9E167
BBC5244C
BBC128C6
3D2DFDE0
3B9FF0DE
3CE13C1D
3C91774F
BC8A5931
BD2C5C45
BBC1AD8A
3C905208
BD0DF937
3D4B78D3
3B4A2D97
3D423386
BD839D56
BCF06387
3D46BA89
BD0C9891
3C81423B
BCA4967C
BD71C704
3B8BF0C5
3B089656
3D2010AF
3D8773A4
3C6A3347
3CB74D70
BC0D4818
3D8142E0
BC62AC0B
3CCA9473
3D31299A
3A26257C
3C2140FF
BC2E2F55
3AE5BCA4
3CA912B7
3CC6E821
3C0B0781
BD1CC55B
BB817405
BC0C6135
3CA42F87
3BD91C57
3C82C8A3
BD04C21B
3D7B9B7C
3C2471A9
3C5C36CF
3C951893
BD69FE60
3D681D2E
BC9AFA78
3D58A8F2
3A4FC282
3C958687
BD448D32
BCC8CAB8
3CEB420F
BD6CBA37
BC82D72F
BC40EC84
3C2F02B7
3C21BBCD
BC433EE9
BB17AC0C
BCB272FA
BAF7A36C
3BE9F420
3C2AECBE
3BE7418F
BC7A72E3
BC08992F
BA8DFEEC
3C0BB732
BC092582
3A465BC7
3B726305
3C13BF76
3D6179FE
BD354986
3CADECB5
3C31F441
BD3542E2
3D1CD547
3CA57299
BABC971C
BD0A9785
BC6D8FA9
BD0F7E62
BC078C56
3D833986
3CB515F5
3CDFBCAB
BCC5177F
3C9059C3
3D757BA7
3C319BB3
3CC8AF3A
3D335FFF
BDA5E8C6
BCD889A8
3CC68FC4
3D44188B
3DA6FB7D
3BA5C68E
BD69BA7F
BD26CD92
BCF4EEBA
3BFBAABF
BCA44F8C
BBD902A5
BCAEE9A5
BDBF32D9
3CA60972
BCB7BEAD
3D14CD0C
BCAA9E31
BD43BDB3
BD0C6C17
BC85A38B
3D319599
BC9163FF
3C7D30C1
3CA9AB1A
3CABB27A
3C31FB23
BD48786E
3CBEAFE2
3D482FF7
3DAF5CE4
BCB8F6E0
BCA2CDD3
BDC6A1C8
3D04D38A
BC556818
3DB7423E
3BB285A2
3C777E7B
BCFE8B2A
BD65D32F
3D87D33B
3D575F1E
3D187547
3C134258
3D632DC5
3D4C5D69
BCC6AA96
BCAE8CAA
BDC1B5E5
BBACFD98
BD3E2120
3D38A161
BADB3E7B
B7A0FA80
3D01AE66
BD9480E0
BDCFC190
BC1EB6A7
3D4DFDAC
BD6359B8
BCFA44D1
3CED194A
BD7B683B
BC9F8E2C
3C9547A8
3D897B9A
3B81DEDC
BD46D8EA
3CB6A514
BE16EBFB
3CBDEBCF
BDF32558
3C90FEF5
BC6FBC8F
BC874A04
3A7F6590
BE1B7344
BD80340D
BB276917
3C563399
BC23ACB8
3C90ECDF
3C6B3A3B
3D135A97
3D0DAA55
BD09F3EE
3C90C6A8
3D5983FB
3D03F84F
BD55B3E9
3CFCA66B
3D9BBCB5
BC9FCAA3
BDDA35E0
BD8C3F9F
3CD4915E
3C543980
BCDBD519
3B13EB93
BC640E52
BC431B01
3D190B63
3C899FE1
3D179D22
BD6981FB
3C6F283C
B9E0FA5E
BC86475F
38D2D390
3C9BD607
3C6A6405
3D15C8EA
BA36EEED
3CCD512A
3C1779A1
3CBE33C8
3CBAEF66
BCAEECAF
BC0281A1
3C8C1061
3D062F9F
3BF61D48
3D473E35
BD4887E9
3D8C1477
BCC02C41
3CC847F2
3D071EF9
3BF0B5A4
BCEDD39E
BCB613FB
BB68FE7A
3C9ABCD5
BC3ED879
BC63C240
3C1DEE83
BD7330F5
BC9065F8
3BA449BC
BC86F143
3D3B850A
BC2EBCAE
3D101783
3C226912
BB9EA32C
BBD64402
BBE8148B
BCC56B52
3D147714
BDA9B4A0
BD363A35
BCECD340
3CB9126B
3C37D1D7
3D5EADA6
BB469377
BD55F0AC
3C6B8E48
BD2435ED
3C61C974
3C047885
3CB4A4E8
BC8C15A7
BC8AC2C3
BC3ABE30
3C5E85C9
3C7A127B
BC99FEBC
3D77C316
BD2B3C76
38C4D8E8
3D17FA3B
BD254B0C
3CCD81B7
BCD9AC7F
BD7A5A5E
BD13A00C
BC80B745
3CD14A80
3D927647
3D62E2DD
3D12849F
3D221A89
BB6F524B
3C4F6AB0
3BA89238
3D01C08B
BB30437F
3C3C3E64
BACE0E6C
3C13BB53
3CCF3F76
3C8265A9
3C2EA283
BCFDCF39
BCFE8941
BC2ADFF7
3C3CA395
BC484AD9
3C5ECC79
BC841E2B
3C17D204
BCCE50DB
3BF5E003
3C9C3DD1
BD8CD659
3D4D884D
BB475B7A
3D3A3991
3C426162
3D21FA17
BD3A3347
BC9D3CE4
BC08E076
BD08B645
BCF317BC
3AED5751
3B1DE738
3CB1B083
BB864D61
3C2ED689
BB95B0DF
BB7719F8
3BC84AD7
3B7FC87C
3C8E04EC
BA9C6DDE
BC6D73BC
BC1DB97D
BB756F1A
BC2F581F
BBC572B8
3D1C77ED
3C6E4350
3D04B1A1
BDB1CD30
3CF12A80
BD299B51
BD363D39
3CB8EB8C
3D6B6BBE
BB7ADA3A
BD2FCA3D
BB5D454B
BD1B8DBA
3CE910BB
3C4AD23A
3D183667
3D03677D
BD6275D1
BC8465C5
3D1D7440
BC967533
BD1603FD
3BD1643D
BB21FE47
BC9D787C
BCA5D0EF
3D7B6B60
3C70EB46
3D614926
BDA628B9
3C998066
3C218A4B
BC6C26EC
3BB4F7EA
3CA6ADB0
BD347433
BD5B7F39
BCFA011D
BC0A8A77
3D2431D8
3D0B9D8C
BC85B444
BCFB18D4
3CA1A9A8
3C6AE0BE
BCB8F2AA
3CDB314F
3C3A1B6E
3973EF35
3C609ACC
BD4C508F
3C79A5D0
BCD79300
3D702E02
BC050672
BC3290B0
BD1D20F0
3C8C0B70
3C25FCD2
3D065A33
3D312AB6
3BD6929C
3C357F38
BD1BC53F
3D018BE0
3CC69637
3D3D20FC
BD1DF230
BCA4BDD0
3D1CD85A
3D7BC661
BD7FAECA
BD9A8308
3CF3DA3C
BD4C7C09
BBEAC522
BC09DC3B
3C2D2833
3D2C82C0
BD982012
BD8FE076
BC90F99F
3D856C2A
BC821B74
3D386AFE
3D6849A6
BDB37A54
3B9EC60A
3D18B1C9
3B048F5A
BCEA5C07
BD6F1BB6
BD52A2FD
BD87869F
3B9C013D
BD490CBC
3CF73782
3D188ECF
BC2445A0
3D24FEBA
BD846482
BCFEF4A0
BB5B487E
3C95A029
BA862046
3B5342ED
BC088D2C
3DA62402
3CDF4F3B
3B3226E2
3CA85103
3D0C1238
3CBBC41D
BCFE38B4
BCE894C3
3D1432C3
3B85FE72
BD996E10
BC25D0DD
3D7E4331
BA575CE3
BCA15B33
BD05F10F
3CAE2459
3D4B8413
BD180007
BCE4BBCA
3D86F5CE
3BE3ACE6
3D6268E3
3D2FD28E
BCE685C2
3CD7DC16
3D4180F0
3C9D236C
3D3C4FFF
3D023067
BB5CEB5F
BCB58B4D
BC58A88A
3BEB85BC
BC2775DC
BD051E43
BC11FDE5
3D152DFD
3BF7E3E2
3D81ED83
BD692377
3C340F1F
3CD7FB45
3CB59F9D
3C637A0F
3A22258D
3A2B349D
BD84BF62
BD12DC6F
3CFC8DC9
BD487182
3BA2951B
3C389E8E
BBB5CB69
BBEF2311
3D24CCF2
3C350CE7
3CFB42F6
BCED74A4
BD232FB8
BCE256B9
3CDE2F7F
3C134681
BC7C4345
BDA2C782
3C371FE6
BD8AD780
BBE64A8D
374CB0A0
3D81665A
BCE7ADDA
3DAAA35B
3BFC8EEE
BD68ABA2
3D306569
BC62F1B3
3D0865E5
3C546B51
BC85F668
BD2255E2
BCBB3938
3C53B521
3CA0B77D
3C830224
BC674777
3D37A517
BCB63DF9
BDC04D7B
3D49675F
BD0D76E3
3BFF3B4D
BD3F9BEE
BCF0C566
BCC26602
BD9A87B1
3C9D55B7
3D936888
3D33C32E
3B2E3340
3C6FF57F
3CC949CC
3D26263D
3B22D663
3CCCE931
BA84C42D
BB32569B
BC6DD2DC
3BA6511A
BB23AE8A
3CEDF156
BC54E413
BC9D871E
BC233A3C
BBE220C8
BBA239C4
3AEBA2E4
3CB0728C
BCEB08DE
BCD4B44E
3BE2A743
3D074139
3D607602
BD54A1B5
BCA2D565
3D4DECBD
BCC07CF7
BC90D5BB
3CDFF8E7
BCED1BE3
BD605C5C
3CBA0D1E
BCDDBA6D
BC750BF4
BA4258D7
3B0C70ED
3CBA5ED1
3BD24F59
BB553774
BC8D286D
373076A0
BC32A5DF
3C9DA305
3C82A58E
BA4D426C
BBDC1664
BC4E70A8
BC193CF7
BC0FB0D3
3C0BEFB2
3CE2D2C9
BB9ADB7C
3C930339
3BAB6BB3
3B89CD51
BD5F9879
3BB38839
3D296B15
3D4B1608
BD0E95A3
BD8523A7
BCDCA3DF
BD3609D9
BB4FD525
BA8E421E
3D52B47A
3D2E2761
BD7E0AAE
BAE564BB
BCAD028D
BCD3D4AE
3CC3C8D7
BC61776E
3D8B88C2
BD8AC59D
BB34BDD6
3D4C4FB3
3D1556C6
3D8E6A1E
BD09004B
3DCD8D16
3C8D4A15
3C9D2D79
3AAE0C3D
3DB62AA5
BCF0E000
3D0C1476
BCE48DAB
BBF7A64F
3D4D9D0B
3D0AC7EE
398DB8B2
3C400B01
BD3F5613
3C731DCA
3BC1E38E
3CE2D60C
3D1A2BBB
BC875939
BC0616C2
BD278D94
3C0972E9
BC5B048D
3D7D0218
BC231A43
BD3D8A98
BD66F9CD
3CFAF16A
3C55757D
3B0FFF51
3CCFE2DB
3C76BDFD
3C8895B9
BD519070
3D8440F1
3D43B4F4
3DD0192C
3BEAF7E8
BDA0C41E
3D332678
BAAAB8D6
BDA31248
BC8FF468
3D6DF388
3CF5542B
3D114A3C
BD142AB4
3BE79E2D
3CCFDBD7
BD807D62
BCE91535
BD6E0016
3D98DFDF
3BEEDFB9
BCAC9779
3BD0F549
BCF7ADD2
3C3EAAC7
3D84B7F9
BD498BA9
BCF30622
BD7A0825
BD7E75A4
BDAAB7C2
3C7AF539
BBDA9913
3CB99B53
3D043944
BC9E9356
BCB5AC5B
BC97BED8
BCB5CC8A
3D00F061
3D210D1F
BD59C4B6
BCD2F2BE
BB815E60
3D8C202F
3D9D0084
BCFC8B24
BC5F9B4B
3D0A4E19
BD7217FD
BC9A06D9
BD51991B
3D50825C
3D4D989E
BD643DFB
BBF1F262
3D3C0526
3C833C84
BC0739FE
3BD7CEF0
BB0835CD
3D572872
3CB8369B
3C6A8A74
3DA9FDED
3C6D9AC6
3B229148
3D9F2EAF
BC54768A
BC4554D4
3D395487
BC47EF1D
BCD3C591
3D0DF4BF
3DAA7686
BCF4821F
BD4A957B
3C487328
BCAE6E98
BB6361B0
BC227873
3A86531C
BBBCE749
3D1C065A
BC6A630C
BB38675F
BBFFB45D
BCE755B8
3C40AD48
BC8EB0CF
3D3F4DD9
BD0B20B5
BC408785
BC31C3C7
BB6F9A57
BAEBBA1F
BCC73B5C
BD05698E
BB843B91
3D11AD73
3D2447AB
BD0CC8C3
BCE16A58
BC81ED23
3B53FF92
BBDDF21B
3D876E01
BB8BDD49
BD5159C0
B94F046C
3AF7B3CA
3C53519A
BC8A6126
3DA22719
BCB052EC
3C05FCB3
BD1CFA6C
BCD1460A
3D6067D3
BD0ED253
3AD198E3
3AAA636A
BC54FCBF
BC87E4E2
BC8F489A
3C80E145
BC1CFFF3
3D310C4A
3B8B7486
BD093E21
BBC713E5
BE168D10
3ADEF34C
3C873206
BA83AF58
3D976976
3CD1F3BF
BD4D658E
BD7B2D62
3D194A3C
3D1EBB46
3DDE7EDC
BC89C17A
3C0E8F11
3CEB3D52
3C3EE109
3C23EFB9
3C910050
BC7898AF
3C3DE870
3BFDE236
BC713053
3BDBB49C
3C825C2B
3B7A2A0E
BB2D55F2
BC090B8D
B95AA0A9
3BDC58B6
3BBFAF7F
3B460FD4
BD93F4E8
BC32ED89
BC61727A
3D377BF6
BC77DCF7
BDC7CA17
BCCF67E7
BCDF4461
3D43C4E2
BB21CF87
3C8FC17F
BC506B5E
BD9444AF
3D845610
3A05E66C
BAD8119E
3B8B4425
BB342EDA
3C877835
3C3B8629
BBD56448
BB38912D
BC9AE18A
BC269CF7
3C8CE0F0
3CAEEBA5
3AD7DB59
BC383ACB
BC9734D3
3A97DAFC
BBDBC41A
BB842836
3C9A5033
3C558332
3D40CA96
BD11AFF5
3C88E16C
BD86B653
3AF5C82A
3CD3EEF2
3CF04D23
BC9F72B9
BCBA1C7D
3A1AE1F7
BD7ADBBD
BC04D950
3CA5A4D5
BC4F85D8
BB50F852
BD09318D
BCEAD554
BD84477F
BA77FD38
3D0051F4
BBDAC5E7
3D9CA31A
BC3DEA86
BD426D1C
BB55418C
3D3F2473
3D765C3C
BAF77668
3D4AA9D2
3D30C3B1
3D81BA65
BC6FA28C
BBBB8110
BD250B87
3C6B213A
BBBA97AD
3D7428A7
3CD95A12
3C356E55
BA904B7A
BD18BA6A
BA50B768
3D63F48B
BCACC899
3C063AF3
3D8820E3
3C606E2B
3C9BB648
3BCEF3C1
BCB8F3B2
BD500E53
3CC44906
3D44C57D
BCCAC79C
BCB02456
3C8B328F
3D3149E2
3C055DC7
3D5BA78F
BCDBD7DB
BCB0A265
BD3AB17C
3D8FDA35
3C86C458
3DA344E2
3D9D4D56
BD507E74
3D2BC1A2
3D6F45EC
3CA98F39
BCD118ED
3CE484F2
BC1BC604
3BC59E8C
BD04ADB9
BBE0DB9C
3C34EA65
BD273C0F
3CA1FDC6
BB9271FC
3DDF445C
3D35051F
BD8846CE
3C9CFC38
BD34D76D
BD9ADF53
3D952034
3CBA4753
BD6E4E67
BDBE18F1
BD7FF7D7
BD895B71
BD1DBCF8
BD491FCA
3CD05C29
BCA96374
BD05042E
BCE63307
3CDB9585
3BF4A2B9
3C4C2F21
3D813A6A
3BCB388A
BCBDD0D4
BC1CBEC2
3C8FFEFC
3D1E2F0A
BC3C3D7E
BC008A8F
3D0523ED
BD89FE70
BD33202D
BD99DF54
3B9B5C00
3D473E2A
BD3DDE4E
BCF5ED6D
3BF0EAFA
3CAB4E8A
BC20C76A
3CD5076F
3C9D8297
3D1A6644
BCC48CDE
3C1A074C
3DAD2063
3C1B4A40
BCB10DF5
3D733F90
BAE0FDAE
BD16D728
3D0A51A4
BD90AAA3
BCB704F3
BC30338E
3D41EE12
BC894E0C
BC459E36
BB80F691
BC2B1917
3D1DD8AD
3C647F6A
3BD95A33
BC9BF8C6
3D58002B
BCF2E836
BCA8A685
3C8F7945
BCF83B84
BC961B24
3C4642C5
3CB47571
BD8493D0
3B7F56DF
BC2AA933
B93F9C2B
3D7BBE33
BC74BF2F
BD4A6C60
BC334D2F
3CC80CE3
3D56239C
BD112B06
3B6459E5
BD97917F
3D05E957
3C53ADCA
BC3F7A51
3AF2196A
BC70FE18
BCDCD627
BD06D90A
3C972206
3D3655DA
3D72625E
BD540790
BD1F5A72
BD17E3A4
BD9646DD
3D588B9A
BCC57FDA
BC7725EE
BA0DC2BC
3B0FD685
BC2211B0
B9E65DE0
3D163832
3CD34E86
3D42493E
3A15C156
BC8CFE00
3DA7179B
BD6DE996
BC89B479
3D1976D2
3D0B5F8C
3E0AD1D2
3D0FEBC5
BCEAF527
BCAB6D99
3D261C8D
3C8BF9A9
3D992FFE
3BDE319D
BC90C19A
BC1BF62F
3CC502EC
BC0B8EC6
3C99992D
3C86CE6E
BC2FC394
3B695FBE
BB8D3B69
3B291150
3CCBFE62
BC0ACC70
BB667C98
BC3967F5
BBDB7114
3B3837BD
3BB0CCC0
BC5D99A9
BDCE7748
3B1F1A6E
3C8A949A
3D27AED4
BB2617CB
BE0255E7
3C33678B
3D255A81
3D2F57EB
3C6DB3EC
3D2C7AC6
3BBD4F30
BD1AAB3A
3D39F4F8
BC00E529
3C41C25E
BB51A254
BAA15D6D
3CBE5DA3
3C350E61
BACD7A3E
BC3EB031
BAF97F20
3B33B14E
3CBE9B15
3C2490C1
3B2EBD04
3A8081B8
BC212A7E
BC124B38
3A23BAA0
BC2008B7
BAB03945
BC616520
3D0BF6F0
3C39DD17
3CA06176
BD892CE4
3B062F6F
3CCCF483
3D5FA732
BBDE9FCC
BC968879
3C82CD05
BCDC81CD
3C43C5C6
3C921919
3C21C38E
BD11B981
3A88064A
BD1D6FE4
BDA770B3
3CA518A3
3C6020F0
BC25216B
3D35EF5B
3B6A1130
BD17D3B0
BB521A2C
3B686D22
3C1D75A1
3D0FCA55
BC2F3AF6
3D3F8AC5
3DAB913E
3C6489BE
BD24AC42
BD96C780
3CD12985
3D0464DF
3D00614E
BCB0F5D6
3BBAE2BC
BC442403
BD3E74EB
BBEC32B5
3D83960B
BCFCC93E
BBEFA4EB
3AD93CBF
3C6166E4
3C20062A
BD0BD2D8
3CFAB8B4
BD4002D8
3CD2684D
3D58CA0D
BC710494
3B0559F4
3C85C21A
3C8F125D
3C16836B
3D70CC29
BD98F0D8
BCF3173E
3CBB6470
3DDE6B82
BC803630
3D3B11DA
3CFE121D
BA145B6E
3D484826
3DBA7126
3CB906B4
BC407D4D
BC80EBB7
BD335211
3845C53C
BC17B104
3C8B0EE6
3CFC6C64
BB3ACBD2
3D10449A
BCA7B836
3DABA778
3DEFF928
BD6DA654
BC8C4A02
BC2CF8C1
BD08F68E
3D38CDC4
3D232736
BD643E47
BC6FDEBD
BDC544C1
BD1D9EA4
3C56DEA4
BC8110C1
3C2E96E8
3CAAF755
BD665605
BC363662
BD9EBD26
BD687985
3D5F9AE8
3C78F3CC
BC678AD8
BC274C9D
BD065A07
3BCD9E39
3DA9DAF8
BD0093D8
3BF452BB
BB53E745
BD0090DD
3C3EB438
BC2C7D3A
3C3D4E25
3CBDE40A
BD0AAED3
3BFF4E6F
BDBB2700
3CA8DA86
3BBB1A76
3B94838C
3C9351D1
3C12E041
3B10D037
3A18ECB0
3D0CA7CB
3CD19CB6
BDAF1FD4
3B20E1F9
BC265DD9
BD6FA676
3DB2239D
BD931755
BC9DA75A
3D15E652
BC9CD778
3C4CBE0A
BCD4F94F
BC209216
BD20BE24
B99C7D16
3CA3A232
3D13BB44
BC5EC3B3
3CFC380F
BD01E355
BBE48F42
3D43DE5C
BCD75E13
BCA48D79
3CAE7DB9
3CB9B2C3
BCA91327
3C222100
BD00511D
BCC2E6AA
3CC0AE2E
3AEAAD42
BD17F11F
BCF862AC
3C3A4764
3D29633D
BBB0382D
3C95F7A9
3C0EDD10
3CA2ED5A
3CE5AA80
BBE1C49C
3D3A530E
BCD30CEA
BC829D8C
BAABE060
3D4C3E97
3D81D463
3DC1D185
BCF3A2D1
BCF72F91
BD153256
BB81DCB0
3D805D0D
BAEE94AC
BD18D38D
BC9058C4
3CB84E38
BD0EA31F
BD2CC5B6
BC0DEE0A
3C94B4EA
3D507D70
BCD7B6B2
BCDFB865
3DA688A1
BC0DD788
BACE56A5
3C97FCE1
BCC49A6A
3DB1CF7C
3CBCEAE5
BCC2AFBD
BD12CE81
3D582714
3C0D07DD
3D3008B1
3D02BE99
BC20E589
BCD9BF55
3C9F345E
BC333F5C
3C61C7C5
3C7B49B9
BB8E4D7C
3C445950
3A80646B
BC393562
BB7656EF
BB102D9B
3C039937
BA42590C
BBEE5792
BC086520
3AC06D39
BAD49B68
BDAC39FA
BC2AA862
3BA66D24
3CED9BB6
3D4E9EDC
BD9B11A4
BA8C8EFA
3CB72555
3D489A9A
BC5244D8
3D443EFD
3D0E7062
BDAC75DB
3AD42028
BCBFC672
3C9B44EA
BB9F937D
BC1548A3
3C10B22D
3C39B524
BC818FC2
BC0D9C19
BC526901
BB7D6C79
3C4E12EE
3A90F28B
3C620C34
3B975896
BC8203F9
BC25200D
BB995318
39C6D14A
3CBA0CD7
3CB49AC5
3D5DE12E
3C2AA414
BA026C76
BD04F2C3
BBE9C483
3CA17C58
3C7C65DF
3BE114E5
BB8457A5
3C874FD7
BD4B62B0
3AD4431A
3B92D643
BD147A98
BD2C9B62
BD1E5194
BD1F1814
BDBCB109
3C952E0B
BA510825
3D07BF91
3D54462D
3D2931CA
BC053991
BCD56EB9
BD21DC67
3CBCB81F
3D12ED24
BC23EC43
3D7F0A2E
3D8CA344
BD418258
BCCFC89F
BD86D37C
3C208DF7
3D08420B
BBCC76CC
3BFA76B1
3CC5A1E1
BD2164D5
BD5286D6
BC9309BA
3CDF9BFA
BD091649
3C59A7D2
3C7130DB
3C85FE41
3D13F6FD
BBBB49EA
3C16269A
3C40AB01
BBC35F94
3D9A836D
3D0AD8F5
BC7E38C9
BC87DABF
BDA5ACDB
BBAE3089
BC90DE12
BAD17E6E
3D2DA039
BA815A8E
3CA85E34
BC805142
BD1560B9
3D632E76
3CFBB528
BC2DC2C0
3D8C8E2B
3DBC870C
BD2C8341
BD67D2D9
BD3012F0
3CEEFB1E
BD268294
3CBE2594
3D86368E
3C6EEB05
3D1BB8A1
3CD432B0
3DA4287C
3D927F5A
BBFEBCC8
3CFF9F79
3CF061AF
3CC50304
3C8F0FAD
3CB20BF4
3D138B0D
3BBD94E0
BC952CE4
BD597BAA
3B490D6E
3D23B0B7
BC4AA52F
3AFB73B8
BD86715C
BD4CFE1A
BBE3E008
BD20B5F4
3AFD3D9E
BCB0F731
3C1EF301
3AE74140
BCE80451
BD638509
3D0D4B02
BC84245A
3B37F443
3C086F59
BCCF90A6
3D2EB8B6
3CC4CB9D
3CE52AAC
BD12CC8D
BC4F2CC9
BCF1E574
BDA84CB8
BD127BB8
B98978E8
BB3617CA
3B0AE35D
3BA40ECA
3B2027D7
3B381F87
3C7855BF
3D378544
BDF7EA57
B9C676EF
3C4599BE
BD535DFC
3D644087
BD5E5CA2
BDB363DE
3D7C694E
3D23F350
3CE6A041
BD0A5D2E
BC0FFC86
BC803A54
3CEA67E5
3D8107F9
3CAF5987
BD48CB35
BD164E3B
BD0F1630
BC69C3BC
3C10DB90
BD273133
BD83BB31
3D605E9B
BC1DD496
3B66B44D
BC83E729
BC1FBC54
BCFB6ADD
3CD6C05D
3C808EF9
BD5E1A48
BD2C0F5F
BD6EA273
3CA6EAA4
3C8B8CB8
3C86B88E
BC7E35DE
3BEDA08B
3D6C1D71
3D2E8CB5
3D8D1BF3
BC8ED8B9
BC9E772F
3D028E41
3B934228
3DA729D4
3DBFAD67
BCE827B8
3B15C28E
BC285B60
BCB69087
3CD9FA6B
3BA67C0D
BD18CF1B
3CA97FC9
BC93A5A3
BC7D421F
BD6790C4
BB307639
3B643A5C
3C8D5D2B
BCA15BD7
BD6A351B
3D453CDC
BC9F06C6
BD65B42A
BD0E6942
3D43D413
3D461DE5
3D77004F
BD5532B2
BD6DA1DB
3CA03A62
BD67C8C1
3D309A57
3D2A1848
3CDF8CBE
BD17C500
3C0C9937
3C0ABEEB
3C7E8B8F
39E04B40
3B2AB834
BC9DB1F4
3BC44E3B
3BC56368
3B863F4F
3C8BD256
3CB029BD
BA570399
3B0678B3
BC0CF8AB
BAC1127C
B9B8C03E
BD41D9DC
3D46D386
3D88F83D
3C94C868
3C236F31
BD847CAB
BC0B9CEE
3D36FF7E
3BE3E1FB
3CAA79FF
3D240D88
3CB1294A
BD511450
3D56744D
BCFA219C
3CCB2D27
BBF79AFD
BBD1544F
3C1B5494
3A125E90
BA499EB4
BC1C203B
BB1990C9
3B7F35D1
3C395187
3C718FF6
3C75BAF1
BBB60411
BC05859C
BB48DA25
BB78046E
3C6325D4
3AE0E68E
BA0F773A
3D088776
BD5BE086
3D0A76BE
BDAE6DB2
3CAEC4DA
3D49F9B1
BC964C64
B9B09738
3BA56A3D
3CA623B3
BCE1E787
BBCA22FB
3C14B33A
BCA25DA0
BD37101B
BCAD63E8
BC9D8101
BDA0B092
BCE2550E
3C291F81
BD371D5A
3D4665F7
3CC088EF
BCC622DE
BCE65E5D
BD956E56
3C48AF19
3D09545C
BC82CB1E
3C630971
3D5E12D1
BD5CD419
BD0C2BD3
BD4FD0EE
BCA5EB19
3CB6AC65
BB843E1A
BD681F62
3CB835EA
BCD6D45C
BD176B2B
BC5413C0
BBAC8A9D
BC58D5AC
3BE37A9F
BC9119D0
3CC2A75F
3C857D18
BD1080D3
BCCA2639
3CFCCD65
3CB926BE
3D9D325E
3B02A119
BCC1B828
BC22D7EB
BC22DE6F
3D10284F
3BE10D55
3C2CD3FC
3D0174B7
BCDD9262
3D91A120
3CA45506
BC8B5A76
3D05CD9A
3D5DDFEA
BCE92861
3D5580E7
BB723CA5
3C646393
BC1906D2
BDB1B32A
3D37F089
BCDF417B
3C9DBC94
3D07E415
3CE0C575
3D7831A9
3CB61FAF
3D1AF65D
3DC22B0B
3D5EF297
BB4C2163
3CAF9F6D
BC8E43DE
BD30674A
3C15E089
3CCF0798
3D95DC65
3BFABEA7
BD182E1C
3D914DCA
3D7A1259
BC9B9CF9
3C650B0B
BD55E933
BCDC65C9
3BEFABDC
BD402E04
3CE59A9E
BD5353CE
BB950023
BD34C3BB
BD238636
BC52AE27
BCABA9A7
BC7A958E
BCD291BC
BD27D8DB
BCBA5666
3CAE51AF
3CAA92AF
BD6E0CAF
BD31C4DC
BC2EC51F
3CA4A145
BDD3E454
BC84639E
3C284D45
3D089606
3B4D4A6D
3C3DA4B5
BC61BD84
BCC8B01E
BD462CA4
3D095060
BD6055F6
BCE64960
3C4ECE2B
BCD8943B
3C85E8AB
BD81DD42
BD9BEC41
3D4ADBD6
3D5F6A3A
3D208D8A
BD5238F1
BB4A28EB
BC8E6955
BB39B6FC
3D5AE004
3B4FCA41
3C2979AA
BC42E202
3CEB21E9
BCF99C92
BBFD9423
BD60DEFB
BD73F651
3C64E59B
3C0EE55A
3B99BEBF
BD2B5DB1
BC27807E
BC97858A
3BC1CF87
3D1A5AC2
BD11D625
BD169A53
BAA05013
BC179183
3D10D3BE
BCF81AED
3AA2B185
3C6AB557
3D9E2AD8
BC9A4149
3D239491
BD2C345C
3B0AD68A
BB1CC138
BC9177A8
3DA5B904
3D37D1C4
3C42666C
BC91D738
BC61ED89
BC68DD9A
BC03B05D
3C49FF6D
BCBD01F9
BD06C492
BC3AE910
BC625A39
BC184C82
3CACCCC8
3CBDEEC4
3D0DE9A0
BC9C5113
BCF5683F
3D328798
3CE27BD6
BD2449F7
BD2613E8
3D0E3073
3D230C2B
3D0EF86C
BCDBDBE7
BD369261
BC3D9812
BD3A9EEB
3BAF14C8
B987B961
3CF0901B
BD215057
3C762FC2
3B51A6ED
3C866DA9
3BD36852
BAA2DE45
BBCDFE60
BC2D964A
BC93256E
3B1A3E24
3BBF6F88
BBAD9494
3BA3AABA
BB183E17
3B31CB81
3C454D71
BC45DB4A
BC689DD7
3D524269
BBA90584
3CC535F3
3CDF9168
BCC1590D
BCA84A70
3D1501F0
3D2448D6
3CC503A4
3CBC0267
3D365269
BCEC9FD1
3B98D198
BCBF728D
3D266D34
BA8C64FA
BA87A216
BBF9BB3F
3B133733
3A755E3A
BBA9D45D
BC259B39
BC08920F
3C406A55
3BE8D2C0
3BD7DEB1
3B8DA582
BAC60BC1
BC048D0F
BB8D99DC
3C5D30F8
3C53BC6F
3CA49D94
3CE6EBE4
3B9C6D8F
3C496A35
BD257457
3BE4F53B
BCCDB782
3ABBCF0D
BC8218A7
3C858583
3C607451
3CDF59F7
3B6C2349
BC013433
3CAB68D3
BD8BDE43
BCF68AAB
37BD22E4
BDAEC536
BCAB21B6
3C76F01B
BCDCC654
3D83D638
3D00DD47
BCD8DB4A
BCBB090C
BD871CA3
3C7C2F20
3D14CFBD
3C95311F
BBBECCC2
3CE6D9C3
BD1C0300
3B808707
BCFB0718
BCA9DE1D
3BC6C18D
3AA3B46B
BBA365A5
3BADFDEB
BB2C2B8C
3C16DDAD
BC2410EB
3BFB086D
BC36F497
3CDC1E53
BCE01082
3CBACBD4
3C7CB6FA
BBBD16E3
BB9DAA67
3C35E4B5
3BBEA6CA
3D395355
BC94597B
BCBAB065
BCD98C21
BCBC990D
3C4A84B0
BB5E4997
3A735383
3D247A9D
BC5D040D
BBDDC22D
BCB15ED2
BCA40099
3D00008F
3D49D70E
BCBAFA78
3C874C85
BC439DDD
3C1C37BE
BCA2C09C
BC95D811
3D3E204F
BD3D0483
3CB62351
3D2BAA3F
B99A2CE8
3DC78E63
BC32CF3C
3CDC80B6
3D37781A
3CC54605
BB94CAE6
3BA3CD5A
BCFE8B4B
BCD19BF2
3D058BE9
3CDB1562
3CD16537
3CB99A4A
3D2CB243
3D970173
3D38D6E6
BD3D8848
3C123CDA
B93FA27D
BCF951F4
3CB5CE8A
3B8F2A0C
3D07726D
3B248670
3C5B8940
BB92CE53
3C8BFC94
BD4F9245
3B219713
3C670DB4
BCC5D15E
BD237F30
BCE7B957
BC56BB0F
3D3A3C49
BBA7F15B
BD649A6A
BCDC395B
BC8DF3D7
BDB453C8
BD7E11B3
3D12090B
3BFE6E38
BC417B37
3C28AB3E
3C2B4306
3CE36F86
BD7FBF83
3CE4AFBA
BCD15A47
BC912751
3CE6FCDD
BD160324
3C593B19
BD263B32
BDBBF4A8
3D80D2B7
3D617B1F
BCAE14B4
BC8513CE
BBF27221
BD067C38
3B8DE299
3D6B4D8A
BBB64D50
BCC6839F
BCF85B98
BB182AFC
BBBC1874
BCA43A41
3C65A64A
BD138599
BBE05D78
3CEC0E5C
3C137476
39F72FF4
BB3EDD1B
BC2FA091
3CA19EB5
BABFC296
BD501931
BCC4D877
BBB7D019
BD84B16A
3BCB19B2
BA73E546
3BC673FA
3D173AA1
3D358434
3C49702D
3CF3752B
BCE6D5EC
3C07BBCD
BCE4CE2D
BD42FF9F
3D36150C
3C44AF8A
BD0A9E0A
3CAB9AD3
3B88EC62
3B23AB40
BC891F6E
3D86EBF1
3C322A80
BCC6F7BF
3CB5D6E9
BCB157EA
BBBFF3EC
3B4E094B
3D10079E
3D8647F7
BD33F4CB
BCCFE82F
3CA0EF2C
3BAE7F57
BD68CD5F
BBBC8A87
3D00C1C5
3D146CD8
3D418055
3CE012FA
BD5B94DD
3CDD01CB
BC064F19
BCCE3403
3C83AA41
3D30D98F
3CBFD3D5
BC469E4D
BB22DEA7
3A94FB78
3C4769CF
3B782750
BC638CB7
3C2325D1
BB32F5CF
BC55C37D
3CB4EA8D
3C603133
BB2E82EA
3B8C9716
3C632335
3A889B6E
BC350600
BD45F61D
BCB988F2
3D249F87
BA654556
BC291DD1
BCDC5DAB
BD1418C5
BB7D856C
3C56EFAB
3B1EBFBE
3CBA1014
3CA8DC4D
BD061FA3
3C2729C5
BBFBD758
3BD840F5
BC36B62B
BB02A025
BB1BE864
3BC600E6
BBD8F015
BC05E04C
BBD2E710
BBF79518
BA850970
3C7811CF
3BC5BA10
3B0948C3
BB00424E
3B4FC858
BB59647C
BB9B7324
BC8BB650
BBFA922A
3C8418C7
BC07CE39
B8BB9A94
BD132E4A
3CA6ECF6
BCCB4CB4
BC927763
3D242C59
BC1AD36E
BC056233
BB85514A
BA3DEC46
3CA0097D
BD2D8197
BDB49A85
BCABF810
3C23DFBB
BDF34B9D
3B33CD12
3CDD50A3
BD02C5EF
3D978DE7
3CD0DA9C
BCA332D6
3C7BD9D3
BD59D30F
3B2EDC96
BA4CB0DA
BCEAE3E0
3C927E3B
3C46E490
BC8869AB
BB086B60
BD1D6F3C
BC68D747
BB2C4961
BC52013D
BCA5317D
3A66136F
BC6B652E
BD4306CC
3B376FBA
39C13620
BD2686A0
3C7A8BCC
BB9E6D39
BD6A1D3C
38C7F454
BD6D0C81
BCEC1CC5
3CDD7ADE
BC4589E3
3CF97DD8
3CBA9F10
3D3548C1
BD0649DF
BC94A67E
3CBCD298
BD5384B6
3BEE265B
3BEB9DAF
3D2BBA37
BCBB0FF2
BC57A350
BD433D81
3D260A48
3CA98710
BC5DFBFB
3D4E4F46
3B8562AE
39F70B4C
3CDC99A7
3A45FAD6
3C1966E5
BBD33B36
3BD67A73
BC0BF0D1
3D3AA99A
3D38B3A4
BC993094
3CFA5CCA
3CFE3B98
3D3C385D
BD5B9D37
3D00E42F
3C047857
BD0D593F
3CFC4FD8
3C21F7CB
3B5A0769
3CA373E5
3C8CD4FD
3D269658
3CFF7C0D
BD09856D
BB971001
B920D7AF
BD2A2077
BCAE3D36
BCD497AF
3C01BE22
BC17E1E2
3C07C9CF
BD04E3B1
BC8CB46C
BD642906
BB60AA44
BD0B23E0
3C504798
BD165DC6
3D13ED34
3C286C4A
3D2B6F08
3C56ACFE
BD9F492B
BD506F1D
BD27AAFA
BCA79739
BD3AAE3E
39E08AEF
3B86068E
B8C6B674
3C75B1F1
BC78370E
BBCDFBDE
BD4CF7D3
3BCC653C
BD5878B2
3B3C31EE
3CD9DC18
3C249B49
BBDD63A9
BD376555
BD845424
3BAAC6ED
3D6720A3
3C01A13B
BD45E5C6
3C884E49
3CA36CC0
3B2EC760
BC187CD3
3CB806A5
BD3BABB6
3C4D21D5
3C50383D
BC88CE56
BBAAE560
BCE17AB5
BCE5CE72
BB3388C0
3C499231
BC4DD2DF
BCE758AD
3C953DB9
BBAC0ACF
BB35A457
BCEFEECC
BD8D1973
BA858A52
BCD4095B
BD88250D
BC848EA6
39665D3C
BC3020C9
3CC420D9
3D820A0F
BC49A64E
3C025D83
BC95747A
BC36659F
BB765F80
BD808347
3C45FAE1
3D4DC429
BD275E0D
3BD44528
BABEBD8B
BD0D4C58
3CE488DE
3C43B965
BAAC7EE6
BD4B7380
3CB7B577
BCC0F0A4
BD1B231A
3C686C56
BCA38EB8
3D06FEA2
BB56064B
3B67D838
BB6479A3
BBAD8912
BD1A6F18
3CBBE360
BB87AC7E
3D406D5E
3D489FAE
3D0DA3D3
BD80F790
BD0BFB34
BBE346CC
BCBB5113
3CC1270A
3C1DE803
3C9C82ED
3CC2FD67
BBF3EBF7
3C275F03
3C5BF68F
3B990BA3
BB52F8CE
BADB6C01
3B649749
BC45219D
3BA0A769
3B95A673
BC625354
BA458B4D
BC5B95BF
3C5E33F1
3AAD0092
3BA6BFBF
B8457C80
3C325AB4
3D0B6B76
3C88309F
BD323ABC
BBB52377
3D127C96
3C888BEE
BC0B8A39
BBD31B1F
BBBB13D4
BD128C17
BC4E6F88
BCD0A269
3C2191B2
3B9D3B35
BBA537F1
3ADA6D27
3C2CAB59
39FF9288
BC10213F
BB418CEF
3ACEA4A0
BBD6AB15
3BA4D8FD
39CD95FA
BB929D28
BB5113B1
BBDC8019
B9FC3416
BA23FB13
3D825472
3C61BED8
3D36394C
3D84D2EB
BC765181
BC04E938
3D2BD7AF
3C6091D0
BCAE935F
BC595F16
BBFD0B97
3CCAF812
BCC1733A
BD0737CB
BABE288E
BC840FD9
BDC34029
3B7B84AC
BC9CDFD6
BDD73BE0
BD3D13FC
3C4ED9A0
BC97DAC6
3C82E510
3D4B4EE6
BD1673AC
BCA40507
BD0141E9
BCC460B3
BCA3F634
BD595750
3A94B5FC
3A54606A
BBF94EBC
3C24DFFA
BC0A3DD6
BCB25138
3C3476C2
BD15099A
BD59F44C
BC1D9A6A
3C13E16F
BC5BF0C7
3B0ECF98
BC8BCD17
3BA206BD
3BD9407E
BD003261
3D05F2B3
BC1BCDA8
BCBACCE4
BAE69534
3D288E19
BCFD47D0
3D82E38C
3CAC9B30
BBCA4920
BCD11F64
BC01AF73
3CCB75EC
BC0DCF42
BC4F49BE
BCFEB246
3D66B10D
3D5A8E73
3B0B0986
BCA500F7
3CD34DFF
3D555C5A
BCA609A0
3D562424
3D49942C
BAE1EFF4
BC913977
BC558DB7
3C426AA7
BC60D004
3B634A8C
3B8359A7
3DA8FD47
3D42EA5A
3CBAB656
B9D68BC6
BB4173FE
BC873A65
3AF17642
39E4E010
3C90D8ED
BCB22142
3C736413
BC90377C
3C5554B9
3C5930E5
3C9292D3
BB30EE87
3CA34612
3CB44906
3C2325EB
3C6F1E7A
3B0860A3
BCF75B1D
BC1DD57E
BC4D4FD2
BC916045
3BE1B14E
BC3D39B7
BC801FD5
BCCF0C12
BC9F1100
BB93A858
BB9F6675
BD1EECEA
3CF6E07B
3C866B0A
3C7FCCE6
3BEB2403
BC9FBDD6
3CA6ACB4
3B49B4E0
BBD608A0
BC74CBE3
BC038C4E
BBFF54D7
3B1283D9
3C9AA7AF
BB8D144A
3CC950BE
BD5BA1F3
3D23D746
BD71518B
3A564294
3D0FAA48
BBF884FF
BC0D6C9B
BD4E61E6
BCD13462
BD08BAD6
3D0825AA
3D1A3845
BDB2C60E
3C5AD3BF
3B7D1540
3D819255
3BDBBD00
BC460863
BCC3C5F0
BD069083
BC861773
3AC48B8B
BCD405C3
BCDCDBCC
BCBC5B3C
BCD23E75
3C01DD80
3CBF32AE
BD14E9A7
3B419A4D
BBD79C1B
3BEEDB80
BC8835D7
BCFE73DA
BBC119C8
BBC1CF66
BCF0802C
BCBB8261
3C49C19E
BBE072EE
3CA1FC17
3C9AA4A0
BC2B708A
BABB5F5D
BC26DBF0
BC2A60EA
BC834713
BCBDECC2
BC859495
BBD86A7C
BBCFB315
BB8128A1
BD0846FC
3C1B73F4
BCE7377E
3C449C0E
BD0F368A
3B85C92E
BBCFEC6C
3C72B9EE
BD0595DB
BC1B323B
3B41CF81
3C262007
BCA2B5CD
3CADF149
BC102DE4
BD4F3EE0
BD456C58
3D85146D
BB413CFC
3D9C048A
3D1C2A84
3CCBC1C7
BD3BCD56
BD035FD8
3C37DCEC
BCCD9D8C
BC309DCA
BBE01B9A
3D7074C5
BB902D02
BBCB9179
3BB2F215
BBCD5A53
3AA3EBEE
BBF45245
BBAD5DD3
BBD50032
39DA832A
BAF0E462
3B2B68CE
BB8D10D9
3B637D8E
BBBAF236
BB083959
BB1F6362
BC40C9AA
BCADB378
BC5B9A4B
BC5EF6EC
3C0778E1
BD121EF2
BAEDA976
BBA13379
BC2CE208
3B9DC19E
BB8B3328
BCF3C2B7
3C3C3348
BC27B06B
3C5616D1
BBD58B8B
BA7E38BA
BC112B8F
3ABF059D
3B2DDE09
3B225648
BC0550E2
BB44D7C9
BA7D03D8
BB384F6B
3B5A09A5
3B553927
BBBF84EE
3B119F1A
BB89B71B
3B25F3F3
3A0CEE91
3C42753D
BCF13020
3C5083E2
3C5A8CC7
3CA0FB85
BD285191
3C9739E5
BD29971E
BBF81386
3CC7ABB0
BB98498A
BC4F2EE8
3D12E959
BCCE5C2D
3A9343D5
BD185286
BD6FB70A
3BAF66C4
BA3967CD
BD80D684
BD6B8390
3B92E358
BC090585
BBCAA6AE
3D158C1A
BCD3A698
BD15855B
BCDC3F6E
BCE0FC47
BCC86858
BCBC5293
BD2D3FF7
3CC86119
BD08621C
3BC59612
3C69A16B
3C54757B
BCBCEC19
BCA1D36B
BCB61EAD
BC9C6250
BAC8E682
3B0ACBAE
BD0B1E06
BC2F1286
BB612062
3CA38C65
BC89A989
3CD8E639
3AB1147C
BD271548
B9BC0632
3D5F7A0D
3C5D8A54
3D1B924D
3C32E96E
3BE54224
BC0CFA48
BBA9B9CA
39A48A12
BC984BF6
BC266CF2
3B5D0C89
3D4BC097
3C9E2B1B
B98F84AC
BCB3F40C
3C07A18B
3CBCE32C
3C141722
3C8662DB
3C450D7C
3B976C84
BB58B9FB
BCC51982
3B561AFD
BC1827AD
BC2F9B3A
BB9A7608
3971A1C3
3CF8E039
3C0FD7FF
BC311719
3CB5994E
3C38AA9F
3C5C91A0
3C12E217
3B00D1EE
BCDF6D0B
3A7E00F8
3B8BC343
3AEAC6DD
3C92BB26
3B8623DF
3A8EEB8E
3BF03DFD
3C8468C0
BC37FC5C
3A67B2E4
BBD9A81B
BCA6F9A9
BC30094D
BCA88B89
BC289E44
BBF27CF4
BD00E42A
3BCB288E
BC3D65DF
BBD40E29
BC2ACEEB
BC09E089
BD1F91B4
3CE391CE
BB623845
BBF0BC0C
BB94710A
BD0FA3DA
3B619730
BD45B919
BB898A05
BC4A882D
BCBD5F84
3CB102E5
BC1386D0
BBFCF669
BCE9B101
BB7488A6
BD4CBEDC
3C0402C9
BD1B4ED9
3D2E843D
BC1605C5
BCB92C37
BCC313F9
BD5C7DC5
BD03C7EA
BBB994BC
3C641F8F
3BA5B776
BD99FAFF
BAAA0D05
BBF76ED0
3D754607
BC9BA52B
B94FF75A
BCBFDFE6
3C090D07
395FBCBF
B9ECBE3F
BC3CA2C0
BCA323B3
BC8E3F76
3CA50AB2
BC288885
BC7DF2A9
BD200638
BC80BD2F
BC0A4637
3D0138FE
BC8B1930
3B04EB9F
396EF658
BBDF5298
BCE06672
BCCF7C8D
3CBA447A
BBAAA787
BBE4BB3A
3C8BDB1D
BC81A1D0
391AC89E
BB7ACFA5
BC27C0ED
BC8E73D7
BCC4D797
BCACC3F3
3C8BC1E3
BC841B57
3CC83AF9
3BA3CABF
3BD5EFB8
BC2AA59E
BC17FEBE
BAD72463
3C5067A4
BC8B2E79
BC984599
BC474FAA
BD12E452
BB98D774
3CA1F7C9
BD26C64A
3CE2B263
BBDB3871
BCD63305
BBA5E4B8
3CBC9636
3CF13BA5
3CAA73C7
3C75A85F
3C019D9D
BC5168A9
BCA67F86
BAB7965C
BC05245E
3C33D8EC
3CD4B9B4
3C93202D
3A949BDA
BB3E5E63
39F108FA
3AEE8A70
3C1C438D
3AE2F4E4
BB0176DF
3ABFCC40
3BE3FAA1
BC49DEEB
BAF4C9CD
3A7608A4
BBE1DE9F
3B940C6F
3AE221FB
3B544DCC
3D1A2E45
BCA3A28D
BD09ACC1
3C86BB7A
3C5916C6
3B0D30EA
BD1B22BC
BCCEF2FD
BBDF6D45
BCAC5DD5
3CF2555E
BD06C7EC
BCF4DB79
3BE46CC7
3C0ABAAE
BC23248A
3A97FB4D
BBBD4622
BAE7A7C3
B99706A8
3A45FED2
3983943F
BBE8531E
BAEE436A
3AF0AF3B
BBC9B849
3B31AF6C
BA931956
BB8F4691
BA5501F6
3B816669
B9B4CCAD
3D687DA4
BCDFB3C2
BD8204BE
3CB42DA3
3D2C4B9E
BC60723B
BA800B05
BD0EB428
BB846A10
BC1D4F9F
3C98DF69
BC8A07C3
BCE4DD1B
BC094FFE
3B4CA48A
3C16F990
BC545595
3A3D4C7D
BC932C80
BD1E34FB
BD2815AD
3C9F541F
BB823569
BBF5AB10
3C3693E2
BD115809
BD1925D4
BC885A92
BCD4B6E8
BC729097
BC9DF653
BD1CE84A
3CA66CEC
BCEF3163
BC1CCEC7
BBE92C04
3C688D28
BD0F7A81
BBF8882B
BC8A8A61
3A0E8371
BBD4FD71
BCE604EA
BD0E0B3A
BCD674E1
BC02F35D
3CAF8FEC
BBFB7A3C
3CD53DF3
BBABFE52
BD2EC963
BBEE5D2E
3D921308
398B7953
3D0FCFE0
3D4A7139
3CCB5320
BC308A7D
BCF5D59C
3C63F2C5
BCD37642
3CB87ED8
BB546FC2
3D139D2E
3CDCAB97
B9AA7FAC
BCA3B843
3A5DA40F
3D199085
3C44AA49
3C82D6B2
3B3E31CB
3C22D16D
BB63CC30
3CAD22B0
BAA366BB
BC1F7898
3CF29CDA
BC30FB02
3C227A05
3D1528DE
BB1B8ED6
BC25B24B
BC9B2A61
BBC3EC00
3CDF94F0
BAA6E07C
BB8D39C5
BB1114C8
BC5A1C3C
3BA844F6
BAC1EA77
BA217873
BCCE6E7B
BC2F9C14
BC4A7B10
3CADEBF6
BC26988E
BCE4C9AA
BC00D96E
3BC46436
3C1F7EA9
3C275E2B
BC7B81A7
39FC3941
BC91A9F6
3C87F78E
BBDE34BE
BC429EB6
BC92256B
BC0CB0F2
BB20A5E9
3D1794B6
BB70115D
BC3D7FD3
3CBA5AFF
BBAAA69D
3D2751DA
BBE7B0A9
BD25A345
BBABF56D
BCA9D3F0
3C55C809
BC8CDA9E
BC84CED8
3B56EEDB
BC6CC496
BD128F4E
BAA6125A
BCAA2A62
3D8B29B2
BBF97535
BCF9C12D
BB395C51
BD2DA959
BCC45992
3C95E974
BABD2C08
3C38FEF1
BD655374
BBEA2EF6
BBFE32BC
3D0EC0C3
BCE06534
3C207747
BC630997
3D212792
3B4DA251
BD00A30C
3A9A7BED
BCA5108B
BD00BB25
BA1F395D
BC6F35C6
3C180E32
BCBEA015
BC299037
3C696FC8
BA03859A
BD0A47F5
3BE49D53
BB4EC66A
BB235137
BB1AFB78
BBDD50FA
3C2772ED
3BAB7CA8
BC0BDCE3
3C6976D2
BCA3DC51
BC0AFAB5
BBB16246
BBA92593
BB4208B5
BC7E8D98
BC114B74
3C77B617
BC700ACE
3CC04213
3B1E1CC1
BB63D12E
3A1FCEB5
3B64A128
BCCF6F59
39600D6C
BCA2248D
BA449379
BC804C58
BC940ED7
3C7B869B
BB5DAA26
BC1CFD08
3D079DEE
BB9E5DCA
BC8B1FFF
3A7E9EBE
3D00CC7A
3CB8E6EC
3C8D7EDB
3CD0CA5C
BB1E9AC4
BC3074D0
3C9BE6BC
BB59F77D
3C8153D2
3CE8479F
3C8F3964
3C982F9D
3C7DBCE4
3AE6BC2C
3C385652
3A5CA4FD
BC104FBC
3AD69C1A
3C1A1F06
BBE386DF
3BB87FDC
3992581D
BAF3D816
BBE7EF2A
3C065E85
B9ECEC0A
B9119A9F
BAF331F4
3CCE3447
BC017485
3C81C91E
BBE487DB
3D27F577
3CA94816
3CDBBE5E
3CA7C559
BB318B5A
BB3A154A
BCF20436
BCCD16AD
3C13399B
3D157CE7
3C9B3A15
3C5CA0E7
3B78485A
BB16D1C9
3B9C8DA6
BB899F77
BA519F48
3B393C58
3B04E7FF
BB01575D
3A8F2A81
BB794BD3
BA8BADE6
BB64A18F
3A89C783
3AE90842
38843AC0
392CC0D0
3C075B29
BBB59141
BA1C79D6
3BF8B80D
3D0DE961
BC353F3B
3BD8185B
BCB93D4F
BCB52E9A
3B5A99FF
BD022EBD
BAF36480
BB78656B
3D4A0E69
BACE4B92
BC3ABDD0
3B92BB00
BBDDA538
BCCC7AF2
BCBE8062
BCFA2C41
3C07D57B
3BA91462
BC8E2DAB
3B337DC0
BCE38AEF
BD38644B
BB0ED1D3
BBCF1FA2
BB4E5B55
BC894782
BCAF68CE
BBFC46DE
BCD13CE7
3C6FDD63
BAE29045
BC6C0063
BC5FD5C3
BD2A0B7D
BCE93F06
3B263F85
BC03933F
BCF4A66A
BB76315D
BCB58D56
3C7381C4
3B4006D2
BCB9D59E
3C62D48C
BB4D3604
3C228FF2
3C4D1088
BB228775
3B4B9AD5
3B80738B
BAFEFDE9
BA99E828
BB8A0F06
3C838BB3
3C0E9680
3BBB839E
3C6450A8
BC72793C
BCBB8769
3CCC9F6D
3C6C61E3
3CCDD124
3C044253
3B19A54D
3CD5CFD4
3D04DBA2
39C9E90A
BAAADAC4
BBCFECDB
BC2630FA
39DADDB4
3CC4F298
3BC2731B
BAC20E19
BC08B325
3CFABFA1
BB222B47
BC21D350
3C54026E
BBA5D752
3CD0928E
3C268F23
BCC0A94D
3BB24995
BCA60FE7
3BB63568
BC21D161
BB0847FB
3BA9FA7D
BC333B43
BC0D82D0
3AD7A6CB
BC33D943
BC90B724
BB1FFE4F
3CB1C9BF
BC20F440
3C8C18F9
3C26593B
3C0E9FBA
BBD6AF36
BCC1940F
3C41526C
BC41FAD2
3CC0A636
BC3DD276
3C014851
3BE52177
BB8C8762
3C3A16DC
BB30FA88
3C7DD53A
3CD34D9B
3D031411
3B1E04FB
B9EAAEAF
BC57AA89
BC89250B
3B4DC956
3CA39AB7
3B0AFE3A
BCB1B79E
3CD9330E
3BFE1F50
BAEFB7F4
3D915A57
BC885D1E
BD4C5828
3CD0B894
BBC47558
BD38F772
3C491805
3CA2B246
3CA07A49
BD7A13F6
3C61710C
BC9A4B7B
3D1C2857
BD34F501
3BB9A528
BB47CE95
3D05D0C9
BC0C19E1
3A717A7C
3C2CBE65
3C5F3B86
BCE24256
3CA73465
3BB99E84
BBB3D652
BC576B89
3B954B6F
BC17C52D
BA58430E
BB738D12
399D91B4
BB6B35CA
BB9E3E9C
BC57FCD5
BBB5CA6C
3B810F6A
398FCB93
BB07F45C
3B2EC998
BC779493
BC68E684
BAF17A56
BA367BA3
BBF04417
BC8B432A
BC0244DE
3ABC0B02
BB23E079
3C873254
BC0D8263
BC245F7B
3B8B783F
3BF832C4
BCCA1585
3C87FAB7
3BEF997D
BCAB286D
3C85C711
3B512419
BADE785F
BCAD8BCB
3BC0485C
3C79AEA0
3B0B23B2
BB082C53
BC91F1E6
3C945125
BB1E14DD
3CAFB0A1
3B2E144A
3A6A17BA
3C22AA9E
BAFC88A5
3A920066
3C355954
BB6C0EAB
3B0A6326
BC0F7C07
3BDDB23A
3ADBCD18
3A84E4CA
BB978C5D
3A8D4725
BB8E29CE
3B188908
BC1EB5D1
3BBC04C7
3C1495A5
3B26C05E
3B1C543E
BA8F784E
BB177C5F
BB99CF87
BBA749B5
3CB31BE5
3B308F50
3D129CC5
BC0F0620
3BFB6F35
3C24E80C
3BED25B8
BC51631E
3CF8A4F5
3B7CB79D
3C4E132C
BC5A278A
3B9FBFAE
BC2E2E3F
BC1FF9C8
BB79E994
3BBD9002
B9F7F56D
3B933406
BB9C78B6
BB893AE1
BA9567B4
39BCD214
BBB9A302
3B81D913
BAE5224A
BAB9DA48
BB09F28B
BA04FF53
BB0345C8
BA1B9593
BB721F12
3D036339
BBF81FC9
3CCB42E5
3BC12E50
BC4522AC
BC6DAFE6
BC9D722F
BBD2FA0E
3CEF758F
3BC370EC
3BA228E7
3B93E82B
3A158F26
BA8FC68F
BC2FB1C4
3C1FE665
3BA82A81
BC5DBBF6
BC89E0EB
BCB8CE25
BC9139DE
BC28FE52
BC220DC8
BC081702
BBB6F5DA
BCE96A52
BD0C3106
3B10D74A
BC06A1F2
BC42463E
BC8F5D17
BC93F3CC
3CB39003
BC8522E9
3D3A53EF
BB9B9040
BD4AB455
3B3F3809
BC7297D5
BCD83012
B9EAC9E7
3A6BB864
B98DAB00
BD1AC3EE
3C269B44
BC42E3A0
3CBD58A7
BD01DD4E
3C236EC5
3B788967
3CA0152F
3A7A73C4
3BAE8591
3BD508CD
3C635F73
BC97F348
BC14603F
3C365715
3A31D451
BA682B57
3CA9E322
BB09C2F6
BA5857E8
BC4422AF
3B85EFD9
3B965715
3BE6B2C4
B7C78E00
3B3DA0F4
BBDEFE58
3AA8141B
BCC62714
BBE1830C
3C9DE0CA
3C8760CF
BB7E729B
3C5DC7C1
BB171F83
BB9927B6
BCD28961
3C38660D
BB5ECFD4
3BC2BD6B
BB5E145A
3C0AC43E
3C967442
3CBE135A
BA5C1B69
39F6B87F
BC52F455
BC9633D8
BB6F616C
3C62A694
3ACC06DB
BC0484BB
3C93134F
BA87C0DE
BC4A255C
3C12AF5C
3B819CA0
BC0E97FD
BC416B5D
BB2F2B55
3BA7C343
3B67D758
BA53CC75
3BC75E68
3C1079D5
3C22479E
BACCAE55
BC6E051E
BBE130E7
3A1DBF5E
BB7DF5F5
3B812CEE
3B1C218A
BB580B6E
BAAEB299
BB5AA0CF
BC21C2AC
BAE72A76
3B911028
3A91F63A
3AA7F58D
BA6DB2D4
3A82F106
BA7583F3
BC8FDCBC
BC92D8AA
3BA01287
3CF2AE07
BC6981DC
BCD1DA75
B9D779C4
BB51167E
BD1DE233
3C254AB2
3CC9A54A
3C09596B
BCA62E38
BC39215C
BC3D4032
3A39ABC5
BD06417C
BA598350
BBDAB896
BAA5BCBC
BB272CBE
BC0DA1CF
3B0613C7
3A95B0FD
BC7B1455
BB1852FF
BB571B25
BC039CBB
BC461E11
BC011B0F
BAFF87E4
BC4B4B58
BCC0B5A4
BB5BAC6A
BB7AECD5
BB24787A
BBAC036B
BC093EB1
BB910D5C
BBCE1BED
BB4E1BA0
3A23A156
BBDD063D
BC013D5B
BB014CA6
BB6C441A
BBA8EED3
BB4AA2B6
BC45BBBB
3C03627C
BBBD795D
BB5C13FC
BB85BD98
BC0B08E8
BC2635F9
BBB3DBD2
BC062F2A
38DB1B8E
BACC0852
BBEE3168
BB831A2B
BBF60840
39447814
BC31CD46
BC550CB4
3B229DAB
3B0B83D8
3BAE005A
BAB08E4F
BB021F3D
BBD4B6C9
BB66D6A5
BC99643C
BB038D0A
3C8A9240
3C3B9439
BADCB705
3B98D65E
BB261506
B9D3E5AA
BCDE1F83
3BC0976B
3B0EEE6F
39A06D52
B9B988D4
3B450BDB
3B58BA80
3A8A31A8
B8A6BAB0
BA6FB64B
3B3B5CA9
3A8BB525
BB2E1482
BA8D195E
3A3746BF
BB2AE02C
3A474F39
3C460052
3B088DCB
3C26D6C5
BC3DE21D
BB42B6D2
39AFF4F1
3C0C2D93
BCD6A94C
BB09DAD3
3CC01CC9
3C016AAA
BBBCD5C7
3AD5A313
BB676214
BB9BCCA8
BCCDFFF3
3AABD6D9
BB06E6AB
39DAC22A
BB33A19A
BAE43A5E
39E440B5
BA0C94F8
BB85EC45
BA822C8B
39CCB5EF
BB2E1487
BB6E627A
BA095D0F
38FFED0D
B7D1A2B4
BBDC841C
3C976FD2
BC03FD9B
3B19456D
BC277939
3B9E5A62
3BA176E5
BB8C6C01
BCFE0837
3BEB60E5
3CA6E3F6
BBBEF83D
BBF69689
BC287407
3A061EE5
BB47B20E
BC352D62
3BD7068D
BC6F0A9A
BC502590
BCA043BB
BC78E57E
BC6E9849
BC8ADC57
BBE8B025
BC09EB84
BCD4EC89
BCE40ABF
BB4C4D94
BBCFA95D
BC5DAB22
BC5F9AE0
BCD0BEC3
BA2E0D9A
BBE4F8E8
3C07AD8C
BC9D3FF9
BC835915
BB42B96B
BC385C02
BD2FEE94
3C60070D
3C096ECF
BBA34D03
BC05D2B8
BC906587
BC46B77F
BC5A5A14
BCD07281
B999CFC9
3B7C727F
BA53DCE3
3B1B288A
B995241E
BA93B83C
39740698
BB02777C
BA8CCA2A
3B9F93FA
3A89EA20
B98CC5EC
3B08D878
B98BC40B
3B3CDE04
3B612995
BA038BFD
3BABBF27
BADD3FAD
3B005F98
BA044F08
B9D26329
3A2AB2DE
BB013511
BB0FF845
3BCE2C81
3B24042E
3A109E04
3AEB8109
36D8D150
3B25CEF9
3B98F847
BA736E1A
BA9BB34C
BA597C3A
3A127E99
BB1D7A45
BAA2C8FC
BB50C03D
BB01BD40
3994D59A
BA4AE7B2
BA6D0CC5
B981BFBA
BB247C67
3944F62A
BAF2C41F
BBD8A452
BB8C3917
BBCF7D01
3B93212C
BBA4A51D
BB998F5F
BC6BC8E8
BC245818
BCCD7261
3B98630A
3C305E66
3BEB5AC1
3ABDCF19
BB15F8FF
BB4B5C1C
BC44CBFC
BCCE03A1
39E6A04E
BB63B3ED
BA8205ED
3776333B
BA91C0E0
39CA5F9B
BB320DF6
BA228579
BA2E4884
BB191092
B79010B8
BA943D0A
BB1C3B1C
3B079176
BB9A9651
BB982B62
BBD98A26
3B875743
3CD3179E
BB19A89B
BC6C572C
BA0A9288
3B9D15F2
BBCD430D
BAE5CF6F
3C427F47
3B471DD0
BC92802B
BBBAA0BB
BA185795
3C0C508E
BBA68826
BB9AA381
BC052A15
B967D9AC
BB1CAB3B
BBF6B714
BB26D4AB
BBE05D56
BB93B842
3B2DDF5C
BC0D93A4
BBA3FE2C
BBCFAA66
BC15786D
3A86B475
BBB5D7CD
BBE82F7A
BBA940FD
BBABB184
BAF4A4E1
BBC265E7
BC131168
BBBDBEC3
BBC03808
BB4ABF66
3A9FD3DD
BBE321AB
BC006170
BAEB74AF
BB82AEE7
BBBB3A30
BBAF0D82
BC3FDCFC
BADB8DE0
BBDDB266
BBADD5CD
BBBEAC44
BB7E31D3
BB540F83
BB721E9A
BB878E57
3BD9E02F
BBD56F99
BBA575DB
3AB23BA2
BC085AEF
BA1B79FC
BBD6C70C
3AD5AB5A
B99B8907
3B0B0EC5
3A25CA1B
3AA2ABDB
B9407405
BACE280D
3985E444
B9E11910
3B67D045
3B80E021
BAAE3B4E
BAB66F63
3A8D7187
BA9ECD02
3AA7C8EF
3B05E4B3
B841B28C
3A820DF0
BA7560EE
38397F70
BA8F2B87
3AEF613D
3AF5963C
39E57C8E
392BAD0B
3AC364BE
3A9A5CE5
BA80DEBF
BA0E305C
3AADE1BD
3ABB6BBF
3BA632EB
39FEA05D
3B158021
3BAD2BC5
BA223783
BB07A561
3AFD0E3F
3AB956A8
BB725F1E
3ABD534D
3B2B305C
BAB40A33
B92E840A
B98FA55F
3A27DF1E
BB555AA5
BB6D3267
BAAB90CA
BAE6E9C2
BA0CB0C2
BB0C5A97
BB5EF020
3AAFAAE5
BADA2B30
3A70AE58
BAA65475
BAA5FFB5
B9C7E99F
BB70919E
BA28BB61
39B6DD8F
BA3548B4
39E69E64
BBC8C75A
BBA3F970
BC00E4ED
BBCEED8B
BC268F3B
3B4F98C9
BAEC7725
BAD7D7AD
39E1F59C
BBEA0AB4
BB27E993
BAB2ED2A
BBEB10A7
39941612
BC6295FC
BC3F8157
BB31B21C
BC81AB02
BC210586
BC81C5F4
BC968FFC
BC9CE401
BC8FFC92
BC0F53DD
BBC8472B
BCCFC912
BCD81EBA
BA7E79DE
BBEE05FA
BC636FCB
BC6DA861
BCDC2A9B
BB6AFB58
BC21602C
3BF2C241
BC0A020D
BC92431A
BBB07D56
BBED6110
BC32092D
BBE256B7
BC2E051F
BC22A5B2
BBD1C1DC
BC090F6F
BBBAEC23
BC3741AD
BCCB6215
BA3B1D9B
3B7E3B9A
BAC9DDF2
3B16757D
BA8A0410
BA96655D
389F7D5D
BB051E89
BA9072EB
3BA19E8A
3A8DDDFB
B961CF5A
3AFE7205
B9975B8C
3B3BA5B2
3B670ACD
BAA0B0A3
3B9DE74D
BACB69FD
3AC76B87
BA7D489A
BA1B5C7B
3A09B92E
BAD0441F
BB2FE15A
3BC41B38
3B13D84C
3A10FE50
3AE25250
B88DE7FC
3B83CBC3
3B8D06A4
BA6C017B
BB49E5BD
BA9A7912
BB03E2B0
BB19321A
BA88D052
BB37F926
BAB11881
3980A608
BA8DF688
BA4E56D5
B9829054
BAF511DE
39D82C80
BB4F2F73
BB98F774
BB778AAB
BBF788B4
BB1A8458
BB8F72AC
BC115EF0
BBDE54B8
BBCEEBFD
BBC14027
BB09D4D2
BBBB9C1B
BBB5EE45
BB1C19B3
BB6B871C
BB0837C1
BBB9460F
BC633090
39F35F82
BB642BEE
BA7F3C1C
3784070C
BA914C6C
39C9B8C2
BB31D599
BA228BCB
BA2E122E
BB19473F
B7833639
BA9408ED
BB1D8285
3B07927E
BB9B81F8
BB982A26
3BD85F0A
3BC2AC40
3C12C897
BB96218C
BB1E037A
3BB42468
3BFAD1CA
BB80585F
BAD7505C
3C4B6FD7
3B69EBCA
BC5D4262
3A3C5BFD
3B52CD12
3C9950A1
3C30FD99
BBA18F47
BBFFE2CC
BB49F02A
BA732D8D
BBE748D3
B9579420
BC17CBFB
BB749ED7
BB15B3D9
BC0D4459
BA2FF702
BB1C29E0
BB8777EF
3B53D40F
BBD14562
BC41CE22
BBAA654E
BBCFF552
BB06C912
BBC26F74
BC131263
BBDDDD65
BBBCEA85
BB60FA5B
3A2131A9
BBE131AD
BBFA5874
BAE7C24E
BB818F15
BBC06C82
BBA85AF6
BC3FD669
BB27F502
BBFD4BB4
BB93D4E3
BBC5E6A9
BBA65B64
BB98CCF4
BBB41324
BB58AD81
BB231834
BBF62EE2
BBF8FEB3
BAA76850
BB51F1D9
BA2FACEF
BB7506A7
BC2FEF51
B9C60164
3B0BD962
39389B74
3AA48083
BA0F27A2
BACF3FB9
3974497A
BA385FBB
3B69083C
3B812C99
BAAED0E5
BAB653A6
3A96F9F4
BA9F95C9
3AA73075
3AF7B8F8
3A2A7431
3A86FD3F
B89FFAC1
BA372C52
39F26C80
3A0FDB55
3AFDC2CF
39FDB074
B9362BA4
3AF952F7
B9B1C32B
B9984A68
39E29D7D
3A857DAF
3AB5C261
3B34B70B
B9A0D0D2
3B030564
39F1AF46
3ABEC116
380B47E0
B913F180
3A9B859F
BB1626D5
3B21CB77
3B405BDE
BA01B2A4
3AC1D5BA
3A71C043
3991E7F6
398698CA
3B0D0199
BA9FA93B
BAE51449
388B7B58
BB0BCF2F
BB437F0D
3A6A8180
BAC01F48
3A327CA8
BAA209E0
BAA07FAE
BA571AA8
BB6602F4
B94D0224
398D50F5
B7B8008F
B92C0404
BC8175CA
BC422D1E
BB51A6F2
3C185933
BBCE7243
BBF9F715
BB2089BC
3B82037B
3BBB9A18
BC04F2EA
BBAE5E75
3BB429E3
BC11ACAA
3A86BB73
BC8A578C
BB97C5DB
BCAD313B
BCA97A33
BC00A0A2
BBC9D9AC
BCB83D9B
BCCDEB56
BC993F2D
BB4C083C
BA18CA93
BCE6022C
BCBC5F8A
3B081464
BC43EC25
BC8B62A6
BCDB9F2D
BCD98065
BB94D460
BC337C79
BB113C45
BADCD53F
BC0A9D27
BC10F6EE
BB29DD62
BBCB2A10
B96B2798
BC2FAFE7
BC2A5E6C
BA6DD500
BC2AC869
BB92F2E7
BC260E92
BC3DAB3B
BA3F78E0
3B7E42C3
BACCE058
3B164B5E
BA8BB88E
BA9607F0
38998E7E
BB052AF9
BA909BAE
3BA1BEC5
3A8DFC19
B95F6942
3B0267E2
B99788FE
3B3B5B87
3B670C17
BAA41EDB
3B9DD4B7
BAD23855
3AC73906
BA7BA9A0
BA19B8CF
3A038B0D
BAD04604
BB2FD71F
3BC40B57
3B138E48
3A0E38A2
3AD56FB9
B892463C
3B83E200
3B8D0431
BA5E194A
BB4A1F9C
BA9A3134
BB03D1D8
BB191E98
BA88A48A
BB37F814
BAB11594
3980A902
BA8E069B
BA4E6448
B9825F26
BAF5F86E
39D869F5
BB50AE32
BB98F72C
BB7734E7
BBF7A473
BB610343
BB88FD40
BBF7336F
BBDAFB3E
BBB42298
BB98F574
BA67F723
BBC3DE94
BBC5CE97
BB17540D
BB702D49
BB084257
BBB6A74F
BC3DD6BA
39E12AE7
BB639E80
BA7FA892
3759225B
BA947606
39CA8D32
BB320DD0
BA2287B3
BA2E1347
BB1942E2
B780EE8F
BA925C4F
BAEEF0F9
3B077C9F
BB9AC65C
BB9829EB
3B075A30
3BD6881B
3B5FC115
BB6E007F
B95A301C
3BAC02DB
3BC08B51
B98802B0
BAAA40B8
3C464F9E
3A0B7431
BC26DF4D
3B124F86
3B5507C3
3C836683
3C60E796
BBC5A62A
BC207BDC
BB8E5DC0
BAB9BFD5
BBE7EE9E
BB212630
BBF8003D
BBBF936A
BA444AF2
BC03EA9F
BBD7A12B
BB8E50B3
BB935EFF
3B282D28
BB708DD0
BC243281
BBBD37AF
BBE04E28
BB0B6B38
BBAD7E15
BC1311B0
BBE4CB78
BBC584FB
BB5BAC98
3A02C4F3
BBDE47B3
BBD431A3
BAA6F18A
BB7AE5ED
BBC47CE1
BBC6FB52
BC3FE29A
BC0BF5B8
BC2D7971
BB5F840A
3AA89269
BBE1F802
BC08F185
BBB13220
BB100AC0
3A9E04B9
BC0994D2
BC08B9D5
BA4A9142
BB97BFBD
BADBE327
BBF5B279
BBF2A14F
B9CEAAEB
3B0C0365
391044F2
3AA4C40A
BA124D7C
BACE1FC0
3970DF60
BA39E592
3B690740
3B813361
BAAEC88F
BAB64BB0
3A932753
BA9F9BDA
3AA6FE06
3AF788C6
3892174F
B8A42370
3A047236
3A8DD3A7
BA59ABED
39994ADD
3A82A622
B9562D2C
B9BEC019
3AF6F49F
3A6741BB
BA105102
3A059BFD
3A90A443
3AE22BCF
3B4C4901
BA9FF560
3B07D00E
3B336F3A
3B58A73D
BAF34A3A
B94B3D69
BAD4659A
BBC5366A
3B159485
3B40B1B4
3AB81272
B7700C80
3B453779
38DF524E
3A15C6AC
3AB14E2E
BA8CE61A
BB08D2CE
3A58C8D9
BAF255BC
BB14C0C2
3A4CAAF6
BAF73344
39772F8E
BA926835
BA8EFE21
B9A61E2C
BB4C9CF6
39930F18
398B6592
B9092824
B9471D44
BB8D27F1
BC38B5E2
395841F4
BBA158F2
BC2E1C55
BC0D142D
BC273B96
BC02AB15
3AF4D58D
BBCC75F3
BB9127CF
BAE80421
BA1ACE79
39E7A27B
BB9C09D0
BC500AF1
BC9E83D0
BCA17CEF
BBDCB192
BC2F46BE
BCD1BFA7
BCC14A0D
BC9405F8
BBB53C48
BB0E3E38
BCD72E53
BCB4ADA5
BAFF0CD5
BC382D4F
BC8CCCF7
BCB8DC67
BCE62BAC
BBAF8B20
BC0F39CB
BB7EA272
BBE5985A
BC2586B5
BC05A757
BC012754
BC09F2CB
BB3E2FE8
BC1CDD97
BC213387
BAD643E8
BBC7D00F
BB8E2EFD
BBF53376
BC762425
BA1C77B1
3B7D19DA
BAC77966
3B1A41A3
BA876D86
BA898AB4
38D9BE41
BB048A80
BA90A1EC
3BA048E2
3A8DB855
B98A0D40
3A48A267
B9939B18
3B3C5D58
3B66FEBC
BA296C06
3B910860
BACAEE13
3ADF2EC5
BA34B789
B9E4F4ED
3A7B742D
BAD489A2
BB2FF3B9
3BB82279
3B108DFB
3A043754
3A8A2C8A
B86BCD9F
3B7E6C0B
3B8CFB2D
BA6CEF73
BB4915E2
BA9A6A57
BB0408EE
BB195D25
BA88DF1F
BB37C26D
BAB12D51
398088C4
BA8DD782
BA4EB313
B9811868
BAF54F0D
39D7CA61
BB4C676A
BB98F5C0
BB77A171
BBF795D1
BB5B45CE
BB8A3E15
BBF6AB86
BBD9FFBE
BBB394A9
BB99E4B7
BA7B907A
BBC3ED97
BBC5DD50
BB16DAC8
BB6CAA51
BB0836A9
BBBA2071
BC3DFDE2
39F406BF
BB6404D5
BA7ECAAC
377EA5C9
BA905442
39CBEFF3
BB31C418
BA228B75
BA2E15D6
BB19481E
B780DD35
BA945780
BB1B2A60
3B078F98
BB9B7191
BB9829B6
BCC084A3
3C3D3F41
3D4A371C
BD06C9E3
BD28EA42
BC92FB51
3D2AE557
B8B42114
3D3904BD
3B7316F8
BC3136CB
3CE8DA12
3D0A0354
BDCFA55C
BB68417E
3D5F000D
BCF5BA7E
B95ED5AE
3CB0796F
BD4E24FC
BC271DB8
BCD7FD68
3D1FDEAD
BC30A947
3CED069F
BCE6CF77
BC35CC1A
3CF82AC5
3C99BEBD
BDA8F010
BD27F750
3D472B4D
3D206C40
BC8492B2
BD44A173
BDB27B61
3C6A0A97
3D90D756
3D4894AC
3A075197
3C1C0818
BCFBA853
BCB42204
3BFA6CF2
3D986B19
BD72843F
BD88D174
3D5361E8
BD0B135C
3BAD2A2F
3CE6C6CC
BD53FE58
BCCFCB5B
BD04DB8D
3D108424
BC83040B
3CD70BFC
BC80B211
BCCF061F
3CC47CB8
3CA50DE6
BD92CAEB
BC5207CD
3D44CD3E
3D2FB2B4
3CE6431A
3D05578C
3CE01F47
3C7F46BB
BD130F16
BB115E18
3C8094EB
BBEF78FC
3AC96358
3C5F2ECC
3B056279
3C8252DB
BCB52BA9
3CD957F5
BB756135
BBE765E9
3BCEE028
BC749DB9
3C424E42
BB967638
3CD8FD57
3A08C546
3BDF390F
BAD51D8F
BCA5FC68
BBFBBC9C
3C07CFDB
3C5D362E
BD28677B
BCA8B300
3C2A9AD8
BB9021C2
3CEE61E7
3B9DFA3D
3C75F192
3C127353
BD47AACC
BC0E115B
BC248878
3CF0E133
BC831D93
3C82EA2B
BAFFFF76
BA501ACD
BD2669C1
BCB72AA3
3CA36748
BBAC3EAE
3B0D5BB6
BBCC86A6
3BB97580
BBBA7507
3C293EC9
BA5873AC
3A972CB8
BACB748C
BC01EBE2
BBA45D8A
3B58051B
3B8597A6
BCB04C25
BC4C0A94
3AB2747B
3BC3BC02
3C34F7A2
BD8A18DC
BD7FAA5F
3E0C03BA
3CE540AA
3D7E9D33
BD910407
BD8A15B1
BD1E49B0
BD081B85
BD036018
BC8736E5
3E06017A
BDA74C68
3CA70412
BD6D2E5B
BBDFE6FE
3CBFBB80
BC226716
3CFA85EE
BD6902B1
3C031A77
BD4D0E7B
BCB96A1A
BC2E289E
BCB1F052
BB802E8D
BCF07C2A
3D336260
BC5CC2C0
3C9F4ABB
BCF39DFB
BC87D19F
BC4C6AB3
3D8FADBF
3C01950D
BC7622E5
BCDD3DA9
3C1D0423
BC0A0916
BD4AFD45
3D2D73B2
3C0DD03E
BC8D9F7E
BCD77D61
BCB7A68F
BC3E9F3B
3D7E2AC6
3D0C691A
3D327C62
3D49092C
3CA64C2B
BD636B9E
3C121601
3C7E95F5
BCA608FB
3B87BC8F
3CBB43DD
3BB38077
3C95D61B
BCC8E009
3D4B78AC
BB5D4891
3D0FA8EC
3CB1B52D
3C8BB025
3CAB783A
3C91071D
BCE71C88
3B2E2D0E
3B877C23
3AA423E2
BA8BB607
3C215B09
3B9F1ABC
3C137D0D
BC597598
3BE52597
3AF3C148
BA624207
BB4A0E88
BA9ACB33
BB03E986
BB194E4C
BA889D90
BB37DF5C
BAB118C6
39807901
BA8DF9F2
BA4E7DD6
B982A73A
BAF6E284
39D7C41E
BB50103A
BB98F748
3D06A61A
BC4ECD1F
BC5E3168
BD8CB2DA
3CFDE50E
3D8C1D36
3C2518BE
BC911F3A
BC8DB522
BCCFE4D2
BD241881
3C933BC9
3D8B9493
BD2F6AEF
BD5993EE
3D823D8F
3D3BE2E3
3C0D84E5
BD9703D5
BDB1AE04
BBDEB21E
3BF93563
3D90E7D3
3C36E0FF
3D9BF9EC
BD0B6C05
3CACD7E6
3BEE8C4B
3D1B7F0E
BD315DC8
BB80865C
3CDE0938
3D98BE70
3C9C47CF
BC10E6AB
BCB08BFB
3CD399E9
3DB686D8
3DC658A6
BCBBB9D1
BCD51C3F
3C8AB022
BE058684
BCFACC42
3DC5883F
BC53EC91
BD96B5A0
3DBDDECD
3D39C8D5
3C888BE1
BD802A60
3B84FD10
3D5114A8
3C992266
3CD54573
BCD298B3
BD9DBF49
BB75A5C4
BDC713D1
BA1CC3DC
3CA8DDC8
3DCF31BB
BC26262A
3C9BEA06
3D87D083
3BA83A33
BC734A7F
BC84F355
BCAA9552
3D05F7EF
3D8B357C
BD11E7B6
BBFBE776
3B6B7700
BD1B9043
BB78E963
3D835644
BD02B952
3CA2A529
3CCBB6AE
BBE9D1A3
3A6BA7A9
BD403546
3D3AC0E5
3C5EAC31
BD873C05
3D312BC5
3C28BF76
BC51B65D
BD2E8323
3C0B450C
BC8E70F5
BAA2B060
3D5339BE
BCD9D25C
3C961A25
3D19E441
3CA41372
3CC6742D
3D26A412
BCE5DEA4
3B1F2952
BC8D711F
BB18F7C1
BC3AF0D0
3CBBC887
BC13D21F
3CA5F151
3C85F1E8
BD0E5C3F
3D5A849C
BA6E7086
3D29DFC7
3CD7A34C
BCDB0C13
3C8C4EE2
3D06A21D
3CB82946
3C8D915C
3C940A3A
BC892ED2
BD2F54AA
BC31546E
BD146EF9
3C50DDC7
3CFF62E7
BC8C3327
3BDAAF01
3CD27AB5
3C2BCC47
3D1CEA6A
BD21255C
BCC85B1D
3D3F4EEF
3D073D20
BC2CB95C
3DB459AE
BCA10B38
BD62708E
3C86BD38
3CACB402
BE106990
3C869C75
3D18358D
3CB70AF0
3C2407EA
BC387FEE
3BD332C5
3C09B05A
3BE7F047
3C42244F
BAE43996
BB19F232
BC308C01
BCCBE028
BC845DB5
3B6BA0AF
3B39E59A
BB9C1D2B
3BDA5D03
3BE0EB04
3CB16756
BCDB24D4
3D9C3A24
BD929693
BC43432F
BD7F09B7
BCEC9C93
3D2B5C67
BDAB6DE6
BBF20706
BBB03BD0
BB156018
BD7877B8
BC71EA88
BCF49776
BC7176D1
BB0AF9B1
BC23317B
BC772832
BD5851F9
BA95126F
BCECB8B1
BD275B86
BCC19A62
3D1F057C
BC1B37A6
3D033838
BBC6601D
BC423A12
3D26B4EE
BBD0FC6A
3C102113
BC17F1DA
BA78AB73
BDB1486E
BC9D7DFE
3D284287
BD3C6ED3
3B081DC2
BC325CB6
BD2A440A
BD2B1C6C
3CDC4445
3C1C0576
BD2204C9
BD3EAEEF
3CDEF193
BD38C0A0
3AD650D8
3D3B6725
BBEB60E5
3C06B47B
BCABF8BB
3CBE4E6E
BCC9AECA
3C96AA14
3D082AA1
3C46246A
3D19FD60
3BEE751D
BC99D089
BAA20A7A
BABC4630
BC8C1B45
3CA6833D
3DD9B942
BC88CD56
BCE61A7F
3A5A6FB8
3D32EDA4
3C1C28FD
3B691835
3CE22CAA
3CFB6027
3CE16EE5
BCADB4E8
BD7B3EAE
3D509D06
BD05A8F5
3D83C624
3CC9D96F
BD1F1E9F
BD8E584D
BD2A3231
3DCABDAD
3DCAE30F
BB8848A9
3C6F6648
BB046725
3CE727BC
BC9675A2
3D9272AD
BD4AE535
3BD72314
BC98AAED
3C8C39D1
3A315D88
BC1BC1BA
BD4910A7
3D2ABE7B
BCC00FFA
BC0FC20B
BCE808A8
BD383F40
3C44D5C3
BD052290
3BD0F63D
BC9945D2
3D9D02B4
BC9D1603
BAB02322
BD3EB14A
BCC2C483
BB997FFA
BC416FF8
3DDC432A
BD38F3CF
3D492A1A
BCAB1D60
3C9D67AB
3D205217
BCD44E44
BD86BC6A
BBD7B532
3D8F172F
BCD37979
3CA79A67
3DA3038F
3C256B4F
BD6C2B17
BD01F904
3D9559A7
BCBF5504
3D9AEE0B
B91AB6A2
BBE4C6C5
3C609502
BC716702
BD4CEC99
3D6241F5
3D77D8B8
BCF5F3B5
3CA87976
3D17EBC5
3C9E4FC0
3C507470
BC36D8E8
BB9A09D1
B9758E38
BB16782D
391A4ACE
BCE3701A
BD614A7C
BD13F8AE
BC18DBD2
3C851C8B
BB0BE3F4
3C71E230
3C462342
3CF15123
BC447C78
BD0EE43B
BBC547E4
3BA52EAE
3D1792CE
3CFCB1E5
3C0551E9
BB040EF1
3D2F2986
BA8C7672
BCE538B6
3C824C2D
3CE2D527
3CDE5C20
BBB5C300
3C96DB28
3C32B8E3
BAAB9C64
BCD8F1B2
BC6EAEE8
3BAD9958
3DBB63EC
3C1F4E25
3D22140E
3C908980
3D0B9E17
BD180F71
3C8A1D81
39792FFD
3D48B2A2
3CDD6D4C
BC939EA3
BD7835DC
BC0CFC1D
BBCC38C0
3C8F438D
3D498309
BD668CA0
3A968519
BC25CB5A
3C12E072
3D0CD322
3CC76860
3C181719
BD01E7BF
3C8C9653
BC8D1D06
3D07A4C6
3C80002A
BD0878F0
3C4A9D32
BC436D5C
BC2E760E
3BEBA8FC
BC4ED2D1
BC5B2433
BC9D4E01
BD08B549
3B4D4512
3C921EE7
3C4936D5
3C2961CE
3B43937C
3C7D2268
3D1A6EC3
BCFDF388
3D89DF05
3C5A5B61
3CF94A2F
3D64500A
BD3D58A2
3ACEE84A
3C3695D6
BC4737AB
3CA933CB
3D4E5171
BCC168DE
BABD94F6
3C9328AE
3C9E7EAB
3C2B52CD
BC094BE3
3BEE1A5A
3C355568
BC66EED8
3B54FAFD
BC47EC68
BC0F973A
BB39743F
BCD5E366
3AF26D4E
3BBB551A
3C044C50
BB193AEC
3C9A2FF7
3D5747D6
3D767872
3C4D75FA
3D54D20E
BC90795D
BC552C82
BD3F480C
BCA2A965
3BA84AA2
BD9C54AF
BD52F4BE
BC4B4F0C
3CD53EFA
BD7F2DCF
BB7E7CD2
BD25FA5F
BC9A0E10
BBBF3A44
BCD3866E
39DFC439
BD1AA7BB
3D04FA2B
BCA79201
BD15A8F3
3D212119
3D5A5B7B
3D06DE9F
3D5E4225
BC826DF5
BCC403F0
3CF06DF1
3C8D1C5F
3C96F0C9
BB30DCFE
BD4A7A69
BC64C92F
3CAA2FF9
3CE86C28
BC7C3432
3D1C3B78
BD226CB5
BD06071F
BD095B1C
BD8169E6
3CA6D058
3DBD7DFC
3B824D6D
3D1552FE
BD28076F
3B6D993C
3D903A73
3A399F61
3D1E1ED1
3D0E9E05
BC8B8307
3D6F2E4B
3D0CE2E5
3D1589D8
3CBD9BDB
3D47BA7C
BBE60E2B
BDD989FA
BCEFC99C
BBE60784
3C2E13CB
3B3316ED
3DB8CF1D
3B1F50CC
3C6839E1
BC7FC82A
3CA110FA
3D2EE8FB
3C4C5008
BD0C1955
BC2C42EC
3D479919
BD24E3DA
BD5166DB
BC8F35EE
BC8C1D8B
3CA6293A
BBB9ADEB
BC53FAD9
3BA5990F
BC76D1F5
3D09667B
3D92DC17
3CC70FCA
3D3B2AB9
3B8D021B
3D0DED8E
BD5EBFCC
3CF9E18D
3CD1CCA6
3BB35EF3
3C8F24C1
3A86E4CB
3C3C65B0
BD1241E9
BD165E2C
BC177ED8
BBDDA362
BD849EB8
BC45F5B2
BD6AB6A0
BD734500
BCCADAE3
3C628A1D
BC8C45A1
3D72250C
3CBF4329
BCCA15D1
BCC43B14
BC633D4F
BD6D4156
BC161A9B
3B4FA8EB
BD16B955
BC913009
BD8DEAD3
BC6B326E
3D50A90E
BD4285E7
BD63D13D
3D864334
3D2B517E
BBF2039B
3C3D45CC
3CC81B0D
BC8DE328
BCB1544D
BD93A323
3CF7F5F5
BD80C185
3D4746B9
BC1EF0AD
3C5D12A8
3D130185
3D0E78F4
BC055937
3D1C0D13
3D8700C4
3D0094F6
3D3FA554
3B30998D
BC35719C
3D8AD315
BD0C8576
3CDBBA67
BD5DBE94
3C394459
BC91AF74
BBE7E26A
BC62D5EF
BC19CC12
BCC7A3C1
BB857593
3C7544A8
3D4583C5
3B94FB2C
3BF48522
3C2E2D9F
BADD128E
B9A77274
3CA70024
3B959511
3B4ADFCD
BCE63B23
BCB9563A
3CE297DF
3C2F97F1
BC776226
BCD50A4E
3D01B540
3C8C0F68
3C6F1CDD
3C9DECED
3BECB2F5
3CA6604F
BC678709
3A3F8A93
3C84DD5B
3C95DC50
3BB0D6D0
3C16F935
3CA2E5B8
3B3679A7
BCAB049E
3BA1E652
3D06F5D5
3CD1750D
BC65EA7B
3CFA4E09
B96813BC
BD36A5FC
3B807CE3
3CC3E6D0
3D53EC96
BCBA68ED
3C20BB1F
BD212F41
3CF756A1
3D3A4D75
BBAF6939
3D33DFFB
3C3735A8
BD020E00
BAAAC3C6
3C47345A
3BC58914
BB61A55A
3CDABDEB
BC3DB291
3C29EC03
BC34EE1D
3C0E5984
BC364211
BC0DCE90
BC907B86
3C7DD11A
BADBC3B6
3C131D3A
3A767C2C
BD0C857F
3D3B6221
BC9C6E26
BC9211B6
3D9478AA
B9E37CC2
3BEEE69F
3C0ADC9A
BA94A9BE
BC6C58C6
BCEE03FC
BD198103
BB9CBB07
3CF93E9B
BCCB2268
BCD94F3F
BC9E2144
3C0B8D57
BA32BD59
BCA8A7CD
3C40ADCD
BBC69D4A
BC0274B3
3BAE49CB
BB604851
BBBFB91C
3B92A213
3B371E6F
3C008FAA
B944F2AD
BBE21F25
3B937CF3
3955CF08
3D150EAE
3BF2BEAB
38D0D2A9
3D07EEB1
BC8AA2FA
3BB730BC
3CD0A1ED
3C9521EA
3CCAA585
BDCB91F3
BD602169
BD8923F8
3C6956CD
BD67592A
B963F3B0
BCC48019
3B92E738
BB05A43B
3AD9DDA0
3A9A2B04
3D736E5B
3C995E01
BBA62196
BAD7BBD2
BC99D2AA
3D499705
3D13DFCC
3CB9D2ED
BC9390DB
3A394384
BC3E29DE
3D17D9C9
3B66664A
BBF82EA9
BC90A8D9
BCF23247
3D476E69
3C0BDEB2
BB190972
3C52D371
BD2CC052
BD8CEDD5
BD5103CF
BCCCAC23
3D1D10F2
3C86DE86
BBF928B2
3B869C64
3CE0AF73
BCC42878
3D77935B
3D5EF76E
3DA745B8
BAA59780
3C5E2292
3D979256
3B9244A9
BC00F55E
3DB15F32
BB8AF069
BC7B9075
BD1046E3
BD26748B
BC1A8D13
3D1C56C7
3CB5E67B
3D77FE20
3C96995A
3C15840E
BC6F1FC2
3C962022
3D037A86
3C9AB7E9
BD440E56
3CB5C786
3D3224AD
BD1693F7
BD17D366
BD390D03
3CDB66ED
3D2533AF
BC1D6281
BB625D5E
BD44CF8C
BC8DF960
3C8B0336
3DBFF000
3C9BB5E5
3CEA1345
3B00F2A8
3CAAE4EB
BD5792D9
3D83CD2E
BC6B17DE
3C8E1F5C
3BCB0723
38360B7C
BCD74A87
BB71ABC4
3CA97B98
3CF27C45
BC025ADC
BD620654
BD26A606
BBD3A356
BC63D25E
BD25D970
BD2D563E
BC092ECD
BBF07D7B
BC84B683
3D04D8C3
BD220553
3CEAEBC5
3C06D8BA
BD1E5B84
BD670515
BCB855D9
BBF74989
BD81A280
BC1AD283
3CF00130
BD7ED99D
3D47E225
BC1F3D24
3D8BD761
3ACAC4BD
BBF4CCB8
BD2C7C62
BD5650E4
BD2A18D4
BDB61867
BCA8D489
BC4CD61F
3D41C1C3
BC76E729
BB5ADD08
3DCB7366
3D9181FA
3CF31445
3C0AA2B7
3D61621B
3D243EBD
3C511597
3BEF1DD4
BD77FC45
BCDD3AB5
BD48FFF1
BBA9D923
BCC1C96E
BC97556E
3CA8D1C0
3CD22AE7
BC2C6617
BC8FA960
BBBB667A
3C36BA0E
BC56033E
B9DA63E0
3CA1983F
BCFF919B
BD0F9A49
BD1DCCE7
BCF48AEE
3B1FC46A
BC0103A2
3C83F349
BCAC6F36
BD147F79
3C846427
3C0236B8
BD1318D2
BA86EA66
3D0DED57
3D71D9EF
3CE7FA18
BBCC110F
BCB789DF
3D0445A1
BC21CD1A
39CC6F7E
BCC7A010
BD77B0AC
3B2EE5E8
BC2EDE56
BD07740E
BD820F4F
BC84BB79
3C76CF03
3D457477
3D6BAE48
BC7DB7A2
3DB6EDAD
BC299EF0
BB4871B7
BCA9971A
3C1091C3
3CF84AC0
3C608E6E
3DB3F539
BD09A7DC
3D07321F
3D547551
3CE6A92D
3D9824C8
BDC7E292
BCB096FA
BCA6A9D9
BC3A81CC
BBA655F1
BBBFBABE
3CD15756
3C5805B5
BD0F6B40
BC8616A1
3C6AD1A1
BC0A3227
BC9F5A05
BC0FEFEE
3CB8310E
BC4FFC5A
BC5CE4F8
BC4D4049
3BACA9E3
BC97E579
3D7455B7
BB731B6A
3D405CCE
BCD2004A
39CD1B22
3C44FFE5
