3E6845C6
BC9B24F1
3DF644DD
BE9E104D
BE51D8BE
BE01FAEE
BEBDDE8F
3E8EBCF1
BE26745C
3E89894C
BE08E099
3E715682
3D344F52
3DBBC5A3
BE41B9AE
3D202C5A
BE0DBCD9
3DF6D947
BE7C7058
3E738D66
3E80DCE1
3E7F372F
BE740864
3D28A589
3DC25624
3CF424D5
3E61DAEB
3C875BA3
3E576F0F
BEABE0B0
3E688157
3D80E80A
3DB93508
BDCDBC21
BD91C6FF
3D4E2F28
BBA23810
3E10A46E
3D9C6EE6
3E7EFCCF
BE94D983
BE292182
3E464064
BEAAE92D
3DD3A6A5
3E4FE784
BDEA5A53
3C0284BC
BE20BC62
BE306F19
BE890305
3E91F0C3
3DFCAA85
3E98377B
3D9A79AF
BE59DEC2
BE624CAF
BE65335F
BE80FEB3
3E9FCCAC
3C781674
BC40329F
BCD9043E
BE1C2A4E
3E76A62C
BE9E263F
BCE8DEB6
BEB2141B
3E8D5C08
BE239923
BE3B26E8
BCABAC7F
BE5B3102
3E41AC21
BE112740
BD11E8CA
3E8A60F7
BE1147AB
3E1C4BC4
BD9C1A53
BE0CA138
3E30E39D
3DFD7ED0
BC922475
BE55A13E
BE8042FE
BD5A72D2
BE4D2148
BDF82D35
BE124429
3E084C19
BDEAEB69
BE62F574
BC781405
BE16F8E4
BD98FF9B
3E9466CA
3E592DA1
3E20D45F
3E293438
3E3D4FF3
3AE21ECE
BDC66A86
BE8DC0AE
3D06F135
3E26CD0B
3E7B61BD
3E6C294F
BD98FA9F
3E86CD86
BEA01C1C
3E6EC5FF
3D2E73E2
3E6C3F9C
BCBFA148
3E54833E
3E996E5C
3D977F78
BDAC4C93
3D7AA4DB
3DF68B63
BE30B66D
BD87A06D
BE9DAEE3
3E8F10F0
3D69DF5F
BE6F787C
BDF788C4
BE8B4CF1
3E617901
3EA48507
3E1BFC09
BE694EB8
BE58BA41
BDE3FDC3
BDCE2EDE
BD0BE50A
BDDD30E3
BD2EB5AB
BC5B3E92
BDFDFE80
3E8C9739
BE52A585
3E940A8A
3E7EB25D
3D9807DE
BE2B6FAC
3E065B27
BC05250C
BDB566A8
3B42A425
3CCCE851
3DBB5F3B
3DA9B224
BEA0EDB7
3E758106
3E0453B9
BE427977
BEA8BD99
3E9AD1E1
BE2681CE
3E8A635D
3E19C400
3E182536
3E90FDAD
BE7726C7
3B021B62
BED471DC
BD66999B
3E1DD41F
3E69028A
BDDA0207
BE468084
BE82DE17
BDA58BA7
BE484385
BDCC5C6B
3EA71A70
BD3AA318
3E9FEC2E
3E115C84
3E837389
3EAE3876
BDC22F52
BE298502
BE0A9C87
BE63F1A1
BE1EF737
BE7C8C55
3D803627
BE59999F
3D87DD37
