BDE6FF0D
BE94B801
BD15658A
BF48EC79
3ED04527
BEE29AC5
BEBE4E74
3F063109
3E74C652
3F034DD4
BE5FFB77
3E6AB4F2
3F3F3848
3F29E16B
BF066BDE
BEA37C59
3E54C8B7
BDC463D5
BDC7827F
3E86B8B4
BE97C382
3E64E1EC
BF167687
BEF47363
BF400507
3F25402D
3D6678EF
BEB8F72E
3E62C398
BDC56D08
3F12A07C
BF3DC2CA
BE12CB35
3E45B219
3E63B654
3EE6F67E
BECCFB92
BEE4DD02
3EA9EE17
BF39EBB8
BDE4FB31
BF0AD4A0
BE24E9B6
3F04FDCC
BEFEA687
3EF2C80B
BD64676B
3E8B0D11
BEBE2A47
3EE9CC5D
BE075A6C
3F4CECD7
BE39F621
BC11B58E
BEEE25ED
BF038966
BEE76E7F
3EFA3514
3D30A6AD
BED2A76E
BEE1C59F
3EF23FEA
BDFA1118
3F14B711
3F216C92
3F0CAB40
BECA28CB
BF3C9FCB
3DD3A591
3E695BC6
BE8F7D3F
3EACF8B0
3F437348
BEE2FAA6
BCBBB5A6
3D31EBF5
3D20386A
3DC13102
3EB6E8C1
BD604458
3EC2E5BF
3F320D7B
BDD07738
3EBCB0D8
BF3B5A1B
BF40D089
BF469D9B
3DA83121
3EB78FC0
3F0C9099
3EA5D38D
BDC74F46
BF0C0235
BF3D56BA
3E4B2BA6
BE239E21
3EDDFA14
BE002B3D
BF9E6E03
BF72C044
BF13E2F7
BE4CACC9
BEBD8453
3EDAEADF
BF46A86F
BEF5FB15
3EA81045
3F2A7426
BEB1594A
BEE76200
BE996B5E
BE26A6B4
BE473740
3D1BCE9C
3E9475F7
3F2C8CFA
BF487FCD
BD0362A2
BE7A806F
3F1EA0F5
