390CE
3B144
09225
3F063
0A468
03A3B
06460
3FC8D
2D26A
3A2AC
00C66
00C40
024EA
0496B
3BB7B
00F9A
3D9BD
3B9AD
3DB04
00080
0044D
3F0DC
3FDA6
3FCE4
3BDBD
3CE8C
3F76F
3D076
02501
3FAC0
01E26
02197
3D85F
03994
043FA
3FEC7
018D3
055B4
02647
00DDD
06609
0279E
3F8C7
3B824
0127D
00BA7
3AEF1
04BF7
3E30C
3D913
3EF98
046A6
38384
3C58C
3BF49
03199
002E3
3DDDE
031C5
3F54C
00825
3C67D
05FB5
3F55D
01F38
3DBDC
01467
06DBE
3EEF1
06A9B
07207
3C34E
3EC4D
3E631
3D6E8
3AF7D
03AC0
3E4B5
01972
0636C
008E8
3F2D6
3E8BC
00AF2
3F1D2
3EBFD
3E204
01532
017D1
3EA62
3FF18
3F525
00472
3F6B5
0146D
0105E
3A22D
3C47E
090B3
02C3E
02ADF
0660F
08369
04575
00082
02CC5
3D4A6
006E1
01360
3CF48
3DC6A
04D89
3E831
3F2DD
00117
3FBE9
00B79
003EA
01000
004DD
3FF14
3F188
3FEF4
3F8C0
00505
005E7
0089C
008CE
060EA
3B71E
3F0E5
3C1EB
3EFD2
01C8E
00187
024E9
395D3
029C7
3C3EC
0303C
3F4E5
3B048
03BAA
3ADB9
01622
065D5
01BBB
0478E
01626
06C86
043A0
0357D
082D9
0243A
3E09E
3A7DE
3FDBF
01280
0027B
04294
3C09D
3C280
022D3
37749
07A4F
03B80
096D8
3CEEF
2EC47
00496
04325
06B99
007A7
3F012
01409
3A2DB
3DBB1
3FE18
01728
0079A
3CCB3
3D35A
3ED68
3F2E4
0208B
3F72C
01DEA
3F6C5
3E75C
029F3
03FC7
3D52F
0376E
05A46
00E40
3B7FD
043D3
3F118
0556D
00742
02BFE
02A7E
3DDF8
062E7
3BD84
3E11D
3E7D7
3E272
3E8ED
3FD6D
02D5B
3D438
02CA0
3C6AA
02361
3E76F
01C17
3D89C
026D0
00FF3
01C52
3EB34
3BAF7
05721
3CB75
3984C
3AED2
3F5CA
3DD2C
3EF57
3C95A
01587
31897
3A886
07734
03795
3C562
003F3
05DAE
3D211
019D9
3C6CB
3F38B
3D59A
00EE5
3DDD1
3C62A
00FF8
01DAF
3CA35
073BD
003E9
3E9CD
3F87C
3FDD4
009A6
3BC9F
3B26B
048A6
01DD5
02F7A
3EBE0
3DCE1
03FF3
3FEB4
3AEE7
3F96D
0141F
3F5EF
00A0F
3E974
03930
3C3A1
3D044
3FDBD
3F799
00F5B
00C59
0020B
02C47
004D9
3DFDA
003FA
02FCA
00B2D
3C81D
3E8C1
3FE0C
3D11A
3F72A
03A0D
3F4E7
02326
013F8
3DD5B
01230
3D579
3EFC6
3EE5F
01B08
3F5D2
00061
3E774
014A0
03F3A
01904
01F6F
00A57
3F798
02EDB
0081B
00D2E
3FEA0
3FA1B
01B88
01B06
0174A
3A6A5
01640
3D76A
0268C
3FA52
3F352
0620B
39362
01555
01EBC
3D865
00F19
3F9C1
01421
3A4FC
0086A
03CAF
071CD
3FB33
3FAFA
3FD74
019CC
007E4
00CC5
01E22
3F51A
0159A
3FDF0
3F71C
3DD30
00FA2
0122C
3D6FD
3EC93
3D585
3F2F2
3CF26
3E894
03627
3D723
02094
3EB15
3ED9F
04098
00FEA
3B11D
3FF44
010DB
3ED5D
023BB
0317F
3F573
3F02D
00C10
3FD48
0033A
00FA9
3F127
006E5
00A62
3F43E
3E31C
0079B
3FF0E
3EB9D
3F43B
3FDCD
02713
3F057
00330
3C031
3E422
01E1D
3F4A1
01839
3F089
01688
3C41E
005DD
008F4
3F4AE
020D4
3CF7C
017C5
02CC1
3FF58
01232
3FB82
01D53
0189C
3EB2A
004C9
3FBF4
01177
3C831
00D8D
02727
011AF
0208B
3FAD9
3A4FC
3ADF9
3DC25
3E7B4
3BFF1
3A397
01392
0003B
3CDB2
03621
01B7D
3F9B2
00DB0
054DB
01F9F
3F158
032F5
3FF94
3908B
02CD0
3F2B3
035AD
00E38
052E1
3F6F3
01823
01D63
3AECC
3D221
03FA6
0132B
3F57C
04AC9
3F0BC
3D3A9
02A9D
3C546
3F06B
3DBC4
01C8C
3E7AE
046A4
01DAF
3D2AB
3EC3E
3BD0D
0000E
0290A
00441
00E66
012AB
01759
3E392
3CACA
0303F
3BBAE
3DC81
3E42F
00F45
02D5F
000A7
01495
3F0EE
005BA
3C0D4
3A362
3E2CA
3D863
3E375
3E0AA
015A2
02481
3EFA7
02454
3E162
0176C
3F4BA
02A48
01B91
00FF7
3EA0A
3DDC4
00B1E
004AD
01B0F
02309
02D73
3DD76
0001F
01538
3F807
0223C
00EA7
01377
3E704
3E3B6
3EB2F
3EDB3
3CFC1
0236C
3E741
3D89E
3E63E
0172E
3F54D
3F6AC
030BB
0129C
3CA18
3B0A2
3E059
3E6C3
0127E
3E438
3D37F
02B2A
3F1A2
02510
3FA3E
03224
3F45A
010B2
01518
018CD
3CB61
3CCE0
02093
3FEB8
3FDA3
3F5AF
3E0F1
029B4
3EA03
3E9CC
01468
0015C
3E5E7
3EF6A
03836
3EF20
3E897
3B3A2
01B54
030C3
00B54
02CD9
3F9E4
00EE0
030C3
01731
01E1F
01809
03395
02A03
02BBD
3E69E
3AFC1
3F709
3B3EF
04372
3E5B1
3DB92
005FA
3AA1C
04685
03AA8
03BD2
3D205
0115D
00012
3CF03
005E3
0169B
066A3
002BA
003CA
3ED32
3EC20
3E32F
3F92D
0041E
3EDAD
3F3B2
01BE2
3FAB4
01619
00521
00CC4
3E4CA
3EFF0
3EFDC
005B5
00815
3F981
049D8
3FA30
0089C
004BA
02BB9
00E4B
3BFDA
3DEDF
00E7F
01492
3AF72
3F8DC
3FF28
00967
3FFDC
3FFE6
00BC3
00938
00211
3EBD9
3FE89
009D9
3E96A
3FB5F
00642
004D8
3ED60
3F749
3E901
03922
3ECD5
0331E
00080
3F740
00C5B
3CBD2
02150
3CB07
002A8
3CA3C
0054A
02BE5
3F4D7
01279
3E438
3F640
020C9
3D65D
003CC
0126C
006F2
02990
00579
010D3
00A8A
3FB8A
3EE4A
3F1CE
002BC
01DE0
02289
3E474
3CC7A
3D915
3CCFA
026F1
3DF69
0113B
03FD6
01755
3EE9D
3ED10
023E5
021D8
3CDF6
3FDB3
015EE
00667
00DFD
3FB7D
3D2B0
00CBA
3CF47
018B7
00DC1
3F8D2
3DA8E
004E8
00C1A
3C36C
3E54F
01904
03C7B
02CCF
01E48
00426
3F19D
02709
0011B
0051B
012B0
0265D
3CFA7
0252B
010B2
3E913
3E315
014D3
02920
3E0A7
3F5E1
03489
3ED32
0110D
3F6DB
3D310
004FF
00096
3FFD1
01C21
039F1
3FD7B
3DB2E
3DDE1
3E44D
3FBEF
3CE94
3C0EC
3AAFE
01DC0
004BC
028C7
00E03
00AEA
0617F
02023
00A7E
024C1
00D22
3E5F9
029BF
3DD74
3BE65
3D20B
00B87
3BD17
3F650
00DB5
00619
3EA65
00635
01EF5
0132A
020B1
01F5C
01BD1
3FB2F
3B0BA
003FD
3BABD
3C91E
0092B
3BE03
3F489
3A3EC
02015
00D90
0050A
01515
3F96D
3F080
3A8E2
00FB9
01226
010B9
0182B
3B0A1
03286
3E9BB
0073C
3DD42
03050
02A20
029D3
02121
3E57A
3D2C4
3D446
3EC65
00364
026D5
3D35E
0076B
03547
3DA68
3F7AA
3F0AA
00996
3CBB4
3F6BC
018E1
00755
3F19E
3AF3D
0190C
04088
0252C
00B4D
3D879
01201
3E753
001F1
3E791
00E61
02D21
036D1
00891
00879
3E5DA
01725
3BBC4
03A87
3FB89
021E1
3F5D7
3CDBB
3EE34
00875
03DAE
3EAF7
0340A
0176D
00CD2
3F967
012C1
033FB
00F84
0154F
0066D
004B4
3F27A
014D5
00DF2
3F124
001BF
01186
3CBC5
00533
006B0
3FF93
3F461
000ED
001C1
3EC3C
00128
3D0EC
018F5
012F9
3F33B
0093B
012E1
004A4
3C21A
0005E
3DE6D
3DE10
00E56
03C79
3E2B3
3FF20
003E9
3F350
00B44
00FE7
00064
3F99E
3FAA0
00C3C
3DED6
3EF78
3FE8D
3F541
3FDB2
3F89E
3FEBB
01DCB
000ED
03411
3CFAF
01DAE
3E2FA
3DBF2
010BC
02002
3E339
3DBCC
00FDB
01034
3BE3A
009D0
00102
01002
3EDA1
3F4A0
3D032
00672
00F43
3F8FD
039C5
0059C
02901
012ED
03DCB
00710
01342
0246B
0158A
00839
0016E
3F911
3C7FD
03DC1
00478
02CEE
00EE4
0255D
007A0
01097
01E18
02081
3E123
3F17F
01A0B
02FF0
3C869
00796
3ECE4
01A16
03092
0190D
02B3D
3F309
015BE
3F072
3E9AA
3FF03
3F9D4
3F4B1
00E2C
0327A
01430
01A5E
01816
00094
01D96
032D4
3F706
01816
0033F
3FF72
01BEC
3F0D1
3DF26
01E27
01AB3
00AC3
03585
022E8
01F53
3DE11
3F6CA
3990C
3E620
3EE28
3B6C9
02838
01A46
3FB7F
3E711
3ED06
3DFFB
01E76
3D8E5
3FB8F
3EBB9
3F82E
3C05B
0030F
002E7
02F0A
0181F
3F575
03590
3EA33
0047A
3FCA5
034E8
3DF7B
3FAF1
3FF97
3FD47
3BFF9
3DAEA
01AB7
00459
3E2A8
0635E
0363A
02A90
007C9
00BF0
3F28B
00B05
00429
02B92
3D4D1
3F58D
03887
3B37F
001A1
3DBD9
01450
3F406
3EECB
018D6
3DFFD
01E0A
3D7C7
3F100
002EB
3F511
3E779
3E69E
0251D
3EE2B
00E53
3FAF0
007CF
3D9E1
02299
01531
004D7
00656
3D341
3FEA2
00747
3FF6E
3D13A
00DA7
00EFB
3D24C
01147
3EC4C
3E842
3CD8C
3EC69
3FC50
029C6
015F2
3F764
3CE6C
02D39
038F0
3F955
3C581
00358
00E17
0227E
03EA0
3F648
017AA
06109
02F77
0160E
01709
01D35
00AA7
3EFAB
3C4CF
03AE1
3C8BA
3DFEB
3F979
011E6
00D03
3F4E4
039F6
01BBA
00255
3EF88
00D05
05266
01A5D
00E4D
3FDEB
00248
3FCAD
3EEC8
00260
00048
3F703
015FE
3F548
3FCA6
3EE99
3FDD4
3FC62
008FC
3FF04
0083F
3D65A
3D0CF
01CDE
03843
02415
00C09
3DE6D
3F08E
3BCBC
3E11E
3F9A6
3EC7E
020A3
0118A
3F84B
3FDEA
3FEE5
3FD41
004C7
009DF
00093
3F4AD
3F903
0072D
3E4A1
3F0A0
3F80C
3F78B
00578
3FA2B
3F52B
3DFF4
3E69D
02A82
3E35A
00CFD
003EA
00B4F
3F71A
0002C
3E3EB
3E3B6
01C8D
00060
3F6C9
014E9
3C3D5
3F926
3E4F1
00E8F
3DD93
01450
3F2FC
00F62
3DB80
3E943
044C4
008B5
01FC2
0193E
008DC
0424D
3FBA2
3FA71
0008C
02526
3C98B
01C8B
03F14
3EA24
00564
00618
3D855
001C9
035EC
3F135
3D52C
3DF54
007AB
026B3
3FCB9
02342
3E950
3D766
003B8
3D3BC
3EE24
3EF31
0277D
01E85
02EE8
003F7
00704
00F5A
3EC88
027D3
3FDCD
04F2E
3F7D6
00F0B
3E845
0078F
3E06A
02050
029D8
00F5A
3FAB7
3F618
3DB63
3E9F6
3ED6C
3F640
03D93
00F7C
02F88
3F454
3DC79
3F640
3EA08
3F5BD
3CAAF
018D4
3DA7D
006D0
3E3C7
3E474
3BE2D
3ED13
3F451
3F7EA
3B607
3EF56
3F3F7
3CFBF
006A3
02845
00405
3F266
3F69F
00A9C
3D53A
3F557
02386
010A5
01942
00C73
0251C
3CF85
3BEA4
04AEE
00104
3FD27
050BB
01C2B
00DB2
3F3B8
3D7B0
3EBD7
00015
0070C
01808
3A86E
00B64
01E00
3DB8B
3ED7F
3F675
0275C
3E2F2
0196A
3CDB2
00C61
03444
3EB33
3FCB1
01811
3FAAB
3EA17
00CD4
3FACE
3D76C
3D4E9
00C71
3E8F8
3F11A
3DA56
3E4B2
00140
0081E
3DCC1
3F738
0073A
00A14
3DE1A
3FE50
00EB8
3DC08
3EE83
3F14E
3F0DB
3FFB8
3D732
3DABB
007E7
3FD17
3C878
01F23
045AF
01491
01D3B
3C6B1
019D0
01A59
01D9B
03BE9
00AE8
3DC7D
3ECD1
3EDF7
00CD9
3F528
00574
0035C
00FFA
3E223
00C2E
3DCF8
3F17D
3E544
00925
028AC
3E47F
02C51
02B7C
00ECD
018E1
3E810
06E04
3E1C3
00B67
00529
0111F
3F3DA
0013C
015F1
00645
00C9A
0035A
3F512
3F9B5
00F9C
004B7
3F821
00994
00862
0122E
01C5D
3FD84
01563
01E6F
03AC5
00695
3D594
3D019
3F77C
3D567
02276
00AD4
01B0E
3F503
3E581
0002E
005BC
00240
0053E
00E84
010A3
3F80B
0009F
3FC2B
3ED76
3F7A2
00894
3FFC1
3FF12
3F475
3F0AB
3FE18
3ED46
03FB5
3FC7B
3F456
028EA
014DE
02F46
00667
3CC85
3EBDA
01D05
3E9E2
3E5F1
01447
3D313
01904
3E81E
3E5FD
3C3D4
006C9
3FB34
00751
3CC1D
3F402
03A99
3DA86
00047
00F9C
03237
05184
009E1
01859
005BC
00139
3CC50
03C0F
011EE
3E70A
00306
02185
3E847
3FB76
3EB43
00A36
3F801
012C6
00657
01252
3CE60
01E56
3F491
3DC17
3E77B
3DD2F
005EB
0000A
017F3
01892
01E23
007D3
3ECBE
3C593
00B70
00666
3CFE4
3F621
0592C
00B46
3EBC4
3FE23
01036
013CD
062CF
04FB0
02254
3D346
01E1E
00100
014F9
00001
0148D
0195D
02B61
3CC8C
3E060
3F8E7
3FBDC
011AB
3C1EE
01B58
3D0CD
02709
3E622
00744
3F42C
3CA90
3DCE8
00880
3BB88
3E96F
3E77C
3B48F
3D212
01395
0297F
3F545
3EE14
3E94E
3B47B
00168
3F60F
00EA2
0260B
03013
3E70B
3DABB
3C986
02403
3F607
3FC6A
035EA
02CB1
00780
00E6F
3A195
01835
01A05
0196D
019BC
3CB39
3D41E
020BE
00B36
3C692
3EA32
01DF8
3D413
3D5B0
3CF3F
004C2
0390B
3E9C0
3D73E
01B1C
3FEAA
3F64A
3DB77
034F4
01677
3EBCC
3F706
3EBF4
3EE8E
3D114
3E497
00DE1
01331
3E2EB
3F15B
3FBAB
3F1FD
3E487
002A2
01440
3FBE0
3E6E3
3F921
00B4D
3DF62
3D0E0
3FA82
003CF
00FEF
3EF0E
3F1FD
01FD8
3D29B
3ECEC
3D869
00377
03FDD
3F0C3
03661
00F70
3EFF5
0251B
3DAB9
01F1E
3EC36
00311
3FE53
3FAEA
00773
01264
3F074
3FCBF
3C88A
018E1
3FE51
3DD94
01EB5
3EB1D
02321
00E4A
01E15
04E3A
3F256
01B5E
3ED7A
0026C
3FB14
000C6
0072E
3F258
002AD
010F8
006D9
3FD55
3F41A
00CC7
3FBAD
009B2
00C14
3E8E7
01ACC
3EFE4
025E1
01157
0250C
0241E
3F79F
3E45D
3E643
3CC90
02290
037FE
3F8C8
001E5
3F858
0021C
3FC38
3FA14
00168
005E2
00722
3F97E
002D7
003C8
3F3A8
3EF2C
3FD91
008C3
3FD30
3FA87
3FE95
0001E
3F6B7
02ADB
3CFCC
00185
3F469
00980
01A9B
02BCB
3E016
3ED68
3FF4A
012E9
3C730
00C00
3F910
01701
3E6DF
01E18
3CF8B
00736
0122F
00D19
3E22A
3DA0D
3FF84
3A6BB
3ED93
00AA4
00221
03BFE
3FFEA
3EAD9
3F5FE
00AD9
3BE21
04124
022C8
3D29E
0138E
3F9D0
3D0C9
3E4D5
00D0F
3FFCF
3E0AF
00229
3E4F0
3C995
3D98E
0519D
021C6
014B9
3C396
3FD16
3FCBB
3DEDC
00D83
04A3B
02A13
01456
3D34C
008EF
3D7E9
3EFE1
3CD93
000D6
3ECEE
0429E
3D453
3FE82
00ACE
3FF90
01266
0237E
03C76
3E02D
013D7
3F3BD
00AD0
3EB9B
01A1B
3F52D
03FF4
3BD03
3F877
012E6
00620
015AB
3E99F
045AE
3CBA9
01A1F
3F00E
3FC6A
01B9A
3DB4A
3DFD8
01CE8
3A925
3DF7D
3F222
3D23A
3D074
3F8F2
3F63B
010D7
005EB
0034D
3A38D
00FDD
3D58A
3FB1B
02BF8
044A8
00C42
3A5E8
3C02C
00DE4
3D6C7
020D0
043A6
02DA3
3F478
3F923
3BABC
00A83
3EEDE
03EC8
3EDB4
3ACC2
3E679
01BE5
00B61
3C7EE
00B23
00BCF
00CCA
3C706
3CA02
017DB
01DF4
3FFBC
3D478
0290D
3E1F9
3D2C5
3FF37
3F39C
003BF
3CBD1
3DE5F
01F98
00ADD
3EF09
3F223
00247
3FDD2
00534
3F222
00074
3F252
3EE2F
3F0E8
00A24
3E578
3FA81
3EBAF
3EA37
01A03
3D56A
025DC
00976
3CF52
0193E
3FB51
01424
3F407
02F73
3CB57
01B64
00CE4
3C891
02080
028D9
3DB49
3E1AB
00B28
3DE15
000D9
002A8
3C775
3DB5B
3F84D
00E5D
04345
3C258
3BE19
011A3
3C91B
3F4D4
02111
3E569
031EE
00822
01D93
04EB9
3F882
3FB64
0039E
00FA5
3F1A9
3F3F3
00418
3FA29
005C6
00AAE
3F64D
000DC
0044E
00212
3EF20
00B7F
003C4
0089B
03587
01D30
0231A
00C98
0286E
0254D
02092
00F92
02B15
3D854
04312
00C4C
00AAC
3F321
0273B
003F1
00241
00640
3E7C3
006B9
00A0D
3FF96
00732
007E3
3F891
3FE85
0039E
003DD
3FBFF
3FE08
0011A
3EBE3
3F3DD
06485
3B93D
3E2C2
0184A
3DCBB
03F8A
02D5F
3FB68
0162E
02233
00F9F
39DB0
01134
3F661
01BE1
3DF49
3FBE8
3D331
00B4B
01ABB
011AA
3E984
3E14D
01363
3AE87
023E2
01EB2
3DC99
01B69
3F332
01052
3D64A
01349
3E327
02922
015C9
3BCB5
02DEB
3F965
3EB2A
3F9CB
3F7DC
029C2
000BB
00C5C
3F230
3F72B
3E365
3E491
06320
3FDEB
3C89B
3E65F
3EF34
3DD70
3F83B
043E5
037A8
00183
004D3
3F255
3FD4E
0060C
3F884
3D5BB
006FE
01F76
3E3AD
3EF72
00D0B
00BBA
3FF25
008DC
03CAD
3EE2D
00A8C
3F464
0521D
3FC08
00F23
3D2BD
037F9
3C4C7
3E5C2
027D8
3F0EF
01E97
3F810
3FDF2
3D4D9
01225
3F254
01D08
02868
3D542
001F4
0201D
3CE29
3C017
3E9BE
3D905
3F6DA
0198B
3FDCE
3FCAA
3FFEB
3FF69
3F160
01082
3FD77
3D50F
003D6
03CAF
3E91B
3A195
3D480
3FA73
002B9
02D7E
01B77
00D2F
3F456
007DC
3EC2E
00653
3E33B
0138F
00963
3D78C
3EDC4
3F42B
01086
3C583
00400
00F4F
3FA47
3E42F
3DA4A
0060F
019EB
0031B
3C887
0297A
004B6
004BB
3DCF1
00D28
028C4
3DD29
0186B
3FDE6
3DF83
3E697
00C28
007EF
01049
007AB
3CA35
00D82
00B6B
00E2F
3EFE4
00237
3DCDF
001CA
3DEA2
3E248
013FA
3D098
0292D
00D77
3F99C
007B6
3F077
02114
3F7C8
3F94B
3D347
01D5C
0251A
3F6D2
0315B
3FAC8
3F1F6
00890
016CE
0177E
0034E
018B9
3E41C
00C7F
015DB
3E149
031D1
3DF61
3F626
3F151
3F24A
3D054
00A3F
3E929
019B4
013A8
01927
03BDA
3EDBE
00CC5
0043B
0069B
003E9
002E2
3F447
00106
3FF7B
0048C
00A65
3FAAA
3FD56
00A30
3FF11
3FD70
00078
019E3
01927
024EE
010F3
3D6F3
02FCF
3CD3A
007F6
3E87D
02BE6
3FE60
04EE4
014B4
3FC7C
3E899
3ED0B
0085A
3FE9E
3FFF4
3FEBD
3FF31
001AC
3F795
3FF5A
3FCC4
3FF46
3FFC6
3FD60
00A24
0011D
3F7A0
0015D
00953
3F7F0
0124C
3F08B
01D61
3EAAD
01C42
02A8B
00EED
3E095
3F7A9
3F596
01CEC
3D891
00F4C
00E1A
02517
3F41F
0148D
3E24A
00BB0
00232
032D9
3ECDF
3DAB9
3F5C9
3A3AB
0346D
02399
3D2CB
01092
3F6FC
007D2
3FC56
01FA0
3D1EB
00F7D
00F7A
3FFF6
3FBE2
01AB4
3E10A
3F617
3F81F
3F32B
001F9
007A7
3DCED
3F452
3FDD1
3E0A0
032F9
0123F
3DF65
01727
00C29
00095
00014
01776
018E0
01C4B
00F49
3F437
01718
3FEC5
00BEC
01816
01D21
015AA
3F569
02249
020BB
01052
00146
3D7B5
020D1
0267B
3E918
3FE81
00A50
00F1E
01D40
3E852
00E57
3F0A2
01251
02AEE
3FBC2
00CC1
3F5EF
3D684
3DC63
02741
01665
0079C
0105F
3EBD2
00617
03779
3D8A8
3D351
3F1EC
3DE02
3E769
02799
00D43
00A1E
033A9
3DB8E
3EBBE
3DE3C
00823
3D209
3FC07
029C4
01AE8
3D3E4
3C728
3FE58
3D33C
0203E
00A9D
0076F
3DA5F
3E692
3E369
3EDE3
3FAA4
02D6A
024FC
3DB7D
3F3FF
0008D
3E95B
3B63F
0075C
3FB32
0041E
3FE8F
3E522
0136E
02B41
3EA1F
3E76C
00CA3
0056F
3EBF6
3DB24
00759
3F98B
3DC69
00C79
3FC03
3E3A7
3F609
00717
00525
3F9D4
3EE65
00BE7
3FD62
3F140
3F6D0
3EAE2
3F891
3EB15
002DF
3E518
3E785
015F7
3E619
01B71
002F6
3E680
3F2F4
00700
3DB63
01C5D
02A3C
3D5CD
00B1C
3E5C2
0159C
01DD6
3F8E1
3F3F4
3ED23
01CA1
003BE
3F831
3FE01
3D1D9
03633
006EC
3E4D5
00827
3F97C
0321D
3E6FA
0131A
3DD0C
3F8A7
3E443
0016A
018F0
0053B
00482
3FB48
0073A
0013A
004FD
3FFCE
00CA3
0055F
006B3
00D4E
00E91
001BF
00687
00192
0089B
00661
3F912
005CC
02CE6
022A9
027DC
0000E
3ECCB
027AB
00771
0072F
3FC6D
03CB1
3D9E1
01DE5
02B54
00354
3E9B0
3E03A
00BDA
00469
001CA
3FBD5
0029E
00385
3FB37
000B0
0015F
0010C
3FFDB
3FDB8
008E8
003C8
3F831
001A7
025A6
008EB
019C4
3D7C7
0280B
01FB0
015BD
00C78
02CF6
3CE98
00AAB
00AC9
009C6
3EEE8
3EB29
00CC1
010D0
3EA12
00C17
3E8AD
0062A
011B3
01689
00081
3EB28
3CE6E
3B961
025EE
0109A
3D27B
3F634
3FFEB
017D3
3FA96
3F61C
0022A
3E9F5
02286
3DF53
3FFE8
00167
3EF76
3EE97
3F730
010AA
3FF38
3FF38
3DEC5
3F44A
3FB5D
3E1F5
3F912
0142B
3EDA7
016F9
00C0F
3F50C
3F148
3F617
018C3
0174A
01D97
3DF29
018FF
00A29
00070
02A4B
3F39F
01012
3E393
03F52
010A6
0342A
02016
00225
02709
0069C
0050E
00036
01D04
0218B
3F4E4
3EA04
3FBF9
3E887
0319C
04350
3DA29
007E3
01A8A
3F2AB
3ED61
0238C
3F303
0148A
00264
3DD6D
3FB91
027DF
01535
3F55F
3F13A
01019
3F959
00F91
0037A
0271B
00833
00F28
3E8B4
3EDE4
3F8D5
00DF1
3FD3A
01C82
3F25F
3EB1A
3D2DE
3FC79
3FF0D
00414
00D6B
3F7C7
3E59A
00562
3FCCA
3F974
3E8CD
02CC3
0235F
3EC23
3E7B1
019FB
3EF1D
3D7DB
3EF5B
3F0FE
008F4
3E921
3CE2C
02128
00C19
3F4F5
3D4C0
022F7
00426
0070F
3FA8A
01977
014BD
3EF94
01AF8
3E798
3F787
3EFC9
3FC04
01DE0
3F18B
3F961
3E84E
3FCA6
3E9B3
00B03
3CFDA
3F64E
3DB2A
3FFE0
3DC1F
00692
3F7BC
3D584
0030F
3EEC0
3F0F4
00E7E
009AA
00149
00FCE
03239
3E756
3F86D
01F55
3F6FE
3F8E2
01ACC
018BE
3E839
01631
3FC2A
3E15D
3EE2B
3F2A9
01EEE
011D9
3E8BE
00EBF
3F2A6
03403
3ECBF
02021
3E3A8
3FB7A
3DC92
002EC
01666
002F0
3FEC5
3EBA5
00A24
00690
00774
3F513
008EF
00BEB
00E66
3F6C6
000B6
3F486
3F94B
0041C
3FB4E
3FCA5
3F69D
007B7
01CED
0277C
01A6F
3EBDA
3FCC5
03B4C
3F346
00679
3E1DF
015E6
3D81B
01E2C
00E92
0155E
3D074
3EBD0
0078F
001BA
002EA
3F601
002D7
00A4A
00374
3FB5D
3FD47
3FCE8
3FA99
00010
0000C
3FFFE
3F6E8
3FF2C
3FF8B
00747
00E82
3EEBB
01111
016D7
017BB
3FE1A
0014F
001C4
01DC0
04545
3FFCA
3F255
3D8A4
3F92C
00A7A
3DFFA
0064A
3CDE9
3F253
0085C
3FD99
3FCF1
00303
3DC34
3CC96
028B2
3F342
3D60A
3FA31
3FC4E
02E9B
00ADE
009B3
3E66F
00A84
00405
3E774
3FA48
009E4
3F3BA
3FE41
3F69B
0164A
3F486
3F49D
3E6F1
3F6CD
0164B
000EA
006AB
003F2
01BC0
007C2
3FED3
3EB7B
0081A
008AF
01129
005D1
001A3
0011F
0133D
012A1
010C8
01B5B
3FDE7
01129
007B5
00AEB
3E097
3F457
00541
3F51A
002B7
3F3FD
0042F
00009
00BAC
025BE
0017C
02EA6
3D6DA
3EDB6
01AF6
01E46
3E652
00C97
000F4
3E45E
3D41C
3FB77
3F840
03846
000A2
00B62
3FF11
0241E
3F83D
3DDD4
3EF96
3F43D
00960
3F8CE
000BA
3FEFF
00B4B
01096
3F100
3F50F
3FABE
3FB02
3FA40
02185
0039D
3C1B2
3D943
3DBD1
009CB
3EFED
00D26
009CC
3EE05
007D7
3F64F
007E6
3CF9A
01565
01997
00872
3D5A3
3ECB5
003A9
3FF75
3E3BC
01497
019B2
3D441
3EDF3
0089E
3F7DC
3F89E
3DCEE
3FDA3
3F35A
004E8
3E8DB
0008C
00667
00B00
3FFDA
007A9
00976
3EB9C
0043F
00015
0019E
3F0D6
00215
3DEE2
3E85E
3FA72
3D6F7
3F4E6
3D963
3EFA8
3F98E
001E7
3FA14
3DF44
00489
3EFC0
3EFDE
010FA
3FDA5
01C7C
001CF
0154A
00835
021CD
3F407
3E8D3
3F6C6
3FB8B
004D9
3F402
3FD60
3DE79
00B4E
3F304
3FA62
016FB
02088
019C1
00FCA
00060
040FD
3FB1D
01BAC
3F508
011A3
0008C
00592
000F9
3E58A
007D6
3EFAE
0046C
3FF54
3FEBD
00A64
3FED8
003E3
3FC03
3FD21
3FD9A
006DF
007C4
3F808
3FC9C
001AB
3F9FC
3F727
010FE
023A4
014FD
3F0A5
3EAE1
0585F
00286
00FB4
00747
00765
3DA9D
00AE1
0016C
3F001
3EE35
3F8BB
005A2
00026
00077
3FD56
3FEE7
005FE
005FF
3FCD4
000A6
3FD6E
3FA15
3F8FD
3FF31
3FD5C
3FACD
3FEE9
0011E
3E0A6
3FB79
003CA
01641
002E3
01B98
00802
007EB
3C7B5
3F750
3ED23
3F3DF
3E107
3F9AA
3EF37
3F475
3E0AE
00E44
3D2F4
00866
3F758
3E8C2
00687
00206
3DF28
3D9E7
009B2
3E9C7
3E521
01310
3EB1A
0217A
00284
01405
3ED99
3FB3D
00C69
00A69
3E518
0062A
3EE27
3D5BC
3E56D
3F73C
3EE6F
3F579
3EBCF
0174B
011AF
0143D
01684
02FD8
00554
0010C
3F6A2
3E06B
000BD
0019E
3F550
3F63E
00D3F
006FC
004EA
3F71D
3FB25
008A1
00DA2
3ECE2
3EE1F
3FD31
00760
3FC85
009A4
00EA9
3F601
00689
004B9
3F189
3FAEA
000BB
3F75E
009EF
3E39A
3D7FC
3F404
00E1A
3FE81
3EAF9
3FD4C
3FDCD
3F5D0
01688
3F95F
01B27
3E190
3FBDE
00119
00227
3E65B
3EEFF
01E2F
0096C
3F564
002B3
3E292
3DB69
3FAB1
3FF8B
3F026
3ED16
00566
3DFEB
3FE4B
0080E
00244
3E899
3FF7F
001FA
00FEB
01259
3F9E4
00720
3F5F0
00141
3FD63
3EE4D
00634
01C91
019B0
3F287
3F08F
3EEB7
01492
3D88D
3E8DD
010D2
02259
3E62E
3EDBD
3F939
0020F
3EC19
3DF92
00E7D
00458
3E414
3F6D3
3F2DB
0173C
3EE29
3F38A
0160A
0043B
3F26B
3FCC8
3F8A0
3FAE5
3E9D6
3F639
3EDD7
3F18D
3F2C9
3DE1A
01ACF
3F363
01D53
00A44
00F5B
3F237
3E2FB
00F40
3F6BF
3F8D8
3F90E
010C9
00202
3FE43
3EC93
01B30
3F27C
3F405
3D61C
00046
003E0
3F733
3FDD7
3FD8A
3F1EB
00883
3F02A
3EF22
0160E
01298
3F1AF
3F9E5
00D98
032AC
3F233
02BA2
3E020
0069D
3E51A
002E6
01B7A
02373
021AA
3F842
00C40
00094
3F07D
003FC
00200
006D3
00546
00254
00470
0041E
3FE57
00CE0
00B4D
0069F
3FB81
00C4D
0411D
01DD0
00F5E
01510
3FDDF
0409B
3F9D3
01C04
3E91D
021DF
3E8DA
009F1
018DC
009D7
0109F
3FED3
00A2A
00074
3FC81
3FF40
3FE49
004C5
3FFDC
3FC8C
3FF8C
003CF
3FCAC
3FFAB
0018C
00247
3FE5C
3FD4F
02E29
3FA7A
000D4
01301
01B7D
3FE65
02C76
3F85F
01596
01446
007E9
013B6
3F253
3E534
3D914
01032
3E4C4
3E8DD
0058C
3CF0D
01A71
3FAAE
01FDB
011B4
3F715
3DE56
3D054
00EDF
3FCF2
3F0A6
00671
3F61A
016D4
0074A
020FE
3F872
3F9E2
009C3
3FF14
3E663
0023F
01124
00293
000A4
3F23B
3EFBC
3DD3F
3E091
013AA
00026
3F785
02380
3FF9F
00DE4
3F97E
3FEAC
3EDBD
3EA52
0062F
3F824
000BF
00488
3F48B
3F201
006CB
0029F
005BD
00E47
3ED4E
004D9
012CA
3FD74
00E82
002EA
3FB5D
00E59
00F79
0002F
3FD92
00BAE
3E653
3FC2A
00541
3FFC8
3F4C7
3D051
3F536
01AEF
01074
007C4
3FB5A
00129
3FB70
00831
3FF46
3F9C8
00ECF
00519
01CBD
3FBE8
3F52A
00977
00E3C
0016D
00999
01207
3FBC6
008F3
3FCDA
3DD36
3E079
3FB7E
3FE74
0019D
3FA9E
00E18
0023E
3F905
01481
3FF23
3F6A5
0048C
3FBB3
0179A
00880
001C3
3F3EE
3FAE8
0271F
011D3
3C3E6
00C8D
3F801
02268
3D98F
0060E
3E77D
00C73
3D29F
0003F
00BDA
01CA8
00E34
3ECC4
3FF42
3FF6F
3E1BC
3FA41
0031B
00CC5
3EF2F
3FD9D
3F027
3FE51
3E9D0
008DC
3F9CD
00B9D
3FE7A
3EC5B
0029C
3F491
3F6C2
3E489
020AF
00E94
0236E
00DA9
00B8A
3F3CE
3E5F7
00C92
3F1E1
3F56F
01091
00D80
3F5C7
000A5
3EEF9
3FF2E
0146A
00085
3FB4D
00581
3FFB5
3F762
00241
01C61
3FFD5
003A0
3EC2B
3FD9F
00DFC
00BE3
3FEC0
3FFD7
3FC66
0279F
3FAED
0218B
3F663
3F72B
3E624
00663
00691
0150D
01B14
3F37C
0008A
00259
00553
00051
001BD
3FDF2
3FE3D
002C5
009AE
3FE83
3FCF1
0127D
3FF55
00549
000AC
00917
00F62
014E0
3FC21
01071
3F9C9
0278A
3F1E1
0145C
0084A
01750
3F297
01A62
0047B
0200A
00712
016E2
0016D
00074
3FF23
0015C
3FF95
0002E
3FC24
3FF77
0040F
001DA
3FD94
0065F
3FFC2
00446
3FCC8
0028C
00EA3
3FA5D
3D4A0
3FC50
00864
003DF
3FF98
3ED9D
013B6
003A2
3F383
025C4
0065C
014A4
3D584
03727
3F12F
3EDC2
01051
3D039
01650
00A97
02247
0061C
00F85
3E615
3D855
3F575
3ED9E
3E54D
00D5F
00068
01497
3FE72
3DD3F
3E8E4
3ECD9
016C7
3E716
3F44B
3F814
3FA27
3ECAC
00379
00A14
00AFA
3F90A
3F0AC
00231
0029B
00041
0061B
007E1
00297
3FF86
3FFAF
3F46C
3F681
00425
3FE96
3FD5B
3FA7C
006F9
3FC67
3FFD6
0044E
0056B
0023C
004B2
3FF62
000C0
3FE71
00946
004D8
002A8
005B1
3FBE5
000FA
3FABF
00CA3
007A3
3FCE7
3FA27
001E0
013BE
3F108
00269
3FF80
0041F
0026B
3FF8C
01A4B
00160
0033B
3F45F
3FCFC
01117
3FD4B
3F1E5
0042B
3EFDC
0028E
00341
3F88A
3FC1A
0028D
3FA96
00AEF
0135C
006F0
3FB85
3FEDC
3FF92
3FC7A
3FE19
3FFE0
3FDA1
00019
3FC8C
3FF5E
3FF42
3FDA4
3FFD4
3FF98
3FEA7
00209
3FF14
3FAFA
0122F
00AB0
3F780
01966
3F32B
00D63
3ED49
01870
00384
00144
3E217
00C13
00392
01521
011BF
3F2C4
00154
3FCE4
010CC
00C77
3FDEB
00121
3F429
00A00
01E9A
001C6
3E6DD
00E8F
3F16E
00C22
00871
00559
00ACB
3F390
3E9FB
3E9E8
029A4
3FF82
01FC4
012B6
01628
3E383
3EB04
00483
3F05E
3F685
3F8EC
01394
0051C
3F9B2
01120
00579
3FC6F
00938
3FB71
3F77D
0148A
00367
3F319
01363
3F834
004B9
003B5
0006A
015E7
00B6A
0120C
00DE2
0096C
00B95
00066
00B9F
00419
002C6
3FA2A
3FECC
0050D
008CC
01668
0002C
0053D
000CC
00731
3FE4B
001E6
001F8
3FFCD
3F702
005A9
00275
3FD8B
3FC27
3FCBE
3FFCB
3FD9D
3F25C
0094D
00E6E
00D79
3F990
00100
01ECD
3F862
01771
021DE
0009F
3F7EC
00BE3
3FB84
01450
3FDCE
00D60
000E3
3FF3F
0014B
3FF68
3FF33
00142
3FD35
3FEF4
00461
3FE0F
3FE95
000E7
3FF61
001FA
3FD78
3FB35
3F625
3FB1E
3F724
3E722
0154D
010FF
00542
00342
02C6A
00342
3F50C
016E2
3E127
3FF38
3EB04
01132
0021F
3ECC3
3EE72
3CDFC
02BDA
00241
01C3C
008FB
013DC
3E63C
3DE75
3F6AC
3E1FA
3E91D
3FE5D
3FD0C
3F713
00263
000E7
3FDF7
3F90B
00A1A
3EE43
00AA7
01862
3FFBB
3EB51
011CF
3ED0C
002C9
3FDE4
0043D
000BC
00394
3FFEB
004D2
3FF7A
3FF5D
00041
3FD76
3FE35
00486
000F2
3FF93
000C7
00049
00373
00392
0009B
00489
00050
00260
0006B
3FF93
000E2
3FDF6
3FCEA
0057C
0022F
0002C
0012E
3FFDA
002E7
003AB
00048
3FCD8
0012C
3FE8C
0061C
00006
0079F
3FB49
007E0
3FA17
3FE9B
00138
3FDCC
3FF6C
3FEFD
00382
3EBF4
3FC15
0055B
3E645
3F11E
00C05
3F5C2
001FB
01A6F
3F771
3F93B
00D4D
3EC8F
00006
3EB4A
00ADE
0095B
3FC8E
3F1DA
0001A
00F88
0072F
3FCB7
3FF5E
3FF3C
3FCB8
3FFF1
01006
00367
00201
3E9FD
3F45A
00EF4
3F960
008EA
00D73
3F0F1
3FD9F
3E26C
00B03
3FB27
3F048
3EB48
00229
00620
006F2
3F6BC
3D6A9
00C50
3F2C9
3FD1B
0006A
005AF
3F9F4
3F62E
3FE11
3FAC0
3ED6C
3F4A8
3FE13
000D0
3FEDC
3F398
3E0FE
3FC6A
3F67E
3F368
3F8AB
01519
3F96C
01147
009D5
0119D
3EC44
3F4A1
000AF
3F90C
3F692
3F8D7
00BE2
00730
3F798
3F2E9
3F529
013AF
3FE2A
00980
000F9
005DA
3F21D
3F92D
008D9
3FA55
3FB32
3E28C
3EEC0
001BB
00435
00292
00B63
3FF25
000CC
3FFC9
0018D
002D1
0014C
3FE3F
3FFFD
00173
3FE5C
0039D
00280
0025C
3FFD5
3FB4B
00248
0041B
002E4
000E0
00131
000D4
00010
3FF95
0031A
000E7
3FFAA
3F783
3FEDD
015A5
00BA6
00468
00FE9
00A74
01288
3FD4A
00419
005D8
00217
3FE9F
00017
005FC
00909
001C5
3F48F
0001E
3FECF
3FF3D
00166
3FF01
000AF
3FC19
3FEF7
0009C
3FDE5
3FF38
3FFDC
0004F
00061
3FADA
3FA51
01838
0034F
3F272
005F9
025FA
00E38
3FC3C
00C25
00C41
3F5DE
3EFA7
3FC92
004B5
00DF5
3FE16
3E99B
3F8D6
3F4DB
3EA7B
3E9E6
01D35
3F505
0133C
00FE3
0193E
3E4F2
3EB21
3FA2C
3EE6A
3F53E
00211
0114B
00F62
3FCD1
0085F
0096B
0000D
3FCD9
3F317
0049E
00B17
3F7E5
3F137
3FAB3
00088
00A3D
00668
3E613
00080
0045A
00075
0028A
0005B
0012F
00058
3FE40
3FF1B
004DC
00112
3FF95
0014C
00075
00261
00392
000BF
004B5
3FFA7
00222
00075
000BA
000B8
3FEA3
3FD86
00609
00247
00061
00173
00088
00376
00459
00B3B
3FCB4
3FD9E
3FFFC
019BD
005DD
013EE
3F7E1
012F0
3F0D2
3FD9D
00FBD
00329
3FAAA
3E878
009EC
00E5E
3FBE1
001EB
00447
00162
00096
3F9A0
3FE15
0058F
3FEC3
3F5CD
3FCBA
00104
009C8
0074D
3EB19
3FFE4
3FC72
3FEE7
3FFFE
3FEDA
0006B
3FD38
3FF5D
3FF4D
3FD9C
3FFFB
3FED8
3FD97
0021B
3FB87
3FB3E
3E88D
3F24E
3F4DB
3FA12
3E820
3FB56
3EBBA
007C1
0025F
3E6DE
3EC15
003DC
3F81E
3EDE8
3D930
3E7E8
3F2F0
3F693
3F7A1
3F89F
3F48C
000FC
3EFB0
3FF96
00556
3EF62
3F2BF
3FBD9
3F96E
3F349
3E9FE
3F13F
3FC96
3F783
3FB98
3FA00
3FC08
3F9D2
3FF14
001B0
002C4
3F6C3
3F9A9
3FDCE
3F963
3FB6A
00110
3FC5A
3F76A
3FAFD
3F5A0
3FA99
3FB96
00127
3F74D
3FEA6
003E6
3F6B1
3FAB5
3FA44
3FC0A
3FC7C
3F621
3F76B
3FFDF
006BF
00179
00148
00069
00489
00049
0016A
004C4
00320
3FCBC
3FD51
000D6
0014E
3FFE1
00318
00089
3FF06
000B0
000CD
005CC
0000A
00733
3FC8B
004C2
3FD1F
3FE94
3FEDD
3FE22
00041
3FD5C
00566
3FDC2
00820
000A6
0082A
00047
0081F
3FF4C
003D9
004F1
3FF2F
3F9FE
3FCE4
000EB
0029E
3F971
00438
3FE33
3FDB3
3FF62
00003
3FCC8
3FED8
3FD63
3FEF3
0007C
3FDBE
3FED0
3FF4F
3FF22
3FF9D
3FCD6
3FCBB
3FF6B
3FAC8
00273
004FB
3FA82
00522
3EC9F
3FD37
3FE1B
3F730
3F4D3
3F99D
3FD43
3F7F0
3F135
3F7C0
0040C
3F765
3FB8B
3F718
0032F
3F66C
002BD
3FEB8
00840
3F3C3
3F645
3FD9F
3F6A6
3FD38
00CB3
3FD45
3F5D2
3F828
3FCF1
3FD18
3F340
000EE
3F093
002BC
00130
3F410
3F4ED
3FD7C
3FC76
3F6AA
3EE58
3ED9A
0006B
00454
0000E
002A8
0001E
001AB
0004D
3FE7D
3FF52
004F3
00112
3FF95
00154
00067
001CA
00393
3FEC9
004E8
3FE6A
00190
3FF0F
3FF68
0008B
3FE5F
3FD41
0061E
0024B
0008B
00188
3FFEE
0041B
00468
3FF08
3FCD8
3FECA
3FDB2
3FD27
3FEEE
3FC6A
0002B
0003D
3FE4E
3FFC0
00053
3FE10
00068
3FC2A
3FB39
3FB57
3F922
3FAF1
3FC64
3F97E
3FF2D
3F6E7
3FC0C
3FE6F
3F9B8
3FA69
3FC9B
3FC50
3FE69
3F91D
3F27B
0007B
3FC6D
3FF00
00004
3FEE0
0006C
3FD39
3FF5D
3FF51
3FD9A
3FFFB
3FED5
3FD85
0021E
3FB24
3FB3E
3E2C9
3EEF2
3F402
3F895
3EDAB
3F29D
3F371
004C3
008D0
3E510
3ED1F
3FE6B
3F3E2
3F128
3E0FB
3EE39
3EE5F
3F2E7
3F9FD
3FAEC
3F18B
3F306
3F552
3FF45
0046F
3F120
3F2D8
3FFBC
3F816
3F72C
3EF23
3F196
3FE5C
3F80A
3FD5E
3F93D
3F617
3F885
3F6D1
3FB85
3FEF6
3F840
3F7DA
0003D
3FB7F
3FA71
3F95D
3F388
3F743
3F743
3FD09
3FD1B
3F367
3F965
3F900
3FD71
001A8
3F994
3FD25
3FE23
3FC93
3FD7E
3FF12
3F64A
3FFBF
002FC
3FF64
00160
3FF9E
3FEDC
0004C
3FF14
00488
0032D
3FCB2
3FD38
000B3
3FF7B
0024A
00340
3FE64
3FEF7
00388
00418
3FA9C
00065
3FB72
3FB03
0000D
3FF92
0020F
3FD8F
0011D
00236
00270
3FEAC
00082
00007
00AB8
0072A
00087
3FF59
3F8C9
3F871
003D2
00034
0030E
3FC9C
00524
001C9
3FFB3
0034A
3FE12
3FCF0
3FFB1
3FEEB
3FD21
3FE53
3FD0A
3FE41
000B2
3FDC4
3FF59
3FF43
3FF61
0002A
3FD67
3FCCA
3F76B
3F295
3F6D7
3FE15
3F2BC
3F891
3F794
3FDB1
001DE
3F6CA
3F7ED
000D7
3FD16
3FF56
3FB32
3F756
00857
3F820
3FC76
3F5B6
3F5CE
3F792
3F446
3F99E
3FE0E
3F915
3F6B7
00844
3FCB4
3FB2A
0055B
3F064
3F15E
3F328
3F972
3FCF2
3F261
3F5DD
3F581
3FF7F
00393
3F419
3F5F0
00130
3FA13
3F90E
3EFFD
3F20B
000B1
0034A
005C1
005D1
3FE9E
3FF87
3FBCE
3F89C
3FF2E
004F9
003BB
3FD3E
00291
3FFBE
00413
00399
0023B
00074
00E9A
007A2
3FE70
0000B
3F8B4
3F719
3FE05
005F8
00519
3FD0D
00443
3FFF2
004D2
0044E
3FF14
3FCD7
3FEC7
3FDEF
3FD96
3FEED
3FD21
3FE9D
0003F
3FEE4
3FF30
3FFBE
3FE32
0006B
3FCC8
3FB38
3FC16
3F828
3FC6A
3FB60
3F801
3F996
3FA50
3FB00
3FEEE
3F9D9
3F9C8
3FDA7
3FC4A
3FDED
3FA2E
3F3DD
0007E
3FC6E
3FF00
00004
3FEE0
0006A
3FD39
3FF5D
3FF51
3FD9A
3FFFB
3FED8
3FD84
0021E
3FB24
3FB3E
3DD53
3ED09
3FA56
00142
3E62D
3ED6C
3EED0
00CDC
0058C
3E446
3EEAF
0000F
3F21E
3F206
3DFFE
3E982
3E547
3EF22
3FFAB
00625
3EEEC
3F06F
3F2CB
009D9
00203
3F0E8
3F3F7
00319
3F554
3F709
3E61D
3ED8C
3FAC0
3F813
3FDC5
3F9FF
3F6C9
3F7EE
3FA21
3FBA4
3FFBE
3F948
3F83E
3FE2E
3FBE5
3F9A2
3FAFD
3F403
3EA26
3F27A
3FFB5
00CB8
3F4B5
3F793
3F300
00A73
3FFC7
3F81E
3FF27
006FD
3FA2B
3FD51
3EA48
3F332
3FEEB
00310
0016C
008E4
3FF1A
3FF37
3FD2B
002C5
0019B
002D1
3FE1F
3FD01
3FED0
3FF9A
3FFF4
00252
3FB3D
3FEC7
3FE5B
00666
3FF2D
3FFBA
3FD8E
00200
3FE3B
3FFFE
0021E
0022B
3FD96
00203
3F9CA
3FE74
3EFC2
3FCB4
00835
01327
3FAB2
3FF6C
3F7D1
01178
0018D
3FF5B
0058E
00626
3FF25
0021C
3ECDF
00309
3FBDF
3FCD0
3FF71
00271
3FCA1
3FE1C
3FCB5
0007A
00083
3FDC1
3FFAF
0001C
3FEC1
00020
3FBBB
3FC57
3E990
3EE99
3FFEA
00BE3
3F531
3F459
3F308
007FA
002A3
3F7B0
3FED0
006FD
3FB79
3FE48
3E8D2
3F5C3
007C1
3F88E
3FBE2
3F43B
3FF90
3F6C5
3FABE
3F8AB
3FF36
3FA43
3F502
004CA
3FC89
3F956
3FAC5
3F23D
3F5EE
3F2C5
3FE7C
3FA90
3F22B
3F3AC
3F366
3FC6A
0033D
3F4C4
3F7B6
3FD54
3FC13
3F8D8
3F40B
3F0A4
3F59F
001D0
3FF24
0108D
3FD4B
3FEED
3FC84
00A6C
3FCD0
00300
3FFB4
001F9
3FC63
0000A
3F675
0038B
3F2A9
0026C
3FAA2
01944
3FA53
3FF78
3FFD6
0104A
3F9BD
002A8
001A0
0068A
3F762
000C9
3F28A
003FF
3FF20
3FCD8
3FECA
3FDF0
3FD9A
3FEEF
3FD20
3FE9D
00040
3FEE3
3FF31
3FFBE
3FE1A
0006C
3FCBF
3FB38
3FCBF
3F5DB
00041
3FCDB
3F802
3F7E0
3F72D
3F91B
3FFCA
3F99D
3FA53
3FC2A
3FE54
3FE00
3FAF7
3F44A
00041
3FC72
3FF00
00002
3FEDD
00062
3FD33
3FF5D
3FF51
3FD9B
3FFFB
3FEDD
3FEAE
0021D
3FB3E
3FB3E
3DB58
0455E
068DA
05139
0213D
3FB02
090E7
02B3E
38354
0779E
00D01
3F35B
0238A
3EDC6
096F5
2FD76
0108E
07332
07F9D
04C9D
02728
3E0BF
08A13
3ED23
38505
095B8
3FE44
0015A
013E1
00E73
09C4D
31292
02020
02804
00510
3F5DA
0177C
39A80
003DF
3C85E
3E493
01EB9
3E566
0128C
3E97C
02187
3EF1C
3A27A
025CA
05459
072B8
02F6C
3F8A5
3C7D4
06194
3F1E3
3CD10
08A27
3EC4B
00819
01217
0308A
03D6B
3A3E4
001B8
3F393
0073C
3EC88
3CB8A
01CCD
3D59D
0018F
3EF02
3F5AF
3F733
01822
3EFA5
005CC
3F34C
3EBF5
3E2EC
01B95
01FF2
01B9A
01686
00803
02DA1
01E3A
3DA24
027D4
01469
3EDD7
3FCD4
3FB05
03E19
3B506
3E591
0049B
00A80
01DDC
3F1FA
0103B
3F414
3ED66
0115E
0292E
3EC24
030E1
3BBCA
01EFF
3E12A
3FF8A
3F746
00ADD
0170C
00B15
00680
3FD8F
0172A
007D0
3F02C
01AB8
0015A
3FA10
3FBBC
00317
01912
3E110
08EB8
07974
03424
06059
00384
31BAF
3F296
3785E
3FFE0
038A8
3C3E9
01AEB
3C043
0B29F
3F768
065BF
09A1A
01340
3D4E7
3F1EE
3ED7E
36704
3C0F7
3516F
0770D
01696
3B3B2
04049
3BEAA
09578
32A7D
0E802
001A5
00D2F
006A0
01094
3FE1A
3D120
0015E
3EBFA
3EA2C
003F4
3F2B7
00DE0
3FB0F
3F492
3E8D5
3B85E
00C47
3F8AB
003A8
03255
38711
01135
010BB
3ACA8
00BF0
038A9
0224C
03F38
396B5
0337D
0314F
3E19A
005C9
3F586
0023E
3DE6A
3D0E2
02CEF
3E7D0
3EE31
0194B
0081D
3D3AA
032FD
3C6B8
005EE
3E2CA
3F507
3FE79
3FCE3
3FEA3
3FDD3
3FD5C
3FED6
3FD47
3FE9B
0003A
3FEF8
3FF1A
3FFC7
3FE10
00050
3FDC8
3FB5C
3E623
0001D
3FEB9
02264
00874
3DAFC
011C6
0024F
3ED74
00A65
00DA2
3E857
3E87A
00559
3F265
3C729
3E480
3F1FD
00BDC
019BC
00C2E
3FA81
00774
00EC4
3E7A1
01DC0
01882
3D72F
00328
3FFC8
01964
3D876
3864F
3D406
3FE6E
00DCC
3CFB3
3D8E4
029A5
07CBB
3C6BE
039A8
008C2
3BA1D
03638
3DFF3
0604C
39FBE
3E0A2
3EEBF
3E8B5
3D49B
3AA72
3E61B
3DF7F
018C6
00D3C
3D98B
3D075
3F498
00FBB
3F9C5
01A82
01B52
00F66
0222E
3D372
3D0D8
014ED
3A3BD
02744
3CF48
001BD
050BC
3E396
046D2
00C02
3B2C6
3ADA5
39EC2
3C1E4
3DC39
3A7ED
3966A
3EB5C
01367
3D590
019C0
00A62
3B4FF
3E319
01681
01DC9
3C9E5
3AC0B
04801
02E40
3EC90
0069A
020B9
3B647
009A0
0072A
3FB91
01E5D
3D4F8
02959
04BCB
3C6C4
3C9C1
3C46F
01BE5
3ECD8
3F4A8
3FBA1
3D2EC
3E728
3F274
3D5F1
01290
03132
3D4C0
3EC11
3DE7B
00C90
001E4
00C99
03F9C
00004
053E0
02848
3FB0C
0427F
3DE8C
05BFF
00181
01922
04AD8
006BA
020D6
3DC9F
028BC
3E329
3DA47
3E7BB
00003
007F1
3DDF1
3FF6B
3ECEE
3F840
00CB1
0122E
3FF8E
3EBF6
3EFD0
00197
0085C
3FE86
007D7
022E3
045B2
018DB
3E087
05839
03EBA
003D0
022B2
00DA8
3F10D
3EB29
0095D
3E4CE
3CF7A
06979
39EAE
072A3
03BE2
3F807
3EEF6
04BD3
3FFB9
00156
38886
0261F
012ED
00DCB
07785
3D7D5
3CBD3
36CF8
001EF
3F879
0132F
00173
00C03
02D78
031DC
00AA0
04336
3BE35
01F88
02F15
3C7F0
3EA5B
02FF5
077E6
391EB
02716
00A6E
008D9
01209
05EF8
02E7C
3C4C8
00F43
3CBEF
01B75
00F00
07B84
3CC38
3EA21
3E450
3BEA0
045B4
002FC
0435C
3FA70
058B2
00CA2
3C4A9
3D2B0
3EB4D
3DBE2
007FF
04CD5
3F345
3F7C3
040BD
3F2D1
3A8D5
005C1
02363
00129
0146A
3F054
01E7C
005D3
3D3B4
02283
3ECC5
3EE55
00335
3B87B
00584
37DB5
3B306
3D547
01F48
3F71D
3A1B7
3DACC
39F45
029AB
019D4
3E2A2
00273
3C5E2
3F1EC
3EDAE
03817
3F9F9
3FBCA
3C240
028CC
3FB9F
3CD3C
3D286
3DAFC
02C94
3FC30
3FB7E
00697
3EA12
0018F
00833
005AD
0321B
3DF8F
3CEBD
00FD1
3E31C
3D991
3CDD5
3E3FE
066D2
032A9
3F8BF
3F4AD
3B081
02235
3C6FA
3FB59
016D2
3D9E5
3F579
02550
3F875
3D924
3D483
3FF33
00CB8
02307
3FFC0
3F092
3E8AB
007C8
3EA4F
02B60
3F25E
3CE7B
01041
3E6A4
002FA
011AF
3EBA9
00995
3CD99
0187B
0390A
015FF
004FB
00FB6
3E09C
3EB08
3D455
3CC70
01691
01F3C
3F9D6
3F9F6
02B7F
004FF
01C27
0122E
3EEB4
3D4E8
3F9F2
0120A
3DC81
032DE
00328
0308C
3BE31
3E1F3
031AE
3DCD9
01028
3EB6D
3C38E
0045F
00222
02804
043B9
00EA3
016E9
3F72B
040A1
3F1D5
01952
02C4A
000A6
00A14
3F51D
001CB
01522
018DD
008B0
3D8CE
3FBF4
3F739
01485
006C8
01059
3DECF
03EE6
00A47
00DC3
012A3
3C580
03A07
3ECA0
0362A
000CF
012B0
3CEDC
3E6E6
01D68
3C4D1
3EFA5
3F3F1
00AF0
00A1B
3F3CC
3FDA1
3E9B1
3FE10
0074F
00AAE
0073A
3F058
3F776
3FEE4
008BB
3F76D
000C6
003C9
0093B
0385E
3D2AD
015BD
00B1F
3D2AF
02735
014AE
3FE86
3DD5A
3F127
3DC20
3F787
0419C
016A2
01BF7
3E75D
0120B
03D5E
00B19
01915
02CD7
3AD0B
3E4EE
018D1
03106
0537D
0052E
3C591
3D64C
3E162
007DD
3EB76
3F937
3EA22
3A066
014C1
3E908
02533
3EAAC
3CF10
3DCE4
3EF4B
02C65
3EDD3
00FD3
01535
01576
00B1F
3CDE1
017D5
0320B
057AE
3E8E1
3EBA6
39CAF
02134
3F2A9
05BA1
00594
00F77
3E02E
3C68B
043E9
035D7
0261D
00934
038CB
03317
3E72A
3EA2E
39F25
3FA98
3D077
02E28
3FE49
3FFFA
0206B
3B5BF
3981F
3F614
0337F
3C729
3E0B7
01DA3
3C125
3EC0E
012A8
044BD
0040E
3CE49
016D4
36914
017BD
3866D
0121F
3F104
3EF16
000FF
3648C
3BFE5
3FD62
00D63
3F5C5
0121D
00EB3
024D6
0236A
3DD83
01218
03660
020FE
3CA93
01F94
04DDE
3EC06
392E5
3B9E0
01A92
00D43
3E485
0024F
3F1BF
3F3CE
02642
01133
025E7
3C59F
00EF2
3FF8F
3EF37
0001A
0137A
00EA6
02572
3FF49
019AA
00977
017C6
0175D
3EA22
3F7D7
01182
0218B
007B0
031CF
3CDDE
0460A
3E7FA
01908
021C7
00785
3E245
3E93D
3FC5C
01357
3F412
3F1C3
009DE
3C333
3EDF3
00522
3EF21
02EE1
3F514
02405
00A26
3FB0A
3F94D
3F8BF
3E752
0251D
3AB25
3D271
3E265
01722
00B7D
037AB
3FCE5
3CA83
00EB8
3D6F2
00E1C
00847
01694
3EE7D
3EEA7
3F454
00DE8
00FA1
3ECC0
03DF0
3D530
00018
025FE
3D6AD
019B0
3E4CA
3C169
3DB17
3EFE9
01A29
0493B
038B8
024A1
02886
3FC42
00CF6
00544
02070
3FD3E
00BC3
3FE63
0093B
019E7
0104C
00AEA
3E046
3E02E
3F552
00BCA
3F37B
00DEC
3EF7C
0097D
3E635
007AF
01387
3B994
03362
3FCE2
02E8E
00C26
0287E
3D173
3EC58
3F771
3DDD2
3E19D
001DA
00277
01636
3FBCD
00AED
3FB52
3FC23
00642
003FF
011C0
3FEC7
3F128
3F624
3FC2A
3F50A
3F9D4
0271D
00EE4
0212C
3A719
01E25
3D599
3D270
0171D
03ADA
3FC14
3D40D
3FC8A
3D91C
01D22
00CAD
0260D
020D9
3C762
3EF73
0275D
3ED31
3DA7F
0068B
3FD78
3EC50
3EB45
03EDA
00F0E
03852
3ACEB
01330
00A18
3F13D
005A7
014D5
3D2E2
3C920
3E0BF
3F757
0290C
022E7
3EF49
3E09C
01435
00EAE
3E8E1
01B66
00BA1
0003C
00E09
3CCEB
00F9A
3E50D
03C0B
3F7AF
3F4D6
3D8B7
01181
00A5F
02196
02C4A
006B4
00B57
3D90E
02062
018D2
02F48
3D883
3EB68
02736
03EF1
3C014
3B2BE
01E7B
3CCE0
3F8A9
3F762
00AD2
02B20
3B3EF
3B80F
3EDE0
042B6
3EFBC
02E1A
03A12
3A642
004F6
0262C
00212
3E2B4
3C439
3CB57
3BC3C
004E0
3CDBC
01EE6
02623
3F5BB
0293F
3BDCD
3E021
3FC92
012B4
3FEF3
0034D
3F777
05312
01BE9
002C8
0150A
02304
01778
3E038
3E2ED
0250C
0042F
3B348
3F5A2
03F90
3FF28
3EBD4
3DE83
015C4
032E1
3D9FF
3E368
0437A
0071D
0389A
02BF4
3E32F
01AFB
03060
013A4
02F13
0208C
3FC8C
3E94E
3F275
0075C
3F588
3DEB8
3F6E0
0254B
007BF
040F6
3C5B7
00B40
01AFF
016B3
00E37
000A2
000AB
3BDA0
3DB48
01F91
3CDE3
00514
00B89
3FA51
3F886
02933
00B50
01F68
3E251
3D734
3E3B5
01BC5
00934
3F03B
3AE9C
00B71
3BA94
3F8CD
00003
040B3
3E30A
05551
007E4
3C5D5
02C19
3F1D0
02219
00D46
3EF41
3D76A
3E898
00D3B
01416
01060
3F18B
02DE9
3E938
39FD9
03259
3DCA2
007F9
3D019
3E1E7
3E7B3
3B2BC
013AA
049B4
02CF0
002B8
00EFF
01929
02989
0028B
0199D
3FEF6
3FD36
3F122
00532
3FD71
01DBE
3F2B1
3EC4F
3F5CC
3F8EE
3FAEE
001D7
0160E
3E29E
3E569
00715
021D0
0381D
3CAD7
3EBA5
0337B
3E7F0
3EDE5
01BFF
3E25C
3C7E8
01741
3E448
3F0AF
3FF3D
00231
0174B
00692
3FCAB
3EE5A
00002
3F4D5
013B4
01054
3FF32
3F91F
3F318
3F66C
3F704
008BE
01C5A
3FB29
01260
0055B
0044E
3C819
0059C
02A5A
032C5
3DC5A
3BD6E
3E46B
3D27D
3FCC0
3FEE3
034AD
02B89
3C07D
3FE35
3EA5F
3E585
01879
3F1E8
045C4
3BA9D
3FD2D
03313
02555
04735
3DDBF
066C6
011A9
013A5
0015C
05B15
3E1E3
02305
3E36E
3F842
03367
022B1
00046
00C00
3D02A
00F31
0060F
01C5A
0268A
3EF14
3F79E
3D61C
00897
3F24F
03F40
3F5CE
3D09D
3C641
01F5E
00D57
0023F
019FC
00F6B
01112
3CB9B
04220
030ED
0680C
00757
3AF9D
02CC9
3FEAA
3AE76
3EE01
03B7C
01EAA
02452
3DAF5
0073C
019FB
3BFC1
3E2DD
3C47F
04C6F
00776
3EA6D
00687
3E10A
00BEA
0425B
3CD9D
3E19F
3C17D
3C062
3AAA4
00FAF
3F92B
01733
0210E
3EC2D
3E94A
3ED08
3E946
0203C
02843
3C98E
3E5A1
3FBF5
04610
04E80
3E06E
3F206
02293
3C37A
3ECBF
3CB99
03420
03366
3C6F0
3F870
02F01
01067
3F78C
006BE
3FDDF
035CA
01706
00EA8
054FE
00ED9
0028A
04F97
3F2B8
3F3AA
02E55
3F381
3E587
0237D
0553B
3E16F
3CD5A
00C87
3EA32
3FC72
3F5D8
0010C
3FA18
02701
3F159
3FD1E
3F802
3E315
00C0A
3EE29
02FD3
3DD37
3F3F7
3F4E3
3FC41
3FE28
3E718
3DEA5
3FBDE
0246B
02911
3DCCD
3E3D2
3EFC2
0034F
3F910
043B7
3FBA1
3CBA9
3FFCC
001EF
00D35
3EEB3
05113
3E9F5
0085F
3D8C1
3E5D7
03819
3DC4B
001A3
00154
3F2B0
3EF03
3EE16
0101C
3F630
02C43
0045B
3DDB0
3F9C7
36972
001BD
010E6
3FEF8
04BB4
01A3E
3CCA6
3C134
02652
027AE
06F3F
3EEC7
008E8
01D67
00BEE
00A3E
01220
3F076
00BDE
007EF
3F0EC
006DD
0104B
003E8
3FD4A
3F76F
3FFC9
006E2
005FD
00318
3B605
3F4D1
3F1E8
02DDE
3F082
39C1A
3E613
3E417
030F1
3FD78
011F8
3F2F9
3B5DD
0422B
00085
3FE4F
0045A
3FD2F
010EF
00BB8
3F954
3FD1D
3ECA3
3F596
0119C
015DD
001AF
3F47C
3ED19
0012F
3F921
3FBDE
0134A
00D58
03032
3DB94
0111C
3BCA4
001EB
01A7D
01E09
3EC11
3E8BC
0009A
3C149
3F7B2
014B4
3F307
3FCBC
3DDB3
3E2A5
3BDDC
3FF08
02014
3F929
04E51
3F421
3CF64
3FCAA
02FC9
03D97
3FE11
032AA
02C30
040DD
3F105
3FA23
3D6BD
00EB2
3FA2B
03D0A
01B2B
00B56
3FEDF
3D9D1
3FF2F
038FD
3EA66
00863
04410
00E06
01376
00677
3E8E1
3CBFC
01889
03131
3E6A7
3E9FB
01166
02C52
00855
036E9
3E485
3E9EB
3D153
047ED
010D8
051A2
04EA6
3CBE0
02AF0
03BD1
01531
3E5DC
01C90
3F643
0062C
3DED4
3F8F9
00B4E
3D630
0143F
3FB6C
06FA2
02D41
3BBDC
0139F
3D2CA
3B290
04A90
01748
3C46C
3A0F3
3C002
3BB52
3D890
3CDB8
01A0B
3EAD3
3DEBE
3E339
01B72
007A5
00CC2
0409D
00659
3E845
3F634
011FF
0278B
3F43C
3F7F7
02148
3BB00
3D337
3B310
004DA
031CF
3D088
3E142
00787
01569
3F5F3
01AA0
013B0
02699
3E76E
009A0
05690
009B4
3E9DE
03CCF
3FE3E
3DA4A
02294
3B7AA
3E91F
3F4FC
0307B
3EED6
3F3A6
3FBF8
3F54E
02776
00E47
006CA
3EC80
03600
3E1A2
3EAEB
011EF
3E0F8
3ED3C
00C64
0168E
3BDB6
003FD
3F555
3FFD0
03EEF
3F0B4
3CD64
3F4CB
01901
03588
3DBB5
00391
3B437
0217A
00D3A
3F408
001E4
3F0F0
3E465
3DE49
012E4
02D95
03C98
3CAFE
3D829
3DA07
3B4DC
03622
3E750
3F08D
3FF72
0023F
3F5DE
3FF8C
0258E
01A69
03092
00095
3EE60
0538B
3C485
3EEC9
0265D
022D7
08AD1
023FA
3E2A1
3EA92
02987
0117F
04C97
006F1
3EDE7
3F640
018A0
3F747
01333
010D9
3F503
003A5
3FB96
002A4
0197F
3F753
3FC66
3F469
3F924
002E0
00586
3F226
398C4
0027C
01152
029EB
3FD67
37DAA
00B36
02956
02BD5
00EDB
02B1E
005EA
3D955
02E7D
3F7F1
00C1C
3FCB9
3FEBD
017CB
00B50
3FE65
3F414
3FE0D
002CE
017D3
00A49
002BA
00101
3F5ED
3F6DB
000A3
3F5FF
3FE9F
3F1E9
022FD
00B9D
0140C
3BB69
00218
0199E
037E9
3F90B
3ED2E
01059
3E46F
00C3C
01243
00A1C
3DB91
00110
3D8A4
3AC47
014A3
00E02
3F5AD
02D7B
003A8
3DA0B
3FCB7
003A1
009D7
023F2
3F50C
02FE2
055C8
00E48
3D6D4
3B49C
01A25
02119
02018
3E9E1
005D7
3F3BD
3D062
3F89E
041CB
3E066
3F882
001B2
00E16
00A00
3DD0B
01F57
3CFFF
01A4D
03632
3F0EF
00215
010B8
011E2
00968
03C33
3B387
3E19D
0176C
06F35
3EFF9
02EC4
01FC2
3FF6B
03212
05D38
01720
3F3F8
3EFE2
3D32B
0000C
3F684
01161
01F8D
3FD14
02411
3EB08
055D3
077FC
3C496
3EE76
3F530
3DDC2
02E33
028C9
3C6F0
3F102
39D5D
3D898
00D6D
3EFDD
00AE9
0155E
3C66A
3F49C
3B0A1
3C5E1
037E6
00F8F
3F187
3F58B
3DE69
0066C
054ED
3DFDB
007A2
3FCB0
3DFDB
00BEB
3F538
00BD4
017BC
3DD54
007FA
3A26C
0151B
005D8
004A4
0126A
0092E
00243
00098
02329
01A33
3A870
00283
3F59A
3C416
05911
3B674
3EC4B
02579
3EC65
00CCB
3E560
3F5F6
3D7D0
3FFB1
01474
024EE
3F213
01F87
3DF87
3F8DB
030F7
3E514
3EB6E
015CF
01736
3EADD
00A22
3DFEB
3E7A3
01815
001D5
3DA03
3E0F3
00BA4
02A58
3FA7E
012BE
008ED
0145D
01CB5
3F8F1
02E94
3E59E
3EFAC
3FEA8
0330F
040EA
060E8
3E18B
3E11A
3DAB3
3FBF1
0402E
3FE22
3D9CB
3EDF4
01709
3DC57
3D4CE
3F721
01296
0341F
3E509
3E408
05344
3F722
3FE63
012FF
3E76C
058E7
0179D
3E7AA
3DB4C
03609
008D0
02C02
020AF
3F5F1
3E4C8
013E6
3F4CC
00E1C
00FB4
3FB8D
00C45
00100
3F46C
3FC26
3FDBF
00839
3FF3D
3F88D
3F779
00180
3FE56
3A9E3
3F555
00533
01DB3
033A7
3B277
3FEE6
016E4
03226
3F2DB
0310F
0239C
3A9C5
001A8
3E807
01368
3FB03
3F6AB
0090B
00B9B
3EFCE
3F726
3F2D9
3FC0A
00CE1
00121
00E20
004BA
3EFBF
3F5AD
3FB35
00063
01741
01693
03778
00AAA
3FF7D
3DEC3
3F8B1
0142F
00FC6
00708
3FBDD
010E9
3CD27
001A8
00496
3DAE1
3D4D9
3D86B
3D839
3A1A7
012A5
3FF2E
021EF
03511
02A4C
3F7AC
3E552
3D788
01797
024BB
3F5C1
03FC2
04651
3CF9F
3E606
3BC96
00A08
02210
3F99C
007D3
018B4
3D7A6
3CB5E
3ED9E
01BF3
3DDBA
00D9A
00F13
010BF
024FD
3FA25
00962
00C0A
3F9E5
04D41
022B6
3F01C
3EF04
3AD29
3FA8E
3EDE4
3FE5D
02B68
3FEFD
0150B
3EFF5
3DAA7
038CB
01F76
3F523
04647
05E43
3D4DF
3C60B
3D3FB
01DDF
3D65F
017C4
0431B
00EEE
026EE
01A86
05214
0493F
3F80A
01FF3
01E0C
018A0
011E1
01641
024E2
005EC
3ED5A
3C9A1
00324
028EC
3F355
001F6
3BCC7
3CCC0
3F8E0
3D7D2
001FA
3E9E1
009EF
001CE
3E2FF
3C71E
02352
3EF7B
002DF
00886
3E60D
02BAE
01899
01CA5
3DB4C
3F30D
3E1C3
3ABD9
3DB61
3FFBB
3FD27
0022B
00520
00280
002E0
00F85
02DE1
3840A
3FF9C
00C59
3CB28
03910
3C868
3A64E
03F1A
028FC
01CD4
3DD68
3F700
3EFF8
01D4C
04083
015EB
3CDCD
3DA6C
3DC3A
3F163
0090D
3D633
3BE22
03817
3F622
0039A
3EF83
3F604
3E092
01AD8
01011
3C879
3D4FC
3C457
014DD
01171
010D7
3F01C
0076D
03B07
02BA3
0468D
3EE24
3EC31
020A3
0049A
05394
05FD6
3E2FB
00257
3F57A
3E92D
01B3F
00533
3D9CC
0152F
3ED8B
3F02B
3C61B
3FD3E
00390
011AB
3EBD4
3C572
0314F
3EC1F
3C692
3DC65
030F5
03187
03DC0
3CAB3
3C497
01407
3C60D
02C26
02A86
01BF1
3DA0E
008C9
008AB
00FE8
00070
002AA
3EC49
00622
0062B
00431
0117A
01605
3FF28
00219
3F730
3FE7D
3FFA3
3CF89
031B4
0447C
01299
00A36
3BDC1
3F746
02DBF
0071F
0154F
02903
01625
3CBBA
0359D
3E0BB
01965
3F843
3F975
009B5
00092
3FF36
3F63D
3FD99
003FC
00B95
00F18
00F5B
3FA4F
3F7A7
3FCDC
3FC1F
00E32
001C1
3FF70
02221
3C907
0229D
3A8C9
015D8
0327E
3ED36
3FFA7
0052B
014C4
3E3C3
3F9AE
0094B
3EBB4
3D23B
3EA53
3EC4F
3AFA7
3E3B5
00A91
3D238
03199
01811
3E73B
3E334
3B548
00C8A
02255
3EFA6
00E30
03784
3C8CA
3DCF5
3CC0B
3EB42
016D5
3FBDE
3C5F8
01706
3E525
3DA25
3F2BE
3FA9B
3F272
0071B
3EDDC
01854
010AF
3DBDF
3E6BB
01F99
01724
04E99
0020A
3E7C8
3F5D2
3F5D2
0240A
00708
00ACD
0205D
3E44D
048D0
0148A
3EE94
02173
03777
3E2DA
03560
3FC37
00E46
3F66F
3A726
02DFC
3E417
013B7
021F9
01C18
03E0C
016C3
026BD
06115
037BC
3FCCF
015F3
3EE37
3D3E6
0095E
019E0
04AEE
007D5
3D9F4
048A6
03E84
3EC8C
00E50
3CA85
3E473
0077D
3CFF4
01CB3
3CB2B
3FB57
3D2CF
3D71E
3F2D5
3EA8A
3F056
3E5AD
3D609
3E8B5
015CA
01552
3C47C
3D38E
3F513
01494
3960D
3EF73
00A84
02225
00335
00BDA
3F1E4
3E6E9
3CE74
02254
3C7EA
3E336
00CEC
3E4ED
010BD
3BF11
3B209
032B6
037DA
02823
3CB71
3FCD7
3EE32
3FD19
036B8
0033F
00A97
3F3D1
01D64
3E0CC
3F813
3C7C8
3C302
00E4E
008EE
004CD
3D528
3F587
3ED0F
0060E
02696
3DB8A
3DA59
3FEBF
3F686
02434
3E0FC
00145
00EAB
04F15
3ECB7
028E5
3D4F2
0022B
3FD8C
3EDD1
052DC
02DF4
00C26
3EDC5
3F1E1
3F172
3F7C4
00C9F
3E85F
3DE4E
3F451
3F1DA
3F67B
01599
017BD
0237A
3EC75
3E152
02CA1
01C4F
3D6ED
3D67B
0238C
028C3
023BE
3E484
3D25B
3F426
3D158
00578
3FFBC
01E12
3D7AB
00F62
00346
010CD
0069B
3FEBA
3F990
3F526
3ED9B
00268
005FB
3FA93
0051D
3FD9F
002C7
00C54
3F3A2
3F176
03490
3FAB7
018A6
01BF2
3E7D4
3EAF6
02540
02912
018A0
01780
02D94
3E26C
004C6
3E811
0299B
3FEE7
3FEF0
3F832
0024C
000F5
3FAB1
3F5A6
3F776
00C06
00746
006BE
0046D
3FE73
3F7B7
3FB93
00DD3
00D3B
01493
01CDD
004E3
00C96
3D6A2
00727
3E649
00177
3EFBC
010B0
00E07
01BEB
003B0
3F7EC
0156D
3BA10
3E12E
00005
3A89D
3EA9B
00F6F
3E467
041EB
02037
3E4E4
3E89E
3BC71
00FC2
02533
012A6
3FA09
01CDB
3D8FF
00404
3E09F
3EAC4
00636
00147
3FAE4
0056F
3FD4F
0096D
3F5BE
007D8
3F490
01B83
3E3FD
01759
00FCB
3FA17
3FB12
00B5E
005F5
02E54
3ED74
3E8A9
3E4CE
3E86C
00CA8
3FC86
000F3
0291E
3F22F
3F911
3E9D4
3EB7F
02000
03275
3E8A0
010E9
3F3C6
009C3
3EBA7
3ED44
02F88
3D0BE
016C4
02AEA
3FFB2
063C7
3F4D3
01B90
02DDE
018A8
3FB59
0051E
3E02E
3E5CC
02162
01B62
01A2C
01733
02B2C
04B80
02E35
3D09D
00923
3FFD0
3E0D5
016B9
00479
021DC
00292
00DB8
3FB69
0117F
3CC1B
00286
00E70
3E745
3D720
3E308
3F294
02E8F
3FAC0
3C6D9
3E478
3EE41
3A5D6
3C07B
02482
007F3
3F3E8
00A8A
00AB4
01C6D
3C010
01C95
3E5D4
3EDDB
01CDF
3DA7F
00D93
3D671
3A205
04069
0385E
3EA3D
3EF5D
3F86C
3DE60
0046F
03AD3
3FA4D
3E72F
3E0F4
3FD9F
3FA1F
3EB78
00E5A
3DB1E
3F8FD
01D81
00937
0007B
3FD04
3F505
01433
3FE80
3CBF9
3E764
3FA41
3BDA7
00658
3FF0C
00633
025CE
02D61
00C97
01E6E
3E325
0087B
3E366
3CF40
02D85
00C4A
3DD58
01573
00447
0028E
3EEDC
04375
00B22
3E721
016BA
3E9D5
3FA00
00338
02401
04323
3D302
3E602
0141D
00573
3C5CC
3FA1B
02030
0251B
03060
01C02
3C91A
01BA0
3F79B
3E639
01075
02C36
017FA
3F396
3FD74
00129
00C76
003E0
3F1C7
00A32
3FD34
3F2A3
0169D
00E03
3FD45
00464
00E32
00111
3F4AF
3CE82
3E8CE
02927
3FF1A
3F56E
3E474
3DAF9
3FC09
00D6E
0027A
01742
0151B
3DE78
00A72
3F821
006C2
3F494
3FDF5
3FD90
00630
3F938
3F7A1
3F968
3F843
3FEF5
00F81
0062D
00225
3FDFE
0033F
3FC9A
3FB24
3EE89
3F82B
01083
3F783
3FFE8
3DB34
014DD
3E696
3EDB1
0290B
3F652
3F7A9
3FBD5
3FF42
01401
3D49F
3A5B2
3EA80
00A3D
3865A
002CF
01BAA
3DF4E
04BC6
01A1B
3EB99
00FBD
3C98B
002BB
3FF33
3E2A3
0124F
00C6E
3EEF2
3FDDE
3D8A4
3F172
3FD4E
3F2DF
3EB59
000E6
3F149
3CF3E
002DD
00060
3D65E
00FA8
3FB0C
3C578
00018
3C4BC
3E27C
01BAF
3F3A7
01F2F
01753
02D52
3DE6D
3ED6B
0179A
3CB1E
00771
0075C
02AEE
3E89E
3F285
3CF30
02982
01530
3F220
03393
0042B
0007B
01B93
000C5
00996
3F966
006B3
3F740
02EAA
02E2C
3ECD9
01F4B
01FC7
02F0E
3C918
02039
00847
3DCA9
01F89
00A1F
00368
0146E
0119A
029A5
01FEF
3DD9E
3FB47
3FFD7
3D577
3EA38
3E56D
0081B
3F681
0087C
3DEC7
3EE69
3C6F5
3FC7D
3DD37
00D04
3DA68
024FB
00A86
02ADB
00D6A
3B05B
3CBE4
3D615
3EB0D
3D154
00070
00430
3FFE7
00F5B
3F07C
3F990
3CCC2
00663
3C9E1
002F0
01B3B
00A49
3F914
3D226
3BDD5
00556
039C8
0081A
3CE86
01109
0146D
002BB
3F678
01700
3D115
00CD2
00D03
3EEE6
3FAA8
3E3D0
3E346
3FD31
00C99
3F322
3E314
012A7
3FA9F
3FD29
3E202
3B973
3FEF4
3E57E
3BBED
3EF6E
00039
3F4FD
01884
04105
3F365
00825
3ED51
3F499
3FC26
3BFBE
00C5F
03371
3D628
006A2
3FE82
3DCAC
01C91
00C3B
3FEA7
3CD23
016F6
3E7E1
3D937
00E86
3EB8E
021BF
3FCA7
0039F
3FC6E
3FA93
3D964
0177C
3FBC2
0301B
03227
02368
3BF84
3DD01
3F8E5
3E895
01824
009DE
01390
0185F
3F860
00A75
00DBF
004C8
3FCB4
3FE49
00392
3F3AD
00505
004AD
3F1DA
3FF3A
3F246
00DE3
0015A
00535
3FFF3
00B25
022DA
01106
3D371
3FA56
0249F
01111
3F747
3F967
3FA27
3DB5C
3F319
3E5EB
00A19
004E9
3FAD6
001B4
00ACA
0007F
3F6FD
3FCF9
0019D
3F94A
00526
00066
3FB6B
3FCBB
3F91B
3FF81
3FF5C
0412A
00E1B
02D8E
04269
3F09A
3F7B1
02AF5
00E09
3EA2D
3F26A
3F817
0195F
3E7D1
3DE32
3FE83
3EF7E
39E5F
003EE
3EC64
39462
3D0BB
00CED
3ED04
0105C
032D3
3DA63
3EB7F
3DFAF
3E773
3EB81
3C9AA
00129
000D4
3F835
00A4D
3F75C
3E9B5
00B47
3DABD
3C982
3F626
0093E
3F240
0023B
3EE86
00510
006CA
3DFF3
0217C
3F643
3E8A6
3FE32
02A23
3E057
04171
01593
3F9AD
3E5DC
3F7E5
0196E
3F723
3F30B
3E029
039AC
036A3
0022C
3EB5F
01A69
03557
3EB3E
03589
03265
3FE3C
3EDD8
3F2A7
00C26
3F1F2
0038D
0041A
0547E
030BA
01756
3FF94
3FCFA
3EF18
001E2
00072
0121B
3E9BB
00F36
3EDF9
00D55
00D93
01252
3FD3C
01468
01689
00A32
00EF1
00221
3E114
3F622
3F32B
3EDD3
0070D
3F42C
3EFFC
3E61E
3EC1D
3FB62
3FB04
3D844
01EDC
010CD
00FFC
00759
3EC08
014D5
00326
3F94F
3F0B3
3F7C7
3F805
0024A
01354
3FB97
0192A
3C917
028F5
3C3AB
000D6
023EA
3F83B
3F729
3CC67
3E5D9
3DDD1
02209
0268E
3A69C
00DAD
003F4
040C9
006DD
3F39F
3E787
3DE5B
3EF3D
00189
3E57F
3E464
3E874
3E5B8
0081D
017E6
3DAC5
00306
3F943
00776
3EEF9
3E031
3F9F7
3F9F1
3E1EF
3E88F
00C9C
3F8FC
0143F
01354
3F548
3FE89
3F592
3F559
3EF97
3E842
3EF4D
3F93C
3F982
3FBF6
3DDEE
009B7
3E319
00C49
3DC32
0042E
3F980
00F2B
3DE9A
3F64C
00307
00A62
3EBA9
015BE
3F6FD
3CC30
3CEA4
0428A
3FCFB
04E02
0270A
01978
3D10C
3DF28
00B7D
3E64C
3F4F6
3F8FF
03C1D
3FB7E
3F9A3
00597
3F995
00147
3F85D
3FA95
3F957
0006D
3FE1E
002AD
3FB97
0038D
3FA28
3FDDF
3FD82
3F3F3
3EA49
3F246
3F210
00877
3DB78
3FE24
3FAF6
3F531
004EE
3FBA6
3E187
00BC3
3F584
00D61
3F953
3FF01
3F6ED
0017E
002B7
00289
3F7AA
3FCEC
3FF02
3FD1E
00368
00354
3FA03
00246
3FBB2
00297
0008C
00C27
3E1D9
00D08
00DA8
0141F
3D5EB
012E7
3D59A
3F83F
018F5
3FB3D
3F30D
024BA
3E634
00126
3D9EB
3C412
0057B
3FF46
3BF94
3C51F
00497
3F76F
3F9AA
02563
3E58B
3DA9E
3E478
3E3E0
3E6F2
3E875
3D4B0
0190C
3DDE7
0062C
00E9A
00D47
3E862
3EBC5
3E93C
3EC73
3FE6E
0022B
3DD38
3F50E
3FC7B
01471
3EECA
01B1C
00162
3D63A
3FFA1
037DE
00DD8
026E4
00B2E
0072A
3F730
3FAB2
00052
3ECF6
3F599
00374
032F0
013C5
3FFB8
3E981
0087A
0179C
00941
010CC
00C50
004BB
3FC9D
3E75C
00358
3F67D
3F506
3FB2C
0003C
01F1C
008FD
3F4EE
016B3
00B8A
00DC9
0092E
00203
3E412
000FE
0045E
001D5
01257
00431
0011D
00781
0108D
3F480
000E7
3F932
3EB20
3F4FF
3EAEE
3F576
3F86C
3DFC6
00659
3F429
3F95F
3F553
3F761
3D81B
01C72
3FC77
3F87A
3FB5C
3DC17
00386
3CE91
3FBB3
3F357
3E854
01620
3F6C7
3F818
3E2C9
3FC2D
3CCD0
00840
3D92C
02BA1
3F69F
3E8DA
3E79D
3C8E0
3DF0E
3FA33
00E41
0052D
3B302
3FEAB
3F844
03D51
3EC8B
3FFCC
3E804
00890
00037
3FF89
3F435
3EB9B
3EE38
014A1
3F577
3F020
3D7FE
3EFE8
3F75B
0204E
3EE9C
00213
0003B
3F905
3E3F3
3E610
01748
3FAAA
3F8DA
0117B
3EFCB
00026
3FC14
3F583
3EE31
3E765
3EA67
01178
3EF7C
01907
0051E
006AF
3F555
3F680
3FE51
00D06
3EE9A
3ECF7
3F38B
3DB46
3FB39
0143E
3D64E
01C56
3F926
3E539
3FAD0
01792
01E27
0154E
00F5A
00819
3F2E9
3EB30
3FE90
3F7AD
00B3D
01A97
01264
00129
3FD06
00078
001DD
009C4
001C5
3FDFA
0017F
0071F
3F362
3FE16
000F6
3F8F1
004A0
001C4
00351
0268B
3EB8B
3DD94
010D7
00D91
00234
3D937
3E621
3F904
3EA74
01E4A
3DE4E
3E164
00723
008AB
3F5CD
0012F
3FA15
3FE30
3FFB4
000C5
00041
3F8BD
3FE23
001E1
3F9B2
002C6
3FED9
3FB85
3FF2A
0040B
3FFA5
03A1F
3E409
3BEFD
01685
02B12
3F1F8
3FEFF
3DC52
3FBDC
3F62B
0131B
3EEBF
3E364
3F76B
00332
0096F
3F2BA
000BD
3ED9A
3D872
3D5FA
013EA
3FBEE
3F852
00B69
3DBA9
3D9B6
3EEF4
3E569
3F0D6
3EC41
3D8C5
014CD
3E219
3F633
3F8B6
00E88
3DC21
3F83B
3EEAE
0008E
3F958
3E33F
3DC7D
3E531
3F7D0
015F1
3F824
01AA7
3FAA0
3D44D
3F88D
04909
00045
023F3
0329C
0196A
3F4F7
3E145
00E3F
3E591
0170F
3FCAE
024E7
01B95
3FFAA
3EB88
000DD
02664
00C4A
0105A
002F8
00A2D
3FC70
015A4
3FEB9
3F608
01E53
3F4F0
00A27
0254A
3FD91
3F5A4
3EC9A
3F9E0
01BF2
3FEB2
3FB96
3FDBB
3F25E
00542
3FE7C
3FF5E
3E632
3F506
3F358
015BD
3F596
3E366
3F7F2
00623
009F7
00A75
3F047
0007E
3EDCA
010FE
3F90E
3F3D6
3EDBB
3F734
3FD7D
025E5
3FC3F
3F428
0174B
3FAAA
029D4
3F8C2
3D697
3FAA0
3EAC5
00D5C
3EE64
3EF66
0035B
3F133
3DB5C
3FEB3
3EABA
04594
3F834
3E0C7
3FD1A
3D495
3E774
012BD
3FE85
00B8F
3C6AB
3F8AE
3F80E
023B0
3E3F3
00A07
3F1CF
02849
00336
3DFD7
00134
3EB5D
3DFD1
3FF60
3F10C
00980
3E82B
3F566
00E96
3FF7C
3DD6E
00724
3FCC4
3FD72
3FD94
3F915
00A77
0055B
3F742
00E97
3EB84
3F750
3FA74
3FAB6
3FCF7
3F017
3F6EB
00F7B
3F0FF
01808
00278
3FC70
0009F
00392
3E612
00038
3EBBB
3FF3B
3EFF6
3ED7E
00FB8
3FC89
3F630
021E7
3FB0D
3EE9C
000FE
02033
0171C
011AF
01A19
3FD85
3F4F8
0137C
3FC98
0102A
01D08
011E7
01305
00FDB
001CD
00B85
000DC
3F6FB
001AD
009A1
3F8E3
005C3
00049
3FE18
3F8C0
00865
3FF89
3FFDB
3FE19
019C6
3F7E8
01039
3F8DB
029FD
01529
01B77
014F8
3FD39
3FD17
3E1BF
3E65D
00933
0255F
01367
00DCA
003E1
3FDA4
004E4
3FBB3
3FF2E
002E4
00213
3FDFA
0011E
3FC1A
3FEE8
3FC6D
00113
001D2
00010
0002B
00875
3FA53
3FF63
007C5
0237A
3F4AC
006C0
3E8D8
3E95A
0036A
3DF74
3FE19
3FC1E
03283
3FE63
3F454
00495
3F912
3E670
3E82F
3E0BA
0087D
00548
3EE3A
002CD
3E38E
3D1E6
3FDC4
3F987
3FCC6
3EED7
3EA12
3F81D
3E5D8
00EFD
3FE3A
3F13F
3F202
3D57D
3E2D8
00298
3F7C6
3E16B
3FC27
3E94E
00F38
00300
3E8C5
00E2D
3FCCB
00A28
00CD1
3FD75
0032E
00403
3FE02
3FECC
3FBAF
01071
008E9
005DC
00E45
3F0D8
3E88F
01993
00EC6
019BA
00844
00266
01AB9
02136
00064
3FEAA
3F980
3F59C
0006D
0189E
00613
3FE7B
3F774
01F57
3FD77
3F5E2
00D40
3FAD1
01A12
00A68
3E7EA
00592
3EB3E
005B1
3F5E2
3FDDE
0054F
3F4CC
3F727
001AF
3F4C2
3EDE9
3FD80
01639
3F5F0
01183
00A65
008E9
3F94A
3E7CD
00C15
3F3E0
01814
3F422
00814
00729
3FB9B
00BA1
3FD3C
00FDD
01A69
020C5
00278
3FF8A
3F285
3EEDB
00337
01473
0022B
3E9C9
01B26
007F0
3FE20
048AD
3EEF4
3CCE9
01A17
3F9DC
3D1C2
00C91
01456
0140F
3C17B
00E17
3ECB6
0270A
3D2C2
005CD
3FCE0
02174
3F73E
000F1
00ACB
00DF3
3E3B7
014E6
005CC
3FA61
3F289
004AA
3F683
3FF27
3FC31
0004E
3FC53
3FB0E
3F280
3FA51
00408
00047
3FDE0
002BB
3F086
3F171
3FE1D
3FF49
3F87D
3EE97
3F7DB
00178
3FD70
010E6
3F727
3F5BA
0045B
007C1
3E6BD
010FF
0077C
3EA9A
010B8
00344
3FE43
3EA4E
00602
00F9A
0022C
3FDDF
3EDC1
0128A
3FD87
015F6
002B8
000EA
00A2A
3FE06
00124
00B55
3FC4F
00229
3F708
006ED
001B7
00109
3FB43
0011A
3FB8E
00262
3F614
005E0
00949
0029B
00271
3FEE1
3FDA2
3FB31
3FAC5
01663
002C2
024A7
3F70F
007DB
00A4E
00769
3F2E9
01F14
003F2
00CE1
3F25D
004FD
3F51D
3F600
3FC18
005EC
3FF84
00499
3FB1C
3FBB6
3FED5
0005E
3FA32
0040E
3FE35
3FE8C
3FDD8
3FF7B
3FDF2
3FF64
3FC37
020D8
3F83F
01968
00609
3F3AD
3F125
3EC51
3F968
01DEE
0061B
00511
0049F
00095
3FEE0
3F504
009FE
00541
3F224
3EEC3
3E8E6
3EDD8
3F570
3F5DF
3F77E
3FA48
3E2D2
3DCF3
00243
3F795
3F3DB
3EE14
3ED81
01672
3EF5B
02E94
3FB23
3CD52
002FC
3F0D6
3E4F9
3FF8A
000EB
3FFB9
3D94F
00A69
3F3D1
017AB
3DF88
00A36
003E2
01402
000FA
00574
006A8
00E35
3ED01
3F6B9
00B65
000B1
3FF17
0153C
3FDD8
3FF27
3F3BD
0042F
004B2
00735
3FFF9
002F6
3F908
00150
3E73B
3F8F3
013BC
010EC
3FC06
00DDC
3FDA3
3FB36
3E5AE
00B86
3FC84
00615
3FC87
008AC
012CE
017C2
3FF23
0007B
3F2D0
3ED39
3FC42
00E2A
00198
3F7B7
01262
3FEF0
3F35D
0092A
0040C
3F716
3F3E9
3FD43
0053E
0039F
3FF2C
0063A
00907
00A24
3FE66
3F11F
3F8F6
0009D
3FC08
00409
00270
3FC9F
3FEA2
3FC95
3F5E3
3FE31
00488
00123
0014F
3FF12
00105
3FF0A
3EE04
3EDA4
00500
01E55
3F167
3E5C4
3FF94
3FCBB
3D887
00A54
01934
00895
3EB3A
3F46D
3F42B
000B9
3DE6F
3FF26
3F92A
3FEB4
3FD63
3F725
00218
0012B
3F04E
3FD9E
3FCA3
3F7C6
3F39E
3F7EE
3FE00
3F34B
3E7E9
3FC91
3FC14
3FD6E
3FA9F
3F76C
3FB77
3F98F
3FCC7
000A3
3F917
3F7EC
3FDFA
3FC4E
3FAB8
3FCD5
3F3A4
00836
3FA14
3FC8F
3FBD2
3F74F
3F59C
3FA61
3F79D
0001B
3FE67
3F88E
3FBE7
3F84F
00031
3F4E3
3F2AF
0028A
0022E
00570
3FE9E
3FDF7
3F95A
3FC64
3ECD3
3FDF1
01152
00BB9
3FE46
004C6
3FD67
3FF96
3E43C
00604
0023B
00050
3FFA3
00314
00362
00114
3FFEB
3FF10
002ED
00117
3FD47
3FEE5
000B7
3FD54
000C7
00C60
00222
00A6D
3F421
3FCF5
00057
008C2
3E52A
3FDD8
01803
00816
3FA19
001AB
3FC62
3FB21
3E640
00157
3FDE4
0006D
3FD31
3FE37
00072
3FF73
3FBD0
3FEFB
00066
3FD47
3FC46
3FF76
0001F
3FFF9
3F91B
012ED
3F7C0
00265
3F588
004F2
0050B
3FB9C
3E03E
0075B
014DC
3FA08
3F84B
3F578
00086
3FCE1
3F4AD
006B8
3F10F
3F2FD
3EBF7
3F071
3F116
3EEA4
3F8BA
3F761
3E562
3E37E
3FCCE
3F982
3F225
3F206
3E5E8
3FF51
3F8D8
0087A
3EC58
3EF94
3FCF5
3F47A
3D404
00E00
00896
3FAE5
3F7A2
3EDF3
3F394
3F25A
3E5F1
3FFB3
003F1
3FF2C
0026C
3FFB5
3FED8
0003D
3FDF6
3FEE6
004FC
00113
3FFB9
00223
3FFBA
002F3
00384
3FF7C
0055D
3FE45
00201
3FF7B
3FF96
000AA
3FDFB
3FDC0
00671
00290
00090
001D7
00001
00297
004C7
3FF0C
3FEC8
3FF26
00092
3FD8A
3FEBA
3FCBC
3FDF9
0004A
3FF35
3FF12
3FFBF
3FD6E
00031
3FE1A
3F93A
3FB9E
3F984
00499
3FADA
3FB33
3F143
3F5BA
3E651
004C3
00B05
0075A
0017B
3FDA8
3FCD2
3F3B3
3E63F
00073
3FC71
3FEFB
00003
3FEDC
00065
3FD37
3FF5D
3FF51
3FD9B
3FFFB
3FED7
3FD8F
0021E
3FB2B
3FB3E
3F933
0043A
01A62
3FD99
3F13A
3FF75
004E8
3F995
3FE34
00C27
0031C
3EDAF
3FA2A
3FF67
008C5
3FACB
3FB2A
3F7AD
3FFC6
3FD8D
3F84A
3FD64
3F8FD
3FB62
002B7
3F726
3FAE0
3F982
3F6A8
0010D
3FA51
3F8BE
3FAB5
3FAA2
3FE16
3F9EC
3F6CE
3FA12
3F9FE
3FCD5
0013F
3F8E6
3F7F9
3FE29
3FBEA
3FA26
3FA87
3F402
3FE48
3F912
3FA91
3FA0A
3FC07
3FCAF
3FC37
3FBC3
006CF
3F954
3FAD4
00164
3F77A
3FF64
3F949
001AB
3FFB2
0022C
000A5
00145
3FFCF
3FE63
00042
3FF8F
0039F
00407
3FEA3
3FE93
0011A
3FEC2
0014F
00217
3FFF3
00104
3FF0A
0000B
3FEE1
001DE
001EB
00072
0002A
00186
00134
3FEFE
3FF71
0015B
00176
00531
0007F
00256
00569
3FF5D
3FDE1
001FA
00172
3FC36
0017A
002AC
3FE97
3FFD4
3FFB8
000A7
3FCAA
3FC4B
3FEA8
3FE32
3FF73
3FDCE
3FC84
0015F
3FE4B
000F0
3FEB3
3FEB4
3FF9C
3FC3D
3FF57
0005B
3FF4A
00073
3F9B9
3FAE0
3F7F1
3F988
3F597
0033E
3FE27
3FE50
00070
3F8AF
3FD60
3FE9A
3F8A7
0004A
3F1D6
3F407
3FD39
3EFCA
3F5EF
3EFC7
3ED2E
3EC63
3EE00
3F70A
3F9BD
3E606
3E4FC
3FF01
3F88F
3F1C9
3F125
3E47A
3FC54
3F5E9
00796
3F75F
3EDB7
3FA7C
3F894
3F4DF
3F8ED
3F51F
3F5D5
3F971
3F76F
3FA28
3F48B
3E693
3FF44
003F8
3FE6C
00259
3FEEB
3FED3
00013
3FDEB
3FEDF
0050C
0011B
3FFC7
001FC
3FFB4
002EE
0039C
3FEBE
004EF
3FE69
0018E
3FF02
3FF64
00089
3FE5F
3FD40
00620
0024F
00090
001C4
3FFEE
0041E
00468
3FF13
3FCD8
3FECB
3FDF0
3FD9B
3FEEE
3FD20
3FE9D
00040
3FEE4
3FF31
3FFBE
3FE15
0006C
3FCC3
3FB38
3FC21
3F843
3FD95
3FB84
3F6EA
3F90D
3F988
3F9F5
3FDD8
3FA23
3FA50
3FD8F
3FC51
3FDDF
3FA35
3F1CC
00079
3FC6F
3FF00
00004
3FEDD
00064
3FD38
3FF5D
3FF51
3FD9A
3FFFB
3FED7
3FD89
0021E
3FB23
3FB3E
006C2
00615
0092C
3FB4E
3FD87
005A1
007D6
3FBFD
3FE51
00CB6
003A7
3F22B
000BC
0034B
0132A
00B0F
3FAF3
3F800
3FCD8
3FF0C
3F8C5
3FFCA
3F683
3FC2D
3FDA9
3F72B
3FF50
3FD8F
3FBC4
0034F
3F975
3F3E3
3FAAC
3F980
3FDE4
3F9EC
3F6CE
3F911
3FA18
3FC7C
000A1
3F8F6
3F82D
3FE30
3FBF3
3F9FC
3FABD
3F402
3FD60
3F815
3FB61
3F9D0
3FACD
3FB39
3FA5F
3FC9D
3FD73
3F84E
3F838
3FEB1
3FCB8
3FF50
3FC2B
3F501
3FF9C
0022F
0002E
00149
3FF70
3FE61
0003D
3FF47
003A4
00409
3FEA2
3FE93
0012D
3FEC0
0014E
001EF
000AA
0010D
3FFEC
3FF48
00079
0008F
001FB
0007E
3FFD2
001F2
3FFA7
3FFB3
00071
0010A
0016B
002D2
3FFAF
0020C
00078
0017D
00008
3FFDB
00137
3FDA7
00287
00301
3FF7E
00183
000F1
00048
00043
00234
3FEC0
3FE35
00011
3FDD0
3FCF2
000EA
3FE7F
000B2
3FEBB
3FEBF
3FF28
3FC67
3FFCC
00046
3FFFA
3FFD4
3EFD1
3F3DD
3FCB9
00985
3F98C
3F830
3FD7D
00410
005DC
3F7B0
3FA8D
005A1
3F6E5
0010D
3EEB5
3FB41
3EA59
3EAD0
3F7F5
3F9B1
3E8F8
3E642
3ECD8
3FCCF
3FF67
3E33F
3E874
00220
3F3C1
3EE93
3E48C
3E4CF
3FB59
3F4C8
3FDBB
3FE46
3F756
3F6F0
3FD58
3F9A6
3FFC5
3F505
3F55A
3FF12
3F553
3FB68
3F59F
3F425
3FF40
003F9
3FE66
00259
3FEE8
3FED3
00013
3FDEB
3FEDE
0050D
0011B
3FFC8
00209
3FFB4
002ED
0039C
3FEB7
004EE
3FE5B
0018E
3FF04
3FF66
00083
3FE5F
3FD40
00620
0024E
0008E
001AA
3FFED
0041F
00468
3FF21
3FCD7
3FECB
3FDF0
3FD9B
3FEEE
3FD20
3FE9D
00040
3FEE3
3FF31
3FFBE
3FE14
0006C
3FCBD
3FB38
3FC23
3F842
3FC7B
3FBB8
3F846
3F928
3FA5E
3FB38
3FF18
3F9E1
3F9D1
3FDA2
3FC3F
3FDDE
3FA4A
3F422
00070
3FC71
3FF00
00003
3FED7
00065
3FD37
3FF5D
3FF51
3FD9A
3FFFB
3FEDB
3FE22
0021D
3FB29
3FB3E
0021D
006B4
0037F
3FC47
3FFC9
00560
00604
3FFBB
3FEAB
00C64
0008B
3F592
00249
00354
0106C
00E0E
3F9D2
3F5F8
3FB8D
3FE8C
3F8C0
3FD7B
3F83F
3FA03
3FF3B
3F7C1
3F942
3FB8D
3FB65
002A0
3FC3D
3F5BC
3FA16
3F8FD
3FDD2
3FA94
3F6CE
3F8D9
3F9D3
3FC91
00082
3F90D
3F95E
3FEB2
3FC14
3F9DC
3F9C8
3F401
3F740
3F528
3FC81
00151
3F8F0
3F770
3FA76
3FDBF
0013C
3F766
3F774
3FF35
3FB42
3FE48
3F852
3F86A
3FF98
00230
00024
00149
3FF6D
3FE63
0003C
3FF46
003A4
00409
3FEA2
3FE93
00126
3FEC0
0014D
001EF
00012
3FFEB
00084
0011B
3FF26
0004C
00105
3FFCA
3FFA0
001ED
000E7
3FF6F
00085
00121
001C4
00331
3FEC0
0021F
002CD
00362
3FE19
3FFCD
3FE57
3F9D6
00256
00302
00170
3FFFC
00314
0001B
00095
00162
3FEE6
3FDDC
000D8
3FE1B
3FDAC
000CC
3FE11
0003D
3FEDB
3FEE2
3FFAC
3FCCD
00049
00045
3FFDD
3FFCE
3FB96
3F474
00036
3FAF5
3F51E
3F72E
3F58C
3F7D5
001E9
3F99C
3FB76
3FE2F
3FF65
00073
3FB1F
3F2FF
3EC2F
3EBD0
3F91A
3F50B
3E5C8
3E7D6
3ED7F
3FA56
3FDC7
3E51A
3E96A
3FE01
3F47D
3EE66
3E8E4
3E33A
3FA83
3F70C
3FC05
3F8D3
3F5A7
3F7A5
3F7ED
3F760
3FD07
3F632
3F5EC
3FE53
3F9C1
3FB8E
3F856
3F09D
3FF63
003F4
3FE71
00269
3FEF1
3FEEC
0001B
3FDED
3FEDE
00502
0011B
3FFBA
000C8
3FFB6
002F1
0039B
3FF56
00488
3FE6A
001BE
3FF4B
3FF8D
000FB
3FE56
3FD40
005C1
00242
00084
00114
3FFF1
003F9
00467
3FF13
3FCDB
3FECB
3FDEF
3FD9A
3FEEE
3FD20
3FE9D
00040
3FEE4
3FF31
3FFBF
3FE15
0006B
3FCCE
3FB38
3FC21
3F843
3FC92
3FBAE
3F84A
3F930
3FA63
3FB30
3FF04
3F9E0
3F9D1
3FDA4
3FC4D
3FDDF
3FA2E
3F420
0007A
3FC6F
3FF01
00003
3FEDF
00065
3FD38
3FF5D
3FF51
3FD9A
3FFFB
3FED7
3FD93
0021E
3FB24
3FB3E
3E7EF
00BD3
0328D
3DE4D
3D5C5
3EDA0
02AB9
3FFE9
02E41
003CC
3F4EC
01D1B
02280
3982D
3FC5E
037C0
3E148
3FFC8
0160F
3CC76
3F58E
3E500
027F7
3F4F5
01DA0
3E326
3F4A3
01F05
01337
3AB87
3D602
031CA
0281B
3EF6D
3CED7
3A6C2
00EA0
0486B
03225
00087
009C0
3E08A
3E97B
007D3
04C35
3C35E
3BB97
034D8
3DD3B
00569
01CD8
3CB00
3E606
3DEC9
02421
3EF9F
01AE1
3EFE9
3E61F
0188F
014A1
3B69A
3F2DF
03133
02BEC
01CC8
02155
01C03
00FF4
3DB3C
3FDBA
01012
3F884
00192
00DF2
00215
0104A
3E95A
01B2A
3FC2A
3F8C4
00677
3F0B6
00C24
3FB4C
01B1F
00088
006F9
3FE55
3EB40
3F822
0087C
00DD3
3D5E6
3EAE9
00AA9
3FB7E
01DCC
004EF
00F5F
00927
3CE15
3F71E
3F5B7
01E1C
3EF9C
0105D
3FE00
3FF2F
3D665
3E91A
0146C
3FA9E
00235
3F99B
005CB
3FA2C
00A93
3FF27
0012E
3FE69
3F7E1
3FADD
00360
0042C
3E9F6
3F33F
00164
0061D
00B4F
3BAF3
3C015
08C03
01CA8
03FA7
3B77D
3BAF5
3D86D
3DDF9
3DF27
3EF19
08601
3AC59
014E0
3C4B4
3F900
017F7
3F5D9
01F50
3C5BF
00831
3CCBC
3E8D2
3F51D
3E9C1
3FBFE
3E1F0
02CD8
3F233
013E9
3E18C
3EF05
3F339
047D6
00819
3F09D
3E458
009D0
3F75F
3CD40
02B5C
008DD
3EE4C
3E510
3E90B
3F416
03F8A
0231A
02C9F
03242
014C9
3C725
00921
00FE9
3EB3E
0043D
01768
0059C
012BA
3E6E3
032DE
3FC8A
023EA
01636
01176
0156F
01220
3E31C
002B8
0043B
00148
3FEE8
00A15
004F8
00937
3F268
00729
001E7
3FF1D
3FCD7
3FECA
3FDF0
3FD9A
3FEEE
3FD20
3FE9D
00040
3FEE4
3FF31
3FFBE
3FE12
0006B
3FCBF
3FB38
021A9
3F313
3F21C
3B9A6
01FBC
0460E
00A51
3EDDC
3EE49
3E603
3D6F9
01267
045CA
3D425
3C99B
0411E
02EF8
008D8
3B47E
3A728
3F90A
007C9
04873
00B6E
04DFC
3DD24
0159A
00774
026DF
3D3A8
3FBFB
01BC1
04C5F
01388
3F6F1
3E9EE
01A73
05B43
0632C
3E888
3E55C
01156
37A79
3E0A6
062C4
3F2C1
3B4A5
05EEF
02E72
01111
3BFEA
00427
03445
01324
01AA8
3E5AC
3B120
3FC29
39C76
3FF63
0151B
06798
3F59D
0137D
043E8
00541
3F0CB
3EF61
3EAAD
0217D
0459A
3DB86
3F820
003AD
3D91B
3FC1C
041AB
3DF51
01454
01976
3F8B1
000EB
3CFF2
02EB0
00DEA
3BC61
02C4A
00A8B
3F2E4
3D45F
008B4
3EE31
3FEBA
034CE
3E4C5
012C3
02679
01482
018CE
029A9
3E344
0027C
3EE51
3FD9C
3F450
01779
3F6C2
014BE
010BE
3DC68
036A1
3FF11
02A77
01AF4
3E49E
01189
021A8
01705
011B2
01281
3EEDA
3D42A
3F4EA
3DAE4
00D0D
01FEC
3EE79
006D5
01A4F
00ABC
0273A
3D7B6
3E6F4
02FD3
021CF
3F534
05A2C
3EBDE
3C763
010D7
01596
36F96
010D3
0260D
016E1
00A40
3F478
00699
0089B
0073F
00C22
3FE37
3FD98
3F4F7
3E683
3EF74
003AE
002E7
3FB1F
006D2
00707
0162C
3E49B
04E1D
3B6B4
3F3CB
3C03D
3E26C
02AD7
3AA49
3F86F
3FA7E
3FDAA
3C1E2
3F0E1
3E16D
3F0E8
3FDD4
3F5CC
3F08D
3C9EB
3FED5
3E268
3D629
3E7CC
027C1
3F64C
020CE
3F9CC
3F3DC
029AD
3F978
00902
3F680
3FF07
3A75B
3EC50
02A10
3D0E4
00220
3F4DA
3D56E
3D538
01B88
009C0
3D77E
3D054
01BDE
3D1CF
001AC
02ED9
3F8A4
0086B
3EA80
017C9
3E6CA
012D5
0220A
00C62
0267F
00773
3ECC5
3FEBB
3FE87
3EE7C
014D0
06CDC
3EEE6
3E33C
000DA
02CBB
009C2
003A4
01C45
01F6C
01C2D
3EA49
3C130
03427
3DE95
041E3
0193B
3D838
3B8D3
3D573
0655E
06571
3FBBD
00EF6
3FDEE
01CE4
3ED31
04939
3CD46
006B9
3ECEA
01187
000B1
3F643
3CDBB
02AAF
3E7FE
3F703
3E2FE
3D1F0
00C4D
3DEB7
00687
3ECD7
04E81
3EC5D
3FE9F
3D053
3E7A7
3FB34
3F3E9
06E21
3D1C3
0324A
3EA9C
013AC
02814
3E576
3BCA1
3F942
0478B
3E590
014F3
05181
00A56
3C4F5
3DF81
04AAC
3E815
04D77
3FFD9
3F8D9
00E09
3F0E9
3CCC4
03890
03DF6
3E141
0150F
025FA
013C9
00D07
3F492
3FB2F
3FFC2
3FDA6
00026
3E391
3C7AD
3DB01
3F672
010A3
3FDD0
00F1E
00C62
01E2A
3F3B8
3DC46
3F9D5
00529
025E4
01F96
00855
3FDEF
02BCA
3FEE7
3E358
01049
01C5A
01BCB
3FA51
012DB
00B2B
3FEA8
3E4E1
3F115
0056C
05DB1
009F4
02885
01211
022E7
3D9FC
01143
0003E
0322C
01BAD
3ED8C
3C1F2
3F730
3F99E
011E8
03260
3C65C
0012D
3F5A3
0092E
02334
018ED
00981
3DF86
01192
3EE5C
021E9
01000
3DDE1
00CA9
3F3C9
3F518
0075D
3F312
3F24D
3EC56
3DDD2
00335
01243
00C93
00A96
0030E
00FD2
0269B
3E041
044EF
00DA5
01F29
03914
3D0A9
0019D
00B69
3F38C
01526
03394
3E7D2
3FE84
01265
013CF
00AB5
3F76B
00770
00B55
3F191
00353
3F381
3F706
3FD1A
3E543
001E4
005DA
00844
3FD9B
01345
035D1
03D9E
00CD7
03534
3EDF0
3F2AD
3D02D
3EBAA
00542
3B1D5
3CB42
3F34B
01AA7
3C034
3FC06
3D681
3ECBE
3FA06
3E58F
0006F
3D956
0213E
3EB0D
3DA95
02848
03696
021B7
03790
3EFB2
3E77F
01E0D
011A3
012DE
3FD3C
3CD61
3F1B3
01545
01D0D
3F03C
0270E
3D764
3DE7E
3DDA9
3BF4B
014DA
05EBE
00412
02554
3D5FE
003B6
0481D
000B9
02787
023A7
3EE8F
03BCB
02338
02562
017B3
031EE
3F8CF
3933B
3E206
3F8CF
00AE1
002CC
05C67
0027D
00E83
3F003
01422
02BBA
00CC5
3DCF9
3F53B
031E6
3D6C7
3CBA6
3EE19
3EE7C
014C5
3FA32
3F2C0
0052C
3F092
02259
0496E
018E1
02ECA
00468
0237B
3C850
01F3C
01A39
0059A
011E4
0010D
00BC6
3DB6F
3DA68
3F688
3F912
3BDB0
3F3A0
3C552
3C32E
3E6A4
00E28
3EE77
03C89
017E8
3E6BD
3E778
3F1CC
3C4AF
3F69E
0033E
3DA51
3EDD9
3B90A
3F14C
0342A
3CF5E
3C70B
04321
02AD4
3F86F
00BD4
01903
3EE43
3E9D5
3B62E
01EFE
3BF9F
031D1
3F610
00DD1
024C0
0239E
3F7AA
02703
04380
02025
02FE9
002C2
3F4A8
04569
3DCDE
01B77
3C890
00B94
3EDCA
3F8C0
3F1D2
3F663
3E70B
3FBD4
00F54
03160
004A7
007A4
00AE2
3FE45
3FFAC
014E0
004AC
0032B
3E338
3E8D5
01C52
00AF9
3F089
3E55E
0206D
01181
00EF1
013BD
00765
014CC
3F187
000BF
0109B
012BB
00586
0096F
0145C
002D9
3EA9F
0050F
021BD
01A2E
3F1A1
01F49
3FFC5
3D256
00403
0187C
034FB
3E8B2
00A0B
3D7B4
01EEA
02E93
3FA84
02CF7
00B73
3DF7C
3FEAA
00C73
0062C
3FC79
01B57
3F424
00A9E
3F4B1
008E5
3F49B
3F723
3EDF0
00FDD
3FE48
00931
000F6
3DCDE
02ED8
3EC72
3EDBD
04A3C
3FF8E
00777
008AD
3FED6
3F13A
3E23F
3D99F
3FB1A
01F27
3E69B
3E4D6
3EC3B
008B8
3FF4D
3EAEB
00C0A
3F9CB
3F7D8
00572
3FC7E
3FA02
00495
002DC
00808
3FFCE
3F8EF
0049B
00035
02543
00795
0001A
021FB
3EEAB
005B9
01A14
012A4
01954
39A37
3C7F7
3BB6E
00E95
3C629
3FFC7
3E76F
00497
3FDE9
001B3
00134
03CDB
0132B
3FACE
3FE50
3ECC5
03265
024F7
0173A
3ED8D
000B9
3F41D
025F6
00399
3F83E
3EDEA
3E1B9
031DB
008BD
3FD9B
00D2D
3D4CF
3B989
3CBBF
3E66A
02744
010DB
3F836
00434
01C15
3E77A
03DE4
037BD
053A2
3FEB4
00DE2
04BC9
00492
3F7F0
058AF
3FBA8
3F046
3DBEE
3D662
3F657
02715
016BC
03DFF
012D3
00958
3F10E
012C4
020DE
01356
3CEFC
016B8
02C89
3DA5B
3DA0B
3D1BC
01B6C
0294C
3F629
3FC76
3CECC
3EE40
01160
05FF7
01376
01D42
00203
0155C
3CA1B
041E6
3F14E
011C3
00658
0000B
3E516
3FC39
0152F
01E4F
3F7DA
3C77E
3D656
3F962
3F1C2
3D689
3D4AA
3F76D
3F87C
3EF69
02136
3D77E
01D5D
0086D
3D869
3C63E
3E8F5
3F845
3BF2E
3F652
01E00
3C049
031F8
3F60C
045EB
00195
3F859
3D4E0
3CA6B
3D579
3A4F3
3EAE5
3F332
03070
3F091
3FC94
065B9
048C0
01E62
008AA
03858
0290F
00D11
00778
3C200
3E458
3CDC0
3FAB1
3E7C6
3ED15
0151A
01A45
3F539
3EE0A
3FA24
00B6B
3F29F
3FF92
01433
3E00D
3DC19
3D88C
3E16E
0027F
3F7EF
0107E
3EA72
3DAE0
0108C
00823
3DB39
3FEF2
0237B
03C76
01CFF
3F99F
3E90E
02111
3F5E3
00066
3E70B
3C213
002BB
3F512
3DE22
3BEF8
3EF68
00F6C
0315D
03AEB
3F024
05B76
3F566
3FCDE
3EACD
00909
01F09
00E08
059FA
3DD96
021CC
0351D
01CD5
04C12
39C0E
3E9ED
3EB2A
3F457
3FACD
3FA02
01A2A
00D80
3DC25
3EF3D
00EAD
3F75C
3EC14
3F701
01706
3F300
3F231
3F32B
00565
3ED03
03D15
3FC33
03017
3E5BF
00066
00C4F
00501
3E0B4
3D67B
00BBC
3E53A
01692
3CA2F
3ECB1
3E6BD
3F6AC
00359
3F3E8
0045E
3F4F4
3FCBE
002B1
00489
3F1CB
3F0F5
00341
00A9B
3FEDE
3FFD3
00464
3F50F
01726
0142D
3DC3B
031A6
0030F
01472
3FE1F
01142
00B42
3A994
39CD6
3F7A0
00019
3E228
3E47B
3C80A
02B87
3E28E
3FEF6
3DD42
3F9DC
3FD43
00767
3FB61
3F6C2
01B80
02491
01170
010C0
005A3
01767
03745
3F213
3E98F
3FC8A
00113
3FFE5
3FCBB
3DAF1
3E7A0
3E10B
3ED87
3D634
3FC7A
3F951
0163A
0268C
3D63E
05331
034C6
00B7B
01788
02266
021CC
0321F
01FD2
00C00
3CF7C
01750
02101
03B03
3D13A
3CC33
3FB6C
01AA4
03413
03E6B
03302
029A0
01B54
3F730
018A6
0135A
3D953
02667
3E328
3C561
01558
3FF13
3F445
3FA4C
3F3FD
3F619
3FC32
3FAFC
00067
0249A
01205
00A9A
3F5F5
01308
3DDA5
3FEAB
3D867
01512
0063A
03D5D
0060E
023FF
0189D
02A72
00029
3C2A4
3DB51
3FD63
3F5B8
3FAA1
014CD
00FDE
3DD13
3E061
3EFE4
3ED79
3F520
00C22
3C183
01FA6
3E369
0035E
3EC58
3F5A2
03A6B
39FF2
00CD2
3ED78
0194C
3F18D
0006D
3F07D
3F757
00A40
3BBB6
3EF92
3D6BA
3D9D2
3C7FB
3FFB0
03FA5
01CC1
3FCAA
002B1
03292
0355A
3FD49
3CDB7
3DCD0
3DEA2
3FA50
3EB21
00323
3EA0A
3E795
3ED65
3FC7C
3FF79
3F3C0
3E5B7
03783
02432
01EAF
3FAA0
3CE87
3E00C
3BC4C
3EDA0
3FE10
00684
3D945
00625
00865
004AD
0120E
009A4
02C3A
00E4C
3FBBB
3EE3F
3E2CF
3FDC0
3E255
3E5D1
3EDFC
3C2B2
0016D
00AED
3E7C8
3CBAC
00620
3D518
3F5A9
029CA
3E5A1
0248E
3E567
02338
0041B
02D02
01F3B
017D6
014E2
3D60C
0188F
043D2
03EED
025A2
3F32D
3D436
3FFDA
3E776
3F395
3F477
00C43
3EFC0
011F5
006FC
3F567
3FF64
001BB
3EDDB
00158
3FA1D
3FE17
00BDC
3F170
02AB8
3F7CA
00648
0276E
02741
01472
04618
3F709
01675
3F9CD
03644
00775
009D2
3D35A
3BB03
3D8DE
3F2CC
3F8AB
3F27C
0052D
00241
0013F
007D3
3F814
003CB
3FDC5
001E7
002B8
3FB33
001E0
000BA
3F23E
3F243
3CEA7
3E370
06BCD
3E94F
3E9B1
3F460
01563
01C3D
3AF63
3CDDA
3F535
3D451
3F4D0
3F0B5
3E6D7
00B0D
3DFE0
011B6
3EB27
3F4E7
02650
00D45
014BE
3FB88
01D85
03B7D
0292E
0096F
3FB84
00EF0
01117
00AC9
3F443
005C7
3E474
00B2D
3F664
3DA29
3EE72
3E7B3
3D8B9
3DE9F
3F1D0
008D1
00BEE
02C1E
3F6F9
01AA5
3ED92
3FD39
01754
3EDCF
011C9
3E6CE
3FFFB
3EC03
3E535
0062A
3FBD2
00D08
3EDF9
3EAAB
3E95A
3E422
02071
0123C
01BC5
01778
01161
02009
0425A
3E253
3F72B
03A8A
0034A
00979
025B9
3E07C
000F4
3B4A9
3FEAB
01591
01304
3CC1B
3EB32
00C5F
00D74
3FE33
00FAC
3E1D5
3D26A
3F790
034F4
04126
3D8C1
016FB
02148
01006
01168
0016B
3E489
3CC93
3D8B2
02104
3FF03
3F16D
014D6
3FE65
3D852
3FC7A
000AE
3F9D2
00A33
01160
3EC55
022C7
01419
01A72
3ADD6
02FCC
01C9B
3A780
3E10E
3E078
3C374
0163B
3E2E5
00B6C
3F6A9
3FA61
3A4E5
3DEBE
02D99
3ED39
3DC78
002DA
01179
3DA6A
3FF30
3F505
3EE0D
01E4D
3F361
3FCDF
3F6DC
3CDC5
01F09
3FF3F
00EAD
3E1B8
3F4CF
00384
3CB64
3BCD3
3F945
3E90B
0261A
3F26A
013EA
025D2
3C575
3FFD0
3D162
0019D
05AFC
3F951
023F6
3D4A0
3F883
00C27
02E87
3F849
3EC66
01114
0020A
00DA5
0009A
0077E
00149
0144E
010B1
3D911
3D2F2
3D931
3E58E
3B1E8
00562
3E95B
037DA
005B0
3ED1C
01398
0068D
00538
01373
02ED4
026C2
3F741
0142E
3C9EA
01249
049A3
02830
00CA5
3DFD1
3FA32
3D651
3F75B
0013E
00062
0066D
3ECDB
00496
000D1
00DEA
0024E
3EDB4
3E955
00D3E
3F80A
3F542
3FEA2
0087B
00E0D
3DAF9
3EA0A
036AE
01639
01887
00B0D
02876
01318
00450
03E10
3F594
3FDB7
3FC86
3FF0A
3E68B
3EF25
3F64E
3F8BB
0045B
3F04E
0001F
0063D
00AB7
003F7
3EF2B
3F602
00337
00019
3F83C
3FD2C
3F919
3E94B
3FA05
3F392
04C64
3E519
3F743
3FB55
016E9
3F3AB
39498
3B3FB
021FF
3E7AE
3D09A
3D3CF
3DEBA
005A7
3BDA9
020DB
3F408
034F1
01A19
005EF
03A71
3E319
3EF68
036A5
028D6
00BFA
3F59A
3F578
00AD8
01342
3F85F
3CDC6
000A1
004E3
0237D
020DF
3DF52
3FF27
00CEC
3DE66
3E80C
3F8F7
02C35
01650
036F7
03F7C
3F24E
00BE6
3D927
02199
02EC5
00171
00CB8
015CA
00552
01739
3F65F
00CB3
0070A
3C53C
0398A
3E79F
00327
03D06
013C9
3DDB6
004D9
3FE1B
04EB1
3E2CD
00656
01AA9
01239
3F47A
02117
01116
03731
3CB7B
03CF9
01488
0017D
3F657
0041C
0231A
01457
01A02
3FFAA
3D451
3D281
3E8C3
026FD
02E4A
3D385
03916
006E5
3E794
0283C
024B5
00523
02B42
3E4E2
00AA8
022EB
3E0EB
3F7EE
3E887
01F67
00FD5
040B2
3D764
018C6
00830
3EC0E
01DA6
3E8B9
001F3
3EDD5
02A39
01A8D
3C3BE
3D98B
3E798
3EBED
031EC
3E44A
3ED2B
3EB9D
3FA37
3D36D
3EAD8
013E7
3F3B0
00079
3DDAD
3F7B3
3CE04
00268
3F21B
3F07C
005B1
3F9B1
3EE82
014EB
3EDF5
00641
3E01F
3F6EC
00CFE
00390
3FB37
3FBA4
3D914
00654
3F60B
00117
3FF8F
00768
00FCC
3D840
02F4A
3E6F0
3EAEF
02277
3E090
03897
3F301
3ED18
3FD66
022AA
3FD02
3E756
00F50
002B4
3E0F3
01DBF
3E81A
3E861
3C6EE
3FE21
3C3B5
3FFF1
01262
3CEA2
3A53F
3F65C
3DDD6
3FDC2
005D2
3F1D3
02B7A
3FAE4
3E13E
000E0
3FA1F
01EED
006A9
008ED
3F990
033CE
02FCC
3FAC2
0207C
3EA77
3FFC9
3F618
0070D
3FA74
3F074
0075B
00674
001C8
0045A
3F627
002F6
00196
3EE3E
00090
004EE
00064
00280
00FCE
01AF9
3DDFB
3FF28
3E167
01B40
3FE19
0139B
016FF
0103A
021D1
0452B
3EE11
02507
0019D
3D5A4
011AB
3FDF5
3FDC2
0038D
00782
003ED
3FBA9
003F4
3FD04
3F971
003A9
000DC
3FC29
008E7
3FEE0
3F6EE
3FCD8
3EC84
00E57
009EA
047EA
000C3
00553
00005
01DFE
3F9F5
3BC8D
3D831
3EE2A
00340
3BE86
3DA82
3E592
01F87
00495
01867
3FB8A
01EBC
019F3
3FE5C
01D92
3E1E9
3C9A2
01B24
018B8
02393
3F40C
3FEAE
3E9D9
01856
3F315
3CCF0
010F9
017EE
00DBF
01E01
009CD
3E2D7
3C9E8
3E1F5
3F2BA
3FD5A
02465
01850
3F9BE
02E11
0090A
00F97
3F9B6
3F52F
00DB4
3E358
00FF1
3E97B
0002F
03FE5
019DC
3FF70
3FACA
00D7A
0045F
3E6A4
018C1
3F98A
001B2
3E92F
3B49B
00C99
01863
3FBD8
00553
00D08
01FB3
00479
005F7
006D2
01554
3D35E
0188D
0054C
3F200
3F5B6
013A1
3DD74
3F539
00FE8
00B8C
3C611
3FF83
3C239
00F06
00B14
3FEE8
02AD5
3E40C
3EA34
022AC
03441
007AC
3EEE7
3F96E
02D64
3C9E8
0018D
3FEAA
3CC65
00881
3FD3B
011B5
3FB88
016A3
0136C
00C06
01622
3E969
3FAAC
3C496
02C66
02872
3DA1B
3CA87
3CF8C
011DC
3FFB4
3E4AE
026F4
3F9D1
3E912
3D10A
0134D
025BB
3F2B4
3F2A1
00243
00142
3C56B
3E775
3E037
003CB
005D5
3EE97
00C18
3EE59
3EEAA
3F6C6
01696
3FC16
3F18A
01218
3E58D
3E811
3E5E6
004EA
3FF41
006DE
3FE04
3FC2B
009E2
3FAFF
02CC3
3EEF9
00BBC
01716
3FB0C
0273F
001D3
3EA96
3FB59
02AEB
009A4
3D747
03203
3ED68
00EBD
014A6
3E94A
00B17
3FDA2
3EC61
002A6
3EDD1
3DCA4
3C863
3EE8D
3FEFA
0071E
00D28
3F96C
3F96F
019F8
3F193
00257
0162F
3F7BD
0308B
0098C
3F476
3FFA9
008A4
01F75
3FA22
01315
3E3A1
00ABE
3F196
00044
3FD63
3F9A8
0183A
0021D
010D7
3FA76
011B7
3F720
3E7D7
3F100
00341
3F970
3F79B
00061
3FEAE
3E18D
3F290
014DB
3E583
0101C
3F137
3DCFC
00830
0197F
3FBE8
02CF4
3F80E
00866
00432
3E381
0294D
004CF
3FD46
3FEFF
00F44
005A7
3FF47
3FC03
00403
3FF83
3F84F
3F9AE
3FFF7
3FE03
3FC00
3FFB9
00181
01FD6
3FA4F
3F3E9
06C96
0045E
01069
00B38
3FEB4
3F85F
39FC7
3DF4E
003C8
3E6A3
3E814
3F8C6
3FA5D
011D8
0021C
3FA76
001C9
017D1
001F7
00974
0029D
3EFFF
3CAB4
00CDD
3F49E
0349E
3E015
3EB2A
3F312
0006F
3F4B7
3CB9E
010B2
3E8E9
3E3DD
00376
3DD10
3F672
3CB2E
3E706
3DB2A
3F766
021C8
00254
3F2D7
3F2F5
3EE9A
3DE1D
3E7BD
3FEFA
00176
3CFD1
0113D
3FB78
3E69C
00F8E
3F061
005F4
013A8
3EFA8
0153E
3E1FC
3F0FE
3D6E3
3CFBD
3E3C4
3F634
3F58A
01A53
01E5C
3E2E4
03346
3FDD2
3EA5B
004AA
00EC5
00D7A
3CC44
0191E
3E9A4
3E8AE
3CD2E
3F7F3
3E800
010DD
03752
01760
3C916
3FAB6
3D46C
0160C
005F2
00DAE
00EC5
3EB08
3D128
0043B
02CD5
3E67F
023CC
002FC
00861
3C51D
01D3F
003B6
3E315
3F854
3E5E4
3EDB8
3EF89
3E3C8
00341
3CF85
01A63
3EA15
014A4
00451
02C46
3E0E6
3E7C3
3D115
3E1FF
00523
3FFA3
3F3E1
01DE8
3F8E4
00328
3EE06
012CB
0196F
0049F
0110B
3FB28
3C116
3B946
3FBB4
3E600
000C6
00321
3F2A5
01E44
3F257
0004F
01517
004FF
00F79
3F704
01098
3E7AC
3B905
3E89D
00DC9
00DD0
3F265
00674
00DAB
3F9A2
3F24D
018D1
3E708
015C2
3FD60
3DDA8
028DF
3F90B
3D560
3F0B4
00C16
0082D
00B3D
02C21
010E7
00CCA
3F666
3FB14
00A02
00169
007BF
01276
012B9
00D51
3C9D7
3D47B
3FEF1
3F2B1
00872
00796
00010
0283E
00253
3F1BF
01E73
00F76
009AA
005E0
010E8
3FEAF
3F81F
01224
3E1E5
00A03
01B7A
02A75
01B3E
3F21D
3EE2A
3FEAA
3FF3B
3EFC5
00970
3F947
00427
3FEE2
3ED6E
0058B
00CAE
00BAA
3FAEC
3FEEA
3EF37
3E078
3EA45
3F028
3FB21
00ACA
3CD9C
3ED30
028F3
0089D
3E4B4
01035
01EC2
007BA
3F3FC
01554
02970
3FABE
3FA3B
002AD
002F7
00163
002A8
3FD60
0051C
3FB6B
3F932
00131
00AED
00515
3FA7A
002C8
0005A
01669
3FB81
3D1FE
05A40
3EC8D
01E78
01395
01694
3E51C
3A14E
3E94E
028F5
01D33
3DEF9
01338
007EB
0139B
3F031
3F379
007F6
0207A
3FF66
3EB17
3F775
3E95A
3EF5F
00C96
3BEC7
02704
02EDF
0168C
0193E
02677
3FE59
3EDBA
002CF
01AAB
02049
00384
3EF24
3F3FB
3D578
3E94F
3E925
3FE4C
0120F
3F07A
009E6
039FE
0017D
3E3CE
3FD52
02567
00723
02604
010F8
02A08
3EE83
3FEB9
00F66
3F9D2
0280A
00CAC
017E4
00A14
3EA5F
00B39
3EF79
3DE9E
026CA
3F3E3
3F5AD
01E65
3E0E2
3F6A2
01C8A
0020C
00C9E
3F3C6
3FBA9
3D867
3F1AB
01582
3F253
3CFDC
01934
3ED4C
3F50D
02509
3E842
3ED4E
3FB89
3EA51
3F025
001EE
3DFD8
3FB47
00B2D
3F575
3F520
02AD9
3FC90
3FFB7
3E98A
3F69C
3EA8C
01DE3
3E8C4
3EA1E
01604
3EAF5
3F57A
3E7CF
3EB66
027D6
3D684
3EB22
3E084
02418
0074B
0423D
3F4F8
3F88D
3DD98
3EF03
00107
00EB2
3E175
3E315
0024D
0182D
3E233
01226
3F352
3D9B8
3EEAD
001BB
3D3C3
3BBED
3F379
3F066
3FCFB
3D648
3DFCB
3F972
000B2
3F00F
001CF
3FE78
3EE46
3F58F
3E7AE
3EB79
3D0FC
3ECF8
3E95C
01E6C
3EF18
3E7DF
3F76D
00027
00CA9
00B87
3FB91
03771
3FFF4
3ED5A
029A3
3F071
3FA74
3E58B
3F8FE
00297
00E28
00536
00EE2
012DC
0069B
0248D
01CB9
3D6F0
013A3
0047A
3CCBA
3E66E
3E510
00DB3
0022D
00E64
00B0A
005C3
3D5B3
0248A
001D2
3E9CE
3FEE4
01938
3F456
00C21
001E1
00500
3F9EA
3FD45
00020
00279
0269E
3F9D6
00C17
009C6
008D2
3F5D6
0090D
001C4
00CC1
009DB
3F7EA
3ECB6
3FECE
00E8C
0015D
00AC1
3FDE1
00502
0053D
01113
3F2F6
3EC9A
3CAA0
3F923
3E958
010A4
008D0
00ABD
3FDD1
3FCEA
3DEBA
01788
01991
00121
00CA9
00202
3FFC2
0002C
3FE37
3FDE1
0012E
000D7
3FBB3
3FF87
3FEB9
002E9
3FF52
001C5
3FAC0
3FAA6
3FBB4
01870
3F8AA
3F44C
03745
3E515
01F8B
04B43
02017
3E1E9
3D5FF
013A2
00467
0384E
3BB18
00CE3
3F69E
04163
01430
0019B
01D41
0436A
3FEEB
0156A
0390E
3D251
3DB7E
3FA37
3F822
029B0
02132
006D6
025CA
0327B
3E308
0092D
004BB
013BA
3FBCC
3E2D6
3F195
3EC1A
3C7C1
3EC68
3F96B
00A3B
0066C
3F6E2
0068D
00323
00F1E
3FD23
3FA26
3FA14
00EC6
00742
3FE4C
3F994
00C6F
3FFEB
004E3
0052D
01C10
00C6A
002CD
3F2D0
01D00
3F44D
3FB1F
00EB6
012B5
019FC
3FA47
00443
0059C
001C3
3EE45
002A5
01E81
00320
02ACA
3C96E
3E23A
025E7
3D8FF
3EED9
00EE4
0083D
3FCF2
0316B
3FBBD
3F4B7
3FB41
3E72D
006B4
3F89C
3F8E0
00652
3DA14
0012F
3E9FC
014D7
3DCD1
3D49F
00266
3CB2D
3FA41
01101
00E83
3FABA
01884
00CAF
3E337
02B60
008EC
01E2D
01014
3EEA8
0039C
0025A
3D742
3FD7F
01146
00C33
3F0EF
3F02B
000ED
3FE8A
3DE39
3F46A
00933
008E1
3F083
3F558
013FF
3F63A
3CFCE
3E6F7
01938
3D53A
3F3BD
3F46E
3F453
3FB07
3FF6A
3F035
00D45
3F79D
01415
3F03E
3F384
01524
3EB84
3E08C
01476
3FE81
01935
00F5B
3F47E
005B1
012A7
0181B
0019E
014D3
00BC4
00FC8
3FC8D
3D74C
0279E
3FE6F
3EB7E
3FA12
3E16C
3F574
3F89B
00945
3DBBB
016A6
01220
3EEE2
02311
004CF
3F40A
0219E
00168
3F727
3FC24
00933
03A7F
00FB0
3EE57
3F25B
02840
3FD76
005E1
006A9
3FF91
3EB1C
01624
0103A
3F00E
0021E
0007D
3F7A4
3F1A3
007F8
00098
01EFC
01633
3FC02
3F688
3F2E1
00CE3
3FED8
3FEC5
006FB
3F855
3FA84
3FB7A
3FDF4
00BF4
00C18
0047B
3FCCC
00A04
3F5AB
0147C
002D3
3E105
3FC1E
3ED86
00C23
3FF62
3FF8D
3F12B
3F5A6
00937
02730
01C38
007FC
03F64
3FBC3
3FD80
3FC8A
0021E
3FB51
3FB79
00199
3FA42
3FF0F
3FD43
3FDF4
005C4
00769
3FF61
3FA2C
004ED
0155A
3EBEF
3C84F
05C27
3DAE3
0090D
006D7
0142D
3CC3D
3E602
00F6E
033BB
03CD6
3DFB1
3C1DC
3FF2B
03445
00246
01869
02C3E
024F7
3F5E2
3EEAA
03952
3FB71
3D01C
0045B
3E735
0142D
00CBB
3F884
3F6B2
0112B
00E2B
3F679
0140D
0211D
3FAE2
3FA8B
3F92A
3E73B
0057C
00345
008FA
00E34
01122
3EE07
00997
3FC8A
0034F
3EA39
3EEAE
3F61A
00BFB
00F7A
3EE17
002F8
0105B
3FBC8
01867
02227
011F8
01665
024E2
010CA
3FCE0
3EA4C
3ED76
3FF50
01697
01A65
001CE
3F3EF
011E4
3FC7A
024EC
0274D
01A56
010DD
00E10
3F4CF
3FA5A
3FAC0
3F054
3FF8F
3FF64
0036B
0046A
0104A
00F61
3ECFF
3F3DE
3EBFA
00E7E
3FB20
3ED26
01C41
01891
3E9AC
00406
0247E
002C6
3EA9A
3F332
000F7
3F96D
008D9
00403
3F528
011D7
3EB7D
3E756
02CEE
3F35C
3EBB6
010EB
00B2D
008D9
3E86A
3ECED
004C6
007D9
02008
3F5D9
3F2C1
3FC97
00607
00435
3E064
3EBA1
3F745
3D568
3C29B
00CE9
3E780
3EF84
007C8
3F43E
3C2D9
3F297
3FE53
3DF89
00613
00CBE
3EFA9
3ED83
3EBDF
00C37
3DD1D
3F3FD
3E162
00585
3F854
3E873
3F37D
0011E
01710
3F9EB
3F4B6
00343
3EB50
3FE0E
006BD
01069
3F8F3
009B2
3E520
004B3
02200
3D736
0057D
3DBA1
3E656
3D83D
3ECB1
3E5E6
3FCE6
3E726
3F375
005C0
3ED69
3FD41
3F78B
0218A
3F72C
3FD9F
00044
01CEA
016C0
0089D
003A7
3FD0C
00513
00801
3FF34
3FE92
01056
0087D
0077C
00108
0077D
00063
00DB1
01218
00D03
00386
3EF60
00A41
00BC4
0048A
3EF7B
00E8C
001C4
00225
3FE8E
004BF
3EA16
3FC94
000B1
00894
00339
3F1EC
0064F
00523
3FCF9
0060F
3E9FD
3F13B
3FE75
00EEF
0001A
0000F
3E2B5
01420
00033
01C37
02814
006C5
01230
02E04
3FF52
3FECD
3F57C
3FEBF
3FF18
0009A
3FD3E
3FC7C
3F9D6
3FE10
3FBF7
005FC
001E5
3F7AC
3FF3D
003F8
3F624
3E709
3EAFA
060F8
012B6
00610
01B7B
3EA01
3BCCF
3F600
0000B
011F8
021FD
3E2A9
00CA3
00078
01447
010E8
011A8
03A52
0124C
3FDF4
3F2EA
00FA1
00D3E
3D766
00D60
3EE8F
3F0D8
3E32E
3E236
3E08C
3FCEC
3FA65
3F368
01085
3EEC1
009E8
3EFFB
3EEB3
3F2A8
3E17B
3F098
006E3
0046A
0007E
00964
0147E
00C74
00193
3FCB7
3EB54
3F4C4
00A26
0066E
00E36
3FC68
00F89
3F94E
0135C
01C85
3F1D1
00C8B
012AA
01F26
000E4
3EF8D
000B0
00107
01AC3
3F76D
3FDAB
3F331
00E76
00EC0
3F8D9
01137
3F21D
01A61
0133C
02F77
3FE27
3EB35
00BDF
00CFF
018CF
3BCC6
3E5C7
00235
3EE4D
00EEE
3DE16
3DBF4
00E4F
3FE30
3D9AA
00086
00030
3FA11
007D1
0103F
3F5E7
3ED2C
3E21E
3EDD2
3FB51
3F981
01AD5
00329
011C0
00A68
00A25
01A8B
00008
3E0FE
016E5
3FEE6
024D8
3CEC6
3EAEA
3E6C2
3DA37
00887
3ED5C
3F7E1
00BA0
3E175
3E969
3F0D1
3EBEB
3EA95
3D200
3D935
00AF0
00C09
00088
004A4
3FFED
3D40B
0066D
3FF85
3DCDF
3FC9A
003DC
3F4E7
3FAB1
3E876
00D1C
00470
00E81
01A53
3FDB2
3E12A
3FCF0
3E89A
016B3
00189
3E4C3
00E31
01250
3DCB3
00451
3FA26
3FBA0
3F336
01E6E
3FA15
3FEA7
0136E
3EA37
3E3E7
3F0AD
3F42C
3DC75
3EBEF
3F6A4
00EBA
3F844
3E9A0
02861
3FBE2
00750
00468
3F3F1
3D480
3F21F
00365
00E6C
3F671
3D380
0019F
005A9
00342
0038F
3FC25
3F5A2
3FA3E
00D12
01016
00152
0045C
0076B
3FC1F
01096
00B54
3E3D6
00ACF
00A4A
00907
00215
00403
009ED
0055E
005E2
00C40
3F91A
3F5D8
0076E
3FC10
007A6
3FD0E
001BC
3FD3E
009A6
01B6E
008F8
3F4B2
3FB52
01270
00DD4
01D11
01098
3F941
0025D
3F93C
02241
01460
3F3AB
3E1F0
01A56
003CF
3FFF5
3FBCF
00227
002CD
00245
005B6
3FF72
3FBF6
3FEB7
3FAA6
0067C
3FED9
3FC91
3F97A
00241
018A5
3F6BA
3D3EA
04E12
03784
01262
002A0
01814
3AA6D
3E66D
3FE14
01F99
014D0
3FB87
3EDE2
007B9
3F07A
00BC2
00FD1
021C3
3FE01
00364
3E945
005B7
3FC8D
3EA54
3E8CC
3F713
00857
3F4F9
3E880
3E445
00C3E
3F968
3E9F5
002D7
3FBED
3F492
3F7F9
00886
3E409
00838
3F04B
01CBB
00A3C
3F1B6
008FA
01558
00C1A
0003A
01284
3FBB5
3EA43
00525
01452
0003D
3F662
015FC
3FA6D
006FF
00C38
3E404
01F74
016F1
3EF92
3FCA5
0052B
010DA
3EBA0
3EC34
0174B
01443
3F25E
3FF72
3F657
011D4
00F4F
004B2
3F705
01E28
002C4
3FC47
3F6E3
001B0
00575
010FC
3EDA8
3DFAA
00833
3E46D
00A57
3F01C
3E48C
3EDB1
3DC9C
3EABB
017C2
3F882
3F418
3F817
012D6
00959
3F84F
002C9
3E951
00657
3F58C
01336
00599
3FA95
00389
009CE
0078A
3FF74
3ED36
3FD3D
00947
00C34
01D5C
3FC1B
3F625
000D3
3F3C6
01937
0048E
3F3AE
01CA5
015CF
3F2BB
3EA87
3EF51
3D8C3
3E5AD
00966
02A2B
000E4
0112C
3EC1F
3DDA1
3F432
3F268
3E0E3
3FE0B
00479
3FAF4
3F1CC
3FFB3
3F664
3FAA6
00250
008F7
3FF76
3FBA8
00103
3F162
3FF76
3F1DB
3F81E
3FF32
3F9E8
3F14E
3FF52
3F5B7
004F3
3F1F3
011EA
00086
0138B
3FE28
3FCA7
3E0D3
00098
002B7
000A1
014BC
3FD82
3F33D
3F7D8
3F7BC
000AB
00551
005A3
00140
3FC16
00284
003C1
3FAB2
00275
3FCE5
3FF16
3FDAE
3FA78
3FB2C
0013E
005AA
00064
0058C
007E6
00E8D
3FF4A
00728
0096B
3F915
003A4
0015E
0001F
00399
00C93
00758
000FD
3FCEA
00400
008ED
3FF5A
00E54
3F87A
0024D
00089
3FC39
004A6
3FFC4
00458
002C1
3FDA5
00327
002BF
00E21
010E2
3F5A1
00116
02345
011E3
3F049
011F1
3F86B
01AD8
00952
3F985
3FD00
018EF
0026D
3FE88
3FFCB
00163
001B1
3FFBB
008C9
3FC4F
000D2
001DA
3FD73
00353
3FEE0
3FEB1
3FF94
3FEC7
00BE8
3FA16
3E89B
02237
00B94
3F709
0175B
00A8F
3D99B
01D34
00025
0237C
00E7F
3FC0D
3F1EB
3F9F1
3F578
00B86
0066F
01872
3FB95
3F444
3DFD1
00B51
3E774
00A1C
3E74F
00AB8
01742
00BC5
001AA
3DBBF
00073
3F53C
0054C
0005A
3ECE5
3FAE6
017BB
003FE
3F560
00B82
3F148
017E5
001F8
3EE0B
3FEC9
008A4
3FEC2
003A2
3FC5E
005FF
00506
0040D
3FE74
3F7F9
3FB05
00519
004D7
3FF3F
003C7
3FE7A
0024B
00536
00322
000D8
3FCB1
005BF
00CB1
0023F
004AA
3FD9A
3F564
00975
00512
0042B
003D0
00003
3FFA5
3F7BF
3F9E4
3FEE2
3F8BC
3FC15
3F859
00CB9
0061F
0061C
00152
3FDDE
3FD07
002E5
3FBCD
001E5
3FE94
00410
0036E
3F8C5
00710
00CCA
3F3D6
3F746
0191A
00CD4
3EEB9
00A0E
3F745
01725
005FB
3F169
00196
01796
3F307
00220
0068B
0042F
3F6CF
3FC62
3FA05
005CB
3EA50
003F1
001AC
005F4
001F3
00256
3F55B
3F895
3F0AC
3E94C
3E7DC
3E54F
3EF00
005DF
02371
00231
01E1F
3DB7C
3DF4A
3EA6E
3E79E
3EDAC
00AE4
00A87
3F581
3F286
0018D
3F886
3F004
3F9D2
011A8
3F998
00E2C
3F833
3F294
3FB19
3F91D
3F6C5
3FF91
3F8B3
3F336
3FC1E
3FC25
3FB28
3F466
00433
3F891
00226
005A7
3FA3A
3F791
00458
3FD6A
3F6E4
3FFDE
3F6C7
3F3F7
3F9ED
3FA70
00003
3FD36
3F965
006D4
0001A
0067C
3FC26
3FBBE
005ED
00121
3FCCA
3F847
3F419
3FF8C
00216
3FDAE
0012B
001DC
001EC
0009D
00093
00040
004D0
3FDD6
000DD
000E6
3FDFB
000B1
00322
003CD
3FEE3
3FADD
3FEF7
3FF0A
003C0
3FF87
0015F
002E1
3FDD5
3F94C
00233
0010C
002C6
3FE00
3FC46
3FEC6
000A0
00319
0061E
00E26
3FC7D
00C52
3F9FE
3FF41
002AE
0051F
0012E
003D2
00B43
001D2
3F43B
00267
3FDCA
3FCF8
3FE54
0010A
3FE7C
003FE
3FC72
0051F
3FDDC
3FC8F
3FF65
3FE9B
000B3
3FC98
3FD3D
003B9
3F53C
3F456
007D0
00EE4
3F03E
01A58
3F9E8
00E8C
00187
3FC30
00634
3FBC1
00324
3ED43
3F852
3FB91
0070B
0033D
008C6
3F4F6
3F3CA
3E342
0023B
3EA8B
01122
0011B
00BB5
00AC9
3FEA4
3FCDE
3E2C9
3F62D
3F304
00312
00135
3FC60
3FD4C
0150A
3F6FE
00D09
3FA86
3F962
3F8CD
3FA33
3FFA9
00C5B
3F610
00036
00239
3FF1A
00206
001B5
3FF40
3FFD2
00087
0015C
0052A
001F8
3FFB0
000BC
3FFC2
000AF
003C3
3FBB4
004D9
3FD07
000F0
0057E
0023C
00714
00871
00417
002AD
003C1
00146
00412
0004C
0028E
00432
3F9CD
0022E
3FEA4
3F83F
3FBC5
00311
3FFA1
3FAAF
0038E
3FF8A
3FD92
0002D
3FD28
3FDC6
3FEF0
3FC2C
3FC3D
3F69C
00763
00177
3FF7B
3F149
3FD07
3F2E5
3F80B
3FFFA
3FF69
3FCA8
3FEFA
004B3
3FC8F
3E446
3FD6A
3FB71
3FEA2
00145
3FD35
3FE4A
3FD27
3FF1C
00193
3FD7F
00012
3FEDC
3FE38
001A2
3FC86
3FC4A
3EEDC
3E77D
3EF55
3E720
3ED24
3F3FB
3FD5C
3FE76
00848
3DA6D
3DCAE
3EFBB
3EA65
3ED8A
3FB29
3EA2A
3F063
3F0B7
3F7B7
3F89D
3F0D6
3F8F4
00085
3FF49
00743
3F23D
3F2D8
3F936
3F771
3F388
3FD02
3F08D
3F90F
3F7DC
3FD70
3FA7B
3F55F
3FA62
3FA37
3FD29
0026C
3F965
3F8A5
3FED6
3FB81
3F873
3FABA
3F40D
3F2C7
3F80E
3F836
3FABB
3F80D
3FDD9
3FCB0
00284
005BD
3F926
3FC0B
001EC
3FC86
3F971
3F9DF
3F243
3FFDD
0020F
0005D
0012F
3FFB1
3FEC0
0004C
3FF97
003AA
003F5
3FECB
3FEA1
000E5
3FED8
00145
00219
003B0
3FE64
0009A
00210
00846
3FFDD
005C1
3FD79
003E4
3FDE6
3FFCE
003D0
3FEF4
0009A
3FC25
3FE78
3FBB9
00186
3FD58
3FE86
3FDE3
00243
0046B
00B55
0096A
00054
00178
0025A
002D7
0004F
00223
00288
3FF76
3FD68
3FF85
3FDF2
00021
3FE0B
00139
3FDCA
00406
3FCEF
3FD73
3FFEC
3FE4C
3FF45
3FDEA
3FDDE
3FDEA
3F5A3
3F20D
3FE4F
3FEF3
00C02
01384
00597
015F6
3EE72
3F625
001AF
3F512
00344
013B7
010BF
3FD7A
00255
00080
3FF49
3EFE2
3F260
3F632
00490
3F218
00EB0
003F8
00688
004BC
3FA26
005CE
3F930
3F653
3F360
3F4F7
3FBDD
3F49A
00583
0043A
0018E
00818
3F4F2
3F564
3F9B2
3F970
3FDF4
008CA
3F661
0008E
003DA
00012
00273
00369
3FF38
00200
000E4
3FF2C
004FB
00111
00009
0015B
3FFC2
00133
00468
3FEDA
004E5
3FE5E
00192
3FF0A
3FF6C
0008A
3FE5F
3FD40
0061D
0024D
0008D
00177
3FFEE
0041A
00467
3FE70
3FCD3
3FEC2
3FE33
3FD6E
3FED4
3FD23
3FE88
00036
3FEDE
3FF3D
3FFAE
3FE24
0003B
3FD4B
3FB38
3F7C8
3F631
3F9E2
3FA36
3FA5B
3F9AE
3FF60
0029F
003B1
3FA8F
3FB44
3FE0B
3FD6E
3FEBA
3FADA
3F602
3FEA8
3FC6C
3FD62
00003
00106
00072
0015B
0017D
3FFAB
3FD9B
3FFFC
3FFE6
3FDB6
00219
3FFB3
3FDB1
3EFB0
3E7C9
3F80E
3E844
3EC37
3E340
3EFCE
3F93F
3FF9C
3DA88
3DB8C
3F533
3ED53
3E9F3
3EC54
3DFBF
3F875
3F286
3FCD7
3F390
3F058
3F01A
3FA46
3FAA7
0017E
3F1C5
3EC88
3F8F1
3F675
3F3AC
3F896
3EFB0
3FA40
3F785
3FCE1
3FB3F
3F87F
3F838
3FA69
3FE01
00009
3F95A
3F884
3FF2D
3FBB6
3F9B1
3FA39
3F4C9
3FB96
3F8C0
3FC4F
3FB39
3F77C
3F9C6
3F92E
3FBDD
3FFF6
3FA73
3F91D
3FE63
3FC74
3FC92
3F9B3
3F3AC
3FFC9
0020F
00055
00130
3FF99
3FEC2
0004D
3FF7E
003A4
003F6
3FECB
3FE97
000E3
3FED7
00147
00204
00051
3FEE5
3FFFF
00116
3FC52
3FF9A
3FF37
3FEFA
0014A
3FF1F
3FE20
3FF0C
3FED1
0014A
3FF1C
3FD53
000F0
001F1
000A8
00168
00019
00000
0012B
3FE1B
0029D
002F9
3FDF5
000B0
000B3
0003D
3FE98
00182
3FF60
3FD7E
00010
3FE0C
3FF25
3FD1C
3FFAC
3FD8B
0029A
3FDB6
3FCF6
3FF3E
3FE72
3FF05
3FD20
3FBA3
3F53F
3F1D8
3FB9F
0040C
00174
3F5B1
3FDE9
007FA
00500
3F897
3FB5A
0043B
3FAD2
3FDEA
3F53B
3EEDE
3F621
0020E
3FDD4
0053F
3F759
3FED7
3F8FD
00834
3F75B
00DC6
00ACD
00178
002D6
3FBE3
00107
004C9
3F461
3F259
3FAC8
3F91E
3F8C8
3F27E
3FC2A
3FF2A
0047E
3F4BF
3F6F7
3FE0E
3FA4A
3F7DA
3F5B6
3F21D
3FF85
003DC
3FE78
0026F
3FF27
3FF31
00040
3FDEE
3FEE4
00502
00111
3FFA3
0015D
3FFBD
002F2
0039A
3FEC1
004E9
3FE5C
0018F
3FF08
3FF6B
00087
3FE5F
3FD40
00620
0024D
0008F
0019C
3FFEE
0041E
00467
3FEE7
3FCD7
3FEB3
3FDF0
3FDAC
3FEEE
3FD4A
3FEE9
00052
3FEE4
3FF31
3FFE9
3FE11
0006C
3FD84
3FB86
3FB9B
3F82A
3FBF4
3FBF6
3FAEA
3F910
3FD03
3FDB3
3FF4C
3F9D8
3FA3A
3FDB3
3FC53
3FDE5
3FB91
3F56E
00085
3FC6C
3FF01
00005
3FEE2
00072
3FD3B
3FF5D
3FF52
3FD9A
3FFFC
3FED4
3FD8B
0021E
3FB22
3FB3E
3ED56
3EA1F
3FA70
3E71B
3DEC2
3E41F
3EFCD
3F2E2
3FB3F
3DE55
3D9EA
3F3E8
3EDEA
3EB1A
3EFAD
3DCC9
3F688
3F2A2
3FC4F
3F2DD
3ECB8
3EFC3
3F713
3F79E
3FD41
3F3D4
3EEE3
3F9D2
3F7BA
3F413
3F79B
3EE2E
3FB0D
3F632
3FE0B
3FA8A
3F714
3F708
3F930
3FC8E
3FFE6
3F8FF
3F869
3FE1F
3FBD3
3F9A0
3FB09
3F41E
3F9D3
3F757
3FCCE
3FBC4
3F65B
3F860
3F8C0
3FBE5
3FF85
3FA6A
3FA8E
3FF26
3FC79
3FC2F
3F95F
3F343
3FFC9
00210
00054
00130
3FF99
3FEC1
0004D
3FF7F
003A4
003F5
3FECB
3FE97
000E3
3FED7
00147
00203
00057
3FE28
00003
001B7
3FF8D
3FF8D
3FE5C
3FDDF
000BF
3FF48
00049
00039
3FF0F
00143
3FD27
3FD34
3FF2C
001CE
3FF8E
00169
3FEFA
00000
0011B
3FD6B
00239
002FA
3FF80
000FA
000B3
0003D
00036
0017A
3FEBF
3FD53
3FFF8
3FE39
3FE24
3FD0A
3FE9D
3FD2E
001B1
3FDD4
3FD6D
3FF2A
3FEA7
3FEF9
3FD50
3FB85
3F8E3
3F472
00067
3FCAE
3F776
3F648
3FDD4
3FDB6
008CD
3F574
3F5A9
3FC19
3F9A1
3FE99
3FB6B
3F62F
000A1
3FFC2
0025B
00504
0099C
3FE81
002D9
004A9
0017A
0092B
0072A
00979
00273
3F96C
3FF19
008A0
3F9A6
3F515
3FC12
3F792
3F329
3F336
3F84B
3FB3F
001B5
3F579
3F247
3FB77
3F95C
3F8AA
3F715
3EFFB
3FF85
003DA
3FE77
0026E
3FF28
3FF31
00040
3FDEE
3FEE3
00503
00111
3FFA4
00153
3FFBD
002F2
0039A
3FEC6
004E3
3FE5C
00191
3FF04
3FF72
00089
3FE5F
3FD40
0061F
0024D
0008D
001A6
3FFEF
0041B
00468
3FF1E
3FCD8
3FECB
3FDF0
3FD9A
3FEEE
3FD20
3FE9D
00040
3FEE4
3FF31
3FFBE
3FE13
0006C
3FCBE
3FB38
3FC29
3F7E8
3FC93
3FBA2
3F849
3F911
3FA51
3FB5E
3FF06
3F9D9
3F9CF
3FDA6
3FC41
3FDDF
3FA2A
3F421
00077
3FC6D
3FEFF
00002
3FEDF
00072
3FD39
3FF5D
3FF51
3FD9A
3FFFC
3FED7
3FE52
0021E
3FB31
3FB3E
3DF72
3DF9A
3F723
3EE1F
3DB62
3DBC0
3E53F
3F40E
3F88B
3DC0C
3E11D
3F965
3F0FE
3EA21
3E7BC
3DDC5
3E868
3E841
3FB99
3FA92
3ECF9
3EA86
3EFF8
3FC65
3FD3D
3F187
3F86E
0023E
3FA24
3F410
3EA30
3EE42
3F3C5
3F4CD
0013F
00960
3F5D1
3F6BB
3F71B
005E5
3FF90
3F8EF
3FA5E
001D1
3FA34
3F991
3F421
3F3F8
3F0E4
3F06C
3FD0B
00031
3F5F8
3F52D
3F497
3FC66
3FF8E
3F964
00279
00587
3FDF1
3FC59
3EFF4
3F326
3FFDB
00206
00066
00127
3FF9F
3FEDD
0004E
3FF84
003A4
003F5
3FECE
3FE98
000E0
3FED8
00144
00203
3FF35
3FD25
3FEFC
0019D
00375
3FEB6
3FDDA
3FDF1
000B0
3FF72
00393
006C5
3FFB3
0013A
3F94A
3FC65
3FF09
3FFEA
000F4
00475
00030
3FF51
3FF7F
3FCFF
00239
002C8
003E9
002E9
000CB
0003E
3FC88
00179
3FE61
3FC87
3FF42
3FEB2
3FE7C
3FC91
3FDAC
3FD5E
00111
3FE01
3FEE2
00112
3FF0F
3FF03
3FC00
3FB31
3F4A1
3F8EA
3FB6D
009CD
3FF53
3F605
3F962
00714
0006F
3F723
3F857
00DBA
3FB63
3FE1D
3E9AD
3F158
3FD8F
001C0
00557
013D0
00868
3FDCB
000B9
00D9D
000EC
00640
00069
005DD
3FF99
3F9EA
3FC54
006E5
3F143
3F0A4
3FC7F
3FE8D
3F16A
3F147
3F42E
3FDDE
00022
3F4CA
3F85F
0005F
3FA86
3F890
3F0A6
3EF93
3F929
3FCB8
00068
0083A
00120
3FF6A
3FCB0
3FE4A
3FEE4
0029D
00C02
007CD
0016F
3FFC5
3F6A6
0039A
3F799
3FBA0
0003A
0084A
001B5
3FF68
3FBE1
3FE8B
3FD41
00278
00E89
00A04
00183
3FFF9
3F47E
00468
3FE68
3FC3A
3FF1F
3FE14
3FD8C
3FE98
3FC9F
3FE60
00037
3FEE4
3FEFB
3FF8F
3FE38
0006C
3FD7E
3FB3C
3F5C6
3F82C
3FE09
0068B
3F798
3F92F
3F9F0
002BA
3FEF4
3F9E2
3FAB2
000DE
3FB8C
3FDCC
3F593
3F42D
3F500
3F84D
3FE31
00729
3FDB3
3FCCC
3F948
3FE79
3FF55
3FDC1
00B3F
009B9
3FF2E
0021F
3F13C
3FB3E
