1A0
1DC
06A
183
09D
19D
09B
1B3
030
197
090
072
18D
1ED
071
152
08D
050
020
168
191
0AC
084
1B2
187
17B
1AC
06D
09C
096
181
040
18D
1D8
060
1B7
1D1
19F
07C
054
161
1AD
087
084
083
1A0
17A
1BF
164
1D0
1E8
076
185
171
17C
0BB
05D
074
177
1B0
1D0
0A7
16D
182
0A1
095
1D7
1A0
1E4
17D
19E
061
0A0
079
1CC
1F3
035
19F
075
199
03A
1F6
1C0
0A0
1E9
1B7
1C4
01A
1CC
19D
1B2
1A2
032
028
1D2
190
098
1AE
04B
17E
160
15C
18A
16F
02C
025
087
0A2
053
170
1E7
17E
1A8
161
08F
07E
0A7
075
039
150
178
059
190
182
1B9
196
08C
060
190
182
192
088
171
05E
19C
18E
0B3
155
01D
0CA
076
060
17E
1A3
1C3
097
085
066
073
073
172
19C
15A
183
174
19E
044
049
06F
186
185
1C8
0A6
037
05C
081
174
15D
091
06F
16A
183
1C2
0BA
049
019
047
176
066
095
194
1DA
012
179
08B
134
091
0B1
068
09B
158
167
08A
071
186
079
180
190
1E9
055
161
193
199
0AA
182
198
18F
049
19B
1B9
1C9
088
099
0C1
18E
17F
086
0AD
02A
1E4
07F
08B
08D
1B8
1A5
19D
1C0
1C0
170
17F
19D
16F
090
082
1B3
193
18A
1A3
09B
01D
004
1C1
00C
1B0
1DA
01E
005
1B0
03E
01C
006
009
054
01C
049
063
026
010
1FF
1EF
1F1
182
182
18B
0C5
087
047
080
13E
01E
164
163
1B5
1A5
0B2
02F
171
187
0B3
07E
07B
15D
1D0
06C
1B6
1A0
181
15B
087
1B6
1AD
1C1
06F
16D
16F
17E
03A
087
0B0
088
18F
14D
0A4
1C7
17F
17F
1B7
1C9
07E
09A
1B4
1B4
1AB
17A
190
178
1B9
1BA
0A8
064
