0D
71
05
0B
0A
7D
04
06
01
00
05
74
00
08
6D
64
01
01
7B
10
6C
7B
78
03
78
00
08
02
7F
7D
73
7B
74
7B
6D
78
7E
04
6C
76
78
7B
00
08
00
03
06
05
04
74
73
63
7D
10
67
69
7D
73
7A
78
00
03
7D
02
00
15
04
0D
08
75
11
04
00
79
75
06
00
01
6A
7E
03
05
03
75
7A
08
7F
72
73
00
0A
76
00
0A
75
01
14
5D
56
12
12
0E
73
7A
79
55
0B
19
00
20
7F
56
72
0D
2A
4A
5F
05
6E
07
07
04
7C
67
7F
70
1E
23
15
77
7B
7E
0F
75
78
04
17
65
1F
6D
00
65
08
5F
6C
0F
16
5C
6A
03
00
15
0E
78
7D
66
7F
79
16
24
78
12
0D
01
07
7B
11
10
7C
07
6F
7D
00
02
78
7F
7F
11
0A
1D
04
72
27
02
7C
17
6E
0A
00
10
72
01
7A
7D
24
07
76
06
00
0D
05
27
6F
78
7F
6E
07
08
04
00
75
71
7E
13
77
0C
7E
76
75
62
00
0E
7A
75
0E
73
76
7F
0B
04
78
7A
0B
64
1D
76
00
71
77
62
03
06
0F
5B
06
11
0E
1C
16
5D
0D
57
00
64
1A
7A
06
04
7E
11
07
7A
07
0B
7C
04
7F
06
00
05
6A
79
00
01
71
76
75
02
7A
7F
75
76
06
7B
7F
73
7C
73
79
79
6E
11
08
77
02
7E
0F
79
7E
0B
00
7C
7C
03
6B
06
77
72
03
79
75
6D
04
7C
03
7D
00
0A
75
7C
76
7F
7B
7B
7F
0D
79
0B
7B
7D
79
79
00
08
03
00
78
0C
03
6A
05
7F
7D
6A
6E
0B
06
78
00
06
65
7D
76
7D
7C
18
0F
73
0E
7E
03
01
77
00
7F
12
6E
7B
7E
06
74
07
06
7C
05
08
10
6F
0E
0A
7F
06
05
09
03
13
75
04
0B
73
10
09
0D
74
0D
00
00
70
6F
74
7D
00
08
05
0C
7F
7C
05
0B
04
04
00
7F
17
06
0C
7E
01
08
70
04
05
7A
78
6F
7B
79
6E
00
08
73
02
01
7E
68
08
77
13
7C
12
05
04
79
07
00
10
0A
0B
7C
00
7C
03
73
08
04
07
02
02
15
77
7F
75
0C
03
0A
00
05
7D
6F
08
7E
0B
01
7C
02
79
00
7F
02
7C
7C
0A
7B
7E
7F
74
09
7E
09
79
0B
79
00
72
7B
76
04
05
0E
02
18
01
13
00
10
74
00
72
00
78
14
03
01
06
0F
78
6E
79
06
01
77
02
01
7C
00
05
6A
79
78
00
7C
01
75
67
7B
00
72
05
72
7C
7F
73
74
7B
76
02
76
06
00
7C
7C
0B
0C
78
72
08
00
06
78
04
6D
04
07
7B
7E
7D
76
01
02
7A
09
78
00
04
01
00
7D
7D
7A
6F
7C
05
75
00
01
7B
6F
04
00
02
76
7D
68
09
04
7A
07
0B
01
03
7E
09
19
6F
00
0B
7D
00
78
7E
0A
7E
7C
7E
78
00
04
02
03
00
7F
0F
70
06
74
7B
02
75
0E
08
76
04
7B
08
03
7B
7F
01
01
01
00
7C
05
77
7D
7C
74
74
01
05
01
7C
00
06
79
76
7C
00
05
78
13
14
09
78
06
02
0B
7F
7F
03
09
04
75
03
01
62
11
01
01
7C
6F
01
00
7B
00
12
75
00
7F
70
7C
7E
7B
10
7D
00
04
03
6E
08
00
0C
77
04
02
07
7A
06
72
07
02
0C
7B
03
10
77
00
7B
10
06
10
06
79
0E
6E
05
07
06
7B
7D
79
07
00
70
01
7B
7A
06
74
02
7A
70
04
0A
70
01
7F
7C
00
6C
7E
77
06
7E
06
09
16
1D
06
03
0E
7F
05
7B
00
06
0B
6E
7B
77
04
78
72
7B
73
7E
77
06
6D
75
00
0E
71
7E
7C
7E
69
01
73
71
05
0B
6F
05
7A
03
7F
76
03
7B
09
09
72
06
03
09
7F
04
02
6E
78
04
00
79
79
7D
74
01
06
72
03
04
7B
76
0B
7B
7C
02
00
08
08
7C
7A
7A
75
7B
7A
09
74
02
03
7C
72
7C
7F
09
04
7B
74
06
0D
78
0A
01
0E
06
05
04
02
6C
00
7A
71
03
78
09
0E
7A
72
05
76
79
71
0A
77
73
00
12
6F
7D
79
05
03
05
02
78
7D
7D
7C
7E
08
16
7F
0A
00
7D
00
02
05
7C
6C
6D
7A
70
74
0C
02
09
7F
7D
79
7A
7B
06
02
06
07
09
7E
7E
0A
7D
0A
06
7F
02
02
03
77
72
7C
72
04
0D
77
06
0B
7F
78
6B
00
7E
01
01
07
79
7E
02
76
07
7E
77
7E
04
6D
01
7F
02
76
78
0E
7D
7A
0E
76
7B
08
76
06
01
05
00
7F
7C
00
02
77
02
7E
79
78
7C
0D
02
7B
02
07
70
00
06
74
01
7F
03
7D
7D
76
6D
04
02
72
0A
05
7F
7F
7E
00
7B
03
01
78
00
0C
0F
05
71
0A
7E
07
01
00
7F
74
7E
01
7E
03
02
7B
01
75
7B
79
01
79
7F
00
0D
06
79
03
7F
7E
0F
7F
75
07
0B
7B
11
02
08
7F
76
06
79
09
09
79
77
05
0B
76
03
02
7E
6C
78
00
00
76
05
77
7D
79
03
7F
18
69
78
04
7C
7A
7E
00
03
0B
02
7E
7E
78
04
07
12
78
7B
18
7B
7B
78
00
0B
07
01
02
6A
02
7B
72
78
09
01
7B
05
74
7E
00
73
74
7E
79
7E
0C
01
78
03
02
7D
02
7B
78
6A
00
0C
73
00
09
7D
00
7E
78
7D
76
75
77
7C
01
05
7F
00
01
00
00
7D
09
01
76
75
72
78
75
0C
0A
06
7F
02
02
00
0D
79
10
7F
7B
06
77
7C
0B
7C
7C
01
7F
02
77
03
7E
78
7F
71
7C
04
7B
04
06
00
6E
6B
00
7D
7D
05
7E
04
09
01
05
09
7A
78
07
0B
02
79
00
04
79
03
00
01
7F
79
78
00
7F
00
76
7C
0D
7B
00
76
03
78
09
7D
76
78
7C
03
07
79
7B
77
7B
00
00
03
7F
7B
7D
7D
7B
7E
78
6F
7A
7F
70
03
05
13
7F
73
05
00
01
01
07
01
00
0F
04
78
0E
77
06
7B
7F
0C
74
05
7D
00
7F
7E
78
7B
7C
00
7D
08
7D
7F
7F
02
7D
7C
77
07
01
07
7F
7D
06
0B
02
15
7D
13
7F
73
05
7E
7B
06
02
7F
07
04
75
70
11
03
7B
04
00
01
75
7C
02
79
00
73
06
08
70
74
08
7F
78
75
00
76
75
7E
70
7A
72
7C
01
06
01
03
09
03
00
7F
00
05
01
02
00
77
0F
7D
73
6D
74
74
00
7E
69
7D
00
76
6E
7F
02
78
01
01
7E
7B
04
07
7A
02
72
7B
00
0C
79
7D
07
05
7F
06
7A
7D
76
75
76
05
05
7E
7F
79
01
05
04
7E
7D
01
73
78
75
03
7C
12
08
08
00
7B
05
08
0D
79
09
05
7E
0E
74
74
7B
7E
0D
00
7F
11
7F
00
01
79
05
09
75
00
77
7E
72
78
72
00
00
73
7A
76
79
77
7F
7C
7E
07
06
05
0A
09
7B
68
00
16
00
04
0E
06
7C
77
73
05
09
05
79
7A
0B
01
00
74
6F
05
00
77
78
76
75
0C
03
03
79
6B
7B
04
00
01
01
73
7E
7C
7A
0B
7B
78
7F
04
01
08
03
1A
7F
75
0B
02
10
00
7E
08
76
10
00
05
00
72
7F
7B
7F
0F
7B
02
00
73
00
0A
7B
79
7D
7B
7F
06
7F
7E
00
7F
0B
00
7A
0B
03
09
04
05
7D
7B
05
0A
0A
0D
7F
7F
07
77
07
01
01
7B
12
07
06
74
10
01
07
7B
00
0A
7C
02
79
7B
06
7F
78
7E
6E
77
00
01
76
00
00
03
6C
7B
6E
7C
78
09
7F
02
00
05
07
02
7F
7D
7F
04
7F
04
12
7F
00
08
78
78
01
77
01
02
79
01
00
71
6C
7A
01
6E
7A
0B
7C
03
7E
0A
7E
04
7A
00
7F
0F
7D
7D
03
79
02
07
00
00
77
7D
7D
0A
06
70
7F
0B
02
02
78
77
7D
09
7A
7E
01
7B
79
0F
0D
04
00
78
0F
05
08
7F
07
04
01
01
7B
06
7E
79
0B
7E
7F
0A
05
04
7E
02
7A
0B
79
79
69
06
78
76
7A
01
00
77
7B
7F
7C
71
01
7F
78
09
06
06
0F
02
78
70
00
09
7A
04
06
0C
01
72
77
08
02
7A
6A
79
06
76
00
7B
7F
76
00
03
7D
7A
76
7D
00
01
75
07
02
75
00
09
09
04
71
7F
74
10
7A
72
7D
7C
00
0D
07
11
00
7F
0C
07
12
07
05
7A
00
13
03
7C
6D
74
08
0F
00
0A
02
06
03
74
05
0E
7D
7F
00
0B
7C
0F
7D
7D
00
05
06
7F
04
7E
08
01
08
05
07
00
03
0C
01
06
00
7F
05
7B
75
7E
0F
00
07
09
00
7A
7D
07
7E
7D
7F
01
77
79
7C
7A
01
7E
7E
08
73
7C
72
04
7F
01
00
06
00
7F
6E
7B
72
7E
79
7B
7F
05
79
7B
76
00
00
04
7C
01
7B
7F
0C
0E
71
7F
75
7B
01
03
7E
03
00
74
7A
7D
7E
7A
79
0B
77
78
03
0D
02
06
7A
78
00
0F
79
05
0D
78
01
09
7B
06
00
05
7D
00
07
6B
7F
08
7C
75
7B
79
74
12
7F
02
7F
03
7B
11
0A
02
00
08
0E
08
02
04
04
07
7B
0A
7D
00
74
78
08
79
7F
00
01
73
7E
06
0B
10
77
09
72
0E
78
7C
75
05
00
7A
76
7A
06
6C
77
01
7B
08
0B
10
7C
08
6F
74
7F
04
77
7B
02
08
07
72
73
03
03
7C
7B
75
7E
77
00
77
72
7E
06
7F
77
7D
74
01
7C
7D
06
77
74
6C
00
7F
7E
02
75
01
77
0E
7D
77
01
7E
08
0A
05
02
00
02
03
09
15
0F
77
77
03
15
0A
79
65
70
09
16
00
7C
0A
01
02
73
79
00
7C
00
04
7C
01
79
7F
00
7F
00
02
00
01
01
0B
7F
00
0D
01
02
08
02
01
7E
00
7F
04
7E
08
7D
77
7B
01
05
06
02
77
02
01
03
7F
79
02
7D
00
05
7A
05
00
7A
06
01
7E
01
00
04
7F
7A
7F
7E
72
0A
76
01
05
7D
00
02
79
78
08
0A
7F
05
02
02
04
0A
09
00
78
03
01
7B
02
79
01
76
7F
77
7C
04
02
6D
72
05
7E
02
0A
08
09
05
75
76
00
08
78
00
0B
7F
79
7E
77
05
74
00
78
7E
02
6F
00
08
04
77
7B
01
77
0B
7E
7F
7E
77
04
02
01
7C
7F
07
0A
05
0A
06
7C
01
78
0A
04
07
77
7E
0A
77
00
06
0A
75
79
11
01
7F
7D
07
77
04
78
6F
0B
06
00
7C
00
04
7D
77
76
06
05
05
7E
10
7D
7B
75
7F
7F
04
79
7F
09
04
0C
7F
77
79
05
72
76
78
7E
72
7F
79
79
7B
7C
75
01
03
77
75
02
7C
04
7C
7C
75
7F
01
7D
00
7F
02
04
0B
7C
7B
7D
7C
04
06
7B
7A
00
7E
02
06
06
13
78
7D
03
10
05
7D
74
75
00
13
7F
7F
0D
00
00
06
00
00
7E
7C
07
79
01
08
7B
7F
00
02
06
01
04
76
03
78
0D
0C
06
04
7C
02
7B
7A
00
78
09
7B
03
7D
05
7E
01
05
7C
7E
07
04
78
7C
00
7F
01
01
06
78
7F
00
00
02
79
7C
02
7F
7D
7C
00
7D
7E
7E
7C
00
74
00
7D
77
7E
75
01
7E
7F
7E
00
05
7C
03
03
02
05
7D
00
09
71
7F
00
03
06
7C
00
75
06
02
7F
78
7F
7F
7F
04
05
0B
7F
02
7E
79
00
05
7F
7D
02
0A
7B
78
79
02
03
7E
78
7B
04
6D
00
07
78
70
72
06
7B
0D
06
77
7F
78
04
02
01
05
00
06
08
05
03
06
77
77
7D
08
07
0B
78
77
0A
76
00
05
05
73
78
05
01
7A
01
01
75
7C
7F
01
08
7D
00
7D
08
09
05
74
76
01
74
7C
04
7D
7D
00
7A
78
00
08
75
7F
0D
02
00
72
72
0B
7B
72
79
05
7A
72
00
01
6E
79
06
7A
7B
00
7A
0A
7B
09
7D
08
7B
78
00
02
04
00
7D
7E
01
0A
01
7E
79
79
7F
06
7A
00
00
00
04
05
77
04
6B
02
0A
0C
09
05
7F
7A
07
09
00
0E
17
03
77
7C
75
03
7C
7F
04
08
7B
79
05
04
00
06
01
01
0D
77
04
7B
07
0B
01
01
78
03
7C
7A
00
7D
7D
79
0D
73
7D
7A
7C
02
02
00
7D
09
75
7F
00
00
7E
7E
01
01
00
7E
7A
03
03
01
7E
7F
00
7F
00
7D
7F
7E
78
02
7D
7D
78
7C
02
7B
00
7A
03
7E
00
03
02
7F
7D
03
08
7F
01
08
7E
02
00
7A
0D
7E
00
7D
04
00
08
75
7F
03
7A
04
7C
0C
04
04
7C
7E
00
02
7D
7D
7F
09
01
7B
00
7E
01
02
74
7D
04
70
00
01
79
6F
76
7C
75
0C
06
7E
7E
04
7D
02
02
7F
00
09
09
04
00
09
01
75
7D
01
08
05
7A
7A
06
77
7F
01
02
70
77
7D
03
7B
78
02
05
03
02
76
0A
7D
00
7E
04
7E
00
00
03
78
78
7F
02
7D
7A
02
7C
7C
00
00
7F
7B
03
7E
01
79
79
7B
05
78
79
7A
7E
03
00
77
7B
78
7D
04
79
7D
79
7B
02
01
01
7D
08
0B
00
03
02
7F
7B
7F
7B
04
05
7C
00
79
7D
05
7D
04
00
02
05
05
7D
7E
70
08
06
09
04
02
7A
7C
07
7F
00
08
17
02
7E
06
7C
03
03
04
02
01
7F
04
03
7D
00
7E
01
03
08
75
7F
7C
7E
07
04
01
7D
02
7D
7E
00
03
7C
7C
04
7D
7A
7E
7B
7B
04
05
7E
7F
79
02
00
7C
7E
7F
0A
7D
7C
7C
7B
05
7E
06
7D
06
7B
7C
7F
7D
7F
7F
03
00
7C
7A
7B
00
7E
01
7F
00
00
7D
7F
01
02
01
03
04
7E
7C
03
0D
7D
08
7F
08
06
79
00
77
08
01
76
7D
78
7A
7E
02
05
01
71
03
7F
04
00
04
7F
7C
02
7E
7E
7C
7D
7E
04
01
76
02
7E
77
00
06
73
70
7E
01
79
03
02
01
04
7E
7D
08
00
7D
00
02
07
04
7F
00
7A
7A
7F
02
04
08
79
79
7F
7C
00
0B
7E
72
00
06
7F
79
7E
0E
7F
0A
00
7E
0D
7A
00
00
0A
02
00
02
79
78
7D
7E
7F
02
7A
7D
05
00
7F
00
01
7B
03
05
04
7E
00
08
00
02
7E
03
07
75
00
75
7D
7D
7A
07
77
7B
00
02
05
03
7A
76
05
00
00
7F
09
7F
7E
04
7B
00
01
01
02
79
7B
01
02
7F
00
7C
08
04
02
03
76
7D
00
09
04
0C
02
79
7C
7A
00
08
0F
05
00
01
7E
7D
7F
03
01
02
7C
02
03
7C
00
04
0A
00
7C
00
7E
7F
00
7E
02
02
7F
03
00
7F
00
01
7B
7E
00
7E
7F
7F
7B
08
03
00
7F
03
7D
7C
00
00
7E
7F
7D
7E
7C
02
7E
02
00
00
7E
00
7C
7E
00
02
7E
7D
7C
01
7D
01
00
03
7E
01
7F
7C
7D
00
00
06
05
00
02
7F
00
00
7F
07
00
00
00
7F
00
7D
00
02
00
7F
7D
7D
75
02
7D
03
7E
04
7C
03
7E
76
00
6D
7D
7A
7D
7E
7C
7B
01
03
03
01
76
01
02
77
00
07
75
73
7F
02
7B
7F
00
01
04
7F
7E
04
02
7D
7F
07
0C
04
01
00
7A
7D
03
05
03
07
7B
7B
00
01
00
04
79
76
7C
01
7F
00
02
03
7E
04
00
7B
03
00
00
07
09
7F
7E
02
7E
02
7C
02
7F
03
7F
7E
7B
7C
00
04
00
7E
7C
02
04
01
7D
08
00
7D
7E
03
04
79
00
04
03
7C
7C
00
7F
02
03
0B
7B
07
7D
7E
07
7E
00
77
07
01
7E
04
7E
02
00
01
01
7C
00
01
04
00
00
01
08
04
7E
0B
79
02
00
03
08
07
05
7A
00
03
00
10
0D
09
7B
02
03
79
7B
7C
02
7A
00
7D
03
7F
00
02
7D
00
04
7D
03
00
78
7D
75
7F
7E
79
02
7F
00
79
05
7E
7F
02
7E
00
7E
00
04
7F
00
04
01
7F
00
04
7A
7F
7F
7F
7D
01
7E
00
02
00
7E
02
7E
7F
00
01
7C
7E
01
02
01
7F
7F
02
00
00
7F
7E
7E
00
00
02
7C
00
7F
7F
7F
7F
00
00
7E
7F
00
7E
7F
7F
00
7F
7F
7F
7A
7E
00
79
7A
04
00
79
7A
04
05
7B
00
7F
07
7B
7D
7A
7C
75
04
08
7F
7F
74
7D
05
7A
00
01
00
75
7D
02
01
7E
02
00
01
7F
7F
7B
02
03
7F
0C
06
06
00
7E
7B
78
05
08
7F
00
78
7D
02
7D
00
7D
04
77
7F
00
01
7D
7E
02
7E
7E
7D
7B
7C
7F
00
7F
7E
00
00
7B
01
7B
7F
02
00
04
7F
02
00
7F
00
03
02
7E
7D
00
06
7F
7D
7F
79
7E
7D
7D
05
00
00
7B
00
7D
7A
05
03
7C
7F
01
01
7D
7E
7E
05
7F
00
01
03
7D
7D
05
04
00
01
02
7F
00
7F
7D
03
03
00
08
08
06
03
08
7C
05
04
06
01
06
04
71
7C
06
7F
0A
07
0A
00
03
01
01
02
04
7B
02
7D
7A
7F
00
00
07
01
01
7F
7E
7F
00
7E
00
7C
7F
7E
7D
7F
7F
00
7D
01
7E
03
7E
03
00
7A
7E
77
7F
7F
79
02
7F
00
7A
05
7F
00
7D
7F
01
7C
7F
7C
7F
7E
7C
7F
7F
00
7D
02
7E
00
00
01
01
7E
00
7C
7D
7E
7C
00
7D
00
00
08
7E
7F
7F
00
7F
7F
02
00
02
00
7F
7E
7F
00
7F
00
00
7A
7F
07
7B
7E
00
7A
7B
78
7C
03
7D
00
06
7E
01
78
00
7F
79
04
03
7A
78
71
7D
06
7A
00
01
7C
76
00
06
00
03
05
02
7D
02
7E
78
00
03
00
0B
05
06
79
00
02
78
04
01
7F
78
76
01
06
7D
00
00
7D
76
7E
7D
00
01
7F
04
7E
7C
00
00
02
7D
00
05
06
7E
04
7E
7F
7E
7F
03
7A
7A
79
78
00
7C
00
7C
08
7D
7D
7F
04
7E
7D
00
77
7C
7C
7B
01
7E
00
7B
04
7D
00
04
01
7E
7D
7F
7B
7E
7C
75
7F
00
00
7D
04
03
7F
05
01
03
01
02
01
01
02
7B
00
01
00
07
05
06
03
02
7F
06
04
08
7D
03
02
7A
7C
02
00
0A
07
06
7C
03
7F
04
01
00
7C
00
7E
7C
04
01
00
7E
7F
02
7F
7E
7E
00
7E
00
7F
00
7E
7F
7E
7F
00
7F
7F
7E
7F
7F
7E
00
7E
00
00
7F
7F
7F
7E
7F
00
7F
00
7E
7F
7D
7D
01
7D
00
7F
7F
7E
7F
7D
7F
00
7F
7F
7E
7C
7E
7F
00
7E
00
7F
7F
7E
00
00
7F
00
7F
7F
7F
7F
7F
7F
7F
7F
7F
00
7F
7F
7F
7F
7F
00
7F
00
00
7F
7E
7C
06
00
03
7E
7D
7D
7B
7F
7B
00
09
02
01
72
02
7F
7C
05
7E
01
7A
78
02
09
7B
00
04
75
76
7D
05
7C
05
02
7D
00
7F
01
7B
00
01
00
02
02
03
77
01
03
7A
06
00
03
7B
7A
03
08
7E
00
04
7A
77
7E
7F
01
00
7E
00
7F
00
7F
7F
01
7F
00
7D
00
00
7A
7D
00
7E
02
7F
7F
7D
7C
02
02
7E
00
03
7B
7B
79
7E
7E
01
7F
00
7D
7E
7D
7E
02
7E
00
00
00
7E
7D
00
7E
05
00
02
00
7D
7E
7C
7F
7F
00
07
01
00
7E
02
7D
04
00
7E
00
7E
03
7D
7D
00
00
04
03
03
01
7F
00
01
02
02
7F
01
01
00
7F
01
00
01
02
02
7C
00
7E
00
7D
7C
00
7E
00
7E
7E
7F
00
7E
7E
7E
7F
7E
7E
00
7E
00
7F
00
7E
7F
7E
7F
00
7F
7F
7E
00
7E
7E
01
7E
00
00
7F
7F
7F
7F
7F
00
7F
00
7E
7F
7D
7D
01
7E
00
7F
7F
7E
7F
7E
7F
00
7F
7F
7E
7F
7D
7E
00
7E
7F
01
7E
7F
00
7E
7F
00
7F
7F
7E
00
00
7F
7F
7F
7F
7F
7F
00
7F
7F
7F
00
7F
00
7F
7A
7C
7A
00
7F
7C
7D
7E
7E
7E
7E
7F
00
7F
7D
7F
77
7F
7C
7E
7F
7E
02
7B
7B
7E
03
7B
00
00
79
79
7A
02
7B
7F
7C
78
04
7D
02
7E
7D
00
00
7F
7E
7F
7C
7F
01
7F
02
01
01
7C
7D
7F
04
7F
00
01
7E
7C
7F
7E
7F
7F
7E
7F
01
7E
00
00
7E
7F
00
7F
7F
7F
78
7F
7D
7E
00
7F
02
7D
7E
00
03
7F
00
00
7C
7B
7F
7C
7D
00
7E
00
7F
7F
7E
7F
7E
7E
00
00
00
7E
7C
00
7D
01
7E
7B
00
7E
7E
7E
7E
00
00
7E
7D
7F
7C
02
7D
00
7E
7A
01
7E
02
7F
7D
01
00
00
7F
00
01
7F
00
7F
7F
7F
01
7E
01
01
7E
00
00
00
00
00
7D
02
7E
00
7D
7B
01
7F
00
00
7F
01
00
7F
7D
7F
7F
7E
7E
00
7E
00
7F
00
7E
7F
7E
7F
00
7F
7F
7E
7F
00
7E
00
7E
7F
00
7F
7F
7F
7F
7F
00
7E
7F
7E
7F
7E
7D
01
7D
00
7F
7F
7E
7F
7E
7F
00
7E
7E
7E
7F
7F
7E
00
7E
00
00
00
7E
7F
7E
7F
00
7E
7F
7E
7F
04
7F
00
7F
7F
00
7F
00
00
7F
00
00
7D
7C
7F
7B
00
7C
00
7C
79
01
7D
7E
7E
7F
7F
00
7E
7B
7E
7D
7C
7D
01
7B
7C
7F
7C
7B
7E
7E
7C
00
7E
7C
7D
7B
03
7C
00
7C
79
03
7E
01
7F
7E
00
00
7F
7D
7F
03
7D
01
01
7D
00
7F
7C
7D
7F
7E
00
00
7F
00
7F
00
7F
7F
00
7E
00
00
7F
00
7F
7F
00
00
7E
00
7F
7D
02
7D
01
7E
7E
00
7D
7E
7F
00
7E
00
7D
7B
7D
7F
7D
7D
01
7E
00
7F
7F
7E
7F
7E
7E
00
7F
00
7E
7D
03
7D
01
7D
7C
02
7D
7E
7F
7F
01
00
7D
7A
7D
7D
03
7D
00
7F
7C
02
7F
01
00
7F
00
00
7F
7D
7F
01
7F
00
7F
7F
7F
00
7F
00
01
7F
00
00
7F
00
00
7F
02
7F
00
7D
7F
00
7F
7E
00
7E
7E
00
7D
7C
7E
7F
7E
7E
00
7E
00
7F
00
7E
7F
7E
7F
00
7F
7F
7E
00
7E
7E
00
7E
00
00
7F
7F
00
7F
7F
00
7F
00
7E
7F
7D
7D
01
7E
7F
00
7F
7E
00
7E
7F
00
7F
7F
7E
7F
01
7E
01
7E
7D
00
7F
7F
7F
7E
7F
00
7C
7C
7E
7F
7F
02
7E
7F
7F
00
00
00
00
00
7C
00
7F
7F
7F
7E
02
7B
01
7C
7E
7D
7E
7F
00
7D
7D
00
7C
7A
7E
7F
7B
7C
01
7A
7E
7D
7E
7B
7D
7D
7C
00
7D
7E
7D
7C
02
7C
01
7C
7B
02
7E
7F
7E
7D
7F
00
7C
7C
7D
02
7E
00
00
7D
01
7E
7E
7F
00
7E
00
00
00
01
7F
7F
04
01
00
7E
7F
00
7E
00
01
00
7E
00
7B
79
7E
7C
02
7E
01
7B
77
01
7C
7E
7C
7E
01
00
7A
7C
7E
7F
02
7E
01
7D
7F
7F
7F
7F
00
7E
7D
00
7C
7A
7D
7E
04
7D
01
7D
7C
01
7E
7F
7F
7E
00
00
7B
7A
7E
7C
04
7E
00
7F
7B
02
7E
00
7F
7F
00
00
7D
7C
7E
7F
01
00
00
7F
7E
01
7F
7F
00
7F
00
00
7F
7E
7F
18
13
6D
7A
06
0C
66
7D
7C
74
73
7F
00
0B
05
0B
00
7F
70
7B
12
74
00
7D
0C
7B
79
74
00
7E
7E
7E
7B
7A
7F
00
79
7E
78
00
76
7E
7C
7B
00
7C
00
7C
02
7D
02
02
7E
05
08
77
00
7D
02
7E
00
00
01
76
25
13
7A
6E
04
23
5E
71
79
77
6F
05
7F
73
7A
0C
77
7C
04
02
78
7E
09
74
7A
02
08
01
00
79
02
76
5A
09
10
08
7A
78
70
61
6A
17
14
7C
00
60
0B
7B
6A
03
03
03
78
7B
75
70
6F
0C
06
79
00
6F
04
7D
31
1A
68
7C
0B
0B
6D
03
7D
6D
60
79
00
15
05
10
55
77
20
03
73
7F
7C
5E
76
19
20
07
00
52
05
6F
24
0E
0F
7F
09
23
70
60
02
62
7E
1B
00
62
7F
7A
2D
15
6F
7C
0C
04
73
7B
03
76
6A
7B
00
18
7E
10
04
07
6C
7D
13
6A
79
76
11
79
74
72
00
0D
00
7F
79
12
10
7C
0E
7D
6B
68
7D
7D
09
00
00
71
06
0B
17
0B
72
7B
0C
77
01
02
0C
73
71
7F
7F
0F
79
07
04
02
01
05
03
05
11
78
04
76
7F
01
7F
79
03
72
05
0A
01
10
09
04
0F
7F
09
01
09
01
00
13
05
07
1B
75
68
79
06
7D
05
05
09
02
55
6D
00
7B
58
7D
06
67
03
7B
6A
7E
6C
07
6D
72
6D
6F
00
05
7D
7A
0B
71
78
79
68
04
60
0A
5E
61
6F
05
7F
02
76
7D
74
79
05
04
69
7A
04
77
7A
05
05
00
7F
7E
7B
78
7B
0B
79
7D
69
78
79
0D
78
6D
03
06
7F
08
04
00
19
77
68
04
7B
7E
7E
13
05
6B
72
0A
00
22
05
07
77
02
7F
6C
6F
7E
5E
73
60
11
7C
77
00
72
11
75
19
15
7B
05
05
7A
0D
78
08
07
6F
7B
7F
01
72
04
61
6E
07
64
73
04
51
7E
6F
03
7C
03
00
67
0F
6D
67
7F
7B
79
69
08
0C
7A
77
7E
08
7F
7F
06
7C
7B
65
05
09
11
72
75
1B
74
05
18
0F
77
7F
72
71
77
04
04
11
14
7E
0A
0B
7B
01
00
7C
74
00
6A
75
7D
7E
02
75
6E
78
0A
71
03
03
7C
04
01
00
08
06
10
14
11
77
7A
0C
79
10
01
10
07
71
77
7F
05
74
0C
79
11
04
04
77
05
77
78
7E
79
6E
06
7F
69
7F
6F
12
0E
7C
07
77
06
0C
05
02
0F
0D
73
7F
79
05
02
02
78
78
71
00
73
0C
77
7F
09
78
00
00
7F
69
7E
04
70
6A
04
72
06
6E
0A
02
72
66
73
00
77
76
7C
71
6E
77
0F
6F
79
6A
0D
7E
6C
7A
00
00
08
02
05
08
00
7C
77
79
04
0D
03
79
7A
7D
7F
7F
7A
7D
01
7A
7F
7C
07
7A
7F
79
79
7D
6F
02
0F
00
12
0F
7E
13
06
04
17
03
05
13
77
01
02
08
70
7F
08
0B
77
0B
75
7D
62
73
79
64
7D
77
02
6C
7F
00
08
05
70
10
0A
7D
00
75
7D
0B
02
01
0E
79
78
7F
7B
73
7F
02
73
08
6D
72
00
62
03
78
7D
72
02
00
04
0B
6C
07
7D
7C
7E
74
05
01
7E
03
76
0A
06
7F
03
19
7C
07
0B
7B
06
7E
06
0C
79
7B
79
06
07
00
7E
02
01
04
0F
01
07
72
7E
7E
76
7E
04
75
72
00
7F
6F
7E
76
7F
77
72
01
7F
00
74
7F
13
11
72
00
02
7D
05
05
7E
7B
6E
7C
7E
04
00
04
14
7C
77
7F
77
76
0B
6E
75
0C
01
6C
7E
72
05
00
76
77
02
00
01
02
6D
05
13
7F
01
78
03
7F
04
02
04
0A
74
7F
07
71
06
78
7C
6D
62
07
73
10
7B
78
01
07
05
7F
7C
74
7E
0C
72
6F
01
73
08
07
7D
05
76
6D
71
00
6E
75
72
06
6B
7B
02
7E
09
79
7D
7A
77
7D
02
00
00
07
01
0C
77
78
02
73
01
0B
00
08
01
7D
00
00
78
7E
01
7E
04
01
00
0A
79
6C
6C
03
78
00
0A
00
13
05
07
7E
16
07
05
70
0B
0A
7A
74
02
06
75
00
02
0C
7E
02
08
02
05
7A
7E
7C
06
79
77
7D
7B
7F
77
76
73
0F
07
03
07
7A
03
05
03
77
01
05
7C
7F
76
76
04
05
05
0F
17
02
00
78
0C
7D
7E
7D
07
7F
7A
0C
78
02
7D
7E
0B
7B
0C
78
7F
0B
01
0B
07
00
06
11
7B
7D
0A
7D
02
76
04
09
02
7A
77
06
7B
00
7B
03
78
70
0D
73
73
00
77
02
79
71
07
01
7C
00
7D
74
7D
73
00
76
79
7D
7B
7F
73
01
13
08
7A
00
76
7A
04
0A
7C
7D
78
04
7D
00
7C
05
04
79
05
00
70
72
03
03
78
0A
0A
7B
00
78
12
78
70
7B
0A
7F
74
06
78
77
07
72
73
01
0D
0A
0A
02
07
0C
76
00
0C
76
05
04
69
7A
71
04
77
0C
70
02
0B
78
02
00
6A
7F
75
0E
6F
71
7B
03
17
09
7B
05
75
6D
72
7F
68
07
76
06
6D
7B
7C
00
0C
7B
6B
03
75
71
79
7F
6B
0A
77
0B
7B
70
05
7D
0C
05
09
09
06
00
7C
7F
7E
06
01
0C
7A
02
06
79
70
73
00
00
73
78
07
7F
0A
04
03
74
14
00
00
77
09
00
03
77
05
0D
74
00
0A
04
7D
03
06
01
0A
7E
7E
05
09
79
7E
77
70
7F
74
75
76
7C
01
79
79
7B
79
04
02
02
02
7F
79
00
04
7D
03
0C
7C
07
1C
7F
0A
04
15
0E
75
7B
06
00
77
7F
7E
16
73
02
07
74
02
76
7F
08
79
00
06
00
7F
11
7E
77
16
7B
0E
02
08
09
08
02
08
0E
73
7F
12
02
7B
76
03
04
71
0B
79
01
02
78
08
12
6D
00
7B
78
07
77
0F
78
00
0D
6C
0F
01
7C
0C
08
7E
7F
75
6E
00
06
7E
79
75
01
79
78
77
07
7F
00
7A
00
7A
7C
00
77
0E
11
0C
00
01
01
0F
76
7E
01
13
00
07
04
77
78
04
7E
02
79
02
01
75
7B
08
09
00
7F
02
78
02
0C
74
75
7C
0A
0B
06
6F
7F
00
71
02
00
66
05
76
08
7B
6F
7B
0F
18
08
01
05
01
6D
73
00
64
0C
76
08
72
04
75
03
13
72
70
03
77
76
7C
7F
6C
08
73
0D
73
01
0A
01
12
03
0D
08
03
07
7B
7F
01
07
7F
04
12
01
00
07
7A
7E
7A
03
7D
7A
02
7F
07
04
7F
7F
07
06
7F
04
10
7D
7E
7F
0B
10
76
00
0E
03
05
7A
07
06
0B
03
78
7D
00
06
02
07
7B
00
07
74
04
04
73
7F
7D
05
08
05
01
03
04
00
73
7F
02
03
00
7E
0A
08
14
79
04
01
0C
06
7F
09
03
00
0E
7B
04
13
77
77
7D
03
04
7B
01
07
03
7A
00
00
08
0A
7F
73
0D
01
13
7A
0C
09
19
00
03
11
7A
7F
15
0A
0A
7E
0C
0A
02
03
76
03
79
7C
02
06
7F
00
6C
77
00
79
08
04
00
7C
6B
03
74
70
06
7E
01
00
7E
69
7E
02
7A
7A
7C
0B
79
00
76
05
08
7B
79
00
78
12
7E
7D
0E
0A
04
7D
00
7E
06
78
7E
07
0F
7F
0B
7E
03
05
7A
7C
06
7D
07
04
05
75
06
03
75
7F
08
02
07
0B
0B
00
01
0D
10
7A
02
0A
71
74
70
00
6E
03
79
7A
0F
6F
05
02
1F
0D
0C
01
71
07
7A
00
6C
08
7E
01
7F
09
7C
0D
17
71
75
09
75
00
7E
00
6A
0A
03
06
74
0B
0A
70
0F
03
00
09
01
09
7F
00
79
0A
7E
7F
0A
7D
7F
18
7C
7C
05
7B
02
7F
0C
00
09
75
00
0A
00
05
01
7F
15
74
7C
79
11
09
72
00
07
0C
03
76
05
0E
08
00
6F
0C
00
04
7D
01
78
00
0B
6F
7E
04
72
08
02
00
02
0B
79
06
7E
7B
70
00
02
04
00
7D
05
00
7E
00
79
02
7C
08
07
0D
7F
00
0F
77
01
07
07
73
04
04
7E
7F
05
02
7F
7C
7F
00
06
06
79
07
77
0F
0F
76
0C
7E
12
03
0E
0E
79
00
06
04
03
7D
06
03
74
07
73
7D
74
7B
75
7D
06
00
73
70
09
71
10
7C
7D
7E
74
02
75
7F
02
7F
7E
7F
00
61
06
7B
7E
03
02
02
7E
00
78
7D
04
76
7D
7F
7C
7A
7F
7F
01
7B
74
05
00
6E
7A
02
09
03
06
7F
08
06
01
7D
79
7B
03
7B
0B
07
0A
7E
7C
7F
72
00
03
01
79
0A
15
7E
02
0E
1E
75
1A
7C
6C
7D
6D
00
75
7D
7B
7B
13
01
0C
0E
12
07
0A
06
74
08
7D
00
75
07
01
00
01
00
7D
02
0C
78
7F
7C
7B
04
01
00
75
09
03
7F
72
00
08
00
0B
02
08
07
0F
09
7F
00
05
0B
02
7B
1A
02
77
05
75
04
7F
79
7D
0C
06
00
0D
7B
7A
7E
77
01
06
79
10
7E
06
76
0C
0E
7E
00
08
06
00
75
7B
11
77
04
6F
03
7A
02
7D
02
7E
00
79
6F
7E
7E
70
14
05
7C
7E
10
0A
04
7C
7D
72
00
7C
7D
72
00
04
01
7A
7F
00
03
6F
08
04
08
7E
00
07
70
02
02
08
7A
7B
03
09
00
0C
7A
01
08
7B
00
05
7B
7F
04
6D
7E
04
7F
0B
04
07
05
14
03
7C
00
0B
10
03
02
07
03
72
7B
76
6E
7B
7F
7A
7E
79
00
72
01
06
03
04
7E
7F
7B
77
03
6C
79
06
72
7C
00
78
70
7F
76
00
13
02
01
7E
02
7D
7F
7B
75
77
00
7B
7C
78
06
09
70
6B
04
02
6F
74
7E
7A
7D
02
00
09
0C
7F
7E
73
07
01
7C
07
01
0D
74
04
79
75
00
07
7E
7F
01
0A
10
17
0E
15
61
0E
69
71
7E
08
00
7F
06
03
08
11
01
07
03
0C
75
08
7C
7D
0C
7E
00
7F
79
7C
0C
04
01
78
08
0E
02
7F
72
7B
0D
77
00
00
0C
7A
00
75
7A
03
7E
0B
03
0D
02
03
0D
77
00
7F
0C
7C
7D
06
01
77
06
78
7B
04
00
7C
03
00
00
0D
7D
7E
7B
78
00
07
78
07
7B
7F
70
06
07
77
00
04
0B
7A
76
79
19
7C
7C
66
06
73
0D
0E
02
00
00
7E
75
7C
79
74
1F
01
79
7D
0D
01
05
07
00
00
00
72
77
78
7D
02
71
02
7B
7E
13
75
11
0D
07
7B
00
05
78
7C
7A
07
7B
76
7E
76
7D
04
79
78
0B
02
00
0E
02
7B
0B
6D
7D
04
00
0E
7E
08
00
18
05
72
00
7C
0E
7B
6C
0D
0A
7B
7E
77
74
71
05
7A
07
7E
00
07
77
07
07
7F
6F
7C
71
71
0A
72
05
00
79
79
00
7E
64
00
7C
7F
10
01
7E
01
7C
7B
03
78
74
7C
00
6F
7A
7D
09
09
6D
76
08
01
09
7B
10
78
03
7A
00
06
00
7B
0D
7C
7F
00
07
01
04
00
00
7F
7B
7A
00
7A
00
7F
0C
0E
07
14
0D
0C
6E
08
76
78
04
7D
00
79
7B
03
08
7F
0E
09
02
03
79
78
7F
7D
02
00
00
76
0B
02
0A
7C
00
01
7A
08
79
76
72
7A
01
00
00
7E
0C
01
08
7B
7F
7E
03
0C
00
04
7F
01
09
09
00
05
06
02
02
04
7A
7F
00
74
0B
02
78
7B
05
7F
00
03
73
00
00
79
77
7B
7F
06
7D
0C
7E
03
07
6F
00
04
7C
07
77
77
0E
78
74
66
09
75
08
0E
7D
05
00
7B
72
07
7A
76
18
02
00
7A
09
7B
07
0C
7D
7A
00
75
7B
7D
7B
04
6F
7D
78
7F
0D
74
0D
04
08
7D
00
0B
71
08
79
0D
7A
70
06
03
02
05
75
7C
08
7E
00
06
7E
00
11
7A
7D
02
01
0D
03
10
7C
09
7D
02
00
05
07
07
75
0C
0C
7C
09
7F
76
72
06
7F
09
04
00
01
02
01
06
7D
7C
04
02
79
7F
7B
7B
01
7E
75
00
7D
00
04
73
04
12
04
02
00
7F
01
00
03
7C
78
00
76
7F
7F
05
09
69
74
07
03
0F
7F
08
70
7D
7B
00
04
7F
04
02
05
0F
06
07
09
7B
7F
00
03
00
00
00
79
03
02
01
06
00
05
02
09
7F
7D
7B
7A
00
7B
00
06
03
00
0B
06
06
0A
0A
0F
78
7A
00
7F
01
7D
00
7A
01
7C
7C
03
07
00
04
01
03
7A
77
02
08
7A
00
03
03
03
0A
00
02
7D
05
08
7E
78
01
04
0B
7D
00
7C
03
07
74
04
01
77
7F
75
0A
78
01
0E
06
79
00
04
71
7D
09
79
7B
04
7B
01
06
0A
7A
05
01
73
00
7D
7D
79
7A
72
09
7E
78
69
0A
6D
14
19
02
79
00
06
6E
04
01
01
1C
03
04
07
08
79
7C
12
7A
03
00
75
7F
0A
76
7F
6B
7F
73
79
0F
72
15
01
0E
74
00
0B
6C
01
77
04
08
78
7B
02
7E
79
00
05
0A
7C
00
04
79
04
12
7F
6C
7E
0A
09
7E
05
02
7F
01
02
00
08
7F
0A
05
0C
07
02
03
06
74
77
7F
7D
00
7C
7F
7C
09
7F
09
7F
7A
02
03
75
02
78
00
01
7F
7F
00
7A
7F
77
04
04
11
01
05
05
02
7E
75
07
79
03
00
71
04
02
73
07
7D
7C
02
0B
0F
7B
05
7F
0E
7C
00
0B
6E
08
08
77
7D
04
01
02
00
05
79
04
7A
7F
00
7F
7B
7D
7B
7D
7F
7D
01
02
78
7E
7D
7F
00
01
00
00
06
00
7F
08
03
7F
03
08
01
7C
7B
77
05
7F
00
73
08
7E
05
06
00
06
01
09
04
7F
78
79
05
7C
00
00
7D
75
03
7B
00
0B
05
07
07
00
01
00
06
7C
00
7D
01
77
6E
0D
00
76
03
7F
7D
7D
71
02
10
02
00
7E
78
75
03
76
6D
79
00
05
7F
0A
76
7B
7E
01
00
7C
05
02
73
7B
01
78
6F
6D
11
6C
0A
06
7D
77
00
05
74
00
06
79
10
08
06
7D
06
79
7E
10
76
04
00
7E
79
01
74
02
72
78
72
74
12
71
0D
7F
08
76
00
06
71
7E
77
04
00
7D
03
03
77
00
76
05
09
7B
00
02
7B
77
7C
78
74
09
02
01
0A
06
05
7B
03
7C
00
09
7F
73
78
06
05
00
7D
01
7F
7F
01
7E
0C
7C
7F
01
05
7F
03
01
77
7B
02
08
77
01
7F
73
7D
7A
00
71
7F
7F
02
02
08
06
0A
7F
7E
79
7F
06
7C
04
00
7A
7F
01
73
0C
7A
7D
7F
04
09
7B
77
05
0D
78
00
07
6E
7A
07
7F
03
03
06
7A
00
7C
7D
7F
7D
04
00
7D
7E
7C
7D
79
7D
00
00
7F
7B
7E
02
7D
7E
7D
00
7E
00
7E
00
7B
00
7E
7D
00
02
00
02
00
01
7E
00
03
7F
7F
77
01
02
7C
02
08
7D
02
7B
7E
0B
7F
00
02
08
7F
01
7C
00
7C
02
7F
05
7D
7A
02
05
02
00
7F
79
7D
7A
07
7C
7F
7F
7C
04
7D
7F
03
01
00
00
00
7E
7F
07
7C
7D
02
07
06
7E
05
7C
02
7F
02
00
7B
7F
7C
7A
79
7F
73
75
74
0C
72
05
08
7E
7C
00
00
7A
02
08
7F
0A
0E
10
7D
04
7C
7E
00
78
06
00
7B
78
7B
7E
7D
74
77
75
76
10
74
03
08
02
7B
00
00
76
7F
70
10
06
7F
03
7D
03
7D
79
7F
0D
05
00
03
7D
7A
08
7B
76
72
7C
02
03
7F
75
02
01
7E
00
7B
76
7E
79
7D
08
77
05
7F
75
7C
02
7E
0A
03
00
7D
0F
01
0D
76
01
7F
01
79
05
7E
7D
05
77
7E
00
00
00
7C
09
7F
05
08
0D
02
7E
7F
7B
03
79
02
00
79
7D
7D
6A
11
02
79
06
05
01
7E
72
08
15
7A
00
02
74
76
7E
06
00
7E
04
00
03
7A
78
7F
7F
7F
00
7F
01
7D
7B
7A
7E
77
7C
04
7B
08
01
7E
03
01
00
7B
08
7F
7B
77
7F
7A
01
08
77
0A
00
7E
05
02
00
7B
0C
7D
7A
7B
7E
02
04
00
78
7D
7D
7F
7D
7E
00
01
7F
7D
00
7F
7B
01
07
7E
00
7F
7E
7F
7F
00
00
7D
7C
7E
76
09
01
7C
05
7C
7D
79
7E
03
03
7F
00
06
7F
7F
7E
7E
04
02
01
7E
77
7C
7B
7F
01
7E
00
00
00
7F
77
7B
7E
77
7A
76
05
7E
06
03
00
7D
00
00
00
00
0C
7F
00
02
0C
7A
0E
00
79
02
72
7D
00
79
79
7D
78
7E
77
7A
7A
7B
09
7D
02
02
03
7E
00
03
03
01
76
0A
7F
7F
07
02
7E
7B
01
7F
06
7B
00
03
00
01
03
03
78
7D
08
7F
02
06
7B
7E
7F
03
00
78
7E
7E
74
7D
7F
7F
04
03
77
00
03
7D
01
00
00
02
04
7D
79
7B
04
01
02
79
76
02
7B
7F
02
06
00
00
01
7C
0B
7C
00
03
08
79
05
7F
7A
01
74
7F
00
79
79
7C
79
08
7D
02
0A
04
09
04
7D
04
06
7C
00
04
7F
01
06
7A
00
7D
05
7F
00
00
7A
7E
7B
7F
00
78
02
7E
7C
7E
00
01
7E
0A
7F
01
7E
00
7F
7F
00
02
07
7E
7D
7E
00
7E
7E
0A
00
03
7F
01
7F
7F
00
00
09
7F
7C
7A
7D
78
7C
06
7D
07
7E
00
02
01
00
7C
07
7E
7C
7B
00
79
00
04
01
02
7C
02
01
00
00
78
02
7C
01
7F
7E
7E
7F
7F
02
7C
00
02
00
00
00
7E
00
00
03
7B
00
7C
7E
01
7F
7D
70
7E
77
7C
00
7F
03
7D
76
7C
7E
75
76
02
00
02
7F
02
7F
7F
00
02
09
02
0B
7B
7E
7C
0E
7E
0C
06
7A
00
76
01
00
74
7D
7C
79
7C
7C
79
75
04
00
7C
7C
02
00
7B
00
06
08
03
7E
7E
7F
7C
7E
7E
7C
00
00
01
01
00
00
78
02
7F
7C
7A
7E
76
7E
08
04
03
7A
03
02
03
00
7A
03
7B
79
7C
00
78
7B
04
7A
05
7F
00
04
00
00
7E
0B
7F
04
7A
00
7B
00
04
03
7F
74
7E
76
7E
00
00
03
7D
08
7E
7E
7D
0B
7F
09
05
79
00
78
00
00
79
7B
7D
03
04
7C
04
0D
06
04
03
00
01
02
00
00
7F
7E
00
05
7D
00
7C
05
03
05
7F
7D
02
7F
00
00
7E
7F
7F
7F
7E
7E
00
7E
00
7F
00
7E
7F
7E
7F
00
7F
7F
7E
7F
7F
7E
00
7E
04
7F
00
7F
7F
7E
7F
00
7F
02
7F
7E
7D
7E
01
7E
09
7F
02
7E
00
7E
7F
00
01
07
7E
7F
7C
00
7D
7C
07
7E
7E
7D
02
7C
7E
00
00
06
7F
02
7F
7D
00
7F
7F
7F
02
7F
7F
00
7F
00
7F
00
7F
02
7B
7B
7F
02
03
06
00
76
02
7D
7E
00
79
7C
7E
7B
7F
7C
7D
79
03
00
7C
7E
01
7C
7D
00
01
07
02
0D
7A
7E
7B
0A
04
0C
04
7E
02
76
02
00
7A
7B
7D
7B
7F
7B
00
78
00
00
7B
7B
00
00
7A
00
03
05
03
00
00
7E
7D
7D
04
01
7E
7F
02
01
7F
00
7F
05
7F
01
7E
01
7D
77
08
78
7D
78
04
7D
7F
00
04
09
02
7F
7E
7D
7F
7D
08
01
01
7F
02
7F
7E
00
02
07
7F
7F
7E
7F
7A
7C
01
03
7E
77
04
00
7D
00
7C
7F
7F
08
7D
00
7B
08
04
07
03
7E
01
7B
01
00
7C
7D
7D
05
7E
7D
7E
01
02
04
7F
7F
02
7D
00
00
7F
7F
7F
00
7D
02
7E
01
7F
01
7C
7F
01
7E
01
00
00
7E
7F
7F
7E
7E
00
7E
00
7F
00
7E
7F
7E
7F
00
7F
7F
7E
7F
7F
7E
00
7E
00
00
7F
7F
7F
7F
7F
00
7F
00
7F
7F
7D
7D
01
7E
00
7F
7F
7E
7F
7E
7F
00
7F
7F
7E
00
7E
7F
00
7D
00
02
7E
7F
01
7F
7F
00
00
7F
00
7F
00
7F
7F
7F
7F
7F
7F
00
7F
7F
7F
00
7F
00
7F
00
7B
7B
7E
02
03
7F
00
78
00
7E
7D
00
7E
7C
7D
7E
7D
7B
01
7C
7D
01
00
7E
00
7D
7D
00
00
00
01
07
7E
02
7B
00
00
03
7E
7F
02
7A
01
00
7E
7E
7F
7C
7D
7A
03
7C
7D
7F
7F
7C
7E
7E
7A
00
00
7E
01
7F
7F
7F
00
7E
01
01
7D
00
7F
7F
00
00
7D
00
7F
7C
03
01
01
7C
7E
04
7B
01
00
05
7F
00
02
01
03
7F
7E
7E
01
7E
00
01
7F
7E
01
7F
7E
00
00
7F
7F
00
7D
7F
7F
02
02
00
7F
7C
7E
01
7F
00
7E
7D
7E
05
7F
02
7B
02
01
02
7F
00
01
7E
01
00
7F
7E
7E
03
7D
7E
00
7E
7F
00
01
7F
00
7C
00
00
7E
7F
7F
7F
7E
00
7F
00
7D
00
7D
00
7E
00
00
00
7E
01
00
7F
7E
7E
00
7E
00
7F
00
7E
7F
7E
7F
00
7F
7F
7E
00
7F
7E
00
7E
00
00
7F
7F
7F
7F
7F
00
7F
00
7E
7F
7D
7D
01
7E
00
7F
7F
7E
7F
7E
7F
00
7F
7F
7E
7F
7E
7E
00
7E
00
7F
7F
7E
7F
7E
7F
00
7E
00
7E
00
00
7F
7F
7F
7F
7F
7F
00
7F
7F
7F
00
7F
00
7F
00
79
7C
00
7D
7F
7F
7D
7C
7D
7C
7D
00
7D
7C
7C
00
7B
7B
02
7E
00
7E
01
7D
7F
7C
7D
00
7F
7E
7E
03
01
03
7D
01
7F
03
7F
02
01
7F
02
00
7E
00
00
7E
79
79
02
7C
7F
7D
7F
7B
7D
7D
7A
00
7E
7D
7F
00
7F
7F
00
7E
00
00
7F
00
7F
7F
00
00
7E
00
7F
7E
7E
7F
02
00
7F
7E
7F
7E
00
00
00
00
7E
7E
7F
7F
7D
7D
01
7E
00
7F
7F
7E
7F
7E
7E
00
7F
00
7E
00
7B
7F
01
7D
7F
00
7E
7E
7E
7F
7E
00
7E
7F
7D
02
02
04
7D
02
00
02
7F
01
00
00
02
00
7F
00
00
00
7E
00
00
7F
7F
00
7F
7F
00
7E
01
00
7E
7F
7F
7F
00
01
7F
7F
7C
00
7D
00
7F
00
01
00
7F
00
01
7F
7E
7E
00
7E
00
7F
00
7E
7F
7E
7F
00
7F
7F
7E
00
7F
7E
00
7E
00
00
7F
7F
7F
7F
7F
00
7F
00
7E
7F
7D
7D
01
7E
00
7F
7F
7E
7F
7E
7F
00
7F
7F
7E
7F
7E
7E
01
7E
00
7F
00
7E
7F
7E
7F
00
7F
00
7E
00
00
7F
7F
7F
7F
7F
7F
00
7F
7F
7F
00
7F
00
7F
7B
01
7B
01
7C
79
7F
7E
7D
7C
7E
7E
00
7A
7B
7D
7E
7B
7B
00
7C
7F
7F
7F
7D
7F
7C
7D
00
7F
7D
7D
02
03
04
7F
02
02
01
00
02
02
02
02
00
01
01
02
7B
7E
78
00
7A
79
7E
7D
7C
7C
7C
7A
00
7A
7A
7D
00
7F
7F
00
7E
00
00
7F
00
7F
7F
00
00
7E
00
7F
00
7F
7E
02
7E
00
7F
7F
7E
00
7F
00
00
7F
7E
7F
7F
7D
7D
01
7E
00
7F
7F
7E
00
7E
7E
00
7F
00
7E
7F
7F
7E
01
7C
7D
7F
7F
7E
00
7F
7F
00
7F
7F
7E
02
02
04
7E
02
02
01
00
02
02
02
02
00
02
01
02
7F
7F
00
00
00
7F
7F
7F
7F
00
7F
01
00
7F
7F
7F
01
7F
00
00
00
7E
00
7E
00
7F
00
02
00
00
00
01
7F
7E
7E
00
7E
00
7F
00
7E
7F
7E
7F
00
7F
7F
7E
00
7F
7E
00
7E
00
00
7F
7F
7F
7F
7F
00
7F
00
7E
7E
7E
7D
01
7D
7F
7F
7F
7E
7F
7E
7F
00
7E
7F
7E
7C
03
7D
00
7E
7A
7F
7F
00
7D
7E
00
00
7B
7E
7E
00
00
7F
7F
7F
7F
7F
7F
00
7F
7F
7F
00
7F
00
7F
7E
7D
7B
00
7C
7D
7E
7F
7C
7F
7D
7D
00
7E
7D
7D
7D
7D
7B
01
7C
7D
7F
7F
7D
7E
7C
7D
00
7D
7C
7D
01
04
04
7E
02
01
02
00
03
02
02
04
00
01
01
02
7C
7B
78
00
7B
7B
7D
7D
7B
7C
7C
79
00
7B
7A
7C
00
7F
7F
00
7E
7F
00
7F
00
7F
7F
00
00
7E
00
7F
79
07
7D
01
7D
77
7F
7D
00
7C
7E
02
00
78
7B
7E
7E
7E
7D
01
7E
7D
00
7F
7E
7E
7E
00
00
7F
7F
7E
7C
03
7D
01
7C
79
7F
7F
7F
7C
7E
7F
00
7A
7D
7E
01
03
04
7E
02
01
01
00
02
02
02
02
00
01
01
02
7F
7F
00
00
00
7F
7F
7F
7F
00
7F
01
00
7F
7F
7F
77
7E
7F
77
7D
75
03
01
78
01
05
03
00
7C
7C
76
7E
79
08
00
79
14
7C
12
04
05
05
7E
00
7D
0C
7E
7F
7E
7E
01
7D
7F
00
7F
00
00
00
00
00
7F
7F
7E
00
7D
7B
02
7E
00
7F
00
7D
7F
7E
7E
00
7F
7F
7D
79
7E
7F
78
72
7D
7A
02
73
0B
7E
70
00
01
74
79
7F
7F
7C
03
7D
01
7C
06
7E
01
02
7D
00
01
7B
00
09
76
04
7D
02
01
7C
71
00
0A
15
15
00
6C
7D
7C
00
71
00
7A
78
20
75
0E
77
01
02
7E
00
73
0A
7C
7C
06
05
75
77
00
7F
05
74
05
78
71
00
04
78
7A
08
7B
03
79
7F
7F
7D
72
75
00
06
06
00
74
78
77
77
05
77
03
77
79
77
0C
78
0A
00
77
00
07
6F
7F
02
7B
7E
76
73
05
01
7D
6D
04
00
77
00
7D
79
75
76
72
7B
71
71
1D
75
1B
79
01
00
7F
00
7D
0C
7E
79
6D
73
78
7E
7F
07
06
7D
0A
17
15
00
76
07
75
76
08
7C
7E
7D
7D
09
17
7D
7A
76
01
00
08
7F
7B
7D
04
77
07
7C
01
75
0D
7A
04
01
7B
00
02
77
01
76
72
78
7F
05
05
02
02
7B
07
0F
7E
00
7E
12
7E
7C
6F
0E
78
16
12
70
0E
0C
14
1E
6E
00
00
0B
0E
09
08
7F
77
75
04
00
7E
04
75
70
6A
7F
0A
01
06
08
0B
02
74
6F
7D
7A
7D
7C
7B
70
70
00
7E
6F
00
7D
7D
7E
75
0B
7F
75
72
7E
04
7E
7C
00
76
7D
76
11
0D
7E
7C
72
06
05
03
7D
78
7E
7F
7F
71
7E
7E
7B
7F
7A
79
07
7A
0C
7A
72
7B
6E
03
00
08
07
7B
05
05
7C
7B
01
0A
7F
05
71
00
01
05
00
00
02
7A
02
73
02
6F
05
13
71
7E
74
04
15
00
00
7D
19
78
06
02
01
04
00
06
00
73
7B
78
73
03
00
00
02
70
7B
03
7F
79
7C
06
70
02
6D
7A
7F
7F
7F
7E
06
76
72
7C
72
06
1B
7F
05
0A
10
0C
19
1C
00
01
0E
00
7B
79
00
75
04
75
7D
0B
7B
05
10
08
00
01
01
11
78
0C
77
71
0D
7D
0B
0A
70
09
75
00
7F
7E
00
04
77
7C
7D
79
05
17
04
0F
01
0A
13
79
00
7F
0B
01
03
08
75
04
71
04
00
0D
78
02
79
78
00
05
7A
7E
01
73
77
0C
0A
7E
7F
0F
01
0F
0A
12
00
02
09
07
0A
02
7E
7F
01
0D
7A
00
77
17
7E
7F
7F
7E
7C
0D
74
0A
76
7B
0C
05
08
05
0B
7C
7E
7E
00
7E
7C
7F
7A
0A
79
72
7F
77
7D
7C
7F
7B
72
69
00
01
6B
09
7F
02
01
75
01
10
7E
02
06
0A
04
79
00
05
74
7F
75
00
72
02
7B
6E
78
1B
6C
01
73
6D
00
68
0D
7D
7A
7A
7A
09
0A
79
78
02
7B
05
07
05
7F
02
04
09
06
7A
04
03
03
02
05
05
0D
76
00
7C
00
05
04
7A
74
72
7B
76
11
0D
78
01
09
12
10
05
7F
0C
0A
7E
03
7D
09
7F
7A
01
7F
78
01
7E
7C
00
00
07
04
75
7F
0A
78
7B
71
05
03
0F
77
68
73
78
00
7B
77
7A
05
01
00
7B
0F
11
07
79
08
0C
07
0B
7F
7F
06
01
11
73
06
04
7C
03
02
05
73
0D
7C
75
00
7B
18
7E
7A
0D
71
78
7B
78
04
02
66
02
00
07
00
04
05
01
7B
7B
01
77
09
02
7A
03
00
07
0D
03
00
0B
01
7E
0C
7A
11
7C
76
7E
7F
00
00
7C
79
77
00
05
7E
79
08
7B
75
03
7F
03
01
01
7C
7D
0A
00
00
7D
07
00
03
7A
79
7D
0A
01
02
0D
01
14
02
00
00
7D
78
03
79
07
7F
7A
0D
11
01
00
0A
02
04
01
7F
0A
03
03
78
03
7C
77
7D
01
75
03
06
7E
7A
71
7F
79
76
05
79
7B
78
7D
7F
10
01
08
06
7E
04
7A
7F
07
7D
00
74
7E
7B
7B
76
6C
77
17
6B
75
73
76
00
66
7D
01
06
7A
04
05
07
7E
07
08
00
0F
0B
00
7F
77
04
01
7E
73
01
7D
7C
07
77
7D
0E
7C
0A
01
00
05
7A
00
01
74
10
7D
7F
0A
74
77
03
08
0F
7C
7F
09
7A
7B
75
01
0A
7B
7D
73
78
7A
08
7B
04
7E
7F
03
7F
7B
70
04
6E
7B
01
7D
02
14
78
76
01
72
00
73
7D
78
0C
7A
00
02
7C
00
01
79
7E
7F
7F
05
7F
00
08
7C
04
06
06
7B
04
04
09
0A
6C
03
7A
05
00
01
0D
02
7B
12
75
74
04
7E
14
06
74
7C
03
0D
7F
7D
09
7E
00
00
10
09
06
07
77
00
01
0E
05
08
00
07
7A
7D
7A
7A
09
7E
00
7A
6A
7E
06
01
0B
77
00
03
09
02
0A
7C
7B
01
02
06
11
02
7B
0A
09
00
7F
78
00
02
0A
00
76
7B
7B
75
7D
7F
03
03
01
04
00
75
7C
03
04
0A
05
7A
72
79
03
77
0A
77
78
02
00
00
79
03
73
06
6F
78
06
05
03
7E
01
74
78
01
00
01
7B
7F
0A
77
7E
12
75
79
11
09
02
07
06
76
00
7F
73
7C
79
7C
77
6C
06
02
6C
1B
7F
78
71
00
00
7E
11
0E
02
77
79
07
7B
7C
0C
06
73
0C
00
0A
00
00
03
7E
03
01
0B
02
07
7F
7E
73
06
7C
03
09
00
0D
06
76
07
78
14
06
7C
0C
78
73
0F
01
07
05
7F
0B
74
7B
7E
7E
05
07
00
03
76
75
0E
00
0A
78
00
0A
07
7E
6F
7E
72
01
7D
7C
72
17
7B
02
03
76
00
78
0E
7C
0A
7B
7F
04
77
78
07
7B
72
7D
02
7E
00
00
7C
7E
7D
0A
78
79
00
7C
01
02
70
7D
7A
03
00
01
02
7D
03
0D
71
74
05
7A
0B
10
68
04
7B
08
00
7D
05
04
0A
7B
0A
08
01
79
04
77
0D
7B
7B
06
7F
7F
78
76
75
02
78
09
02
07
69
02
0F
00
77
6A
7F
0E
0D
7E
07
7B
0E
7A
01
07
0C
7C
78
09
7E
01
00
09
76
04
14
04
77
72
05
72
7D
67
05
7F
04
09
7F
7C
7D
15
08
07
75
06
7D
74
06
70
07
7E
02
78
00
09
7B
06
78
7F
7B
06
05
00
7B
03
06
7B
7C
79
00
77
00
0A
7D
7A
7D
0B
08
7D
08
03
7E
7F
7E
06
00
02
79
01
7D
00
0A
75
05
79
71
07
0F
78
79
7F
00
6F
14
0F
04
06
7A
00
02
79
05
7E
67
09
7D
06
7F
78
7C
7D
02
7D
11
09
78
08
03
73
0C
7E
7D
7C
7F
09
74
78
02
6D
0C
0C
79
7E
00
70
07
03
7D
7F
00
11
76
7E
05
01
08
01
01
0C
76
03
05
7D
76
01
7F
0A
05
74
70
7D
7D
7D
09
72
70
0D
03
73
7F
0A
00
7B
07
0C
7B
01
7A
7A
02
01
0A
71
71
78
7A
78
00
01
78
7C
7F
04
7E
6B
01
7D
02
04
7C
79
01
10
00
7C
01
78
00
08
72
75
06
0B
0C
0B
77
7F
7B
0D
00
74
7E
04
00
73
04
04
7F
71
7A
76
0E
01
7D
05
00
02
7C
7F
78
02
06
78
78
06
62
0B
02
6B
6F
6F
00
7F
7D
01
01
01
7B
76
05
04
05
79
79
04
7F
07
00
02
7F
7A
06
05
73
78
00
7A
03
6C
7D
6E
76
7E
00
04
7F
0E
07
0F
02
03
02
01
0A
68
06
00
05
7D
00
06
7F
06
06
78
74
01
78
7A
75
7F
7C
7B
04
77
00
7C
78
00
00
00
78
00
7D
7C
03
7D
7E
00
0C
04
00
05
7F
7B
71
77
07
01
02
06
66
09
0B
0B
7D
75
00
7E
03
7F
03
7A
75
79
08
08
07
7D
6E
05
03
08
00
7F
06
04
78
71
0A
02
0C
10
01
0B
03
00
01
7D
7F
01
06
73
7C
71
06
06
02
09
01
77
0A
03
08
06
00
0E
0C
7A
72
01
77
0A
01
06
7A
11
08
7B
7C
7A
7F
03
6F
74
70
05
01
01
01
79
77
02
15
7C
08
03
00
08
02
7D
04
74
79
7B
03
07
0C
09
6B
04
7E
0A
7F
0B
06
77
7A
07
7B
75
07
72
0E
11
76
79
00
09
00
78
76
76
0A
0B
75
7F
00
7E
08
11
6C
77
7E
10
00
6F
00
7C
7D
7B
7C
09
7E
7E
06
7F
06
7A
00
7D
00
0E
03
7B
02
7D
05
07
7C
00
68
0C
0A
6E
6F
79
00
00
02
7D
03
7B
7C
09
0B
7C
05
03
77
01
00
0A
00
7F
00
03
7F
7A
00
7F
7C
7C
03
72
06
73
79
78
00
0C
78
07
7E
11
03
02
7E
7B
09
6D
77
04
07
7D
00
07
73
04
03
7B
07
09
00
77
05
74
0B
7D
7D
7E
00
7F
05
03
00
04
7B
00
00
77
0B
7A
00
04
7E
05
00
7F
01
00
7A
00
7C
7D
01
04
73
05
0C
01
76
02
00
01
00
03
76
02
7A
7B
03
79
0C
0F
73
00
08
05
00
05
03
02
7B
7E
7A
7E
7C
0D
03
0E
05
76
03
6F
00
79
7C
7B
79
7A
78
05
7F
03
05
7F
7C
7D
02
07
00
79
7B
01
7B
7B
79
05
7D
05
7B
12
07
7D
04
7B
00
03
01
00
77
04
02
08
04
7D
77
09
0E
02
75
79
00
78
02
7E
00
00
7D
00
7B
04
0C
0C
7A
7E
02
06
00
04
02
7B
01
0B
7D
6F
04
02
03
7A
7C
78
77
7F
00
7C
02
7F
7F
02
76
6F
02
7C
00
0E
75
7F
76
00
00
7B
09
7E
7E
7E
78
02
00
01
08
76
00
77
7B
00
00
07
7D
7A
00
78
01
02
7C
7E
6D
05
7E
04
77
00
00
7E
02
00
79
01
74
7C
7F
02
0A
01
78
04
07
09
00
00
06
7D
7E
01
7E
75
74
02
00
76
7F
76
75
6D
00
0B
74
78
06
7A
0B
7F
7A
7A
0D
6D
7F
09
05
74
00
03
7A
06
79
75
07
01
78
7A
03
7D
04
05
05
74
00
04
7A
00
03
7C
7E
00
02
7C
06
7A
76
0D
07
02
00
02
00
7E
7F
7B
03
7E
7B
7C
6C
7B
0F
04
04
79
00
03
02
05
7C
7D
7D
76
01
02
09
0B
72
7D
04
02
00
0E
06
79
04
76
02
06
7F
04
01
0E
79
7C
02
78
00
7D
7E
06
74
77
7D
77
7F
01
7E
7E
75
03
05
09
00
7C
0A
02
7C
79
7F
08
7D
7E
79
10
03
05
7E
7C
00
7E
7E
02
7F
7C
7C
0A
75
7C
7B
79
0F
0D
02
7E
00
02
7C
7F
79
7D
76
7C
0D
04
06
0A
74
7C
0A
04
00
0F
02
01
00
14
7A
00
03
7F
77
77
7D
7F
01
05
00
75
7B
77
03
08
00
79
04
77
00
06
6A
76
01
0A
00
77
7F
7C
7F
04
01
7D
03
7D
7E
7D
7F
78
00
7E
00
04
7F
7C
7B
74
79
7C
01
00
7A
08
7D
7F
76
07
00
02
03
01
00
7F
7F
7B
08
04
03
0D
78
03
07
00
00
7D
09
7D
01
7E
79
7C
74
79
07
70
04
7B
77
76
00
7F
7C
7D
03
02
79
78
7E
07
07
79
7A
06
78
7D
00
77
00
74
77
04
7C
7A
7C
01
02
6F
04
0B
08
7D
00
06
7F
00
7C
02
7F
78
01
03
07
00
7C
06
02
7D
00
02
06
00
73
7F
02
06
03
7A
74
7A
09
05
07
01
00
08
08
01
75
04
7A
7F
0F
7F
7F
11
72
7F
05
0C
00
01
0E
7D
00
01
7C
04
7E
01
02
0D
79
00
08
7E
00
7C
7A
04
7F
79
7D
7D
01
01
04
07
77
05
06
07
00
77
01
7F
79
00
05
05
08
7B
04
05
09
06
08
04
00
03
7C
05
79
7D
08
7C
7D
00
76
04
0A
7B
7F
7D
00
06
08
03
78
02
78
03
05
78
07
0D
75
01
00
03
00
01
06
79
00
0A
00
77
00
7B
7A
01
7D
75
7B
7B
00
7F
7B
7F
02
0E
79
00
06
00
7B
07
74
01
7E
04
00
78
07
7F
00
00
78
7D
00
04
04
03
78
7B
00
02
00
00
7E
7E
7B
7F
02
05
02
7F
7B
06
0C
7D
02
00
00
00
7E
03
7B
7F
01
04
7C
01
02
09
7A
7F
7F
7C
00
7E
06
7E
76
7D
7C
7B
7A
04
00
71
09
00
01
7E
00
03
7B
01
76
02
05
7C
7F
7F
00
71
00
07
09
7C
00
7B
00
7E
06
79
7F
03
7E
7F
02
79
00
07
7C
78
00
03
00
7C
04
76
00
7B
03
00
7E
7F
03
01
7A
7A
00
05
07
7F
79
7A
7E
01
7F
02
04
7A
01
03
04
03
00
08
07
7A
7F
01
7A
7E
0B
07
04
0E
7A
7B
7F
04
00
7D
03
7A
7D
7A
76
04
09
01
7D
04
02
09
06
02
00
00
7D
06
7F
76
7B
00
7A
7C
07
7A
79
03
00
7F
00
7A
04
01
7B
04
79
00
09
06
7B
0A
05
06
0A
0A
00
7F
7C
08
73
7D
04
7D
01
7D
7E
74
05
7F
03
7D
00
0C
0A
7D
09
75
00
01
0C
7C
7F
07
7C
7E
79
04
00
05
0D
7D
05
7F
77
7B
7D
7E
0B
02
02
01
6B
77
00
7C
73
7B
7F
07
04
7C
0D
07
04
0B
7E
03
7A
02
00
79
02
7E
01
04
77
7A
7B
7B
09
7D
76
7A
7C
7D
00
7F
7D
7D
77
7E
7E
05
01
04
7B
7E
07
05
01
02
00
04
04
7F
04
04
02
7D
06
03
7E
7D
7A
7B
03
05
00
79
03
7B
7C
71
7A
03
02
7C
7F
73
7F
03
7B
06
00
0E
03
02
01
7A
08
09
7D
04
02
05
03
06
05
03
00
05
78
00
7D
7B
03
00
79
08
7E
09
03
06
01
7B
00
7B
7C
7F
7B
03
05
7C
78
05
76
00
7B
01
06
7E
00
79
03
7C
7E
7D
0D
05
7F
02
01
05
05
05
08
00
00
01
01
00
7E
01
7E
7E
04
7D
00
0D
70
74
00
05
00
79
09
78
7E
01
73
08
7E
07
00
05
03
02
06
7F
00
7B
79
07
06
7E
7E
7B
7F
00
01
75
7B
7C
7E
7D
00
7C
04
7E
7E
00
76
06
00
09
7F
0D
06
04
08
04
00
7B
00
08
7E
79
0A
01
7E
09
78
01
7D
09
09
7F
00
7E
0B
79
7B
09
08
00
7D
03
78
04
7C
7E
0A
07
00
7D
04
7E
00
07
00
05
04
0F
05
06
7E
7B
7F
05
00
79
7C
78
7D
01
0B
03
02
00
08
0D
7E
7B
02
06
00
00
04
7A
02
00
7E
7C
7F
7C
0B
7A
7B
7B
7D
7D
00
01
03
7C
7F
7B
00
7A
03
02
07
7D
07
7E
00
00
00
7E
03
7F
01
04
01
01
01
7B
05
02
7F
79
7A
04
00
7B
02
00
78
6F
7C
7D
7F
79
7B
78
7F
7E
79
01
00
03
04
01
01
78
7D
00
03
02
00
00
7F
01
03
09
00
05
03
7D
7E
7F
01
02
7E
7F
00
01
7E
02
01
7E
00
02
7E
7E
00
04
04
00
7E
7D
01
02
02
7F
03
03
00
00
7B
7F
7E
7D
05
01
7B
04
7E
02
03
05
03
7F
00
04
01
7C
04
04
7D
7D
03
7B
06
04
76
79
02
02
00
76
00
79
7E
7E
71
02
00
03
7F
05
79
7F
7F
7E
00
7B
7E
02
7F
00
07
7C
7A
7F
03
76
04
7E
00
7C
00
7E
06
7E
7D
7E
72
02
00
7F
7D
08
7C
04
7E
02
00
7C
02
02
03
05
07
03
7A
7F
7E
05
05
01
01
02
00
01
7F
04
02
01
7D
06
06
05
01
05
7E
7C
0D
08
00
7E
7F
7C
02
04
7B
04
05
79
01
0A
7E
76
78
0A
00
7D
7A
02
04
04
7E
7D
04
7D
01
0B
78
73
7E
0A
00
78
00
79
7F
01
04
7B
7D
7B
06
7B
7E
7A
7F
01
00
02
7F
7C
7A
01
01
78
7A
7C
7D
00
04
7D
01
7F
00
7B
05
7E
79
04
7E
7B
7E
7E
7F
07
7F
7C
04
03
00
7C
00
00
7B
7A
7C
00
7D
7E
00
7C
01
02
7C
7B
00
00
7D
02
7D
7E
7D
04
00
7F
7F
7D
7F
7D
00
7D
00
79
79
02
7F
79
7E
05
7F
03
7B
7E
7F
7D
7D
79
00
7E
7D
7E
7A
7D
7D
02
00
00
7D
7E
7D
7D
02
7E
00
7D
7E
7E
01
06
01
05
7B
09
7F
7F
00
01
05
76
00
7B
7D
7F
7F
01
7E
05
03
7F
7C
09
77
78
02
08
00
05
7B
7F
7D
7F
73
02
7E
7E
7E
06
77
7F
77
7D
00
01
03
03
7E
7F
03
78
7C
05
7F
7E
01
7D
01
79
00
00
03
7E
01
04
78
06
7D
7C
01
05
7E
02
7A
01
00
03
04
06
7B
03
01
01
7C
06
7F
01
7F
04
07
7B
00
00
7B
7E
78
00
78
04
02
7E
7A
06
74
7D
7F
01
00
7A
01
7E
71
7F
74
7C
02
76
7C
09
7B
7B
00
0C
00
7D
01
00
75
03
79
7D
02
78
7D
0A
7B
7A
02
05
00
7C
7C
7E
7B
01
7F
79
7F
00
02
7E
7F
7C
7D
7D
00
00
7E
7C
01
7E
02
7F
7C
03
7D
02
01
00
7D
7D
00
01
03
7F
7F
06
7F
7F
02
7F
7E
7F
7D
7E
7F
7E
00
7E
7E
7F
7E
7E
7E
7F
00
01
7F
7D
7E
7E
7D
7D
00
01
00
7D
7F
03
7D
02
7F
00
04
00
7E
03
02
7E
00
02
7A
7D
7F
02
7D
01
7E
00
04
01
7E
03
01
7F
00
02
79
7E
7C
05
7B
01
7E
7D
03
01
7D
03
00
00
00
02
7B
7F
7F
04
00
7F
7F
7F
06
00
7F
05
03
7F
00
04
7A
7F
7C
03
7A
00
79
7A
73
02
7A
7E
01
01
00
79
7F
7C
00
00
77
04
7C
7F
7F
05
7D
7D
7D
03
00
05
01
05
7E
01
00
7A
01
04
01
7C
00
7E
01
79
00
04
01
7E
04
02
7B
06
7C
7D
01
07
00
7C
7C
06
00
00
01
04
7E
09
7E
03
7F
7F
04
00
7E
05
03
7E
00
00
7A
7F
79
04
7A
00
7E
7B
00
02
7B
02
04
03
00
05
7E
02
79
08
77
02
00
79
7E
7F
7C
7E
7C
00
00
7D
7E
01
78
0A
79
00
7E
79
79
01
7C
00
01
04
00
78
00
7F
79
03
7D
7A
01
00
7E
7C
7E
7F
00
7B
00
7F
7F
7D
7F
01
00
7F
7E
03
01
00
7F
02
00
7E
00
01
7E
7F
7E
03
01
7E
04
00
01
7F
7F
7F
04
7D
00
00
00
7E
7D
7F
7E
7D
7D
7F
01
7E
7E
7F
7B
7D
00
01
7F
7E
7E
7F
7E
7D
7E
7F
01
7E
7F
7F
7C
7E
00
00
00
7F
7F
00
7D
02
7E
7F
7F
7F
7E
7F
7E
7F
00
7D
7E
7E
7F
04
7D
03
7E
7F
7E
7F
7E
7F
7F
7F
00
7B
7C
7E
7F
7F
7F
7F
00
7F
7F
00
00
00
7F
7F
00
7E
00
7F
7D
03
7E
78
03
7B
7F
7E
79
79
7E
7E
00
7D
7E
7D
7F
03
7B
02
00
7D
7F
01
7C
76
7B
7F
00
7D
7E
00
7C
03
7F
7C
04
01
04
7D
7F
01
03
7B
00
05
00
7E
03
03
00
02
7F
7D
00
02
7E
78
79
04
00
7B
7E
01
7F
03
7E
00
7E
7F
7E
00
7F
7F
7F
00
00
7B
7C
7F
7F
04
7C
01
00
7F
7C
7F
7B
7D
7D
7C
00
7E
7E
7E
00
01
7C
02
02
00
7A
01
7C
7B
7E
7E
00
7B
01
7D
7E
00
7E
7A
04
7B
00
02
7C
7B
7F
7F
00
01
7F
7E
7B
02
7E
7B
04
01
01
7D
7D
01
03
7C
00
05
00
7E
7F
04
00
7F
00
00
04
00
7F
05
02
00
00
04
7A
00
7C
01
7F
7F
01
7F
01
7F
7F
02
01
7E
00
01
7E
7F
7F
7E
7E
00
7E
00
7F
00
7E
7F
7E
7F
00
7F
7F
7E
00
7F
7E
01
7E
00
00
7F
7F
7F
7F
7F
00
7F
00
7E
7F
7D
7D
01
7E
00
7F
7F
7E
7F
7E
7F
00
7F
7F
7E
7F
7D
7E
7F
7F
00
00
7F
7E
7F
7D
7E
00
7F
00
7E
00
00
7F
7F
7F
7F
7F
7F
00
7F
7F
7F
00
7F
00
7F
79
03
7D
7C
03
00
00
7B
7F
03
03
7B
00
02
7C
7D
7D
02
7D
7E
00
7D
00
7E
7D
7A
7C
7D
00
7C
7E
7C
7C
7D
7C
7F
7F
7F
01
7F
7F
02
7E
7C
00
04
00
7E
01
06
03
7F
03
00
00
00
01
7C
00
02
00
7C
7F
7F
00
7F
7F
7F
01
00
00
7F
00
00
7F
00
00
7E
00
7F
7A
7F
7D
7E
7F
7B
00
7D
7C
7A
7C
7E
00
7E
7F
7D
7E
7E
7D
7E
00
7F
7F
7F
7E
7F
7C
7D
00
7F
00
7D
7D
03
7E
7F
01
00
03
7F
7F
02
00
7F
00
7F
7C
7F
7A
7F
7D
7E
7F
7E
00
7D
7E
01
00
7C
00
02
00
7E
7F
7F
00
00
00
7F
00
7F
7F
00
7F
00
00
7F
7F
7F
7D
00
7E
00
7E
7D
01
7F
7E
7F
7F
00
00
7F
7E
7F
7F
7E
7E
00
7E
00
7F
00
7E
7F
7E
7F
00
7F
7F
7E
00
7E
7E
00
7E
00
00
7F
7F
7F
7F
7F
00
7F
00
7E
7F
7D
7D
01
7E
00
7F
7F
7E
7F
7E
7F
00
7F
7F
7E
7F
7E
7E
00
7E
00
00
7F
7F
7F
7E
7F
00
7F
00
7E
00
00
7F
7F
7F
7F
7F
7F
00
7F
7F
7F
00
7F
00
7F
7A
7E
7C
00
7C
79
7E
7D
7D
7C
7E
7F
00
7C
7C
7D
7E
02
7F
00
7F
7E
00
00
7F
01
00
7D
00
7F
7D
7D
7D
7D
7C
00
7D
7E
00
7F
7D
7F
7D
7E
00
00
7F
7D
00
05
04
7F
02
7F
7F
7F
01
00
03
01
00
7E
7F
00
00
7F
7F
00
7E
00
00
7F
00
7F
7F
00
00
7E
00
7F
7F
7F
7D
00
7E
7F
01
7F
7F
00
7E
7E
00
00
7D
7E
7F
7F
7D
00
7E
7F
01
7F
7E
01
7F
7F
00
00
7E
7E
7E
7E
7D
01
7E
7E
00
7E
7E
7F
7D
00
00
7F
7E
7E
7D
7D
7C
00
7D
7E
00
7E
7D
7F
7D
7E
00
01
7E
7E
7F
7F
00
00
00
7F
7F
7F
7F
00
7F
00
00
7F
7F
7F
7E
01
7E
00
7D
7C
00
00
7F
7E
7E
7F
00
7C
7E
7E
7F
7F
7E
01
7E
7F
7F
7F
7E
7F
7E
7F
00
7E
7E
7E
00
7F
7E
00
7E
00
00
7F
7F
7F
7F
7F
00
7F
00
7E
7F
7D
7D
01
7E
00
7F
7F
7E
7F
7E
7F
00
7F
7F
7E
7F
7E
7E
00
7E
00
00
00
7E
7F
7E
7F
00
7F
00
7E
00
00
7F
7F
7F
7F
7F
7F
00
7F
7F
7F
00
7F
00
7F
7E
7E
7B
01
7D
7D
7F
7E
7D
7F
7D
7D
00
7D
7B
7D
7C
02
7F
01
7D
7C
7F
7E
7E
7E
00
7F
00
7D
7D
7D
7F
7C
7C
00
7C
00
7F
00
7E
00
7C
7D
00
00
7F
7E
7E
07
04
7F
02
7B
7F
7E
01
7E
03
02
00
7C
7D
00
00
7F
7F
00
7E
00
00
7F
00
7F
7F
00
00
7E
00
7F
7D
7F
7D
00
7D
7B
7F
7E
7E
7E
7E
7F
00
7D
7E
7E
7C
01
7D
01
7E
7B
7F
7F
7F
7C
7E
7E
00
7B
7F
7E
7F
7E
7D
01
7E
7E
00
7E
7E
7F
7E
00
00
7E
7E
7E
7E
7D
7C
00
7D
7F
00
7F
7E
00
7C
7E
00
00
7E
7E
7F
7F
00
00
00
7F
7F
7F
7F
00
7F
00
00
7F
7F
7F
7D
02
7E
01
7E
7A
02
7D
7F
7D
7E
04
7F
7D
7D
7E
7B
04
7D
00
7E
7A
7F
7F
00
7C
7E
7E
00
79
7B
7D
00
7E
7E
01
7E
00
00
7F
7F
7F
7F
7F
00
7F
00
7E
7E
7E
7D
01
7E
7D
00
7E
7E
7E
7E
01
00
7E
7E
7E
7E
7F
7E
01
7E
7C
00
7E
7E
7E
7E
02
00
7E
7E
7E
7F
00
7F
00
7F
7C
01
7D
00
7E
00
03
00
7E
7F
7F
7C
7F
7B
00
7C
7A
7F
7F
7E
7C
7C
7D
00
7B
7D
7E
7B
06
7E
00
7D
7A
7F
7E
00
7C
7E
7D
00
78
7B
7D
7D
7E
7C
01
7D
7B
01
7E
7E
7D
7C
01
00
7E
7D
7D
7E
09
03
7F
01
7C
7F
7F
03
7D
01
00
00
79
7E
00
7D
02
7F
00
7E
7B
01
7D
00
7D
7F
05
00
7D
7E
7F
7D
00
7D
01
7D
7A
01
7C
7D
7C
7E
03
7F
7C
7C
7D
7C
02
7E
01
7E
79
02
7C
7F
7C
7E
04
00
7B
7B
7D
7F
7E
7D
01
7D
7E
00
7E
7E
7F
7D
00
00
7E
7E
7E
7D
7E
7C
01
7D
7C
00
7E
7D
7F
7D
7F
00
7F
7D
7D
7F
7F
00
00
00
7F
00
7F
7F
00
7F
00
00
7F
7F
7F
