BBC2746F
BD06FB68
BD1C1574
BC87DF32
BD20692F
3DB7E1A5
BD655E67
BD0DE304
3D1BE9D6
3D030471
BD07E440
3D457B4D
3CF04E48
3C5725E8
3C00BB24
BB3C31F6
3D30B90D
BA88A39A
3C924987
3D6766A8
3C92401F
3C3397A6
3C94A24F
BCE7B2A2
3D01ADB8
3B0E2336
3C450D85
3CB3C5CE
3C8AEE30
3D105B47
BCD67CD7
BAA81394
BCBDE789
BD2D552E
3DF6DA31
BDA805E5
BCFE157B
3DC19F27
BE0C5742
BDA061F6
BCE03CFD
BDD331A6
BE1C71EE
BD80F16F
3B7AB6D8
BE6CA30D
BD4446CE
3DE3B930
BD688863
BD6AD1E8
3D970076
3D172560
BC70F01C
BCE164D8
BBFA3EC2
3C9A60F2
B9FCBA60
BD7AE548
BD35EF58
BCEC24AC
BCE42CFD
BCC9E8BA
3CAD859E
BD64FA71
3C9B85D8
BC13046B
BCADF335
BBA71493
BB6C5117
3D7ED2A4
BB03080A
3C76ED2E
BBA63E6A
3D110ADB
BD194B03
3D0D4263
3C648449
3C4FEEA0
3C09596D
BCAEA62E
3D8ED548
BDC66988
BD741861
BDD33F88
BD4FDB76
BCA0DEBE
3B8F8447
3D034F80
3D9C4952
3D450E1A
3DA84BFA
3DD0C991
BC0BB6B2
BDD2BA30
3DDC4EC1
BD4CB077
3D86F6A9
BD7D9D32
BE04CB08
3B56DD3C
BCEE9FDC
BDBEB871
3DC064C3
3D0076E4
3D22184B
3D9019A4
3E209A90
3DD9A226
BD89EBCA
3D0802D6
3D9FDAAE
BDC9627C
3DB1492C
BD2AB3E6
BDB1EFA5
3D18CEEA
BD3CB08D
BDCF8D90
3CE3D53B
BCEB892C
3D272413
3D27FD23
3E21AB1E
3E1AAEE5
BD8F04E3
BDA9EB5F
BD19D95E
BD89B87D
BD51678B
3D3636AD
BCBB33D1
3D2A6533
3C30F167
BC99FC53
3D03150C
BD08A1C1
BC04104C
BDCB90D0
BD198F09
3C8671A2
BCE6BE06
3DEA248B
BC79D323
3BC45711
3D7109BF
BDF6CEE8
3D191683
BCC97A13
BDAE902F
3D961B6B
BDEE3B6E
BD068A5E
BDE83482
BCD862FF
BD0ED838
BDD63B1E
BDD8B040
BE2869CA
BD580412
BD4617C3
3BF165BC
BD9B6B1C
BD8245B4
BDC2D2F4
3BE460F4
BAB134EF
3D0B9A3B
3D102F5B
3DAC33BE
3C1A968A
3D4C2AD4
3D992364
3C2D7766
BDACA259
3E2BA3E9
BD840F44
BB889C0F
3D5B1951
BE1D146A
3DCB4DF8
BC871239
BD2A4913
3E2E8E55
3D34C8B7
BBAACF0C
3D056CAD
3D030E7A
3C41AC29
BD258431
3D478E29
3D8D3918
3C8B297E
BE028140
3DE3F141
3D926015
3C87E62A
3D8F5E66
BB0BDDEB
3D82F8B4
BD53BDE6
BDA433F1
BE2103D7
BD344111
BDC1D951
3D9B7B53
BCDF8D5A
3D312B80
3D06FE55
3D095F04
3D46B680
BDCE0907
3D884895
BD17D17C
BDB11F35
3D769ACA
BD87F495
BC0116D6
3C57FBD4
3DEC2956
3CC7065E
BC7AD2E5
3DE5CF19
BB92DECE
BD84A404
3D2D326C
BC2DDE34
3D2F71A6
3BE3911B
BD87032B
3D247AD4
3C574A8F
3DA58EC6
3D337644
BD817BB6
BCAA1894
3D3C5D00
BCB75AD1
3D2ABAD5
3D863F17
BC97C1A3
BDB391FF
BD9D7503
3C7A9994
BCCDFD33
BCA18535
3E0D5EA4
BDD2147B
BD096BAD
BD846FEB
BD989499
BDD50736
BD07F6E1
BDDB6FE2
3CD0959A
3D8BB89E
3C223B18
3D892CDE
3CF7FA3A
BAB94D30
BC86EBB8
3C5B822E
3D502EB8
3C39EECC
BB9F02C0
BCE4AE84
3CE72651
BC04A64F
3B517AB5
BCA2F6AA
BD12D726
BCA45121
3CD18191
3C177BBE
3C1E079B
3D8AD73A
3D2ED448
BC4D6528
3D336DE5
3B812C9F
BC8F1251
3D48D738
3CE3BF07
BC562FE5
3CD47374
BCF2F3D9
3D2D33E7
BD796847
BCAA32C9
BC81205B
3BC47538
BBC2C889
BC8B91C1
BD115B60
3DF41F75
BD6D996C
BC15611D
3C39B0A0
3D83E6A5
BC4AF2D7
3CF5AF5C
3CD8D2B0
3D3DF581
BD00F81E
BCB0EC60
BD070E13
BD4FB6F4
3ACC1326
3C187D37
BCC3E769
BD7627F5
BCEDBC2E
BC30C8D1
3C91D314
397B61FD
BD13AF31
3D18C45C
BD137BB5
3AB1E7D4
3D29B1C2
BCE2ADFF
3B8CB3F5
3B663E08
3BC7EC10
BCB6910A
BC8445C4
3CA563EA
3BD3EEFA
3CC62075
3CA30C40
3D4BC728
BCBF3E00
3A240962
BBC28CC7
BCC605E8
BC39381F
3BA8B485
BD1E1B81
BD10FDB3
3CFF947C
BD235A26
3B6BBE00
BB634E73
BCF196F2
3CDEB0BC
3C7D719F
BA838C1D
BC886E2E
3D1AA787
BB5FAA7D
BC813632
3E05CCDE
3C405A18
BCED1FCA
BC200D19
BCC3A2F0
BAD926DC
BCF6DE7A
BC6823C1
3D75C26B
3D22E5E4
3C7E61AF
BAB876A7
3D4DC1C2
BCC74475
BC2DECC6
3C7CC1E3
3D958B7E
BD7479C5
BAF76D0E
3D8B47B9
BCC8EE51
3BCA63FB
3D010762
3C18D090
3D9C2D16
3D69E1AE
3C22DA51
BD4B777F
3D008109
BBBE8766
BBE8D75C
BC96E1CC
3D38022B
BC864997
3BA5C052
3C2985BE
3C2284FE
3DA2EF35
3C0CCFAF
BC9CB9CD
BD10AD2C
BC7304EA
BB8E3504
3CA9DEC9
3CF312AA
BBC8B468
BCA514F8
3C83499E
BE0B1CEF
BD742BC8
BD8A1688
3BD342FF
BB465C7B
BCC0D66F
3B3CCC37
3DA57AA9
BD8A2ACD
3C0FD4AD
BCCD0464
BDB81A28
BCAF62C4
BCCB2D66
BD8EE608
3C880F09
3D134449
3CA7E8BA
BD3BE0BC
BCD5662B
3C319831
BD1C673B
3B908543
BCD53D59
BD0B6766
3C3F41A9
3D5243AE
BCCF38FC
BC6424DD
3BEB1414
BD429F06
BD256BD4
3D687A52
BC3553E1
3CF97979
3D59C9AD
BD7C2BCF
3D939286
BCF46E79
3C96676A
3DA7558B
3C5EAF56
3D04E4DD
BD54F81F
3D0B31BF
BD584A08
3AD516DD
BC10E086
3D882860
3D0D312A
BC079332
BBB571CA
3C15D48F
BC666EBF
BD3F8CD0
3C399E0D
BD32CC71
BD44ECA5
BACBBF13
BC81D3CD
3D3A71A0
BD42D831
3D9D4591
3C013860
BD481B71
BC314713
3A318880
BC0DA980
BC5FB76C
3C109A20
BC5091E0
BC0E5FAD
BCCFDA40
BD80A95E
BCB0B817
BD07C925
3BA789D3
BBE5EA55
3D08A09D
3CC08346
BC89AE44
BD3D3148
3D49FAA4
3C8BA0AE
BD60E5CC
3D1F1DFC
3D17F1DC
BCB32960
3CC7469C
3D819EAB
3C90B06C
BD620BAB
BCBECEC4
3C3BD876
3CC29B42
3C36C264
3D673053
3C5DCD0B
3B524D09
3CD16D5D
3CBE5410
3D0A3A81
3B8513EB
3D86869A
BD1905C3
BD074431
BC83C1A4
BBA06E31
BBCA8123
BC809978
BDBECE9D
BD0173C4
BD3DB44F
BBA9608C
3D3704C1
3D8A2A02
3BE35244
BC755703
3CAD05AC
3D3BD007
3BC20AF9
3D254347
BC319858
3D0320D0
3CC41454
BCA120F7
3CED102C
BD67B7D2
BCA35CB8
BC5F4632
BC77DF21
BD23D8A7
3D662D46
BB8F81D8
BC07408E
3D490FCA
BC64E5FE
BC00FD8D
3C54EC2D
3CD12ADB
BD2F104E
3CC2A347
BD90DB46
3D88C7D6
BD290728
3D31E381
3A673EC4
3D177CA5
BCAD3237
BCB71093
BCEB0FBE
3D5BAA38
BBE1DF72
3CEF2EE2
3D424941
3CE94337
3C9F75FC
BB6288DE
BCCCEEF9
3CBBC03C
BD3254DC
BCEC1729
BD1673D2
BD8CA4B3
3D8772AD
3D58541C
BD47A95A
BD814F78
3CE57C0A
BD3647BC
BB9B6253
BCF19C53
BCC3B5A9
3CB9827F
39AAB728
3B974D94
3C65A977
3C485BAA
3CCDF23D
3CB2B89D
3C33C1FC
3B8C1E9B
3C4EDD33
BCDBE1FC
3CC4D6D9
3C86461C
BC04A639
3C833C1D
BC0355B5
38D4C998
3C861254
BCDD1E60
BD101E50
3A7BDBB0
BB9ADCB6
BC0A789C
3CB9E78E
3D05BFD7
BCEA35DE
BC4C614F
3C2755BA
3D34560D
BC5E9BBF
3CF389FC
BD3AE7B7
3CA3BA9D
BC399DD1
BC8643DE
BB725E2C
BB603F3A
3CCE8C70
BBCD4527
BAC21A28
3D4BE4A4
BC9DB4F9
BC26E1C4
BC082317
3CF459D4
3C2342D6
BBF3E8E7
BC5B0B90
BCD6BC5D
3C2018A6
3C024BF8
BB061073
BD2A5B15
3D8BC47E
3D9D93FC
BC92A1B4
BC7CD2DF
3973F7E2
BBB101D6
3B423E06
3D44BA8C
3D1E7C20
BAD7FE91
3D17059F
BB36364A
BD4361CA
BD9DDF70
BC69BC61
BD153180
3D28093A
3D07669F
3CD7CF9C
3D31CF87
3BCAAC64
3C7E5CA0
BCA84F3D
3BD6EB7B
3D180787
3B10E617
3CD07713
BC599FA3
3CCA1A92
BD6F9B5C
BE0945B9
BB1545BC
BC90DF68
3D787803
BCFB1482
BD963100
BCCDFD70
3D8DBD88
BC3CABF5
BD66F031
BC17E8EA
BCB7494C
3D7EF29A
BD202B8D
3C9A6287
3CB2FA3C
3BB0D194
BCC45BB6
3D01BC92
BC8DCFF9
BC4475B6
3D3B9835
BBB26944
BD65EB91
BC57E28A
3C6576F9
3C991144
3D13A94F
BD191929
3D08BF79
BD920B6C
BD95F82C
BDA38246
BCBE24E2
3CB7353B
3D95EDB3
3C7ADC67
3D28741C
3CD7A53B
BCEB861B
3B809EAC
BCCACE69
3C2C0F12
3B0355A2
BAB346F6
BD8BD327
BCFF99E3
BD4906AB
BC79B5B8
BB0790BE
BD03D254
BCB5B39B
3D009DC6
BCBBC13B
BC69C97F
BC8F0163
3A924E1B
BC958783
BCF816F6
BC618CBD
3CE9AAC9
3CB59285
3CC01304
3CD1FC1E
BCC22DC8
BD2FA922
BCAE0E76
3B6A17E1
BB91967C
BC06111B
BCA65837
BC22F946
3AEBDDEA
BD1D52A3
3CECC6B2
BC4CF387
3DA1BAE5
3D0D64B9
3D7EFE34
3CB32286
39957096
BCB07364
3D449753
3D75F7B0
BD8571E8
3CBB665B
BC0D9F07
BD95D88C
3D41ACEB
3D19F840
3C98937D
BD82334F
3B3FD7A4
3C566B97
BCC7805F
3C07A6BE
3D4BF67D
3D0ECA1B
3CBF02E8
3D80CB17
BC78B475
BC487166
3B69E0F1
3DDF6EAC
BC8E9EF8
BC9D261F
3B68CDBF
BB782FFD
3D51AE34
BD54E3F0
BC3B54DF
3C331800
BD2E18CB
BCD93C30
3D1707E7
3D3C820B
BA8149AE
BCE17E9E
3D095DCD
3AB0718A
BB800208
3D3DAA52
38B010BE
3D0FCB5B
3BA867DF
3C2A8488
3C98372A
BC8FE30D
BD392896
BD01389D
BCD977DF
BD46C6B2
3A07B98F
3D0C067A
3AFBC00D
3D19E9B8
BD21A7D9
BCE4281E
3C12D6D5
3D0984E2
BD7A4CB3
3C0CC718
BDA9F339
3D3D8065
3BBE481A
3D3B1142
BBAB2274
3CC98667
BD063E7E
BCF387C1
BD510979
3D588A89
3BDD9F9B
3D5BC730
3CBD17A7
3D4D98F1
3AF442C8
3BCE6D6A
BCFA75FC
3C1083A9
BD2BD1F0
BC9247A0
BD5E42A4
BCB17D7C
3CE6A68A
BB596230
BDC143D7
BD9991DF
3D9C7545
BC619F0E
BCFD0E7C
BCB285B6
BD19503B
BBE4CD13
BA1C36C4
3D9459AE
3C93B51E
3D94AE32
3BDF10DA
3D09F47C
BC7C49A6
3C9E4FD8
3D643637
BD6AC01B
3C94A682
BC702C96
3CB3C27E
3D26FED9
3C6AAB72
3D8304E9
3D1B556E
3CC40112
3C9FAA82
3C9FF18B
3D06013A
3C58BE23
3C0340F0
BC2817F2
3CF88DAD
BD5DA6ED
3D96E82E
3C37C1E7
3BE8D362
3D05B3F5
BC409BD7
3CF1C7D6
3CA57CA3
BC1D1976
BC5F7FB9
3CFF8BAA
3C4D3B2A
3C30CC0E
3CABF03B
3C0F92B8
BBE1DFBC
BCBF2E1A
3D04C0FD
BC4AA031
3C350A7E
3B891F92
BBF9B536
BBC208DD
BB9467C3
396EF826
BC66622A
3BBA647F
3D4D8DDA
3C9ED3EB
BCCA530B
3CB71EA2
BC8A4DDE
BCBD6EDA
BC04AB62
3C09EBEC
3CA9C02D
BC989BF9
BA904A80
BC8B91A1
BBE8F67B
BCBC9AD4
BD6C793F
BD527CC9
3CBAE52F
3C27FD05
3D100B1F
3D4DEA2F
3C221D6F
3D5CAB33
3CA63462
3D097009
BB8953EB
3BB770AC
3B8EF8E6
BD381993
BC4AD422
BD7BEC7A
BD8834AC
BD122130
BCD0A2D5
3DAAB3B4
BC7231D5
BD2B29CC
BB8A7D3D
3D9D90B3
BBDC092E
3CB614B4
3C95FDC0
3D602CF1
3CF31E63
BD4F3D9B
BC9D7D7F
3CFBFA94
BC91EAA0
BC4C8E74
3C5040A3
3C1DBB9B
3D16566F
3CDBDADC
3CF4F850
BD9718F0
3D64016B
BCE75019
3B01AFA2
3B9FFB13
BC903B66
3D775442
3D01D783
BD2E44A8
BDABCA6D
3CAEDE6D
3D1614F0
3D691FA7
3D2118B1
3C921031
3D768AA6
BC281767
3C33C502
BC878A9D
BC581F08
BAD9C902
BD26BEF3
3CBB5645
BD7C4CA1
BD2A520E
BBDEC5ED
BBF2A8C2
BB467C23
BD2F44F0
3C913FEB
BBFC0CD4
BD8A66C4
BC20891E
BBD25418
3CC34C54
3A98ED51
BD9E0F33
3C31E0F3
BC91BECC
BB9A46DE
3D3B0A85
BD223740
BCBD804D
3C3CB42A
399692EF
3C419B31
3C335094
BD2A3485
3C821D2D
3C3246BD
BBC99462
BCC63979
BC57E23B
3D270253
BC9DB5A4
3CF3660D
3C381164
3BAD950D
BCAFFED7
3CE65E9B
3C9CDAB4
BC3A809C
3C1F4809
3CAF99A5
BD3BF04B
BD330566
BC476D6A
3D06E3BF
3D38E155
3C2CA083
BCC7151D
B9D75FB0
3C47A650
3D533AE0
3C3D899F
3CE3E5EB
3CF3628B
BA12DA46
BCBD4F45
BBF699EB
3D11B52F
BD943E57
3CBE17E7
BC33270A
BC023DFD
3D24EB4F
BC3E7C15
BBBABEB4
3D38A20B
BD4333D5
3C437040
3D45D371
BC6EEB8E
3BF512D6
BCF7CB55
3D2C68E0
3CE544FB
3A3895DF
3C009523
BC54D5EF
BBF20605
3C96095D
3CC01E5D
3D099E33
BCA3A258
BD342F73
BD84B177
BCF398C7
3CCE24D7
BC827D6A
3CD1F490
3C034ED7
3D6C05AF
BD0BA9A2
BD6FE3F8
3CC9DA05
3D21DDAF
3C4333A2
BB10927B
BD2024A3
3D6A05BD
BD294BB8
3AF6D1C7
3D71D062
3C92B703
BB580E35
BCD10B6C
3CDC2572
3D16D0A4
3BA3EEB6
3B4BEA3D
3C205ED6
3C4A5257
3CC3DE0F
3C56AF36
3CBB401F
BC0EC346
BC5E0125
BD1DC4D6
BDC1E714
3C7298FC
3CE2C562
3B00656C
BD446884
BD1ACA0D
3DBB292E
3C814EF8
3C0B2C22
BCE98438
3CAE9412
BD5B4F4F
3D2C57A1
3B88E498
3D362A6A
3DCE5E64
B8C4E1D9
BB7ECE1E
3C8E05A5
39D85B5E
3D0C3F60
3BEB7610
3D1D7684
BBA5517B
3D4DA9DD
3D764E42
3D1338EA
3D0D93D3
3D2113A7
BB37F315
BD0F674C
BC8EF612
BC03CFEF
3BCAAA47
3D80D9DC
BCA056F5
3C867B26
BD7EE9F2
3D2AFEF2
3D2D7C75
BB070FBF
3C928769
3C781723
3D30601E
3CD8EE46
3CBFD171
3CA58781
3D22200D
3C88741D
3BFA4EA0
BB432186
3D14E0E0
3C8462AA
BC015979
3C8F1F18
3C2E42ED
3CA59643
3B11AD33
BCA574AC
3C96E867
3CB14F3C
3CB54178
BCA6BED9
3BC6B1FC
3CF07FCD
BC065C18
3CF23B32
3BD4A435
3C7CEDD7
3C120CF7
BACD7AF2
BD033912
BC325BFE
BC719B0A
BD238182
3C5F24AC
BCAC8A4D
BD3A0166
BDAFFBDF
BD3B18C8
3D212219
BC4DB9F2
BCD247C6
3D432220
BC749A64
3D728DB6
BBD83499
3D2AE44E
3C88D1C0
BBD42742
BCC93EC5
BD19679A
BC51699B
3C3C4E34
BDACF4D3
BD828AB6
BBBC0B51
3BC1F78A
BCB8E684
3D2089A0
3CB11DD3
3C2D8539
3C4DE3D1
BD144E7C
3A2E1B14
BBD64353
3BFCE0CD
BD8720C6
BCA0D23A
BBF72162
BD1B91B4
BD6B35B6
3C1D2D00
3C1D9857
3CD2C064
BD4823CC
BB9968A7
BC32D84A
3D814213
3CBD2034
3D27EFB0
3C78D9C9
3D200B88
3D0CD094
3D6E87AB
BC930E89
BB433DCF
3C4593EA
BD478917
3D8E133E
3BCF2526
3C991B4D
3D24BE40
BBD332FA
3D002A2B
BCDBA2AA
BC33C4E1
3CD51ECB
BAB3B854
BC2407F0
BD076E9E
BCDC1D6F
3D62D50C
BCFF109C
3CA1FB5E
3CC75B78
BC1CDC85
BD307207
BCDB1467
BAE84A36
BCB19A7A
BC0A6DD2
BC3E028C
BD10A3D4
3BE6994A
3D27EBE2
BCD2EE2B
3D1242F1
BD0FA861
BD29B5A3
BBC6B3A2
3D0871E8
BB72B1F3
3C36BA61
BCC1BEF0
BD798765
3C5AC4DC
3C3CBE9E
BCFD2986
3CC848BE
3D3D1E78
3CA3F878
3D48BBA7
BD16AD67
BC585A8F
3D2F3F40
BCCAF624
3C0EDD27
BC7DEEB8
3C6D4551
3C7620CF
BC9D930C
BC986F97
BC9F297B
BB07EDF0
3D52C742
3B3A2BE9
BC1993C8
BCFE2544
3C8FDBC2
3BD92EF3
BBF5BFA6
3D96B06D
3CEC5709
BD219D0D
3BC1A877
3CECCAA0
3D593496
BD10F110
BC497947
BB785ED4
BCBF7401
3D2CEB43
BCC06A8D
3C7825FF
3CB90173
BD9A9CBB
BCE6D2F5
3D150766
3A2AEA5C
BC5A0B75
BCD44C83
BC2BF3B1
3BB5CEBE
3A578751
BAD84C44
BC20AA4E
BD3EB007
3D986F4A
3D100061
3D93C8BB
BC815CB6
BD1D29D8
BDC4A25E
3BA0A814
3D030B4B
3C80241F
BA4E34E6
3D2D7D30
3CB98538
BCABEB42
BBFA7ACC
3D893F35
BCE3B3C4
3D8AEDEF
3C7F573F
BC2785BC
3D92F3B1
3CCE07EF
3BCC3229
3D8252BF
3C740BB5
BD72CA90
BC96A132
3D0EC8DC
3D395C8A
BC9C8C3D
BBDC7BC4
3C481D70
BCF9C371
3D480F4F
3A02D189
3C56D43E
3BF6A004
BCDCB7A6
BD5582B5
BD6833D9
3CC52177
BC01671C
BCB6EC8D
BC8C21B8
BD704328
3D91E1C2
3D384599
3D38812B
BD244CF5
BC8A9066
BCE76618
BCA80111
BCA5AD0E
3CED3AEA
3DBB5BE4
3B33C7C5
3BAB097C
3BAEF44F
BC66849A
3C76B4C6
3D612D4D
3CA25010
BB0AB110
3CDCCCD5
3CD1949A
3D7E5790
BBB2C220
3D3D34C9
3BD6FFA2
BAEB5A83
BD60762F
BC162765
BC57E4DA
3CDDC58D
BCF4BB0E
BCC0EF5A
BC5ACB95
3D92EA5A
3D52ADF0
BCD90E4B
3D455592
3C4D4F4A
3C80C618
3D3DB2C9
BB1150D8
3C600947
3D30E25C
BCA3541B
3CC1E049
3CD011D5
3BDEC98B
3C172B11
B842B98E
3D340E7C
3CAE8B28
3A4D53C4
3C80CFB7
3BE726BB
3C17A6CA
3C85E611
3CDE0175
3C1F2879
3CC3E520
BC182033
3CCF7BE6
3C7D57BB
3A27ADC0
3C4E8E85
3B78F0C0
3CE6FBFC
3B1C370F
BC443140
BB8475BA
3C74DB39
3B58E25A
3D940C69
BBEE447F
BCEA8E37
3C217A68
3D89A935
3C86166C
3C285AA5
3D1B3A3E
3CB56126
3D6E6324
3CF8E44D
3552C800
3C45D8F8
BCFD6D1B
BBDCD0C7
3B306F31
3CECA045
BC9C4C38
BD2BF1BC
3BD99633
3C8B4C78
3CA598BD
BCF65FBE
3DA1A939
3C8E665E
BCD1DA73
BADEE5B4
3CA11E66
3DA0EBF8
BDDF3499
3C952E0A
BAE3C22E
BD1AD5E0
3CA5871D
BBC5135A
BD0F5321
3C281262
BD02B201
3CE95FC5
BD6D5B2A
BD530499
BB06152B
3D9DB8AD
3D0D54FF
3B005819
3D10D91F
3B84C80C
3D27B332
3D6263C7
BBDD4B12
BCE6D709
3C893582
BD1BA297
3CE8274D
3D0B62C0
3D51F69E
3D5FAD7C
BCA71C10
BC0756CF
BD257865
BC0BC509
BC7267CC
BCEEFCA1
3C778B33
BC0981DB
BD523230
BC178804
BCA85B3F
3D5FDEC0
BB69C7E1
3CD92D0B
3BA5B6A7
BC5C08D3
3A1A7836
BCC950AE
BC364867
BCAD945E
BD2AB7E6
BD27F805
BD039B4B
BAADDE2D
BBF67504
3CD92206
3A6C4168
3CDB63B2
BB03D522
BD05308D
3CDE2C20
BD56F292
BD2DC079
B9B29DE8
3AB72606
BC05BF8E
BCB80470
BD0F209A
3C4E9DDA
BD7644B2
BB3E552E
3C878CED
3D4E83D5
BBBBB4A8
3CE16C26
3CAFFC74
3D66CC19
BB8106DF
BC24DE15
BCCF1C50
BDB21095
3D222BC2
3CAC17EE
BD12FEDD
BD239137
BD03C466
3CB7113D
3B9A32A8
BC9E57AE
3D33FBA7
3D25240B
BCD43A67
3B13BA8C
3D5005F8
BD8CD674
BDA0EAFC
BA4A587E
BD168E1F
BCF0EE79
3C86ED0E
3BBD160D
BCA29538
3D19340A
BC1455CA
BD67CAE8
3CB1A05C
BC8D00F8
BD45BF76
BD57B0EB
BD293E35
3C793B40
3C5DD7A3
BCD60919
BCB8D06B
BA6E8EF2
3D53C1B8
3D4906C8
3C910FAD
3C2333AE
BD728837
BD979FD7
3D295A5B
3CA08B60
3CB852A2
3B838F89
3A9C4261
BC0619A4
3AC7BA4B
3CABEDF1
3C0F84AA
BBA50AB1
BBA6FEA1
BD06EEEC
BD1870F0
BC4EF555
3D2B29F3
3BA592A3
3D1E0367
3B4204A0
BD1B9D38
BD4054A5
BC590049
3CD38A46
BC27412F
BC9BBFDD
BC986094
BD09BA4A
3D9B8052
3C237A25
3D709116
3C471883
BCFD2885
BDB8DBC1
BC8C5C1E
3D396F47
3C95571F
3C6C06CE
3CDA2FC0
3C9472EA
3D742FB2
3D5EA227
3CC52C05
BD2635C1
BD148AEE
BD6F662C
BD4DA550
3B02BA73
3D5F0526
3BDE79B7
BC4A906D
BC8CA661
3C51C01D
BC437821
3C9F0B9D
3C836CFD
3C60CF80
3BAAF94E
BCDE0853
BC7D03D0
3CD8B139
3CBD56AB
3D34CA74
BC25194A
3BE553AE
BD70E383
BC536092
3C83BD8A
3C312521
BC2930CE
BCE0027A
3B6D5564
3D4A8118
3CBDE3A6
BD10A2C5
3CF835F7
3B212392
BC6502AA
3D5EA2DD
BB5F04A5
BC68EA97
BC4E48ED
3B977D3A
3CC90CAF
3B546D4B
3CBC850E
BCE45E26
3D5DECE4
3D059BFC
3C185AAD
3B4A6F41
3B6A30E7
BC046E35
BD6E53E8
3C3D2385
BB402482
BC18C690
BBAD7447
BC0F95B0
BD41B648
3C3BF33E
BC1C3F6D
BCDE026D
3C503D52
3C3FA8D1
BC7E64FC
BBC68C13
BD0913E1
3BBCE5F1
BCA88E0A
BBB33ABF
BCB8E44D
BD3746E2
BD20AD96
3D23085C
BB95C220
BC53ACDB
BC6E5A1B
3CA3DE4F
3D57BB5C
3D27D970
3D281E55
BC4BEC8D
BC754B44
BD128D2E
BD320FB0
3B15343C
BA4C442B
BCD98E1B
3CC718E6
3D19BB16
BC7E1D56
3C541C3D
3D866EE9
3D1F7313
BD6CFC42
BD14B43C
BCEF910B
BBE932CD
BD947651
3D023E0C
3D1405A8
3C92E613
BCB70D8E
BBB2E1FA
BD7AC700
3C6F44AA
BBE301FE
BB1A3562
BCEB8139
BD7D206C
3D17F9BA
3DBAC4E9
3D297797
BD5656B6
BB1C01F7
3AEAA0E6
3C8EB455
3D753CA5
BC201A4F
BD34BD16
BD0FC686
3BBD36B9
3C7ADF16
3D39CD60
3D56A331
3D6E4C0C
3CAD6791
BC6C94C0
BD881D3D
BCA550B0
BDA63B62
3CED7CB4
BD16DD9C
3BED02E5
BCE8A700
3C3E1AD6
3C2DAE81
3C9C5D08
BB622437
BC62F58D
3C6F0896
BBBF9CE2
BB8F23A0
BCCF6552
3CAD6936
3CC584A9
BC0D3366
BC51D54F
BBF9FE81
BC98B118
BB362D07
BD0E4366
BCCD11BC
BBD19B55
BCD8B6DB
3C274407
3CA3988A
BD0874E8
BD03299D
BCC2FBAC
BCA49B37
3C2DD2E0
BCBCC162
BC8073B3
3BD06FCD
BC8B1535
BB050246
3BC6BDAA
BCC5C9C8
BD29CCF8
3B0511E6
BBA77F33
3D3B4D71
3D0EE6A0
BD7A10F7
BD323C90
BD96612C
3CFB2352
BBD052C1
3CFB3BE1
3CB058AB
3D874286
3BDC521C
3B221B2C
3BB29E0A
3D1B5265
3D27680C
BDA53B47
3C450F28
3CE56141
3B1537E3
BD822D58
BB9FEED9
BD807FF2
BC988F70
3D02E103
3D4DB13D
3CAFD511
3D3ACAA2
BC8DC104
BCFB2FFF
BC311903
BC9DF170
BBFA7B84
BCD4E889
BD3EC19A
3C144214
BB0530FC
BD294A8E
BD81584C
BCA47349
3D68452E
BD0C7EA4
3C3F4238
BCD906A8
BD83B3D3
BD7B6A8D
3D197B6A
3D57B476
3C82F9A0
3CE2BA8F
BB6A4C40
BCB9D49B
BD0B00B1
BC975D36
3D220C78
3C21505B
3CDB2A19
BCD13EA3
3C07C553
BC2F8205
BCFEC08E
3C5EBE59
3CB03192
BBB9406D
BD5C5569
3B2713FF
BCCE0E4D
BCC56859
BCDFF3F4
BC730CE7
BC83128F
BC27E02D
3D3AB1DE
3D4B5F0E
3D1623A3
3D63BA31
BD570BBF
BD72A3BD
BBB7DD6E
3D0B0497
3CCE37D8
BCE32DF6
3C36185E
3CE53BE7
3CC29DF2
BCCDF9B7
3C3328EB
BB811F6C
3CA5C2C5
BD3E8866
BB9B1E07
BCA7F38A
3D37DEDB
3C87CDCC
BC86B4AE
3B9D7459
3CA300A5
BBA7E215
3C09056C
3C1E7402
BD162FC6
BD375563
3AE0ACDF
BC473BAA
3D411854
3B8D7364
3C8D681B
BCCE1113
BD69DBCA
BD066D09
3BA7EEC0
3C8765E5
3CE76DDC
BC95C31F
BCB63114
3CD6C869
3D32AE5B
BC7A7A12
BD3F4A97
3C8E4A67
BC07EB87
BBD17F81
3D5F35A2
3C07303A
BBE17DC0
3CE0E1DF
BC514EBA
3D0195F5
3CC919E7
BCE99A0D
BB7C4BBA
3CCA82A6
3CA65E3E
BC9F710E
BCE04E02
BCDF607C
3884C88B
BD21C2D6
3CFBA923
BC81AB39
3CECF1E2
3D0AEED3
3CC674D4
BC6B0752
3B9B4B66
BD3BD7B0
BCFFD4BC
3D012E6A
3C8D6467
BCB1668A
BBA67944
BC852000
3D3D0ACD
BA15CFE4
3D82F105
BD46E04B
3BD1EBBF
BC7AD172
3D46970C
3C16BE01
3D0D21D6
BBB7D9DA
BC95543F
BCC64ADB
3CD32734
3B86ECE3
3BB69A84
3C0516AA
3A87B817
BD07B765
3CC2D58F
BA060E79
BC83D505
3CABCFC0
3D35B339
3B726F11
3CEFB7F6
39981C0E
3D7409D3
BD65C0E0
BCCA16C9
3BE1B23B
BC655679
BD4ECAB2
3CA3E9F3
3D44AD9D
BD05FA0C
3D0F1FE2
BC4313FA
3A11C90B
3C40FAA2
BC178B78
3B9B8500
BAD42E8D
BD426D0E
3C569806
3D2B57B9
BD6A4971
BC968AE0
3C30FA55
3D1A45F2
BB8E021C
3DB88CC3
BD123BE8
BCD013CE
3CB9AC22
BC7EA698
3CD96909
3CAEBA3A
3D6B7EF0
3D236B4D
BCEC05AA
BD16E058
BC934AF2
BC05E1EB
BCF00BF2
3C8870BA
BCA28E57
3D14D059
BBD66DB4
3DD05F4B
3C861302
BCAB3A3F
BBCD71AD
3BA16CB6
BCFF0165
BD776784
BCCB98EC
BACF0006
3D0DA147
3C24B265
BD1EEE5D
3CB94E3E
3CA85260
BD95DA06
BB6C3CBD
3CBA3996
BBFEB2BB
3B7D963D
BC9B8680
BBC31E6A
3B366AB3
BD2CCC79
3CEE30A5
3CBF862E
3D023F77
3C29765E
BDA08DB0
BD1D07B7
BC8F2155
BCF7126D
3D5AC9A1
BC50F2A5
BC812F53
3C8B5684
BB88C424
3C02846B
3D587D38
BD0A6885
BD199661
BCB017C4
BC8FE89A
3BCD2FFC
BC96B6E0
3A25DB67
BD12AC2D
3D240C16
BC517875
3C693C6B
3C939A58
3D46D3B5
3D80AAA8
BD081DD1
BCC27627
3CEE9A9E
BD16F437
BCD29BD7
BAD0E30C
BD713A7A
3C9D545A
BCA15BEB
3C111576
BD80F58F
3D65E82D
BD144629
3C035C09
3D034547
BCA22FD5
BC811759
BCD07D1A
BD3F6D5D
BCC0E9F7
BA84FC0F
BCFE0D4B
3C14A3A0
3CB7441A
3C85F62D
BCEF10A3
3CD910D7
3C738AEC
BC5449C1
BD71C104
3C8099D8
3B2D30CE
3D2DCC3C
3BCA96C1
BD4EDE2B
3C9CE14B
BC4A09CA
3CA4FF35
3BCF724A
3CF5B75B
3C05DB21
3CC38E12
3B94536C
3D45B74F
BBF997EA
BC73F91E
3CC4DE5B
BC07BD46
BCB6D006
BC572DBF
BD3E3D58
BC9A3F36
BB8EBE0C
BD0A4353
BD219D5F
3D221333
3D403AA9
BC6D817F
3D15CF9A
BC784526
BD0D6A39
BD5CA421
3D2A9DA5
3C32BB5A
3C190B29
BC61AF57
BC01BE75
3CEB3C62
3CEB0C7E
3CBCD337
3CCACF71
3CDB6C7A
BB7FD622
BD1BCD6E
3AB61918
BCA68DFF
3CB1093F
3B6D8061
BC1D369C
3CE6F73F
3CFC6755
BC44F971
3BC5D5E4
BD109BFE
3AF873DE
BD4BA271
39A9F600
3CD4EF3D
3CB2020C
3C1D6966
3C82FF62
3CA29C21
BCE585BE
BD36FBDE
3C069F22
3BC02EE6
BBDB1AEB
BCBA6C1C
BC836CA0
3CF9071E
3D1120E8
3BDEA058
BCFBB3C1
3CFF515F
BCDBC902
3C8F7100
3D1D4BC7
3C4C5B4C
BC8CCC71
3C804ABC
3B0E25E9
3CA220FF
BBBBFFB1
3B68FD4E
BC94BEB0
3CEE2597
3CCBE134
3BD55ACA
BC91626E
3AF72AC0
3C9A65C2
BAC8264D
3CB62759
3BECC709
3BCD5518
3C0EA2AF
3C9289ED
3B6CA524
BCA2A48F
3B3C3FE2
BD0E6235
3BD27D4A
3C2CA19F
BC847D56
BC7C463D
3C243B73
3CD7DB8B
3BD5DE7B
3D40F8DD
BB10C660
BBA49AC5
BA053BA3
BB95598D
3C437483
3C56A24A
3B8CBD5F
3C19D4C2
BB65EFE0
3CC8434E
3CFF3A2C
3CE1E9CC
BCCA73B1
3C9E4FBC
3CB27693
3C84F19D
BC2F932C
3D438CC6
BCDFCC45
BB92DF7F
3CBE0AF1
3CA7A0EE
3C9C839F
3D054F90
BD7FF5A0
3C46E54D
3D0A2883
3C1202D3
BD0418CE
3CA7DCE3
3CA6986A
3B9BF08E
3BC6A23E
3D3F22A6
3C5599EC
BC514B4B
3B7A2620
BC3AEC81
3BAE2524
BD3ED75D
3CF7D483
3D10A316
3BA69097
BD29A1CF
3B4AE927
BCD377B0
BC91F78E
3CCE4FEF
3B313688
BD873CDB
BC0FC43D
3D42C197
BD0E2BA4
3D8BBA6D
3CF4092E
3C636BBC
BD309FC8
BC326509
BBED0076
3C2F8B03
BCAFE869
3C9ECE1B
387D78D4
3BBC22A9
BBA480AF
3BAB9BCA
BC613EBB
BD1E0634
BC3B5C91
3BADC4F6
BC4A7F05
BCBCE7B7
BBAC6A48
BB82FD1B
3BA58240
3CBEB3E6
BD196713
BC7CC629
3D4C2AC1
BD85F4F2
BC728517
BBAB4A0B
3C25968D
3C047416
3C4EFCA7
BCAD770E
3C77457F
BD89F5B9
BCAD94C1
3CABC74C
3BA2A0AF
3D0FA7F7
BCBDF2E8
BCA8F2B0
3C929FD8
BCCF86B8
BC2AD05D
BC2F6E8C
3C053FC6
3CFDAD7F
BCF49F89
BBB79294
3D872A90
BBB6CCC1
BD0F4613
BC8691E3
BD12F688
BAAA117E
BCEDB1A2
3C0A468A
BC373B90
3D88A4D1
BA8E6E95
BBAE76BE
BCF04D37
3D6B8B99
3D680C6B
BCC06CFF
BD045745
3CC085D3
BBF2488F
BC1345BA
BCC5CAB1
BD45940E
3D6EFE48
3C4296A0
3C693CBB
3D985BB8
3CEBF0D4
BD040BF5
B98349C5
3C9234A6
BC4ADDBC
BCD062CD
BD1E9D06
BCB11EBD
BCBFFAB1
BB157E35
BD290EE9
BD13E652
BC56100C
BC166960
BB1586F8
BD3C30B5
BBC7F3D9
BCE8AFEA
BC251981
BC042F77
3B57904E
BC7A5784
3C49BD3C
3A84DC0A
BD346271
BB1C4E09
3CABAC57
3D157E8C
3C59BDCC
BC2A0D5F
3CEEEF1F
BBCE4EEA
3BCFBBE2
3C7AB57D
BC826AB9
3D3338CF
BC09AD37
BCD3D5C5
BD08E806
3B174FCB
BC2E941C
BC5D7DBB
BD04616C
BAEAD299
3D37B1C4
3CAD5349
BC47FED1
3CA34F87
3CD2CB1A
BBA00483
BD247903
3D3705C5
3B8CCD42
BB4E7404
3C0C467F
BB277EEC
3D07D8EB
3CA07B2B
BCF63514
BCCAEAC2
BD037DF5
BA91246C
BCCCFBAF
BC5B16F4
BD04B0F4
BBC8525C
3B917855
BCEB48D0
3C4E8350
BA90060C
BC88E2E0
3C817415
BD81DE14
BD1D2213
BD66B9EB
BD3276C4
BB52ECDC
3D264A3B
3BD96E5C
3A1F725F
3BA08BF0
BBB8F0C1
BCB071DF
3C7DE3F0
3BEAE045
3BA1D653
BB81A09F
3C911F59
3D057000
3C829B97
3BBD8C64
BC21E9C9
3D1FBEE0
BCB374E0
3C5C8F40
3D12012C
3BE0AE82
BCA48447
3BEF7E37
B9F7A990
3C090707
3C13B8D0
3A9643BC
BC87262D
3D155F55
3B5FED54
3C99D3C6
BC443C3E
BBB9A42E
BC1B8BFD
BBA723E6
3C637E2E
3B15800D
BBD1A37C
3C3BF819
3B89985C
BC8FDC29
3A897171
3BEE7CFE
BCDD4C02
BC6903FA
3B43E20A
BCBE698C
BCD76612
3B4AC007
BCE618E6
BC2956A1
3C67FA4F
3A9F7470
BC6DBD33
3C9768E9
BC8502BE
BC4F4F30
3C8A887D
BC10794F
BCB36DE0
BD0B96E4
BB3FAEEA
3C981092
3D3F0C27
BC0C55A4
BC27E1B5
3BB2DDA3
BD1C1C27
3C3AC014
3CDE7B02
BC82D4D2
3D127B59
BC42C2B6
BA113201
3A5E9306
B98E0C28
BD05934C
3D09D8AF
BC6BFE7D
BB81AD50
3CCF3FDD
3B23632F
BC9DE036
BB8D6A88
BC866E6C
BC95974D
BC0C13A9
B9683272
BC51F342
3B4075C5
BC213066
BCBFF4B2
3CB54D02
BBADE135
BAF974F6
BCEAC9C0
3B9D80EC
BD5E525E
BC81C36A
BC8F6C94
3C8BC28C
BD3B788A
BD178A31
BC292C98
BC5EFD22
3BCF69AA
3C8E87E4
3C3086CB
BBF3D6A5
BCDF5AF1
3B994CBA
3C1FCF00
BCFB4127
3BC67EAD
3C32A4AB
BBA4110E
BC29F044
3D8878A0
3C6AABB2
BCA06AB7
BB1CD028
BCD27443
3CE4C8E4
3BBEF776
BC82B40E
BD2247CF
BB0D4500
3D14336B
BD2D65C5
3BD9E256
3C3149D4
BD1A65E8
BBC18ADD
BCBE24BE
BC826A76
BC5B79AD
BB73076E
BCD17D99
3D1DE11C
BD13977C
3D09ADA4
3B71C167
3C1D8E3B
3BCFC139
BDA83D41
3D0ADDF5
BBAD1962
BC5A38C2
BBDD9FB9
BBF66D8D
BC2B5E1A
BBAAB541
3B99A13F
BBB22EF0
3D04CB97
BCBD9D42
BCFD5ED4
BCCB1FDA
BC5EA1B1
B9B9FDFD
BAC96861
3BE6903F
BC0EB90D
3CACC3EF
3BA0BCD0
3BA3E714
39ECD03B
3D1ACEE7
3C3A13FB
BD24272D
BC9CF3F2
BCD191FF
BCD2EE22
3B24F959
BD90A25B
BC94400F
3CFA8656
BC8E3403
BD0B2B6D
BBA34614
BC86541E
BCB2815B
3D170E58
3C5F3DCE
BBEC80AD
3C2EC366
BB2E69AF
BD16BE79
BCB663C0
BD2178B4
BD6ADCF4
BC90D9BE
BC701042
3CC3E690
3BF092D6
BCDEFE23
3CCD4A3D
BC41F903
BCDEE37D
3C05BF6F
3C87D091
BC09E172
3D307D0B
3CC15601
3C6874AA
3BE8CC63
3B462A07
BB1466D6
3BDA4A6D
B9E62DE1
BBFEB605
BBD70CE9
BB1F5117
3C9B11F5
3C6F67C7
3C618DC9
3BF1CA4D
BC22B3B0
BC3D5657
BC47D7A2
BCD66B08
BC4EE08F
BD97D6A2
BD15C45F
3B7553CA
3BB04687
B9F1BCCC
BCCBC336
3BEA23D8
BC39D9CE
BBEEA609
BCABAC73
BC33E57E
BC11A211
3C02C6FA
BBA52FA6
3D1BC44D
BCC5AA3A
BD21EEB9
BBA31F6C
BCF04C2D
3CEC2679
BCE84AA8
3CF47873
BC989B99
3D1F9216
BB9D71B2
BD032EEF
3B208BBA
3CB95413
3C4423D0
3CAD3535
BD1D41CC
BD4C275A
BD38B68E
BC6A2BA4
BA693606
3B80850C
3CA2972D
BAD98D6F
BB15B091
3C3D2A08
BC54D2A3
BB7F11AF
BB19744A
3B5919E8
BC6C5586
3B04C8A3
3C955791
3BAB794E
3C439331
BC455397
3D13D912
BCDC6123
BC8A6583
3D0DC9E5
3C662133
3C85021D
3A391371
BC3A02FF
BBBA93B0
BABD0794
BB6A8D59
BBCA4DA9
3CC2BB20
3C1261F7
3C3FBDD0
B98334FA
3C0FA20D
BB89EE9D
BC50BFCA
3D127C79
3C666D6C
3C444DB5
BA30E6F2
3C0C401D
BCA5B663
BC06B5F5
BCBCA393
BD39744A
BA77B96E
3C5B7F4B
BCE6246F
BC335877
3CA2A94D
3BFAE09B
3A21507A
BB2D933A
3B0FC3F8
BC0E8329
BC2690ED
BB6C6EB8
BC2DD9BC
BB208E49
3C8A6500
3C7834E9
3AD88317
BC1EBBFC
3AADBF86
BCECBCD2
3C611886
BBEEFE40
BC6E1B58
BB37439A
3C775696
3C23D9BF
3C9B41C6
3D4F5BBB
3C05770F
BCF2F6B6
BCC774FB
BB3B22C4
BC3B582F
BC876669
BC3735DF
3C632A18
BC5A23B2
BBC5C077
3C89D0C9
BD125993
3B2C32B6
BBF83CD1
BC97969D
BC86FE14
BC0B706F
BA15F809
BD04BBF2
BC8A5535
3B1B144B
3A9DD11C
3C189055
BC4B9F45
3C73D15E
BD64B7E7
BD1B99AC
BB4DDD53
3BD48C4A
3BEEC8D6
BB9B49DB
3D25A3FD
BBA0635B
BA2FB372
3CB2D319
BC137C1E
BB7F3436
3B53C443
BCBF66B4
3D1BE8FB
BCFBEFA8
3D1D0F90
3B4BDE7F
3C82EC78
BC1E7C5C
BC0AAD22
BC12AABB
BC8D3D79
BBFF81D1
BC012750
3B9AED78
3C80ECCC
BC6B427B
3C109541
3B87BE10
BB548A7B
BC36314E
BCD3F9B0
3D28F14E
BD909F69
3D01014F
3C643E5A
3C8AF563
BAEDCA65
BC858613
BB24734E
3D4689CC
BCED0A0C
BBF260CD
BCCCC734
BC432A45
BA18789A
3BD0CF59
BC633171
3D049AE3
394955E4
3D568C7F
3CAAEC4C
3D079BBA
3CAB05CF
3C93EE9D
BC59FAF9
3C0355ED
3A90F89F
BCF85C67
BB37D261
BCB936BE
3B076A99
BC9E731A
3D44935F
BC0A3CA0
BC13556E
BC836BF1
BCE3CA76
BCBE6F97
3CC9E363
3C24D578
BC535ECB
BCD3A7F7
BD3202DF
BC73E578
BD050605
BCFF4507
BD09EEFF
3D12B628
BD15E116
BD7A4F84
3C114D8F
3D27F965
BCCC06B8
3B6785D5
3C361058
BC0423E2
BB219525
BCA5FCF0
BD0AEF83
BCBF154B
BB29002F
BC8B0B6F
BD01B672
BC84B991
3CF9FF70
38E1DF40
BD00D5F6
3C401502
BB520CDB
BD406801
BC716FF1
BC3E6A24
BB920CA1
3CE421DB
BC714E1B
3BB21A20
3C78769C
3C9BC7DC
3A9AA303
3D0A4CA7
3BC049C3
3D00FC70
3CCB8A2E
BBC4A9F6
BC741A44
3A3885E1
3C5A7E80
B802BDC8
BC22E0A0
B9DCA372
BD17F407
BD1BD199
BC98312E
BD69E1B9
BD017D67
BC0A2F16
3D0AB22A
3C448378
BCF060D6
3C7D151A
BC4A1339
BCB09FBC
BA1110BC
BBCF7EA2
BD129BE8
3BA9599F
BCE1C3BB
3D1A5349
BB79695B
BC7C08C6
BAE3641E
BCDA6947
3D205B40
BD26D8FF
BA7853EB
BCA30EC2
3B3DF9EC
BC771DFA
BC4E086F
BC616038
3B4CAB03
3CCB6263
3BC0DB51
BD0C02AF
BBE06E20
BCF979BD
BC2BC1E1
BCAE3165
3CF2830A
3C49ACF5
BB5EA8E6
3C93E15B
3B049FF6
BCA6F8B0
BC5BCAE8
3C682358
3BA47E3C
3B2D635D
3C7BB6C4
3C374B7D
3B303F3F
3C463A05
BD00FC4E
3D43D0A1
BCFBE019
BD110143
3D1D42B6
BBB646D5
BBF67C93
3CCB5511
BCE998A7
BC0622CF
BB27DA5F
3C0F4FC2
3B12E8FC
3CC50A11
3BB13F65
3CA62A7B
BCB6671A
3D0BFB80
BD05628E
BD0D9AD9
3D249084
BB579E51
3BAFEF67
3C412BCC
BC8553DE
BCA0C58A
3AB522EA
BAF6060C
BCA51606
BB64C557
BBB1DBFE
BAD42835
BD2D5C0A
3CAFAF3D
BCFE6344
BD03A4C0
3CECE8F7
3B92A366
B9DBE59F
BC0FD7EF
BCD9B9B7
BCD36984
BBFA5C3C
3C5860B9
BC639B4E
3BEAD787
BB0B5547
3BFFBACB
BC40D1FE
3C859113
BC4DACE6
3C753618
3C0C6F1B
3CE16FAD
3BBC080B
BBE18456
3CE7D0D4
3A16E613
BC87FD3A
BD36DBCC
BC1518F3
3CB16566
BD42BC9C
3D085372
BCEFADAA
3A5E0E2A
BC0E3EF4
BC903008
BC4BB5AA
3D589CBA
BAADC15D
BCF19A21
BCEC1EC0
BB04BC65
3C6B5C53
BA526FE2
3B0A1683
3C9156F6
BC951164
B7155400
BD0F9AB9
3D0D5001
BD25CE71
BD8990D6
3D57493D
3B88601B
BCE5EDB8
3B400D56
3B278A72
BC8B633C
BBC4C6BD
3C8C80AB
3C7D441D
BCADD3C0
3C2CB86A
3BE8A2BB
BC84B39C
BBD13CFF
3AE7E907
BA8723B3
BC546E94
3BD4B53E
3C401F2F
BC68C810
BD821710
BC95DC2A
3BD86DD5
3CBFCBCB
BC4E8689
BC94A61E
BC87BABC
3C1A515B
BCABBCCE
BB8FE0A8
BCB4F3BB
BC800176
3CEC7119
3CA25340
3CFCDAAD
3C0F44A9
BD1F3C8A
BC253CB4
BC3CF9A8
3CA6D949
BD354E5D
BD44B096
3CEC2198
3C1CC7AE
BD204297
3CD1BB8E
BB3D11A2
BCA2CFAC
397213A4
3C72AFC6
3C9531CC
3AA4697C
BA71F636
BC72DB66
BB8967A0
3CE78E0B
BB0FD928
BCDC9742
BC1C21C2
3C2615BC
BA4CAA5C
BD20F8C1
BB608751
B91318B1
3BACD1D1
3B4382FA
3D2F5A4F
BB696660
3C42A7EB
B8DE0CC0
BBE32DB8
3AFDB486
BCF1FF2B
3C011C7B
BD0EEA4A
3C9AC2D8
BD0836CA
3D086258
BCE38D08
BD1DCEBF
3C4EE69C
3D20AC0A
BB17071A
3C8FCDF7
BC3BED05
3BA42CA6
BBAAB8CD
BA9331CB
BD43036C
BC96F061
3B0E2E65
3C44B967
BC96C37C
BC250517
3C7AF8D9
BCA5A0ED
BD1A9377
BB5C100C
BAF03216
BC80221C
3C68B566
BCCF5489
BAFFF747
3CC487BD
BC139CEE
BCF373B2
3C5A136A
3BC75EE8
3A5A1562
BC84936B
3C3E40F4
BAF16D0E
BA68E921
BBD15689
3CA22EAB
3C326BB3
3BDF240C
3B7E7F1E
3A5BC1E6
BC729674
BD511CF3
BCA713E6
BA90188A
3A168FE5
BCBB0346
BD102CF1
3CCA276A
BC98D65C
BD431E3B
BB82D8A0
3C3D29B4
BCF42FE7
BBD79629
3BED1A17
3AB2C4CC
BB704162
BAB3AC50
BAFF8640
BC00C324
BA741D90
BAD2FE42
BC007553
3B98B062
BB5D5E21
BC22C056
3BC7CECA
3A317654
BC15017B
BC7A7485
3C0C6D25
BC6DBDC1
BC0F33B8
BCDF0552
BC148D86
3C26E7DB
3C797718
BC68FC6D
BCB1E0C4
BA90FE8A
BC59061C
BD693241
3A895559
3B5D13C7
BCA315E5
3C51DFD7
3C9A099C
BBAFE8EF
3C330F30
3C89875C
3C5FC3C2
3C12E5BE
3C151FC0
BCCE1D0D
3D36F56F
BCAF2088
BC6845E7
3C918C97
BBC05217
BCB723EA
3CAB394B
BB107AFC
B9E9A52D
B93759A6
3C0B0F6D
3C809893
3C29F616
3B9D94C7
3BB166EF
BC840B23
3D158AF5
BD0851DF
BBBAD4FE
3CF68DA2
3B7218E9
BC06EA0B
3CD8FDB9
3C1D7F0C
BC70AF58
BC26877B
B93C0471
BC964093
BBDECCC2
3B495A2B
39838FBE
BC8143D9
3CF4BE28
BCC7950A
BC08FD3C
3BC7E738
BAFBEE23
BC9D4009
3C10B4EE
3D228465
BC700EB0
BC3DBD54
BCBEEB74
BBC0B54D
BC59ED03
3B856C5C
BC0B4071
BBF5CC38
BC915188
BB1A5497
BC1B7722
BD0023A7
BCFB3FF0
3AF976D9
BC5C5180
3B2C02A0
BB5224CA
BB9E7A9D
BC67EEB5
BC752A89
3BAF49EA
BC4D05E7
3C835724
BB316A18
3C2E5B6E
BC035EC8
BC18CE9D
BC6D1A15
3D122EF9
BBEDF21C
BC263E76
3D1B59B9
3C1B6170
BCFDAD22
BC32A557
3C086845
3CA4E45B
38AE771C
3B8BD93B
BD1F9E7F
3CFA5DF8
BCDA209C
BCF7FDC9
3B188CE5
3A91221D
BD109865
BBFF1AF5
3B6AAE53
BB9D7DDD
BC30C393
BC6645C3
3B169A2E
BAD2D01E
BC916326
3CB962B2
BB55A33C
BCC3A3D4
BB383E6B
B9C8483B
BC405EF8
3CBA9442
3CFD6719
BB527370
3D2FE035
BD0232B5
BC889304
BC9E1004
BCF9AB87
BAAEF150
3CA5E173
3C1D760C
BCAF18A3
3B2BF791
BD03E696
BC351042
BC8D455A
BC83AC95
BC13CB5F
BD0B2D01
B962FB5B
BC1085CE
BBEDF6B2
3C9ABBEC
BCBFCB25
3C016CF5
3D3FA9E3
3CF467DD
BCB6ADEB
3CA02633
BD51C6CC
BC17079F
BC284807
BC991637
BC2063DC
3C8F7167
3B983DD9
3B02DA23
BA1E6482
BB0094D1
BB8FBB28
BC098FE4
BA8838B5
BBA756BD
BA7B9B6E
BB32C669
BC1248C6
BABAF1EB
BB8C569E
BA913537
BBBE733B
BA116352
3D650E77
BB95A4C0
BCC754B8
BC7DB773
BC8F2F14
3ADF8731
BCD68B05
3BE6A734
BC8FA3E5
3BAEEBB5
BBD9A620
BCABA600
B924A58C
3D0CA56C
BC63E262
BCF6FE7C
3C4DF2AF
3B202662
3C175463
BCE71666
BCA1FA1D
BCC93F57
BCD86399
BC7B6092
BC4A3125
BC025CD3
3CC9389F
BC24D687
BD144965
BC199B64
BBEBA0E9
BCCF69A0
3BD60763
BB05602C
B949E86F
3AB696DE
BABBA0B6
BBDABEE0
39F86440
BC27E409
B9DCC2B5
BB263A79
BCB47812
3B62FD9A
3AA5484B
3BE6FF99
BC13BDDD
3CF3C914
3C827F9B
3BF65712
3B3929F4
BC8723E1
BD336E14
BC6E9084
BCDC02D6
BB950EF6
BC2AE50B
BC9B9A75
3CAFA5B7
BC88923A
BCDADD24
BBF91A08
BC15B801
BCD76282
3C278F6A
3B68232B
3B8FC217
BA51CB74
BA9D3A30
BB915E6F
BBAF9B9A
BBE287BF
BAD2830D
3B827BCC
BC3D5AED
BAAB7E8A
BB8D6D2C
BB1952DD
BB4CA698
BBF6D841
3C1C5602
B97D09F9
3C36E33A
BD0A6C93
BC888766
BBD63E8D
BD072302
BC2255F3
BC121900
BC6A0AFA
3BCF057C
BC4DCF35
BCCEC787
BB5C3D45
BBA1CD67
BC8F0F10
3D0BB981
3CBE2F47
BC425BE6
BC066B76
3CD6F6B0
3CD77B14
BBDA25CA
3C63C269
BCB3F985
3C86DF15
BCD2F7C6
BC2E0DF0
3B3AA438
BA3386F7
BC079C28
BC0C1750
3CD78404
3C6F1879
BC49C6DE
3C03BEF4
3CBCF1D8
3C81A67C
3C37D9B8
BA1D6C25
BC424CFF
3C20E4D1
BCF19205
BB8ED9BE
3C09DA5E
BBF398F5
BC319024
3881529E
3CEB7ED9
3A8F09F1
BC84EE65
BC33ADAB
BA790F4C
3C19E590
BBD84391
BC12BC40
BC86C611
3B8E94D4
BC9D73D5
BC3F9FDD
BC4492AE
BB60DB43
BC8378D7
BCBAA4F4
BC197C16
BB88ACD5
BAC2B69B
3BC45DE6
38F3EBCA
BBC1FD6C
BB3EC0B2
BC80D83A
BBC8D51B
BA251DDD
BD1F008E
BB0A2F1A
BBC7F0C8
BA0ACD1C
BAA4EE0D
3C888E6E
3CBF976D
39868F08
BC2F2CF0
BC1067FE
BB8B235E
3B84D9CA
BC3DB6A4
3B41D7D6
BBEC0800
BA234892
3B0CDDF6
BC2C48F0
B984D859
3CB182B4
BB84DEA3
BCCEC701
3C1C170A
3BBBB610
BC77D31A
BC58B452
3C527AFC
3CD89DFE
BC600533
BB60BCD7
BD0E5CFC
3C696F93
BD1BE50B
BCA7F4ED
BC18D457
3C20524E
BC7477CB
BC06F44E
3D8F559A
B9DC1A31
BAC4434D
BD4E32BC
BBA02FF4
BC36BEDF
3C051259
3A741F9B
B9E62BCC
BC83A628
3C1DFFF7
BBDB2FAA
BCEEB502
BC7A15EC
BBDC5320
BB735382
3C499550
BBD89CD1
BB53BB0C
BB8CF3D8
3ABCD4A6
3A092552
3C094032
BB2B4BD0
BC9BBC9E
BBAAFADA
BD20CA91
BBA575DD
BCE5D057
3C4A73D5
BC857D65
BC518B25
3D3DC3D0
3C5D21B2
3C127708
BC15D49B
3C519A6A
3B852DC9
BC451506
BBF44683
BC33A142
BC129615
BC10AD30
BC4C8B3B
BC02C77E
BCB09AFA
BC761CBE
BC33B76D
BB203A4A
3B2F3531
BAA0F1B6
BADA2549
BB1617F6
BB29FF79
BBD98D72
BBC03555
BAC74938
BABD4425
BADFDF0A
BB216D28
BB8E5AAD
BAA87CC0
BA4DD52B
BBC165FA
3CC417C4
BC26742E
BC5074A4
BC46C277
BB1DB06A
3C9E2B91
BCBEB37D
BBE527FC
BC9F42E8
3B867E29
BCABF8A1
BC087920
3C1373B7
3C294D79
BC27F692
BC7900EE
BD050D95
3C476BDD
3C01A2D0
BCDF48E8
BCB78A9D
BC050CFB
BCAE7024
BBC75949
BC97B567
BB154E15
3B30A261
BBE68437
BD6F686D
3BE2E17B
BC3EB6A7
BCF407D3
3AB5EE86
BA37787E
B9F93AEC
3C258907
3A8D98E8
BC252A93
3C8CE385
3C2EAEDF
B8B484D8
3C20DA39
BC3D30C8
B89F282F
BCC8E5FA
BAD7D634
B8A6EFB7
3BA38E3D
BC70F919
B9CDDBC2
3BB563BD
BC910D7B
BCAED9BF
BC179056
BC8EEEDD
BB3EDAE0
BC5891B7
BBE283D2
3C2ABC9D
BB5C789F
BD17ABFC
3B11B869
BC0D0C93
BCF2DDA0
39C8791B
3B8287AB
3AA443E0
B7D86586
BA8BEA2E
BB9F4D37
BBB1F443
BBFB4743
BAD209AC
BA0BF9F7
BBDBFDB2
BAC2C82E
BB9DD5AC
B984359B
BB0C9ADD
BBF9479F
BC9C3138
3BA1DE55
3A2019AE
BC2D4B3E
BCB87226
BBE828D9
BB10BB92
BB2D5503
BC2C8816
3A918B98
BC0B254E
BBAB0FE6
BD426755
3AF13FD7
BBE9FF70
BC9C0C64
3C1F401F
3C2CBB62
BB68E006
BB18F0DF
3C2093FB
3BDAE2B0
3B15232D
3C849AEA
BC895C47
3C6005D8
BCFA36C9
BC57CE5A
3C2028DD
3C23C491
3B1CC3F7
3BFA8198
3C5589E0
3A22ED35
BC11A82E
3C96A068
3C5627E8
3BAC2704
BB47EBA2
3AC5061B
BC4AF737
3BF043BC
BD03984F
BC823B29
3D270DBD
3BEBCCCA
3AE2D87A
3C2F5359
BBBA0671
BB1A7A9C
BBA1ABD5
BB2D3592
BBAB6131
3B431092
BCAE0BAD
BBE99DFE
BC88BDE1
B99C604E
BCEBCF30
BC6AD775
BA3A81AC
3C47571D
BBB9F490
BC247CA2
BC3CC983
3C25EED8
BC2367BB
3C5CD51B
BB8F740E
BC1922DE
3C7B2BB9
BBA82DF2
BB912A81
3C409DB6
BC5B8818
BAF5F2F5
BC43749C
BC2DC410
BB9287FE
3B43A958
BB8DAA5A
39A673B0
BC8452CD
BAC71C9C
BAC02B3F
3B61667A
BC2D382D
3B3430B1
BB35EFAF
3C247298
BC42F772
BA440153
3C0596F2
BAE30A33
BAF81749
3BDF2549
BC6FDBFA
3C0F8DE5
BBBA3A65
3B3FB89B
BC9D134E
BC382289
BB49AA2F
BC37DFFB
BC99AB78
39F6C3E2
BCC756CC
BCAB16E7
BB362A68
BAEC85BE
BC6E0C2B
3C4EBF7F
BB899E50
BA25FE92
3AD230B9
3C0A26E4
3B81529F
3B814012
B9F1584C
3BAB5A15
BB9B87BD
3A9C0E41
BCA351BE
BA634E14
3B483818
3C0DA74C
B989C1D2
3B8360EB
BC0ED17A
3C1FD5D3
3B0A66F5
B9767B50
BCC019D9
BB515820
3C0A1E00
BC9377FE
BC87D8C6
3ADF1C07
BC714302
BC57073C
BC5DF21A
BC07C0DE
BCA9D5B6
3BC081F1
BAF478B1
3C674117
BB966B6A
3C78CC27
BC97C9DA
3C5E8CF1
3C077F13
3C9BDD6A
BD194BC7
3C9D2F4D
BD731065
BC499955
BC531DB9
3B3A7F8F
BC4658F5
BBB2A1D2
BBDECF2D
3B4552FF
BA0C2CCE
BA231953
BB13DAF4
BB0B37B3
BBBAEEBB
BBC7C5CA
BA823A94
BA67FB2E
BB0D362D
BAE0C91C
BB936CD0
BAA80C06
B9DD634C
BBC40BAA
BA5D862E
3C4167CB
BCBA1BEC
BB75B2B5
BAE4BD55
BBB4EAFB
3BB292B0
BC40EDE4
BA925907
3CB0D39F
BBAFC4E6
BBB44C2C
3C62E2CC
BC50808F
BBAC80E4
3C1FDC2C
BCD620C6
BB82312B
3C2E89D7
BCF4552A
BC7F3504
BC218554
BC71B2D1
BCA8EA94
BC49497A
BC1C3924
3B0AE6B8
BB624916
BD100269
BBDED8FF
BC1414C3
BCAD458C
3AC86509
BB017ADF
BA807D2E
B932E8B7
3A8EE7BB
B97D0227
3AB30BA7
3B110157
3A066965
3AF009A2
3A844C30
BAED062C
3BF0EC5D
BB21DB53
BACFDD38
3B9924EF
BCD7007D
3C0D6761
3C803322
BD1ED288
BCAD29F2
BB817975
BC90D349
BC44D742
BC4DA537
BC08D038
3C9165BE
BB631430
BD81C608
3A37167A
BC67F973
BCD81935
BBB59EB5
3B15CEEC
BB00160B
BA259D46
BA71F49B
BB416321
BBC60358
BBF73FDE
BAD2BFDA
BAAABBC3
BB27C863
BACE8C5F
BB881614
BAC457DC
BB02A72F
BBF6E9E4
BCB4E4B9
BB4496BF
B970DE7C
BC92D194
BC708EAE
BC2D1BD7
BC872AA0
BC993755
BC019420
BC25FEB9
BADA07FF
BC205301
BCA80BDF
BBEDFA63
BB83C058
BC924EFD
BB1E20C6
3C44E59D
BC7CE24C
3BD5A8A6
3BB79C62
BC498FE1
3D0783FD
3C7A3FFE
BBDFB5A9
3C917D9C
BC21C686
BBB8E076
BB37658F
BB3C5A68
B92BAD56
3CA145CB
3BB20921
3BBC97AC
BC85E636
3C80A15E
B9C2E33E
BBA8158F
3CFA4C00
3C08DE88
BB748DF6
3C7EA21A
BC05E2A1
BC10A6BC
3C450B39
BB4C5AC9
BA5B85AE
3CA2CBAF
BC4AFFA3
3BCBC8A5
BB89E5F3
B9DC19A5
BBF10A0B
BBF4F2C1
3B96747D
BC636222
BBE03252
3BA47970
BC122B54
BB8EAE47
BC02442E
BC0898D6
BBCFCFFF
BB0A2B47
BC3766AD
3B9A6122
BB5D1BD7
3BB84BD7
BB182B5A
BAD02B39
BB6352DA
BC25FBE8
BBFE16E1
3B88E71D
BC5C1AB4
BA9E71EA
BB8139CD
BA8477B5
BB5F0C64
BB37ECF2
BB09AD5A
3BEC43A3
BC87E835
388F43E5
BAA974C8
BBC6B69C
3B460643
BBB8D38C
39C9BD67
3C5E571C
BAE6F38D
39D8B77E
3C1C4AAD
BC1269DC
BB58C4F2
3B3E8F6C
BC5A5188
3C300BFF
BC7742F5
3BB7D9C7
BBE67930
BCAE7F29
3A2D3D58
BB690980
BC709DCB
3BEB0A59
BCA7E76C
BC27C75C
3C4E35C4
BC21AC8E
BC0E0227
3BDB5708
3A2D2D8F
B9B006B4
B9D8992D
39ECA590
3B53FDC7
38EBF557
3A85C473
3ACEF816
B8B03D2B
3ABB2D28
382C3296
BA623AC3
3B6F71B2
BAA2F2FC
BAA9F1E7
3BECE786
BC395713
3C16F2FF
39526C8B
BC33D69B
BC0B57FB
BACD8A3D
BBFBBF91
BC39C54B
BBC8327B
3BC9044B
BB78EF54
BB9C9AB2
BC4945EE
BC12101E
BBBCB348
BB6CF32B
3B06EB01
385EB2C6
BBA09379
BC37B105
BC2F0096
3B4F99DA
3CD1EEBF
BA90F20A
BC51AAFD
3C75EC01
BC83A536
BBD2C011
BC8CA61D
BC0155FE
BC4FB0B9
3C30FDAE
BBDC082C
3B4A2A35
BA082FA1
BA0A0FD8
BB13E93A
BB0650AD
BBBB998D
BBD5FE2B
BA86C4D8
BA8F91DD
BB0D4E23
BAD45C3C
BB93C038
BA9F4E60
B9DA2889
BBC601C0
BC26D442
3C1DE966
BC8D4FB3
3C222A70
BAAFA593
BBFF9E25
BB187257
BC5840A7
BAFB1441
3C81484C
BB86B9D7
B9C125F3
3BE6F603
BC53E03A
BC1C96B2
3B8D0488
BCDAC0A7
BC29186E
3AB66954
BCA1264E
BBC03540
BC7BB803
BC883D56
BC9748D1
BC392AAE
BC5D1983
BC5695A3
3A9E4665
BCD41145
BC1CC51F
BBB9148E
BCA286E3
3A987B68
BB1B49F2
BA9ED049
BA181FE5
3A8DADEB
B9AE9894
3A8E5170
3B1E0A61
3A060C78
3AEFB2CB
3AAA4B3C
BAEC7980
3BEF5C1A
BB7724DE
BAD62FB9
3B923E0B
BCDFDB5C
BBA77D6E
3C230B38
BCA82B7E
BC24D23A
BBEC0FC8
BC9AA4D8
BC9FCA08
BC0031D0
BC46FA90
3B28B8F7
3AA185F5
BD05F4FA
BC0D72BC
BBB2E040
BCA22223
BBB59E3F
3B15EE68
BB000FBF
BA251578
BA71EB1C
BB4153AF
BBC604EC
BBF75674
BAD2BFAC
BAAABC3A
BB27D6CD
BACE8E16
BB881819
BAC44DDE
BB02A782
BBF6EA6D
BCA75805
BBB96F45
BBB28EA0
BC767D9A
BC25EC75
BC5C913E
BC891380
BC80F238
BBEAF642
BC252A55
BB255504
BC1CC387
BC864B16
BC02AB86
BB5A8DF0
BC887B3E
BBC6922E
3C370CC5
BCD96680
3B3CB6D4
3B893785
BC7BBA98
3C615D33
3C876438
BBED8DC1
3C87F04F
BC22EFD6
BC35D698
3C268884
BB1C2BD4
3B74B282
3C43B742
38BAFCCE
3BC225C2
BCAD31D9
3BFA7913
BA1E7C4E
BBC1F74D
3C78EEAA
3C13F69F
BBBE4F3C
3C764BD6
BBABFCF2
BC3653F8
3C9817F5
39A9F53C
3B2DBB8A
3C59F719
BC8998B0
3AB9379C
BBD20965
BB8709C9
BBE2000F
BC913825
BC247297
BC241829
BC10CC40
B96EBE58
BC520496
BC102E91
BB66ADB6
BBEC045B
BA63FC13
BB9BD817
BC035294
3B65FA70
BA22D61C
B92ED529
BB07C157
BB2F9A13
BBD8A058
BC0260CD
BAF6AE94
BA5EE856
BB380ABD
BB058547
BBBA6161
BB3B9BA0
3924E340
BBD04864
BB90298C
3B5F30CC
BBDB50B5
3AA1A2D6
BAA9BAF9
BAF64ABF
BB47B3A2
BC2CC7C9
391229C2
3BAD84C3
BAE139DB
39F47787
3AB0822D
BB125837
BB7A206A
3B294880
BCB19C5A
3BAFB864
BCA634D1
BC47AADB
BC7B205B
BCAC1879
BBFABA28
BB2BBF1A
BC555049
3BCE133C
BC46FD3A
BC98CB4D
3B3F6BFA
BBF3E19C
BBD9BEC1
BB0C048B
3A277C3E
B9CC6EF8
BA2B22C9
39849A6A
3B57922B
B77C1F46
3A6228ED
3AC47EFA
B8A86FDC
3B0B24F4
390D76F5
BA6770A2
3B836FF5
BB0A7713
BAA68784
3B0AECED
BC53D8D1
3B0FF383
BB3690AE
BBE91120
BBF0DCD3
BC26D2B6
BC3E3330
BC1208BA
BC6855AB
BBAE07C2
BC8C3A9B
BC1B8086
BBF08070
BBE5B487
BA228E13
BC01EC8D
BC946E41
3B5BB465
BC001B8E
3C0CC05B
BB32F134
BC2D17A3
3BB582FF
3B99890D
BC8E9B65
3BBA67D9
BCAA3A08
B98ADED7
3B0E2EDD
3B4D2546
BB0F72CB
BAC5399D
BBDCB8C9
3B4C1D85
BA07039C
BA06E34E
BB13DAAD
BB0616A1
BBBBD5A2
BBD66EFC
BA86A9D0
BA8F6FF0
BB0D776D
BAD44900
BB93D153
BA9EA070
B9DA2E51
BBC68382
BC0BBCE6
3C3595D4
BC187CEA
3A984624
BABDB54D
BBA1CEB6
BB8347F7
BC023D51
BAA42E56
3BC2BD2A
BB3AC30A
BA4D6381
3AD9B0C9
BC0AE2ED
BA024640
BBCD5764
BCAA1BC2
BC2EE548
BA37E1A4
BC93CD61
BBB74CF0
BC9C3365
BCAA6E1F
BCB36488
BBE406A6
BC674A8F
BC379F3C
BB14D088
BC850D7E
BBFD7231
BAA88F1B
BC9CDFA1
3A9E33B2
BB079254
BA9F94CB
39D3E3B0
3A8E58FF
B98C62D0
3BB7BBF2
3C963EE5
39F77AF8
3B05908F
3AAA3574
BAECC7FB
3BF06AE7
3C9F787A
BA08DAE1
3BA2D4A5
BCAD15C2
BC1D5EB5
3B6751F4
BC9E5AC4
BB4EEE08
BC8FA327
BC98B524
BC817D43
BC042DA0
BC79284E
BC741204
3AC9A288
BCC39184
BBE7FB5B
3A633D46
BC941DFC
BBB5A5A8
3B161A63
BB000D7A
BA2491B0
BA71E360
BB4152F5
BBC60686
BBF75A1D
BAD2BB74
BAAABE3A
BB27DA1D
BACE8C13
BB881A75
BAC440E7
BB02A7A2
BBF6E9D2
BC98224E
BBBA84CC
BBAC71F9
BC44E9FF
BC1DE838
BC139B26
BC90CFB1
BC984E6B
BBC7FA84
BC2978D0
BBA1B42D
BC167BDE
BC561BE0
BBBB6C4D
BB4331DC
BC89DDA3
BAC7B7A8
3C65DAA8
BCFEAB85
BB53EA39
3B5AAEC9
BC828B88
3C8A41F4
3CB6EF48
BA08AD91
3C9F894F
3AF5E866
BC1F68C8
3C4E4E96
3C360A22
3B99A65E
3C0A8AC1
3BBBD896
3BD859DF
BCB4D92F
398365C6
BB466100
BBA795CC
3C8815DD
3C4CD038
BAC1E0EA
3C942006
3B9010D5
BC404ACB
3C69B7A0
3A2972BF
3AEF2C48
3C340272
BC60024E
3B3DF316
BBA52090
BB7DD418
BBE1EF24
BC05064C
BC49E894
BC534887
BB9AF646
BAD68E2B
BB5F3055
BBB1F3EF
BBA72978
BBD358F6
BB2B216A
BC692433
BBCA5111
3B837C0D
BA287E21
BA8CB6B7
BB0EF0FC
BBC85F8E
3C063E68
3CC19477
BA94258B
BA98E726
BB92DFBD
BB1C6521
BB974D3E
3CDA90F2
3C1573C6
BB452485
BB905C63
3B95E3D7
3A5A0AEF
3A864789
BAA9BDAC
392D49A4
BB43D6DF
BBACB796
391DBD1A
BAFE7F1A
BADC988D
39F59D0A
BB2F5264
BA82F913
397026E6
BA99536B
BCA120CC
3BF9DD05
BCAFD359
BC1AFA6B
BC636C9F
BC9C576F
BB19E135
3C271692
BBD251BD
3C175D34
B834410C
BC86C44D
3AEE3EA0
3C6BEB53
BBB29A2B
BAF82427
3A209F42
B9CB07E1
BA2F9D00
397B541A
3B582C13
B797CB8E
3A601FD5
3AC47B8F
B8A49AEB
3B0BC30A
391C7E3A
BA67E90B
3B83CC14
BB0DD550
BAA68627
3B0B3827
BC649C7D
3A80678B
BB45E922
BBA7D67A
BBD2B80E
BBE8BCDB
BC48EC34
BC2A3496
BBA870D1
BB95B996
BB57D879
BBBA5F15
BC1D6876
BB99A758
BB1E7D28
BC561724
BC12A970
3B56B1CC
BBB20BF2
BC4080F9
3AF4CC25
BCD0967E
3B5C906E
3CBFFE79
BB84E694
3B1B6BAD
BB8F8442
BBEF7097
BBACD954
3C731778
3C8C1EF1
3C01D83E
BBDCD4CD
3B4C125A
BA06C6DF
BA06F375
BB13D7C4
BB06391D
BBBBCB14
BBD66218
BA86AD4D
BA8F7AF1
BB0D8058
BAD43CAC
BB93E285
BA9E9B47
B9DA2A4F
BBC676C3
BBBBA46A
3C3911E9
BC6AB6CB
B9E931A6
BABF4A4A
BBD6EFD0
3C435B2B
3CC07927
BA1BEBAD
3C2E74CC
BB3A48D9
BA3D88C4
3BED6E71
3CC98947
39BFF7F4
BB807EA2
BCA42973
BC0EBEDE
BBC18AAF
BC4460DB
BC72E590
BBC48ECF
BCA7E399
BCCD331A
BBDEDD5F
BC6D0299
BB7BE480
BC3D922D
BC4F6876
BBA30BDA
BBB686C2
BCAB59D8
3A985D28
BB16A930
BA9F539E
B9D9A38E
3A8D5208
B9847A43
3A9CA651
3B1045DD
3A04C591
3AF24E15
3AA7FECF
BAE46FC9
3BF09FC5
BB680E02
BACDBB62
3B932CE6
BC9437C1
BC1F6257
3A21AF01
BC4BBADB
BBC8755A
BC2B5F8C
BCB33339
BCDEED2C
BBDDC9B0
BC707E88
BC13F4AB
BA7836D8
BC5D232D
BC1AC11A
BB912C56
BCB19FB3
BBB5A496
3B162085
BB000D7E
BA24AEAE
BA71E29A
BB414FBA
BBC6073E
BBF75B22
BAD2BBA5
BAAABA49
BB27D93F
BACE8B02
BB88189B
BAC43FAE
BB02A7AB
BBF6EA88
BC96DA37
BBB7FD55
BBC8B094
BC279EBC
BC32243F
BC0F46E2
BC957A79
BCA67F1B
BBC68951
BC2BD101
BB7612FE
BC2B9837
BC2AE009
BBAEBF1B
BB6298E7
BC8A1E1E
B9C3C674
3C2310E0
BCFA1E01
BBF02338
3BB2E50C
BCCB804C
3CA3940A
3D027FAC
BABA9A11
3C8A157F
39BD35C5
BC643208
3C105401
3C9526B3
3C7767C5
3C86BBB7
3B5888E7
3BDEC7AF
BCB0880E
BB7EF660
3B8C8B3A
BC880DDF
3CB73492
3CDDC91A
BA557A42
3C8E8FFE
3AE75159
BBE3A3B5
3C2C0ABC
3C92C3A6
3C3B9887
3C7CF325
BC58ECE1
3BB38922
BBED43B3
BB48CA48
BBE1A923
BC06864B
BB3C5F8D
3BFFCDAA
BB5E2998
BA0A0699
BB8CD039
BB9111E0
BB19DFD0
3C921391
3A5BC8AB
BC3BD98C
BBFDA7D6
BB3A3C31
3998DD7F
BBBF5D05
BB0F5690
BC861950
BBDD671A
3B774950
BBA45E9B
BAAEAB53
BAFFA966
BC19F2C4
BC169839
BAE0D1C4
3C22470E
3B6529F0
BB3390CF
3B6410CE
3A49AB07
39F27A0B
BAA99A8B
B77E03B3
3C58C92B
3CD66F8A
3A573793
BADF31CC
BB09A942
3A536242
BA6FE4DE
3CDF7CA0
3B90CDC8
BA739B02
BC9A2576
3B20006D
BCA2C007
BC66835E
BC25969E
BD1DD283
3A6398CF
3CD611B8
BBDBB044
3B49611C
BB6CE574
BCA1491F
B91C14D8
3CA03CD9
3C60FB99
3C3A74DE
3A0D9D9E
BA072C97
BA2F6FA4
39D85C48
3B582BA0
38CB7DF7
3BB5A2C2
3C8BD2B2
3A326C34
3B0821F3
BA046559
B9FB79E0
3B564024
3C85D6C5
3ACC8150
3B01F659
BC35E630
39F25D57
BB22B0C9
BB3F3A63
BBB67673
BC342EDA
3AF4297A
3CA663F4
BB557899
BB9E7968
BB99966C
BB9B02C4
BBC71F5C
3CE1C907
3C460605
BBDD309C
BBAEDC29
3BD37DA4
BBFF7010
3A4C1787
BA14AC82
BBABB707
3C42734A
3CCFE13F
BB00C3D9
3BA87FFC
BAF18F18
BA1A736B
BA861CA1
3CCCF6BA
3BC7CE4F
BBD3DC82
BBDCBE3D
3B498777
BA06C4F1
BA0889B8
BB13DF19
BB061E9E
BBBB6CC8
BBD5D03E
BA86DA05
BA9015E4
BB0D5FD4
BAD4431B
BB9397D5
BAA178D6
B9DAD19F
BBC66D32
BBC5412F
3A1F3FB4
BC870B2C
BC30D730
BAB972B2
BCF715B5
3C3D4D64
3D11525F
BB815478
3BA8D598
BB6E5D47
BC782C91
39EC1B28
3CBB5043
3CE57FB2
3C8736A4
3D92232A
BD483101
3E8C5196
BE3486F4
3DBBC97E
BD19383A
3D04E319
3CCF2255
BE1AA86B
3D5A3A7F
BDA7E1D4
BDE9C75E
BD75BD63
BC227483
3D3D2849
3BA1D155
39F77DEC
3C326C20
3C07E9BE
3C1A556A
3CA2ADCF
3BBC70D8
3AF26296
3AC2A490
3BD8C0F1
BBD75A85
3C2DDEB1
3CBACDE1
38238A86
BB9CE80B
BC968928
BC466827
3D121D50
BCE4483B
3DC31106
BD87DED2
3D10F63A
BBEAF840
BC7ACF71
3B00E525
BD1CD2AD
3A5BAB8D
BD1C5E9E
BD34BEF2
BB9AFCDB
3B990FB1
3C768656
BD0C6C22
BB9F6C65
3B26ED0B
BCA8AA9B
3B139702
3D1449F4
3D0C22F3
BCEF1044
3D3D59BF
3A06A120
3D2545AB
BAE9B948
3C310702
3B205000
BC74E8B4
3D03533E
BC0A9402
3DA1C8D1
BD83E761
3E5423C9
BDFE0B46
3BB14565
BD4D5375
3B6E416E
3D5D5BC2
BDCA5D31
3D130E96
BDCA0068
BD9334AB
3D829EBF
3D850659
BD31EDA5
BD427A6F
3D0558FC
3C4F6E4B
BCD11A62
3D0C7765
3CC09FA4
39B3C7DC
BD63B110
3C89A6CB
3D79D47A
3C9F9996
3CD76BDF
3D87444D
3D354D50
3D40825F
3C85CA5D
BA08D73A
3CA1AC17
BBD8F597
3BCB3239
3C061EEF
3CED96BF
3BCB82A3
BCCE9818
3CAE72DC
3CE0C4B7
3CAEC8EB
3C60F46D
3D20A62B
3CCC5415
3CF6AADC
3C468BC8
BB53C219
3B4A8329
3B8C2256
BC0C36DB
39EF5F9A
3BD8EE0E
BCD146E0
BD076C4B
3C76EB0F
3BEF7A92
3CC04101
BB3EC57A
3C2C2FDA
3CEBC72C
3D241875
BCD7B246
BC5D282D
3D96FE4A
3D18271C
3D1DA54F
BCB9D188
3D96F559
BD05CFF0
3CA2A521
BCBDC376
BD27A8BD
3C335689
3AE7614E
3D423123
BD13D258
3C0280CF
3D8D4E99
3D8F8583
BB8220DD
B9C9B499
3ADE92AB
BC05FB37
BAA2BE17
BCA399B8
BB6F8944
3C1770E5
BB5E9A3E
BB1D860D
BABEBF0B
BC67D6E5
BBE07289
3A2DE6AB
3C7D887C
3C70E634
3DA61A60
BCA1BACC
3AA7E46A
3D555788
3DC89991
3D226726
BE5EE480
3B387DC2
3E13F650
3D02DC48
3D4045B1
3E43C5AE
3DF9DE8F
3E086842
3CF6F197
BD7BA520
BB2B3034
BBC510E7
BCAA0688
3D5574BD
BC15627E
BC3D9F17
BA87ED18
3D71E99D
BC3AEBF0
3C2B9ACA
BC6BDDC3
3C8E3416
3D97B0AC
3D778499
BD027BAD
BB8AC45D
3DBCF54F
BA095958
B76EEB2C
BBAFC82C
3DD2A503
3D20256F
BE02D3F4
3D2E5E9D
3D204C3E
3D9C2769
3C91200E
3DFBA8CB
3DAB75B5
3E0B2FA0
BA10BCFB
BD96DC97
3DEA6601
BD1514A6
3E6B3E24
BE18882A
3E11EB17
3C93A807
BD0BB172
3DA8B805
BD4D77FB
3D6D7625
BD9CBCB8
BD8006E9
3D09CBB4
3D88F7FC
3DBD1704
BD2A7E3B
BC138C6D
BB4C24C1
BD01AFFA
3B9D144A
3CBDA15C
3D3C29E3
BD088A15
3CFA93D3
3C302F38
3CDFBEDC
3C84F98B
BACE0F13
BB1C9992
BC9FA137
3C89BD11
BC55BF30
3D9FDA98
3C33EACF
3D13E626
3CDC8619
3DBE0332
BBB08E1F
BCA8EEB1
BDC00586
BB01FFB4
BB8DB47F
3CBDABAB
3DD2EC4C
3BB369B6
3D9805B5
3DB6C782
3DBB3283
3C9A79B6
BCFE90BF
3C872DAE
3D065759
BC8DA13D
BC6AF206
3BFEBB73
3B206510
3CC5F49C
3D76F47F
3C34D61E
3D56C22C
BD8CD899
BCAAF581
BDD7D3A4
3D5E210C
3DBA310E
BD88765D
BD8733C2
3CA301AD
BC93518A
3CF4F3D9
3C33D243
BC8F01E0
3C84B7FE
3C948C5B
BB840613
3DE4A824
BC811FA2
3D42A108
BDF286D0
BD778D2E
3CF1C354
3B382348
3E12C32E
BDA0DDBE
3D66B960
BCC1C0CF
3D613A94
BCC5FE4F
BE02A0CB
3CEFD850
BD261289
BC8F0A62
BD938618
3CF72B06
BBA70257
3D64A6E0
BC4A4B90
BCDA93CD
BC7C3BD6
3DE122B0
3CE45E72
BD6A68A3
BDA92AE2
3CFCEDBB
BCE3FD54
3C10D62A
3D126188
3B79430F
3BDCAEE5
BD2EED92
3D1914E6
3C5801C8
3D8EB695
BD2820A0
BB8568AF
3D97A9C2
BCE6A582
BD497197
3CCA5EF7
BD1DAB7D
3C9A7A64
BAEE3830
3BE86CA5
3D0B1A92
BCBD3E23
3C81E1F2
BE1B41EF
3D01D336
3CE3F16E
3D4B1DAD
3CA33BE8
3D25EE21
3D658934
BD11BC4D
BD2614D6
3D08B243
3D7BD8AE
3D153141
3CB928A3
3C1E48B2
3C8DE790
BD13969C
3D838A4F
3CB39BD2
BCD6E610
3D38A476
BDA00DA9
3D999F33
3D17CAF1
3D1940F9
BD1DF871
3CB0E37C
3DA3BDFF
BCA9B304
3D199A88
3D91DD59
3D1CC508
3CB9CACF
3CEDDEFC
3BAE3E09
BC3AF3F6
3D72F1E3
BD86512B
3C24F2DA
3C589DDC
3D20A03B
3BFC73FB
BC2458F0
BC0051A8
3C59F1C7
3C51A50B
BCD8BC36
3D82C50D
3D70BF9D
3B976664
3C906F82
BD85772B
3C244B05
BC68C16B
BCB7A21B
BCD53910
BDAF4D32
3D8518E0
BD260F57
BD26DE19
BBEEEFDF
BD26CD56
BAC27C6E
BD7073A8
3C580115
BD7C04B5
3C2DCE73
3D0E51AA
3CA27AB9
3CBFFC2F
3BEEBD5D
3CC6A7DA
BCBDF2DB
3C04F1E9
BD60CFC7
BD1C0A3F
3CF53483
3C1E7D55
3BB61B39
BCF78CF2
3BA99A80
BD4FCE1E
3C743538
3C57C925
3DA79B04
BC3EEE2F
BC4FDF98
3D4B7580
BD35A1AB
BC6A9D5D
BCA5A0C6
3D319BC1
3CB366FA
3CCE5E17
BCE17799
3C8FE0B3
BD573AB7
3D3EACC1
3D24294C
BDAF2AB0
3D884560
BD805411
3D11BF21
3BB5BE86
3C78F107
3CDE590B
BBFEFEC4
3BA1994C
BDA40719
3D667B34
BD1D270B
3D2C64C0
BC00CF77
3BC2ED0E
3D30DBD9
BCFFDA04
3D265395
3D1D670A
BD889DDE
BC5E8AE4
3BB398FE
3D77173B
BDE775E1
BDB17106
BC449263
BB80C9C8
BD89D501
3B96EFB9
3C803A12
BCF16466
3CAE7394
BA8AC640
3BA21F16
BD5AD566
3CFF9D15
BD307E08
3DD77A98
BDCBDBED
BC09D144
3D671258
3CFD5B91
3D553724
3D328004
3C2E0D40
3D3C8530
BD60E59A
BD207559
BC9FE227
3C1C6E15
3BB5231E
BBF10FB8
BC14E7BF
BC77B678
3C32D76A
3D011EE0
BB1A9CE9
BD77B482
BD1A03AF
BD60C8D5
3CE13C94
BBD2CE84
3D0C1553
3B1B1666
3C5B6718
BBA4CDF9
BC4DE72D
3D3B5E60
BCCF46C5
BC8052AC
3C9D8C27
3BADE8D0
BCBEBE76
3B83CB96
BCCF6DA9
BCC3618D
BD69D590
3D7797F7
BD672E11
3CF81A26
3CD3BBB9
BC8B06A8
BD017DCC
3C1E6A86
BCC9B4B8
BC3A1B40
3D0B760C
BC1EEFA0
BBD1F5F7
BB815629
BCB49589
3CC85D53
BC877844
BBEA438C
BD23FAB2
3BB8C37D
3D414149
BDD454CC
BD8896B9
3D9929FA
BA4C3D8F
3D1556E8
BC71C8CB
3CB0FC16
38C6CEC8
3CCDF8B8
3CB9FDB0
3D45F417
3CA5CB55
3A584A42
BE12F430
BD7BF935
3D552523
BD686528
3AEA5DAA
3D663C4B
3C87EF32
3AC1B07D
3CCA9C70
B96E9704
BD21C31A
3D3A197C
BD61FFAB
3D6BAF20
BD12BAA3
3CC3EFE7
BE0C1B31
3D1C17DD
BD71D327
3C9F5B20
BD23FEC4
3D261A6D
3C10358E
BD397F29
BCD9E25B
BC3D5321
3D5E0B41
3C7A5E6A
3D7E2BAA
3CB6B68D
3A86ADAC
BDDAC631
BBBBA348
3CE2199F
3BE19EDB
BC92118E
3CB87E98
3CEB0C3A
BC7A5844
BD504230
3AB7D7C3
BCB2D3EF
3C6D527C
BD189E0F
BC8A07A1
3D2E3823
BD84510E
BC79F51B
BD4E1E68
BCE0AFC0
BB1F5E74
3CCAA9D9
3D09A3CC
3B5D723E
3BC29F75
BD164046
3D6DC281
3CA9A959
3CF79A7C
BCB36852
BC6997A4
3B80051C
BC7005B8
BCFC17E7
3D295CAB
3D8FC87F
BD5DF598
3D6ED169
3C07E289
3C8FD497
3C6CDBFA
BC3C0EB1
3A905B64
BD1C0553
3B56B89E
BD83E272
3CF24A35
BCD20F25
3C4D6BCB
BCA5B54F
3D8441CE
3C1342D3
BC46E46F
3D29757C
B9FAFAAB
BC3A6A88
BB4CE8CC
3D074BCC
3C656972
BCC9BE4E
BC3F66AC
BC0813D4
3C1C3B10
BCA761BE
3C5AC729
BD0B3A5C
3CB7933F
BB9CE13E
3D4F81C1
BBA7737C
BD927570
BC165D38
BC4EB78F
BB202237
3C255A3E
BC3368B1
BCD767B5
3D346271
BBD7B574
3D201F3D
3D411D29
3D2448FA
BDC74B2A
3C03517B
3CF6302B
BC5B1CBA
BC44B18D
BCB11ECC
3C1AA803
3CA9BDCE
BCDB8452
3DB253C7
BC43B754
3CB243E2
BD9B8A2F
3B93519C
BD028302
3D6D8D9E
BC13D7D8
BD49142B
BB785E0E
3CD73246
3C8117FB
BAA35051
BC60504D
BD57C55A
3C7CFC2B
BB9E2FD4
3DB141D3
BD22216E
3C82750A
3CF48015
BBDEE364
BD3B5DCC
3D554FAE
3D1086CF
BD3FBBDB
3CE4A3E6
BAC761D0
3CED87B0
3D941E82
BC41F397
3C586DF1
BD8DD3FE
3D67957A
BD80BA3F
BCFA234F
3C5162E5
3D1D4ECC
3D8F5E64
3DD6206E
BB072FA8
BC961ABF
BC03E335
3D1BC9C2
BC233A2B
3B641685
3BEEFE61
BBB791F3
BD2CC021
3CC1D7C2
3D826AAE
3CB8AA69
BCAF4F88
3C3735C4
3C7A5B09
3C63B0DD
3CB44047
BCA80ABA
3C01D897
3CCED486
BB306365
3C9D7F52
3C4D7AFF
BD0E5F34
3CB57FD7
3D055CD9
3A80BEC4
3C9A81C6
3CD67501
3D181C5A
3CD11AEE
3D1A3430
BCCAEC2D
BC0D6F6D
3C8B35BF
3CB4D858
BD1EE421
3C802AF1
BC9D1EBE
BCC2419D
39A12901
BD6E93CE
BD186EFE
BD0EE49B
BB044ACA
BAA46FF1
3D7BA446
3D814256
BCC13F98
3CFEEDA8
BC89DF2B
BD3F4EC8
3C5C6C20
BC66B9E4
BBA4CF23
BBCDDBC0
BC1D6BD3
BDB8583D
3C815FD6
BD66A0B5
BCC56446
BC539B6D
3C0CE895
BD214C71
3C467F37
3C712B32
BB421888
BD529CA1
3C117411
BCCA4DB9
3C86691A
BBCF4075
BD41B957
BCD44951
BD690728
BCFE9F9C
BCE17BF5
BCED46EB
3D509748
3D016C44
BBB2A8B0
3D408AA0
BDEB4C6A
BC458890
3D8F9A7F
3D03CCD4
3D497251
BD59382A
BD13FD8C
BC970D64
BBAFC1CF
3DACFD1F
3C8CDA84
3DC4F718
BC9EEA2D
BD6422FB
3C62979A
3D2EFCD9
BB83CD40
BCDEFA27
3D172129
3D0AACBC
3BD04D77
3CCD614B
3B5E24A5
BD462022
3B4E0131
BCB95D65
3BCD2B88
3C95C019
3D2E32B4
BC1510A6
BC017EF1
BDD6D795
BD49D847
3AF60AAF
3ABB528D
BB90479E
BB8A77DE
3C4F5848
BC8C05F9
BB784409
3CD2A7D2
3D709EB3
3D574CEC
3C06441E
BDE5D88F
BCA414DE
BC154470
BCB0E1B4
BD4BF402
BBFBD19A
3CC1BF68
3BC6240B
BD00F0AC
BC9FCA48
BD002027
3B3C78C7
BD55DFEE
BBD62C98
3C9DD1A8
3D12CA71
3DD10B48
BB719ED6
BCD2C076
BC076853
BB920081
3D0BE864
BC79826C
BCD51355
BCCF430D
3D145323
3C8D9BE0
3CB511D8
BCFB1459
3C3AB7F0
BB855653
BA89192E
3AEB413F
3D57386E
3C015A94
BC8AB29F
3BFDF8EC
3C0273D0
3C95157D
3C18D120
BD42C369
BC92F6BC
BCF24ACF
3CA75A5C
BCF4041F
3C83638C
3D42A1B9
3D147386
3D83215C
3D1B82C7
3D2171E7
BBCF5743
38DAB50C
3D0B7D1A
BCD26DC4
BD0B8225
BD5B49FB
3C80724D
BCF1AFCD
3CC97F89
BCCBD236
3BFAB0F7
B8EEC2A8
3D32320A
3D1AF561
3C30EE25
3C9FCEA4
3D1A27A0
BC6871EA
BD494C77
BC8E7C1E
BC15F2E2
BB9800B8
BBE6F234
BD9936C3
BD2CBC47
3C0692B5
3C8BF312
3D1F2F55
3CCCDD4B
3CF8A6C9
BD238289
BA80A9FC
B9C9ECC2
BBC3B170
BD2D81F2
BD4D07ED
3C4B1900
3BF1DA94
3D1E9768
3D082234
BCE88498
BCA72630
BDBBE3A8
BCB6164C
BCB2DD67
3C81410B
39A28D9A
3B30F5C9
BC461F1A
BD0A1525
BC2C9C71
3D0BA9EB
BCF4F3BB
BD13DEA3
3BBADF3A
BD357279
3CB487C7
BD2B182F
3D1946FF
3D75D5EE
39B82D3A
3C0D5A08
3CA2696C
3BB63AB6
3C2AA4C3
BB250435
3BB421B4
BCAE470D
3C0C2C97
3BA6433F
BCF47B25
BCAC1728
3C3C26E6
BC20450A
BCD25E69
BBF36AAF
BB900F5A
3DAC1FE6
3CC5DA95
BCB44CCA
BD016464
BD2BC361
3C355B88
BCBCB40D
BCA59FDF
3B7F3CD2
BD3880F5
BD14770C
3D267E21
3D2195D5
3D00D4F8
3CD49C3A
BABFFC5A
3CE65C8F
BD13FD72
BC932B12
BD4BDCC9
BA421C12
3D8DAED1
BD248A65
3C4ECA3E
BAE5CF80
3C199BE3
3D73602C
3CD7D06B
3CEB65D1
3CEE547A
BC37915F
3C600514
BC379D0E
BC462AC0
BC4EBC01
BCEB4359
3CD942F8
3CDD6F34
BD6FF053
3C8459C6
BCD98131
BD7D7CB4
3D61F3DA
BC0BE5AD
BBB7C1EB
BD2CA0C4
BCD8314E
BD682F50
BBC50C74
3CCB0117
BD9B1E30
3D5B6D6E
3ACFA2A4
BD277A48
BAB0E488
3CBE932C
3C937286
3CD12561
3CE7B2EC
BCE2CF6E
3BC8C981
BD48E1D4
BC1DBE72
3C0A29B7
3D287D22
3C3943BE
BAC6FB76
3D84AADA
3D1A7009
BD8389BB
BD09C54B
BD5CC1D8
3D3E6A64
BB96AEB4
3BC3AF97
BBCC2AAE
BD3379A8
BD4113ED
BC4ABD36
3AC13601
3D44D4F4
BCE61A4F
BD7D36A0
3C2848B1
BD9E4024
3D02EC20
3D9127E9
3D28EDF9
BC49F600
BD793D89
BDA078F2
3AE32EC5
BB85051A
3D5A9164
3D67F40E
3DA47FF0
BC69BE5F
3DBDC501
3D97E28F
3CDBBA08
BC63A4C2
BD842CCA
3C052F39
BC3B5D8B
3BF6C575
3CE3909A
BD1696EC
BCAC5576
BD7F13D3
BD0CC358
BBFCD5F4
3CB4A998
3D8AE6EB
3D1BBCD1
3BBE162D
BDD9FB53
BD81AF46
3D311070
3D5016C9
3D2D093E
3C5038BF
BC09C8CE
BCCC9F85
BD647BDF
3D247642
3D72DD42
3CFA8779
3D8EAF43
BCF4E72C
3D51BB8B
3D107D12
BC9BCF2C
3CFB8ACA
BC4AA51A
BC913D1D
BC89CFC3
3CF6AB2A
BD8918C1
3BCB8F79
BC9D6D1E
BD5E07B6
BC454263
BC2B5F10
BD53F8EB
3D390A9D
3CBF74D5
BD2AA418
BD29197D
3B67BD73
3BC300A9
3C2CAC03
BC47F567
BB88D31A
3C0D36CD
3C3D1589
BC1D6AA9
BBC3F9AD
3D05CB70
BD5C0D33
3C3DA957
3AECA990
3D05501A
BC2318A4
BC844AA7
BBB89AA3
3C3C0A4F
BB5154DC
BD31A2BC
BC0B7AE5
BCA03E2C
BCBAF036
BBCDF30E
BB839544
3D43AA7D
BCBA693F
3D446AB5
3D06F663
3CE652C6
3C01F3D7
391D6C4A
BC623AC6
3BCC5E87
BC1E0EF6
BD664994
3C5743C5
3C35EE25
BD21AD3E
3D6737FE
3C1D8087
3BD8CEAC
BD02932F
3C04A856
3D0AE412
BD4972E4
BD8D2B19
3DA20307
BCBE0D54
BD4778D2
3C19A5D5
BD1FCB54
3CD5A809
BA9A5D1E
BDC25A96
BCEAF14E
3CABC717
3D1DBA7C
3CE130FA
3DA0DCB5
BC1E2CD2
BD1F3617
3BF9C344
3CC7E8C8
3D887C43
BD128832
BD1AD8B5
3C2738D1
BCD311A5
3D131F78
3D4CC9D8
BCE14E59
BA7053FA
BD9D39E3
3C84801D
BD120325
3B21EE53
BD244ADF
BD056286
BCA346A0
BD09C738
BCB391F9
3C31B2B1
B8E33300
3D091D01
BD150427
BCEDD7B9
BBB56B44
3CC3FB19
3CD14937
BD133F34
3C51F83C
3D3D7E4D
3D1A0E55
BCD5CBDA
BD54BA78
3BD5B1F6
3C2F50D9
BD32B228
BC3974AF
3B4E6790
BD6C7A68
3C10B644
BC6BB334
BCB28F31
BD1828F9
BD31B57F
BD435CF6
3C57499E
BD41DD6B
BDA06C5E
BB876484
BCCCD4A3
3D86DBA0
BB97EACD
BCCCFB8F
BCC7DC77
BCC0CF74
3BF5A0F6
3CDDA526
3CEDEF70
3D8386DA
BCDECE66
3CD00BE0
3C0A88F4
BCE79CE9
BD27FD9A
BD2CAB12
3A92A40C
3D8DFE98
BC9036E4
3CC9D638
BCC38C43
BD01701B
3D22F405
3CFF5099
BCC6FA0F
3D0A6BA3
3C971F1D
BC699318
3CDABB4D
3BDF82FD
3B55A1C6
BD3BBCD6
3CA15257
3D46983B
BC088DA3
3CC51C58
BD09B8EF
BCD3BE18
3C99F16B
3A957366
BD2C6F66
BD26AB50
BB54D6A1
BD858239
BCA17C0C
BC9FD731
BD4B0F2B
3D7B161B
3CA8117F
BD552F37
BD265279
BD41DED6
3CA795E0
3D67566C
3A03D1BC
BC062212
BC57C238
BD5A921F
BC702B19
BBC5E6B7
397B2E50
BCA4536D
3CFC4AD4
3D1776F8
3C4CA519
BCED5EF6
BD49E69E
BDB78F94
3C148419
3C2EAC90
BC86D34D
3D46AD24
BD42058E
3B897EB0
BC445BAB
3C410D11
3C0925C2
BC6A764D
BD462D41
3D3237A1
BD9561AD
3CA5797C
3D89F2BC
3D21BCF8
BC005D8D
BCF19D45
BDB37D9B
BCB38846
3D939AC3
3D2CE9E1
3D566732
3D23519F
3D66D3B2
3DC336C6
3DC9F4C8
3D871A14
3CFD0E80
BD09F4D1
BC1700D3
BD3CE146
3D0738F8
3D0D2AB5
BCC33CB4
3CBD6BFE
BD916288
BD28F511
BCD34B79
BB07872A
3CE228B4
3C1423B5
BD71C74C
BD8337C8
BD3B61DD
3D3CCF74
3DA863FF
3DDEB9B8
BCBB30FE
BD884A6D
BBD0465D
BD3C1A6A
3C65241A
BB9897CF
3D264B3B
3D6CD83E
3CD25B42
3DC2C56E
3D9C8511
3C754862
3C95B6FE
BC54C9B6
BCBAD66C
BC03FF47
3CBECDF2
3C9E663E
3CF6517E
3C8B21B7
BD480F47
BCB20378
3C146339
BC0D4D8E
BD052EFB
BCCDA818
BDA4F0DF
3C0CE371
3C399D59
3C278278
3D21D262
3C84A681
3B1E3BF5
BBB4FAB6
3CF5AEC7
3AB421C2
3C220CA0
3C2EC9DC
BAB71F53
3D29A468
BCBAC55D
3C91E94A
3C141E23
BC92D1FD
BB288BC3
3C0DA20B
3CFE2B59
BBBCBDE8
3CCEB010
BD193FC7
BD42FCDF
3CA7461A
3C72E2E9
3D1B79CA
BD55626B
3C175E62
3BC5BA04
3D220BC0
3CD30137
BCAB3263
BC087F4B
3BA758F9
BD16D5A3
BD3A825E
3C2F572B
39509B5C
BD189483
3D705F52
BCF12CEE
3BC99E3A
BD3734C1
BBE0F609
3C8EF4ED
BD45FF21
BC5A3DAE
3DB207E6
BC760CDD
BD414417
3D2DF740
BD2ED2A4
BBF15143
BBF36AF3
BE05617F
3BE08D5A
3CA43EDE
3C1DA73D
BCE6C933
3CB337E0
3D70BACB
BCB2830F
3D2801E1
3CC1601D
3D33C73C
BD97056D
BC3530D7
3D479B8C
3CBBED19
3CBF5F49
3D86FDAD
BBEE777F
BD118A80
BD1E9DDF
3C32CB10
BD5E4166
BC789991
BD77A918
BCC4C1E1
3D47A0EB
BBA8F79E
3CA9C92B
BCB6278E
B9925E74
3D5FF39D
3B5F1B02
BC16971B
BB01620B
3D709E81
3C90C8B9
BD61B6B0
3CD02CFF
BC964220
BD2B2A1E
BCC83BF3
BD27588A
3BC4F918
3C1F195F
3BFDA369
3C370963
3CCFD685
BC35863F
3D17173B
3BBCD722
BCC8BDEB
BBA3111B
BDC931BC
BD479FC9
BC4AE0F1
BD6C3E35
BD7013BB
3C6BD340
3BF37559
3D365316
BCD5DD9C
BC5D5159
BCED7DDF
BCC89C59
3C81652D
BCFDB25F
3CCD513D
3C7968A8
BC32F26F
3C7648C8
3D495874
3D8ED6DD
3CD92778
BD45FF99
3CF121D4
3D8D93C0
BC7739C8
3D0F885C
BD1642A7
BD157F5D
3C45A56A
3C7429CB
3D7EF390
3C3AF1BD
3BB8A82D
B919EA2E
3CAA3E10
3D950399
BB890314
BD360952
3D4BCF22
3C027444
399C9E88
3CC9EACE
BCAA78EC
BCBD877E
3D5C3C46
3C714063
BCF92A32
BCCE5341
3C7173FF
BD77B3B2
BD6270B0
BCE4520A
BB8C8E68
BC0B65FE
3D216DEF
BD2D2485
BC783EB6
3C084811
BD5A880E
3D1E44FC
3D107399
3CBC17C9
3CCA37A3
3C408F4D
BC88F7CA
BC06FC38
BD4A3790
BC968471
BC5858EE
3D028F48
3D1F7C9B
BC0F076D
BD188E06
BD75D7C2
3C1A1FD5
3AFE0A8A
BD150CE4
3D68387D
BCD7A1D2
3D94882F
BD4A27A3
3D4CF83F
BD0359DE
BC2F9475
BC2E9080
3CE96FC1
BD1AEE6A
3D1C08B0
3A54D8FC
3D0B14F4
3D5B1AE9
BD62C18E
BD5B5F06
BCD21607
3D1410F8
BB4CD751
3CAE9114
B9A325FE
3DA2C2A8
3D979039
3DA798C1
3D085CAC
3B86CC04
BD4B08E1
BD15DACF
BD7035FE
3BECDE24
3D205490
BCBAE0E2
3D36B28D
BC381443
3CC56F9D
BC37FD98
3CF99CFE
BD04613C
3C4090BE
BD06920B
BC9EC6C4
BB4D8381
BCF83E30
3CCF4B49
3D2D6AEE
3D99EF36
BCA7D663
3C581A3D
BCB94CC7
BD0E2651
BD23622F
3C9F006E
BC906A1A
3DB9E8C6
3DA24216
3CC9A706
BC9879D8
BC3A56B5
3CAC1DC0
BCFB4BD9
BBF50C4E
3BEDDB44
BC3ABE4D
BD09F4EF
BD17CA15
BCE3FD00
3BDC657E
3BAD2638
BD1D4A4B
BC083316
BD122F9B
BCFC5153
3CB37C15
BC68E242
3B8EC625
3CAADA5F
BB993315
BB28ED66
3C4E538C
BC914604
3B9A807B
BB9CA8AD
BBE085E3
3C506438
BB2CFE3C
BCB7BA60
3C827DE2
3CBF470D
BC174199
BC77F4DF
3BE1847F
3CBAFAD1
BCC06B48
3C033BB8
3C3DB5F0
BD28B048
BD6877A8
3B505743
3A6ADB21
BD0570F1
3C9D4B1A
3D0A2B33
3D12A142
3D00A6E4
B9C963A5
3C136445
39E8AE38
BBDE3B32
BC531DDE
3C6D6705
BA84702E
BCD73B7B
3CC8CCD8
BCFAF32F
3D24E7C6
BD382B9C
BA6E81D7
BC526A5D
BD295939
BD2FB9C7
3D71FB50
3B70EE9E
BCD2B498
BA9A9CCA
BD8F346E
3CF44B7F
3CBDC4AC
BDABECED
BBFDFDDE
BBBFFC7E
3C12B5F5
36B490C0
3D8E1E89
3D9FEDB9
3D6B75B1
BBC23ADF
BC5FFA58
3D04176D
BD1B66E0
BD8C4DBE
3C58A1C6
3C993E40
3ABF55AE
3D519B25
3CD9AB1A
3CA4714E
3D27A227
BD19D51D
3CACA19B
BD1794F5
BD56A59D
BD799688
3D4846C6
BC8D7880
3D073B9C
BBAA0807
BD1AE573
3D2C1626
3D638B0B
BD5DC2FC
BD84B15E
BC62FDFA
3C8DA219
BCCB5EE9
3D3EEAB0
BC2795C2
BD4133ED
BD010FAC
BC10070F
BA85F7EB
3B946552
3BF79ED2
3C4BC647
3C34EEEE
3CA7D54A
3CB23634
BD5141A9
BD4BCFCD
BD3D7A4D
BD86AAD9
BC309C4E
3B443C25
BCF8A76F
BD154A81
3CCC7DF8
BCAF48A5
3C49C67F
BC3FAC82
3CA5C9BD
BB1D5824
BC0CBF1E
3BBDDB57
BC1D7019
3D1DC8C8
3C6FFDBD
3CE92AFD
3D807176
3D41156E
3D98D603
3C9A462D
BD3D3D77
3AEE9F39
3D50124F
3BC508AE
3CD8F61D
BC329B2C
BC0292B2
3C9122E2
3C874D49
BB84EE99
3C924194
BBE38155
BC929D50
3D0DC51D
3C8E8FF3
3C9225F0
3BA98047
BC2EB62F
BC2CCFCE
BCABF7B6
3D0D3414
3C08058E
BC5D082F
3C9C1F60
3D160917
3C8DEE7D
3CF810D8
3D1DF766
BD6DBE66
BC876905
BDD2B9D2
BD938581
BBD50A08
3C9D82EF
BCB2C70F
BC5C08E0
BD028F58
BB9FA40C
3CE37DB4
3C2546B0
3D8C183A
3D4863CA
3D1CA56D
BCCE04F5
BD0F6646
BD1C9062
BBB90CE3
3C5C483B
3C8317FD
3D2D8794
BD385D90
BAF557D7
BD96B36A
3A960C69
BC8FED52
BC4E34AE
3D8FA559
3D05355C
3D8C6B7C
BBA474F0
3D98A1D6
3D080C72
3C14470E
BC5583E5
3D4F19A0
BD0BBF38
3D360AC5
3B5533AD
BC481A66
3AF321E1
BD366A99
BD0F56D0
BC81B7AC
3DA6A107
3BF5D347
3D28D934
BC088CF0
3D87B978
BCB0E975
3D8397EA
3D017446
3D782737
BC68B052
BCF4CF9F
BD350776
3C073032
3CD1B864
BADDC596
3CD7A1CE
BCA929F4
3D164CE9
BD1C0306
3D182756
BC2CC713
BC43B144
3B0EEA20
BC9F18AA
BD7EB7EC
3C4CD0AB
BCFA9C2E
3CB9EA28
3DE4ADF8
BCDDA826
3C0E47AF
BC7EEDF0
BDB1E6C1
BD909700
3D656486
BDDFB4D4
3DCCACD5
3D9F31BA
3C8E235C
3C47F030
3D6CC21D
BB785BA6
3D35359A
BC83AC60
3A922EBF
3D571B6F
BB999818
3CBEB5BF
BCC0A7A3
BAB2158F
BCAB4602
3D07D597
BDBF0F0C
BB162C9D
BC8C9111
3C1B2F0A
BC0421B5
3CEA553B
3D274B0F
3D04BE83
3C2422E7
3D071AF8
BD4BD807
3BB9703A
BCE13D88
BCAC59EA
3D16398A
BC9F229E
BCADDAC1
BC24F332
3C3FB3FF
3CC3A0AA
BCEF238A
3C85B897
3CCEBE84
3A6453BA
3CF98AD2
3CDBD7F5
BD16F0E2
BD485FAC
BB0B598C
B9CB23DD
BC660689
3CEDC08B
3D38E138
BB0D02F2
BC88B331
3ACA51E9
3D17FDF1
BA31D03D
3AF4EEF4
BD0F27E9
3C381257
3BF9EBEE
BD08FDC6
BCDA766E
3C5FC8F4
3D23FE15
BD855C76
3BB2CC47
3BB04E09
BCDC58EB
BD3C875F
3DA5CB23
BC4FC1F4
3BF77190
BD8AE6DB
BD7B0D08
3DA1CC3F
3C968BA8
3B200A2D
BD5E3F74
BC5B7C7C
3BE2AF35
BC5DAFA0
3C761A9C
3D7E77F7
BD28F9C4
BC060352
BD45E1B2
3D518117
BCBF1BD1
3BA8B857
BBD45B94
3B526AE5
BC501E26
BC914B1E
3D57E761
3C347481
3C1AA6CC
BD3426F8
BD056551
BD921808
3C3EA2B4
BB7C0E29
3CB1BD84
BD19BAE1
3D33E993
3C85681D
BCA54C5F
396D396B
3D694241
BD91C61B
BD32932E
BD561367
BB8EA1B8
BCA4CC6B
BA9998ED
BC41DA5A
BC9B02A9
BA6F6BDE
3BB018A0
3D83C618
3B5AF8FC
BD4D2A0F
3CF25251
3BDB33F8
3BCDF406
3D370077
BCCEAB46
BAC9A422
3CBA6176
3C930D2D
3B501B58
BD5B46BA
3AED41D9
BCBBB4EF
3C8817FB
BBFC5C5A
3D8A662B
BCED87FC
3D2936F2
39A12BD4
BD113AF7
3D0E4432
3CF2ADF3
3CA8C03B
BC89AF20
3C8D166C
3C9D4C00
3D2C34BC
3C88B353
BCA685A2
BCB38B8C
3C63530D
3D169EDF
3D183F4A
3C3EB0C3
BC9BCF6D
BD69C537
3D1C736F
3B701FCE
3D6E0E4B
BB5B34B3
3BE31F4F
BBCFC866
3D15BFF2
3BD3925F
BCEA96AA
3D18B3B0
BA85B38B
BB5C3FEE
3CF09E5B
3D2FB0E9
BC8070FD
3C675F2D
3B5D327E
BCA47363
3B1FABA9
BD2C7224
3BCA1925
3CD83E68
BC8027CF
BD284DA5
BD4F73AF
3BB2C0C3
3D4AE505
BD7FEF64
BADD0606
BD71CC9D
BCF0EE86
3CE6A12E
BB240AAF
3D5F6ADC
3CD39356
3D9B2FC3
BC0501B8
3CB7B333
BD11CD16
BCA37172
BBDE3482
3A1A9BBC
3CB45650
BD3F4B64
BD44ABE8
BD345F82
3B374C2D
BCCF3F48
3B59FD8C
3CE76C74
3C555A38
3D375991
BCB88C47
3D20EB29
3CAD4EED
3AB12C60
BD4350B2
BC50E56E
BD0AE4F8
3D0A109F
BCAC47FC
BBC400F4
BCC3E4D5
3C5674C1
BD0CAB05
BD194851
BC5AA47E
3C1A99E9
3D408F5C
3C75E0B4
3CCCFE4C
3C360435
3D08E776
3C0EEE0F
3C46A7F7
BCA4E7FB
BC257B84
BD3667F7
BD02EBB7
BC7F0DAF
3B8BD9CC
3CFDAA1F
3C7E4692
3D217545
BC106219
3D6738A3
3D21C35F
BC8D0A8B
BCA1FCA1
BC03F803
BBABDC90
3D36B451
BD88FF80
3D5B1EA8
3DC9A9F5
BCA3D0A5
3D856FFF
3D2E785A
BDBAF9EC
BD008E38
3D5A2C8A
BD9736DA
3D549184
3CA71E70
BCEA8C1A
BD4DE43C
3C9AB17D
BC0670BC
BC395DA7
BC42246B
BB908299
3D074BB4
BD197FAF
3BA525CF
BC38B6F2
BA62488F
BCAFCD06
3D3CE756
BDFDDCA0
3AC590B7
3C477D22
BC45B6A2
3C6F0AA0
3CF495C9
3CE50C13
3CDF62A1
3D062CDC
3D1A9E9B
BCF031CE
BD2B7A5A
BD173CEB
3BD6A9F7
BC665C14
3B7E2E5C
BB760D31
3C848C36
3C38D05F
BB995FEE
BCDE6B65
BAB5F883
3CBDCD3B
BC944B9F
3CBF3CE6
3D4CBD70
BCBCCCDD
BD093915
BD395D39
3C59CE0C
BD348E35
3BE3322B
3CC10DA0
BB847BCE
BBEF223C
BC53FC40
3C2FF148
BD4FC59C
BCB1C8B3
BD4EC6DF
3B8CF9ED
3B65060A
3BCFA6A8
BB42C480
BC9BAFA4
3D8C012A
BD74668A
BCCA311F
3C1CF488
BC193FD5
BCD42141
3CC3942F
BC7C8F1A
3CBE26ED
BDB0792F
BD99E906
3D4C1F17
3B765B6C
3CF8D4EA
BD3094F3
BCD79842
3D391F1A
BCDABE88
BC40EAB0
3D9614A4
BBDF235B
BC9FFE26
BD415D10
3D7596F0
BD208D3A
3C202541
BC8A3463
BCDCC863
BD1CA1C5
BB4DCCD4
3D58FFC6
3D1C8A83
3DA26AC0
BBF27105
3B36B5D9
BCCE0CE7
BCC72103
3C69C08D
BC4900CB
BBA95FD6
3C916B16
3BD9F77F
BB92F402
3D29D095
3C40CEE4
BD2B0C6C
BDCF4528
BD725B3B
3C33B5B4
BD5560BC
3C141BE6
BAE1A1DB
3C2FD255
3BEBC095
3BD71D89
3A93733E
3AAB5354
3C870ECB
3D3A1D6B
BC9C9B02
3C043FC4
BCCAE962
3B98A8A5
BBF9D947
3C69495E
BD612A67
3D8D13DE
BD805217
BCB8354B
BC57589F
BCC454DE
BB9C5A15
3C444B12
BB7E61E5
3D3E00BF
BC3DF081
BD8D6D98
3D231A9C
3BA8E4E8
3C6FFFBB
3AD531CE
3C994F6A
BCC31E6E
3D6FCE3A
3CFC375F
3C3775C2
BCE62477
BCC04517
3C78E6D8
BB37BFD7
3D1FF48B
3CBCDF6C
BD0340E9
BC5F138C
BC8ED8CB
3B23C621
BB985506
3D11EAC6
3C80A677
3D619709
BBB14F03
BC5D804A
3D7743CF
BCED34BE
BA8DF093
3B932ED2
3DBC1CCB
BCD28996
BC1E7EB2
BCDE235C
3967711D
3C771C0A
BD1119C0
BB7850A4
3D11949E
3D26C842
3C8D4E75
3B428466
BC9204D2
3D968361
BCC78634
BC5B7C34
3D0BFDE8
BCE2A172
BD1F3DDC
BB8E7EAF
3C98884C
3D24331F
3D5FD7FD
3B9E5B22
BB9BEAD4
BD1BF3A2
BD056576
3C01D2C3
3B9B3C69
3D35E7AC
BD7293C5
BC42236B
BD83F04F
BD574C61
BCE24DC0
3BAC77EC
3D46EE0B
3CEB5CC4
3D0E0309
BB9116A1
3B5E5B1C
B9C29D68
3CB0AED2
BCA1A643
3BFDB303
39C82464
3D09149E
BD9D2BB6
BC21AE58
3D27051C
BBEFC2BE
3B3F0018
BCD32161
3C5C5128
3C3288D3
BC3316F7
BD4F9CA9
3DA55FC6
3B9B7F52
3CAAF462
3C1B051E
3D52252E
BD81AD2C
BC812737
BD373EC6
BCCFD71B
BCEAB68B
BBF409BD
3D00931E
3C1097E2
3D560B5F
BBFAF37C
3C60075C
3C173931
3D25BF57
BD2E51AA
BD03D556
BCB265E2
3D3DD6DF
BD83F618
3D7C7395
3CBF1CC7
3BB01CB3
3D2D614A
BBEAA182
BCE0B042
BCBD55C9
3C23D0C4
BD716EB8
3D03AAF4
3CB21230
BCC70641
BD1FAC3D
3CB59DA7
3CF6A454
3C715FCC
3D20E628
BD6CEF23
3C4CEB61
BD21EBC1
B98743CF
3C5368D0
3CC9F350
BD3EE16B
3D4E809C
BDC04D00
3C9C0BD2
BBA3EB7F
BC74B80A
3C635BB9
3D0DE47E
BBD2B6D2
3C71F37A
3CEFE6D7
3CF0309B
BC6D5EA2
BD89ACEA
BC91F803
3B0D60AA
BD42404D
BBDB0005
3B22BD1A
3B05FC45
3C80C3D0
3CD003FE
BD3058D8
3CD19FD1
3C3C83B9
BCB3A812
3D693FAC
3CF51EB1
BAD9FC5D
BD3780DA
BD1034B9
3C0E54E5
BD0A09AD
3BE32945
3D5FFD4A
BB36780E
BB4D84C7
3C20140B
BBA270A9
3C8FD290
BCE46317
BD36E1F5
3C655868
3C780F2B
BA62E6C9
BCAF6106
3B3839D3
3C962997
BD07756C
BC8EDAC5
3BB2A33C
BC406EC3
BC72F3EB
3C9AA44F
3CEBD4DC
3CB349C8
BD14AB74
BD22F6FE
BBA3A295
BABE69FA
3C0A1B44
BC958FAC
3B3DA0D1
3CF1F90F
3CB1AD80
BCC779F3
3CC364C2
BCCCFA51
BBF8D4F3
BCDA351A
3D601E9B
BC0AE950
3D05F3E1
3C96A96E
BB5406CA
BC5729A3
BBCDCCF7
3B8EBB3B
3C630895
3D318BDF
BD145845
3CC02623
BD38D8EE
BC4061C7
3C474C8F
BCD059FA
3C356A39
3D0016FB
BB4099D2
3CB55942
3CC81502
3D1F8A4E
BD1E7209
BDFFBA45
BD0D08F5
BC040FC2
BD3F81CD
BB742C0A
3BDD086F
3C02350F
BC7FDCCD
3BC96052
BD0CB7A6
3D165100
3D935269
3CB24349
BD449C0C
BC11B37F
BCA0EEEB
BBADB3D0
3C56CBF3
3A59E97D
BC2CECD6
3D7DAF89
BD15D89F
3CA29D54
BC5B3370
BAB6E42B
BB7323F8
3D170C54
BD39EA94
BC164790
BC93A6A8
3CB11C3B
3C9B1852
3D2FCD6F
3C701379
3CED7025
3CB98BF7
BCBE3711
BCC7FC9D
BAEB6D85
3C9B237D
3CBF28EE
BCCC7C96
3D38089E
BBEC5E3E
3D85F942
BC3EC8AD
BBD8308C
3CA92E87
3D17C20E
3CD0ABEA
BC6643DE
3D99ED35
3CF2A32B
3D9BB9A9
3B41B3C7
BB58BC95
3D070909
BD5CE81B
3CC71BC4
3C5B639E
3CF1E459
BD310F8C
BCA1D684
BD70F7B7
BC6C26F4
BCA0DC35
3CA2B708
3CAD6F6B
3D8B5632
BCC3CA00
3B6AB033
BCF912BA
BCAB9674
3D9701B5
BCFF87FE
3C8502B7
BD13BA6F
3C5BD26E
BC36A99B
3A62C3F6
3B8461C8
3CE266C5
3D9FA0F9
BC9CA975
BC91A28A
BCE75D7B
BCEF1A34
BB18930D
BD12D582
3D0CD9E1
BBB2DDFE
3BF7B763
BD482BD1
BD7DD34B
BD36F375
BCF0F8F0
3D0D70FC
3C4840AB
3CB679C9
BBD6F2A2
BB98F628
BC8D4E85
3B06528F
BBB9AC62
3C8C2A23
BD526678
3D8DC718
BDC010E5
BC31FCE3
3D28EE54
BBC0DCC8
BBE96BBF
BD293542
3C463A70
BC1551F8
3C84D0D8
BD6CB630
3CF49595
3BD8C1DE
BD5FC046
BD245F11
3D12B792
BD51D4C3
BB058FDD
BDA3A06D
BD2E9260
BD1866E4
BB9F2DF4
3CBE3E9A
BACA92F6
3D4675E6
BC57C236
3C4E4E07
BBE81982
3CEE990E
BC69CF63
BCE61E46
3D3188FE
3B90C55A
BB760427
3C9B0F56
BD1CA51A
3BD0F657
BC085AD6
3CCBAC9C
BAC20CC6
3B222115
3AB1FFFF
BB61FC68
BD76B64F
BC07DA1E
3C95A95E
BD257718
3D4039EC
3C3136B6
3CCBAE0E
BAE4CC4E
BD6F384D
3C200F1B
BD3BE337
BA520A1D
3B87DA8D
3CC90BB5
BD3F366E
3D83CDCC
BE07E39D
BC96B0ED
3BC81D91
BC54536D
3CB968B0
3D1F2EF7
3CF4CD4E
3D5B2952
3C3C2B59
3C4F2529
BABA2540
BD97CB55
BCF1048D
BC8F77DD
BCC1F691
BB8D3ECE
BC54FFF9
3B199068
BB17968B
3C446E0B
BBFEAEC9
3D14762F
3CBB24F2
3D79DF59
3D0EC416
3CB2F440
BBB88E88
BD57A0F8
BD10907A
BC13AEC2
3C3B7B1B
3CAFD761
3D432EA4
3C8D3693
3AD29C29
3BAB57B1
BB053F79
3ABA99DA
3CB87E56
3C5AEF5E
BB0563AA
BCA65B82
BBCDF1B4
BCD727F8
BBB1FEBE
3AEEABF8
3C3AAA65
3CA35CCB
3D7B0E32
3C91D6F0
BC5B4C25
3C9753A1
BBEEAFBF
3D636116
BD2652F5
BC1D6F8C
3C62BB1D
3AC7116D
3C9027CA
BCC95A71
BD1C7D68
3CAE2390
B944681A
BC703701
3CB9B043
3D119A36
BD3E661F
BC4171F3
3C78A806
BB8CED55
3CE36B8C
BBD7771B
BCCE71A0
BD010D72
3A28B92D
BAD8417B
3CD94C65
3CF26A94
3C8B08EC
BC8A8220
BB3C4B4A
BCE8CF98
3A164771
BD1EF6CD
3CD75374
3D084719
3CD72115
3D48A603
3C3201ED
BC642C56
BCB80048
BDD04E75
BD75BE9A
BB93D43A
BD1C356E
3AA339CF
BC8CBE13
3BC2DCDF
BCBC714F
3CAA425B
3CB55800
BA118420
3DAB38FB
3D876278
BD6C4B85
3B0BFFFE
BD173CF8
3C2EDD38
BC701BA4
3CE1BD92
3CEEB4FC
3D9F1F46
BD3E05F7
3CA0B965
3D06A38D
BCBC3B94
BC063639
3D63B30D
BD81F152
3AD8D4EA
3D6AC976
3BECC140
BC510482
BBB31878
3AB8FB1C
3B82393D
3C0129C0
BCAD159C
3CDF6BEE
3CEBD2E8
BC8FDCE0
BC34C43A
B98C3368
3D87DDFE
3B054337
3D706447
3CE537A4
BCBA0115
BB126192
BBB32BE6
3C83F802
3BAA8B33
3B0E94B6
3D2556F5
3DAF2BAD
3CC4D4BE
3C2393E2
3C50FD50
BC6AF3C4
BBE3DC8E
3CA70271
3C1A79D2
BC9A0F4A
BC963218
BCEBCA0E
3C659E74
BC1B30F0
3C30767A
3CA24577
3D223CB8
3C846AB7
BBACE1E0
3BAD7A7B
BAFBD25E
3C9328F3
BB4284BC
3C9378E4
BD160479
BCBEB812
BD221800
3B85D6B6
BC26301B
BB03804B
3CD8DC35
3C337235
BBD746E8
3C1B349B
BC2ABAD1
3B59461A
BC2ABC2C
3CC95698
BCC2E4A5
BC84399F
BD924B60
BD212FC6
BCFF7863
BCC3281B
3BFE8BA5
BC1FC3FE
BC278225
BD11C919
BB452196
BA68BE96
BC079F1D
BC8BE7F0
BB3B7546
3C1348E8
3B5E018B
BD85674D
BC835FAE
3D0E9BA7
3C22A13A
BCA5EF4D
BBCFE984
3C8D71F4
BB4DF26A
3B234AAA
BD417913
3D0CECA6
BA97F98A
3C870FA6
BCEE14DF
3C53859C
BCA2A36E
BB3FDEFC
BD85C3F9
BD535831
BC2BF8F7
BA92CE95
3D3BA95F
3CC5BCB0
BB5FD929
3BD84875
BCC83B5A
BB5CFD0E
BBFFA838
BCB1CAA7
BC8015D6
3CACDD0E
39277645
BD28D8F0
3C4145FF
3B80CAFB
BB270C65
BB589272
3C9433D3
BB0506A6
BC268750
3C349633
BC3F8A30
BC952B44
3CA0E069
BBEB405C
BD31B56A
3C88CCE6
BBDA479F
3CAC5105
BCC4348C
BD160F85
3C857AAD
BD2FAF6E
3C832A39
BC10CF1E
BAFADB20
BD5FBDE1
3C84DB32
BDC81BB5
3C4BE499
3C926DF4
3A9CB6C7
BB49CFDF
3C02349F
3CBE78F0
3D046210
3C804754
3CC61F5C
3B50EE1F
BCC2DDB9
BCA65B6F
3AB82C71
BBB94167
3C0C283B
BC429CF5
3BC4FD01
BBF27B3A
3CC991E7
BCB42163
3CA35CA7
3C6D7D95
3D25AB95
3CDD0863
3C88A079
3BDE94EC
BCE3883D
BCA3C2AB
3BC37CCB
3C0C4503
3D0DF94B
3D5E5B9A
3B945313
BC9F7BB7
3C2A3727
3BBFD46A
3CB68D58
3B3AE372
BC278281
BC01BB63
BC0E6A2F
BBF4C5E5
BCA545BE
BC8D9840
3C12A3EB
BCC7FF13
3C92F9E4
3D131F45
3B648F9F
BC6386A6
3BBC686B
3CEFB4D2
3CB924DA
BD3729F5
BAF816EF
3CFBA032
3D0D53ED
BB65AD07
BBE6924C
3CB583D5
3CA2D92D
3C6228BA
BB9AB3DA
3C698CE6
BC9A62B7
3BA3E7ED
BC319B80
3C91FC57
BC54EDE1
BCB2D287
BD39E068
3CB19B41
BB4EB8B3
3CC75BA9
BBC3BCE1
BC9FCA9A
3C235741
BCCD227A
BD55C7A8
BB9FE57A
3C61E58E
3B6307C5
BCFC4D0C
BA278BEB
3C641C4E
3CE3E3C6
3CCC232E
3A8DBB7A
BC731760
BC8FBE3D
BD286559
BD2BA239
3C93A1DD
BCC7BCD3
3B02060E
3C20CC38
3CB4ED7E
BC894729
3C985740
3C52B3B7
3B9F5406
3D5EE49F
3C40E068
BCD312CF
BCBCDDB7
BB833678
3AF7C46D
BCCF25F5
3C6513A6
BC54951B
3D20116D
BC54626D
3C991C31
3C837BE3
3B1D7258
3AF425D5
3D15693A
BD01ED08
BD078039
BC311871
BCA9A5DD
BCB7967C
3C3581CB
3D00DA93
3D44F4A3
BC097A31
BAB07E8C
3D4388FD
3C2AC0CC
3BF6BDE9
3C5576C4
BCE58016
3C121CD6
3CA2EC72
3BA00754
3A0B80AE
B9A5FDAF
BB22F139
3CD0B854
3CB2DC33
BB7A3578
3B71D2DE
3C205777
3D914318
3D0FEE8C
3C1E9EB1
3CBE059D
BC18D878
3C0FBCFD
BBDED438
3C142230
3A462613
BD0394FE
3C135863
3BF244F0
BC14ACF9
BB07D4CF
3B162AFD
3C47A55C
3CC39DD6
3CE5DBC2
BC0DD5FC
3C098E2F
3C9AF0F5
B9BE7E70
BD48E8D6
BD383D86
3CE0953C
BB6D0FB8
3CC1AB6F
3AF19FB6
BB18E57E
36932300
3BA21400
BD8EBCF4
3C6278F8
3AC3BDED
BBC46ABE
3B284C56
3C332972
BCBFFCB2
BB426941
BD635561
BD171F6C
BC47E639
BD2B70B4
3C099098
3C28ECC6
BBB0861D
BC250F70
3C6761B0
BC97A031
BC9E9A11
3C845B56
3C185C4E
3A359F64
3CA0FAD8
BD35E9BA
BBC15CF2
3D590482
BC9F35F4
3C30EE8C
3B466792
3BFB1E0F
3B55B67C
3BD19021
BC43BC3F
3D369D76
3C8363EB
BC3FFA61
3B7FD6EF
3CA4B54F
BC04AB32
BD23B76C
BDBB42C0
BCA5A8EE
BC9A7855
BD19019E
BC219EE2
3B8CED5A
BC50132A
BD1349AD
BC1BFC15
BC750EBD
BCCA5155
BC0E99A2
BB1718F0
3C31B006
BC8BC2D2
BC342DE1
3B255079
BA7C0677
3BB2916E
BCAC43E4
3C045BA2
3C808465
BC7B9471
B9B0E1C2
BC630794
BCE6E445
3BD8408C
3C1E9580
BC977D30
3C50BD93
BCD28E78
3C79EE5C
BCB16D29
BD3E7A90
3C2A3CFF
BD4BAFD2
BB928629
3CB2ADE4
BBE8A59D
BC75EAD8
3CE71CF3
BD350DED
BAA0C612
3CC92304
BCD63C36
3C26EF0A
3C4FEFA5
3CA28203
3C80DD25
3AC15AA2
3D07F8F5
3BB4E66A
BBD90A03
3BE47CE7
3CECCF0D
BB5793F8
3BC894E2
BC52854C
3C4393F1
3BF40F62
BBD179A3
BC85CD59
3CC3F649
3C0E7950
3C9637B4
3C77AE3C
3CFCFC2A
3CACCE0E
3A4A9207
3C7E4738
3CC7287E
3C82D6D7
3C863CC6
3CAEB977
3B9F0882
BC4FF491
BBE21A70
BBE49C4A
3C0498A3
BC262AB0
BCA963CE
3AFBA474
3C587B5C
BC8E914E
BBE15E8D
3C8F8BDA
BC25B2A9
3BB24100
BC8E6711
3AFCF0D8
BC110CEC
3C9C4F20
BD03D082
3CAEE5AB
3CBB9C84
BCC4EF0F
BC2CA3B5
3A5558EB
BBAD548C
BA775B17
BC553C04
3CC268E5
3C86B5F8
BCEC235F
BCC6F02C
3C0F7F27
3C97CAFE
3C568321
3C01EDE8
3C85E2CB
3C71540E
BD38D163
BC952481
3CC8687A
BA8686F9
3BAC12C0
BAC6ADB0
BB2C28FE
BB5A44E2
BBFC0C81
BD386B62
B9B7566F
3C77D693
3C4B7E6B
BD3FCA96
3C1C1378
3AE8DDCD
3CB53A3B
3BC019A5
BC557487
3C8F436D
3BF11CD0
BCDCF4DE
BBA3931B
3D4F960A
BC8CE959
3B426F0D
BCA26BAF
3C981CD9
BC711944
3CA8A30D
BAB21D31
3C19195D
3C08D3CB
BC6DA681
BCB8A13D
3C8608FF
BC6A6569
3C0A6835
3D270D06
3C104BEF
3D093FFF
3CDB9E0B
3A0CA63E
BCFBCFE8
3CE7B13C
BBEDFCDD
BBCE3150
3CA31C33
BCE9CCA8
BCE10524
3A9F6D62
3CE7DC71
3CE04092
39FDC0BE
3CBEFB23
BC092BA5
BBCCF133
3B862203
3C81E11A
BBF9F212
3C0792B0
3A41349B
BCDB8456
3C75DB21
BC31E28F
BB84256B
39A5AF1F
3CC72707
3B00305C
BB6321DD
3D6F6F19
BBD9FCCE
3C9A548C
3D212CF4
3D446163
BC3E4850
3D1D9F3B
3B0F182C
BCF43401
BC5D1924
3CCB5F2D
3B37CD3B
BD004E60
3C0FFC79
BD09F23C
BBDDC55E
BB4006E0
BCC0657E
3C446ECF
3C0DBC60
3BE0D403
BC1B1F50
3CB2A3E1
BD21EE1C
3CF9FF68
3CCB1EEC
BD8853E4
BD637591
3CB87719
3B2E75BA
3C98805E
BBD0AB7A
3C088A70
3CBF34CD
BC1FB282
BDA15FE2
3CC21CEC
3B8C80AD
3B927651
3BB7EDEC
BB71FE32
BBD81B73
B8A86BCD
BD5D0A9C
BC98DBBC
3A4D98F8
BC3D7BEB
BC22F80D
BC05750E
BC9A50E3
BC4EADCB
3ACAB11E
BBE26EED
BC1AE1FB
3B7679DB
BC36DCD8
BCBC9ECE
BBEA1B57
3C801546
3C8E0B5C
BB099EC0
3CBA0D8B
BCD229E9
BC0E9E56
3BE7E5CB
BCD85A18
3C72AFEB
BC97B41F
3ACD4961
BC555BC0
3D1299E0
3C2276DF
3BE7612D
BCD1F28E
3BCF81EC
BD858B39
BCBFA5EE
BAC09684
BCCF8C34
3C548A92
BA118621
BCF7C656
BBF5ED74
BCE84688
BCEA72A3
BCACDAE8
3CAD0550
BC2E59F1
B93EBEBA
BC7D5A8E
3C1030CD
3B279586
BCCF49EA
3D12AB78
3BCD73B4
BB6F1577
3CA979EB
BCCF92DB
3C0DCF43
BCC118B5
BCC0491E
BC8421FA
3BCAC28C
3B52268B
3B083B06
BCBFBB35
3CA9B8B2
BCE9CB40
BCB21A10
3C8D9117
BAF15C52
BC143ED4
3BE4D290
BC6B05A8
BBA18361
3A9F3E6E
BCDB1A08
BCC4612B
BBE22B65
BD1F1107
3CAB6011
3C033F35
3CDDA4C2
3C850EF7
BCB82409
3B949FA4
3B8CC61A
BC32330D
3C4536FB
3D073993
BC85DB8A
3C94BFA8
3AC00FFC
3CD8070C
3BD18574
BCF74857
3B2E955E
3C29B5FE
3C494B39
3B9179B2
BB99EFFD
3C42200B
3C644147
BC8B0149
3C6575EE
3CCCB77C
BC857A38
3C2F9464
3C646629
3C787750
BAF024F1
BCD0E2AA
3B2BA631
BC00549C
3C08598C
BCE1BC06
3BFC511D
3CC09EBD
3C4AD14A
BC56CD7D
3B811EDD
BB4812CD
BCBEAC34
BD05A9F3
3B192255
3BA2025C
BBC227F9
BB04F597
BC56C475
3A4383EC
3B6E1506
3BDA1E52
BACF789B
3B3C27E4
BC3B4D01
3B622FBF
3B81D734
BC850383
3A2B46F1
BBB2A78D
3C1B98B1
3AE4DFD9
3C8C62F0
BCBF1EFE
3B9EED61
3BA13D6E
BD2112E6
BCF3971D
3CBB10E0
BC000255
3C26BE47
BB87EA42
3C8BF42F
3C8B3585
3BB9CF8F
BD3D90CC
3C2C6D14
BBEE0B13
BB64B7B3
BD803227
3BF26184
3B81EDD5
3C8D5E6A
3D06E7DC
3B07B6EA
BBF40939
BC0545F7
BCC5CFA5
BA1511EA
3D14D402
BD19AA94
3C3CA87E
3C066DB2
3CD25272
BCE5EA5A
BC8090BA
BC62C0C8
BC2B6763
3D28252B
BC95A7D1
BD33EDCC
3CE6D1A5
3D203598
BC29DC8B
3CF35918
BCDC6DE6
BA3F029F
BADEFBCF
BA18CE8A
3C7B3B60
3CC1252E
BCDCD12E
BC9DB4AA
B9D4F9CA
3C56B33C
3BBA41D1
3CE71B73
3D362693
3C0F5DE6
3B3000EE
3D0BB59D
BCDBF836
BC67F7CF
BC9F6A96
3A6D9614
3B98EB15
3D0A433D
3C8D30D0
BC601AD4
3C074E68
3D0D9468
BCDD19E9
BC0A542D
3CD29D4D
3D18480C
BCA31106
3CA64788
3BFC21C7
BB8BF4E2
3D043351
3D29606F
BBC202C3
BC1A6C5F
BC53D7F0
BBE06E77
BBE12DB9
3D0BF3A7
BC6B26CA
BCABEC42
3D4E3131
3CC204C9
BC371BE2
3C9D35AA
BCF0F2A5
3C3A1FD2
BC6D39C3
BC7268C5
BC8DEB34
BBD14728
BC087B6F
3C975856
3CAB901B
BD23E05C
3C09AE35
3D1876FC
BC4E932F
3A597F00
BBAEECB4
3C3579AC
3C83F2DA
3B03EE3D
BD65B419
BA2FF12E
BC0F10B3
BC01A68F
BC909FDC
BBE90430
BA8AF7EC
BCC634DD
BD17AF76
BC857301
39AB3DC3
BCF4F997
BCCD380A
3B5F7301
BC9BB9C4
BCA4AD56
BB2AEA19
BC8ADD5B
BC1C963D
3C14E5FF
3B85C85F
BAE56A89
BC3A090B
3D008719
BC5D4853
3C09CC95
3D2D0D4C
3CC660D7
BC4533E9
3C39A7EF
BCCB2039
3C113EBA
BBA68DE3
BBCF52D2
BC3CC5D7
BC188F2F
3B24A7E4
3B603C1B
BC477C2F
BC9B4B7F
BD5306DA
3B95838A
3C143D61
BB9F468C
BCA8C2B7
BC2CEF43
BCE1393E
BC389D71
BC9C2B7D
BC9D9E00
BC2D1AD0
3B7EBDC7
BC672787
3B7EE5DE
BCADD763
3BFF39A6
B9D64FEB
BCB627E7
3CCE268B
3B877670
BB63814B
3C8F0F44
BBA41B35
3B4E04B5
BC9BBB07
BC7C0700
BC1BFCC6
3A76A1AF
BC2BFCB7
BAA82A21
BC4CB818
BC01E42E
BC5EA9F8
BCF6BA92
BC34D742
BD0C5F99
BC6A9967
BB4F1A06
BAEDC03F
BC71B96C
3AE7B39B
BCD479B1
3B904B9F
3B31C462
BC06C9B8
3B3ADD7E
BAA469BE
3D3757CF
3C97FD82
BCC807EE
BBD851D3
B9A15EE4
395E05E8
BB70E24B
3C9462B7
BB7B2649
3CCAD65E
3C51EE6C
3C210828
BBF339B2
BBA8C5EE
BB8E3765
3B8CE01A
3CEB8571
3C8CB435
BA610334
BAB3F2D5
3C7B0B2F
3BA9FF1F
BBCE99FA
3C641664
3B822E04
3C0E7B42
3CDA42FF
39F3DBB6
BC2A9F64
BC4B5EB7
BB82C73F
BA85B69A
BB8B724E
BBF671DB
3AF7B854
3A504BE4
3B815707
BC0D1ABE
3A828222
BAEBB3E6
BAF05C39
BC7F9FE4
3C8F10A5
BB18323F
BC883E38
BB79F8BA
3AB3FB78
BBD2462E
3C174D0B
BC361CA1
3B1D6FE6
3C78B25E
3C80DB86
BC10F58A
BBA252FB
BC2F2A6B
B8660797
BC82B0D6
3B97CB35
3B91D443
BC5DA905
BA875FF8
BB8F7582
BB524292
BAD73614
3AD10BE9
3AD428F6
BB0C8013
3AB8D7BD
BA120C1B
3AB3FFCF
BB888B18
3B51ECBB
BC21B98A
BC1ADCCF
3AEBA589
BA94298F
BC65B5E6
3AE60120
BBE2E2FF
3D3E78A2
3C949B03
BD0E5CD3
BCE41C6A
BCBF94BD
BC22CD5D
BC443C3B
3C7DFF33
BC6D4102
3C252B38
BA1C1AFE
3C36BE8E
BD01628E
3B910FB6
BC747AE2
BB892F42
3B2D76A1
BAF100ED
BA715B56
3C4F06E4
3C553611
3A8D770F
3BC8A418
3B1089BB
3C861692
3BB13A8D
3CB19BFF
BC2F7EEC
3B6DE37B
3BDF1582
3A27ED39
BBD94540
3C08A3CE
BC9D3E66
BB06F017
3CD7C9DA
3C85ED7C
BC63BF73
3C38CE26
BCC4E97E
3C262809
BD23AD6C
3B85EC19
BC2B75AD
BCCC6BAE
BC84F781
3BCAF2AC
3BA5A997
3CB265DE
BB83423F
BD0C14C9
B922D1E0
BC74BC2D
BC6EF675
BC2D16D8
3C46EB76
BB965619
3BEA7C8E
3CFE8864
3CA29F72
BBC6223B
3B753E76
BCB50B7D
BC0F5F59
BB6275FB
BB3F6D03
BB0171BC
3C7D6916
3C831D56
BA858CFC
3ADC5074
3A8EDE84
3C846FC7
BB9F128D
3CADBBFB
BB9EEEDB
BBC94DC0
BBACBE06
3C10230D
3B48566E
BC3A015B
BAC98511
3BBE523E
BBA011F4
3B7A8716
39258B56
39781F91
BAC51B30
BA92E0A6
BCAE3BB2
BB803A31
3BB0EA38
BBD2B659
BB3AA7B5
BCA8E39F
BAA623EC
BCA9569E
BCCA78E7
BC909083
3C66FBD4
BC2B7E5F
BC638BCD
3C688BCB
BC945438
BABD27EC
BC6BC4E9
3B7F3F8A
BCA26CAC
BC51155D
3C123C0B
3A2F20F6
BBE95CFA
3A44BC7D
3AA1EC33
BA0867DD
3B5E342B
3ABD1768
3A053F70
BC1F81F3
3A9974A0
BA96BCE4
3AF09163
BB730B96
BA7F2000
3B8EA8D1
BBEB456C
BC88423F
3B28EB71
BD2DE8F2
BD166C28
3B415AF3
3C8D4B21
BC497A6F
BCBB5E63
3CA3F17D
BCB957D2
BBC06FE3
BC93E289
BB82B966
BCD4D821
3BE637A8
BBA8B131
BCF14506
BAB72280
BABF0667
BB45634A
BAD23DC4
3CE49020
3CB338B3
BADBBD7B
3CDC97EA
BB2BEE03
3CB4C99C
BB92D560
3CCE17BC
BC473199
BC0483D3
BC9F3E60
BCA86C7B
BBAB9233
BBCD66A1
BC779191
BC8A12AD
3C4AB352
BBCDE49E
BBF36EDC
3C826AA0
BBCB190E
3BE21784
BC33A6B1
3BAC1C5D
BC6B7584
BC740DF1
37A655EC
BB9911BA
BB8C43CA
3D25BD55
3C44ED78
BC9B30CF
BC2737AD
BAD72596
3B880856
BC062074
3C2DFAD5
3ABAB11C
3CA6773E
3B4BA081
3C46B323
BB8FB57D
3B89AEA1
BC076686
3AD57932
3CEF70CD
3C36292E
BBC645FF
BBCEB152
3BA7A89B
3BDD4DCC
BC6F17BF
3C2ABCB2
3B14C208
3C008A5B
3C3A1419
3C29D871
BB909DEB
BB85FBD4
BC08E718
3ACA6C24
3B5B55A2
BC1E8165
BC00A9DB
BA151F50
BBFA19BA
BB8EC041
3A2AB4FE
3B56F8EA
BA2A920F
BB1F124B
3C57AEDA
39576C28
BC6C03F8
BB4DD57D
BC44FEB1
BB362327
B9B5C929
BB26DED5
BB77725E
3C18CA98
3C05606C
BB18AAEA
3BFB65AF
BB934260
3C335572
BC1EB6B4
3C16C9E4
BB9054E4
BBCBA63C
BB7F15BD
3BDC348B
3A25F7B8
BB41C4C8
3AB2111C
BACB5215
BB0F2677
BA975098
390B91A0
BA6C3BF9
BBB6A8DC
39AC1D05
BB7335C9
BB38D2E5
3A9C3018
BA942513
BCDCB2B8
BC47F298
BC0F8076
3D77E3A3
3AEE4BCF
BD29D36D
BD135317
BD1EE7D2
BBD63952
BCD32BCD
3C860A0E
BC53B007
3D0E7C26
3BC97FA2
3C0481F4
BC88EB93
3750176D
BCE07907
3BA17B97
3B9FF490
3B64670D
3A98DA96
3CFD6B38
3D0681C0
B73B525B
3CF612C9
BB1E950F
3CCB646F
3BA807D4
3CE7EA84
BBA11447
3B0AD2EC
BBA1AD6D
BB3DA93C
3B1815A3
3C89E3D6
BAFF99BE
BCE162FC
BB93EF9E
BC9D81E8
BC2B5D72
BBEA0EE0
BB9C2621
BBA24290
3B811E7B
3AD403F5
BBE0BFD2
BC126E9B
BB8CBC58
BC1EC856
3C7540B5
3B0C0A55
3BDAF266
BC0A4ABA
3C7DD1A0
3BB376F1
BB9A0078
3CCC4846
BBCF39D0
3CAA0C89
BCBCF791
3D074E42
3A0C2FC8
BC32F523
BBDC05BE
BCDC89A3
BA84BDC8
BB0FE137
BB5CE6DB
BA91C5F6
3CC03301
3CB2745E
BA89812E
3CBC63F6
BB261491
3CA45A6F
BBB70ECB
3CC5B632
BC0A7DA6
BBC58534
BBE5EA9A
3B9EBB8E
3BA4B913
3B351F31
BB336DA2
BB95FD44
BBD20DC8
BA951A6C
BAAB8252
BB412F3F
BB734683
BB405DDB
BB315CE1
3AA95F6F
BB1FC633
BBCC2010
BC23F160
BBC1BB40
BC75B82A
BCA6F8F6
BCBB8959
BCC707E7
BC4249BF
BC904143
BC66C923
BA6C9202
BC52E084
BC9364E2
BBF0D7CD
BC5BC8BB
BC5C4F42
BC6539B5
3AB3BFDD
BCBF789F
B9F1B176
3BD7FD32
BA857D78
3AF18CA9
3D0E7B46
3CD51665
3990B0DB
3D019FA2
3B3D3CA6
3CD4CB34
3BEF2972
3CE441CA
BC4D1EBC
3B92DF6C
BAB55988
BC98A8C5
BBE1DB8B
BCCD8C83
BCD05ADC
BC8D4A29
3C8EAB48
BAC1E49D
BC566107
3C76A92C
BC7FDD2D
BAE0566A
BC737D68
39B67566
BCB87F79
BC6D4623
BBB59CEA
BC651F42
BB03DF30
BB558B8F
BAAEFF83
BB466208
3C07375A
3BE31F13
BAD34BA0
3C37A31F
BB1B7CDD
3C1D6B04
BB89ED35
3C72D1C0
BB8B0FB1
BBFF40EA
BC1FD5F3
BB36E501
BC1007ED
BC42CE79
BC3C455A
BCDBC640
BC018517
BC9EBED8
BC101C6A
BA735C66
BC203FF3
BC0EB76C
BBADC30E
BC9DFF4C
BC150E2A
BC452CC4
BB82E46C
3BAA35FB
3B49D8B4
3CB86DA6
3BA5836C
BC05BB95
BBC4BCF4
BB39030C
3AC764C3
BAFF81A3
3C92C7B2
3BC9A0CC
3C3988DB
3B32CDA1
3BBCFFAF
3B7667B2
BB9C5CAA
BB68AB7F
3C016B03
3C94880B
3B8DF54A
3BF151CF
BBA76B53
BA51933F
3B6F1FA6
BBE053A6
3C71BC49
3BA8C9EB
3B85BCDB
3BF03B09
3B680F76
3B365D4F
BC473A9A
3A830A9C
B988BFD4
3C1999A6
BBA61128
BBE0D7F4
BC90C0E9
BCB7AB0F
BBD83CFC
BB966399
3B91359B
BBF5CC08
394D534A
BB0DD488
BB068CE2
BC65C9A2
BBD8FFA0
BBC377AE
3C344E35
BB835BDC
BB6A2654
BA109861
3C43FC05
BB108D8A
BB05825A
3C8F860E
3CA2D325
3C86F335
BB92F286
3CD4762B
BBA08F46
BBDACF2A
BB57E0B5
3C43C33C
3C4CBD49
3BB5463D
BA9A0F04
BA97665B
BBB81732
BC971BCF
38D7AB2D
BAE117C3
3C63EC46
39DECB3A
BB00459E
38A8FBB5
BB7FEFDC
BA941A89
BCA58D28
3B123885
3C190C85
3C52AA12
BA3C538E
BCE1B2BC
BCCDDAFB
BD1924B4
BB967BAC
BC6C574D
3CF2F824
BB9F058B
3AA7B650
3B71DB50
3AB0F9A7
BC9E2BA9
3A265779
3AF1998F
BB03189C
39E64B66
3B3AC07B
39316E24
3A6AADB0
3ADDC318
B8BB4A72
3AD3E2F7
BB2961E8
BA64AC15
BAEF4383
BB93F9B2
BAA78C77
3B0A465E
3B16870B
3A3CF9CF
3C8F869B
BC1A9759
BC18B096
BC45B43F
3C863BD6
BC998A7C
BC178F13
3C8F7E98
3CF0CAFD
3C50F15E
BB52581B
3C86661B
BC5482A1
BC947817
3C22C73A
3C58FA9E
3C3F70BD
BBC0FD8E
BC0D1B8C
BC7F0CFD
3C2BAB92
BBE914BB
BC3D5394
3C24E81C
3C889B57
3AEB2AE1
3B25FBE9
BB8BB922
BC16A69B
BBC2438B
BBDC8540
3B4B4EA0
BA08A100
BA0A0468
BB13E1F5
BB06231A
BBBBC9BC
BBD64B2E
BA86BA53
BA8FA8D7
BB0D56C4
BAD54713
BB935394
BA9F7114
B9DA4A36
BBC66A17
BBBC732F
3C75925B
3C6950BC
3A6CF071
BB096690
BA8AB7F1
BC432AFA
BCAD62CA
BAC2D490
BB568548
3CAB6931
BA6A654A
BB5ABABF
3B86FCE7
B96CEDC3
BBCD4F4B
BCBC6DC9
BB83955E
BC4550C2
BC7F83CB
BC9991B8
BCAA35EE
BC99DA11
BCB5F378
BC09DF4D
BB349A7D
BAD26A8B
BC8823EA
BBAED08A
BBD2196E
BBC30DA8
BC1E8877
3A94FFDA
BB1B16A9
BAA00D95
BA16C91A
3A8F1771
B9AAA72D
3A90872A
3B1E29C1
3A068972
3AFDF352
3AAB0CCC
BAEAB914
3BEF38AC
BB78EF1A
BAD672AB
3B928895
BC8CF6DC
BA662638
BC993779
BC7953D6
BC8C1CC0
BC82D0BE
BC9A76A1
BC95A204
BC41979F
3B31412F
BC4BBC2A
BC914F3C
BBB39B4F
BC68AA30
BBF2AC58
BC42A144
BBB59F8F
3B15E333
BB000DC4
BA2529B8
BA71F19F
BB415694
BBC60252
BBF74D3E
BAD2BBFE
BAAABB8B
BB27D7CD
BACE8DB6
BB881370
BAC4561D
BB02A685
BBF6D016
BC99BF18
BB27DC24
BC226AE3
BC2376D4
BC312E77
BC6EA148
BC897603
BC9C0E24
BBCB4C9E
BB75FFDB
BB51E1B5
BC3B8E97
BBCDDB9E
BC1B28F6
BB834220
BC3E7838
3C103B37
3B228C04
3C1BBB14
3B981718
3C085AA8
BC1C05F1
BA8D1726
BB840375
3B61F362
BBC6AB2D
3C859F63
3C06EB37
BB11DD2D
3BAF487A
3B7FC712
3B531D6F
3C201C20
BB511FAC
3CA64847
3BE3DC4A
3BAF08C0
3B8B2905
3AE848FC
BB4087BF
3B6F4276
BC395B41
3C879252
3C3DB3CD
BB8FCEBC
3C809AE2
BA3137BC
3A8DE029
BC52B459
3BA8639F
3B1C1AD5
BB597CC9
BBF902EE
BC116D1F
BC800352
BCC062E2
BB86ADDC
BBB78620
3C3BB374
BBAE95B7
BBAF93EE
BA107140
BA990678
BC58ED04
BBFFEA5E
3B48404B
BAD133A4
BA2FF650
BB0F5726
BBA6370D
BBD9BAA1
BC00BF84
BAF87CD4
BA61E62F
BB4E657E
BB097D67
BB8D93BA
BB21D013
388D8330
BBCF2054
BB6FBA65
3C5399BD
3C12FAA1
3A7E04F7
BAAA28B5
399D923F
BB9CBCAE
BC83AFD0
38FD0F89
BB01A5FC
3C8810AA
39F9AB2E
BA7B57B5
3A742B1C
39708338
BA941397
BC7DBA62
BB550801
BA059DC6
BC00D06B
BB5BE854
BCA3AB1E
BC8E348D
BC7DA2B2
BB8A8193
BC684170
B9307894
BB307406
BC4F430A
3AE85B86
BB32FE47
BC9C81FC
3A7D5A74
3C84495D
3C441C10
3A112A0A
3B51D394
390ADFD7
BA0D4738
BC5F51C6
B8C66156
3B0BE9B4
3CAAB1F6
BA6786C8
3B892CE1
3B309024
BAA68978
3B0B3977
BC51C442
3ABC9D66
BBFCE80E
BB46B374
BBBB9A21
BC7F3C77
BC60E348
BC5A6682
BBA3D0BE
BB7DD621
BBA17AC3
BBD7DD65
BAC5A018
BBCB085F
BB36997C
BC4DB184
BBFC706B
3BF5C28F
3C1BB5EF
3BC2A82C
3B3719D8
BC92C76E
BC2CBAE9
BC8090A7
BB963483
BB74307F
3C905B90
3B697832
3A6CD2EB
3C09C134
3BA0E47E
BBE0918B
BBDCCC75
3B4C4379
BA071090
BA0725B9
BB13E016
BB0617E6
BBBBD4F4
BBD61A7A
BA86ACD8
BA8F6F83
BB0D7CF7
BAD44951
BB93DE98
BA9EC414
B9DA21D8
BBC66D6E
BC0249EA
3B9B8100
B9105239
3A0DE052
BAD7F464
BAD7CD5B
BBFB52D1
BBF8B9F9
BAAAE106
BB56572A
BB72466B
BA6DA962
BBB8D985
BAFF7748
39E02163
BBCD4E74
BCAC650E
BB9F0B67
BC60680F
BC97FF2E
BC993A6B
BCC3F726
BC8440C2
BC272EE7
BC06587B
BBB5AABE
BB745521
BCA160BA
BC142A83
BB553DD2
39F57890
BC097765
3A956A42
BB1BFCC9
BA9FFA43
BA19F560
3A8E66F4
B9B0D1BF
3A8D9275
3B21414F
3A069E49
3AEFAD36
3AAB4E76
BAED1F7F
3BEF365D
BB7765B9
BAD6D55C
3B9251AB
BCAE1CBD
BB76F1C4
BC4D5271
BC7AF798
BC8E2414
BC8E8B70
BC85A1CB
BCA4C7FE
BC07B11A
3AC79525
BB8EF174
BC6380D8
BB9B06A6
BC0C7AD8
BBD1B4DE
BC0BE9AB
BBB5A334
3B161125
BB000DA1
BA24BB1C
BA71E456
BB415779
BBC605B1
BBF75AC9
BAD2BB8E
BAAABB8C
BB27D931
BACE8D04
BB881D30
BAC445A1
BB02A702
BBF6D776
BC97CA80
BB1B9024
BC1B382F
BC316C49
BC32592E
BC9E05F8
BC8678FC
BC6F97D4
BBDF65A1
BBC69F3C
BB66CD8F
BC5E1E72
BBFDB628
BC18DC4A
3AC71A4C
BC3947FC
3BFC58A3
BBA9A0C8
3B0F9A1D
B96239AA
3C0925A0
BB59BA52
3A78C882
3B93410D
3B1D3C4C
BBC22910
3AD84F48
3BD6406D
BB540467
BA6DF6DC
3A7FE066
3B54B88F
3C28165C
BC164BBD
3C60CE00
3B63F14F
3BB7D868
3BCEAC30
3B313026
3BD16338
3B089A37
BC443009
3AD853C1
3BF261A3
BBD37E75
3BFB5B53
B944E6EE
3B4054B7
BC5BF8BD
398E35C7
BB8A3E69
BBA80097
BBE4B03A
BC20B9B3
BC5378FA
BC4EF197
BB823D8D
BBBA341D
BBA283EB
BBA9D73E
BBCEE675
BB1C6FFD
BAC8D13C
BC5AC166
BC01D816
3B5BA8C9
BA3E3BC0
B98D96E8
BB0EA412
BB27F932
BBD955A6
BC00EE54
BAF8394E
BA6229BA
BB44AAA8
BB095695
BBB53559
BB255984
389E788C
BBCD9F99
BB90804C
3B98E8A5
3A4BCE03
3A87F982
BAA9C78C
398DEE62
BB420648
BBAD45CF
39127DE2
BB01A5B4
BADE68EE
39FB0E0E
BB337D66
BA829169
3971A3F8
BA94144B
BC8A9AA4
BAF14931
BA947DF1
BC158DFC
BB0FB0B8
BC294AE7
BCA07728
BCA5CEE4
BB986D59
BC6226B5
BBDD2675
BA6CC1C8
BC6CF4E2
BC044154
BB823798
BC9EB96D
3A2155BE
B9CB871E
BA2E8E10
398254C3
3B58423B
B78FDADE
3A615909
3AC47C96
B8A69F7C
3B0B07CA
3919D1B9
BA6811F2
3B837B33
BB0790E9
BAA688A8
3B0B37AB
BC57E0A6
3B66715B
BB4934B9
BBE75AD0
BBBCE397
BC822278
BC4B0E4B
BBB6D1A0
BBA2B27A
BBBA49E0
BB8E4112
BC325EC1
BBE5D7B0
BB446D7E
3BC119EA
BBF64597
BBC533DF
3BBDA967
3AB547B3
BC1BA91A
3B21EE39
BCA6AB01
BBEC3F34
3AA72ED7
BB7B6F02
BB976E4F
B9CB97B4
BADA02EA
BC58C6DB
BBAC4548
3C4F73F8
BA64C39C
BBDCC816
3B4B5ACC
BA06DD1C
BA074C31
BB13D7CE
BB062714
BBBBA138
BBD63113
BA86B51C
BA8FC995
BB0D7543
BAD445FE
BB93D0A8
BA9F4C9E
B9DA310D
BBC66D71
BC024519
3B9B8441
B9104152
3A0E00B7
BAD7F634
BAD7864A
BBFB56CC
BBF8D8DF
BAAAE222
BB56AC13
BB724769
BA6DB7B7
BBB8D6EB
BAFF7689
39E01F73
BBCD4D1B
BCB8C479
BC015863
BC4DED0E
BC6D6A9A
BC8AAA4E
BC86A4BE
BC8B500C
BCAFA14C
BC02C485
BB5D6C18
BB9D590E
BC6317AF
BBD9D786
BA767B24
BC2ACC73
BC2C80AE
3A97376B
BB18ED45
BAA0077B
BA14A5F6
3A8F0B04
B98B129E
3A9F7685
3B217A86
3A06505C
3AF49062
3AAA45AD
BAEC74E3
3BEFC425
BB69D922
BAD3CF28
3B92C150
BCA1542D
BB32EAAB
BC4FFD55
BC716162
BC809B89
BCD48874
BC655B9A
BBC209F7
BC08BDAE
BB6700E3
BBB3E366
BC8C9EEA
BBC2B4F9
39DDCE00
3AA1B0DA
BBD37D4B
BBB5A4BA
3B161DA2
BB000E2F
BA24D9FE
BA71E24D
BB415044
BBC60734
BBF75B89
BAD2BCE2
BAAABAF2
BB27DA19
BACE8ADC
BB881E64
BAC44148
BB02A7A3
BBF6E75D
BC986450
BB7E0D1D
BC0D6CD2
BC3D71F4
BC321087
BC5891DC
BC647B6A
BC2FEBFF
BBC5ECB4
BBA8AA85
BB948E72
BC3AFD2D
BBF37874
3B8056E4
BB7DC100
BC484FAC
3BAC11BC
BBA66FC9
3B98BFC1
BA76D27C
3C05CD82
3A536324
3A71A00C
3B8D333B
3B1CDEDB
BBC1E7DA
3AF47FC8
3BC05A14
39DA0CDA
BADCBEF1
3987E810
3B46D694
3C08BF98
BC0893D3
3C7DACFB
3B6F81F7
3BB92A8B
3C2B1D47
3B08ACCB
3B67E64C
3B06FDEE
BC38DF87
3B152EC3
3C03FDB8
BB8D34B8
3B8BC0AC
BA3C5C81
3AE25545
BC5F5A50
39DEDEE0
BB39EFCC
BBA1FF5E
BBE28DEE
BBC4B5A3
BC5DF298
BC70677F
BB7B7941
BBBA2837
BB8D2303
BBB07217
BBEC19CF
BB88BE53
BADE74F7
BC592B23
BBFDCC07
3AE58E1A
B908D33D
BBA4145E
BB0EC6F7
BC55A116
BB86766D
3BC4B796
BB5B7128
BAD1188C
BB5A955C
BC01FB37
BBF6101A
3BBB1485
3BDBC030
3A3C2C1D
BB907D6C
3B990F71
3A4BF31C
3A880D70
BAA9C9E6
3990A798
BB41FCB6
BBAD53BD
391279E6
BB01A5EE
BADE61C2
39FB1B9E
BB338171
BA826EDE
3971B566
BA941322
BC84AECE
BADB0A78
BAF79899
BC133B55
BBC8511B
BC62747A
BC8ED157
BC19AC96
BBA703BC
BC6E12E8
BB85B0C2
BC2171B2
BC5C9664
398E59E7
3B46F93A
BC7D0CAF
3A20D2C2
B9CAB232
BA2F5256
397D4594
3B57EA4E
B7DD34CA
3A5F8771
3AC47AEA
B8A4D159
3B0BF9C7
391C9AA2
BA67B926
3B83CF2C
BB0E467A
BAA682EE
3B0B3BF8
BC52E006
BAC4A72B
BADB392A
BC5C0160
BBC4EBE0
BCCF1A60
BC412A9D
3B8F5EAE
BBF704D8
BBF399BB
BB80A91C
BC8EA456
BC24588A
BB2F77B7
3C4F2F10
BAB90483
BBE7024C
39F4C1E2
3BCC8EA3
BBC2B7C3
3B339C32
BC819A7A
386A2607
3C96594C
BB0FCC98
BBA367F8
BB2F209C
BAE0EFB6
BBF07DD3
3C957DEE
3BADDD51
3A823730
BBDCD29C
3B4C5DE4
BA06DDAE
BA06ABAB
BB13D813
BB061CFC
BBBBCE0B
BBD668C7
BA86A902
BA8F6FBD
BB0D8190
BAD448A9
BB93EB1A
BA9E9824
B9DA1C5C
BBC67A21
BC02474D
3B9B378C
B90FE9BD
3A0E7FE7
BAD7F596
BAD7FA4B
BBFB453D
BBF8D00F
BAAAE450
BB5688D3
BB7245C7
BA6DD0F1
BBB8D8A9
BAFFA98C
39E01DF6
BBCD471B
3D0743C5
BCCFE082
3C2AA2C8
BDF12400
3CA57127
BCCC54AB
3BFBF0E3
3C8D78D9
3C9211A4
3D7233F2
3D881576
3D085CEF
3DA3E8CF
BC049089
3CD93187
3C9E6490
3AE32F00
BA041A17
3C95E1BA
BA0B5CA8
3B5771D2
3BBC0537
3B3D9D23
3D0C70EA
3CDFD6EB
BCCF4A71
3A616AA0
BBAA3933
BCA41EBD
BBF63802
BC4A6C71
BD2A8184
BA2143A1
BD1328D3
BAB8D8F7
BD5F6F41
BD024B8E
BCD2F397
3C3008E7
BC82C247
BC569A7F
3CD4AAE2
3C50D6D8
BC376E49
3C9B4F89
BC9258B1
B8B436C4
3AE3B5F1
BC238F7F
3C1B0424
BC97D1BB
BB83FF76
B9A748B8
3C7CF45C
BC0CC884
BC98D882
3B71CE49
BCA4F3D1
3C829EE6
3B837B18
BB6A665B
BC64106E
3B173255
BC088A39
3D6EFB8F
BDFB2AE3
BB8FC464
BDC5F106
BE0942FB
BCAF65A5
3D345DE4
BD395083
BD5C63E7
3CC7CE96
3C434100
BD61B8FA
3C86885D
BD1C6CA9
BDCD99BC
BB782DA0
BC3344CA
3B175BFE
BD0D4DD5
3CB8FB37
BD32AC79
BB56DD3D
3B28A13A
BD489533
BC25D789
BCA10B6B
BCB93E6B
BCB92A73
BD887D61
BBA69CB6
BBA25306
3C9C8BC7
3B21793B
BB64B2CB
3C21F55A
BB8ECEE3
3A04161C
BB826A52
3B86A36F
BBD89D80
3BF2B957
BC04424D
3A4B03A6
BB894EF6
BCC635C2
3B54F081
BB2499F5
3BBE8625
BC016EE8
3C5D2472
BD36EE9D
3BDE6F95
BD23D0A5
3BF9273A
3CEEBF18
BCC7AB68
BC518B58
3BF19FB6
BC106B4D
BBF20540
BCA59767
3AA91D73
BCD168A8
3C18E4DA
BC82E3B1
3C228011
3CE1C78F
BC1AB551
3BF45BA3
BCB6F3D4
BC0CA41B
BD0C1741
3CCA5EFB
BCBB3BFC
3C897213
BC270514
BC9625D4
BCD18780
BC552CAD
BC211689
BB895592
3B827088
3A289A5F
3A777970
BAA276C6
B91F873B
BB49A6BD
BBA5AEE8
3818F726
BAABFC32
BAE3BFFB
39B82E82
BB1910A6
BAA5BA09
395A2E08
BA93B7A7
BC1752B8
BCE5DD87
BC54D7AF
BB6EA2DA
BD939A19
BCAA1ABE
BCEC406E
BE1ADDA0
3B943AEE
BD647546
BCBF7210
BCF31197
BDEC54A5
BCE59589
BD46ACE1
3CEA2FD4
3D84558E
BCC686BF
BD3C406A
BD05DD5E
BE0ECE20
3D0B7977
3D6CBB8C
BCC9730A
BA9925CB
3C50C217
3D28FC6C
BD976D75
3B2F892C
BD51168E
BDA79298
BBC6049B
BCBA7076
399373CF
BC829960
BA7F7103
BD2DF0FA
BD3FB218
3D91E045
BD2B7A30
BC264360
BD21DEE6
BD33E501
BD0A3E7A
BDE00657
BCA356FD
BD2EF571
3CB7361A
3CBECCFF
BD5FDE37
BB756472
BDA7A336
BD8E3A8A
BD868006
3D9B606F
3D25F97F
BCCC6E92
3D8E99BE
3C566E1D
BC777549
3C907A2C
BCAED63C
3D274725
3D36E7C5
3C5E7E1A
3CBC247E
BC4BB6C0
BCABE9BF
3A083696
3BC0EC34
BB8EA578
BAC24A46
3C4D5383
3C32EF84
BB9C600A
3CEAFFC4
3BA619A5
BCBB0024
BB244E2A
BB0FAE07
BCB1CA29
BC9CC5DC
3DBB2E85
3D09CE38
3D2DB2A5
BB68383E
BCD87170
3C2D8AD4
3D8FA758
BDCB451C
BC1417ED
3C0EF90A
BD1B6D15
3D0FF0C1
BD022FFD
BD38FD4A
3C1C9F26
3D996D9A
BD225D71
3CF99E50
3D1FA10E
3CE2F268
BA6B8216
BD377CA0
BD13236D
BC0A5E74
BBAFEADE
3C0487E8
BBFFE891
3CFCD71E
BD14F58C
3D5B54C1
3B14D4FD
3D624163
BC78C590
3D4E043B
3CA6E314
3C7770E6
BCC19E15
BD089AA9
3D45CA74
BDACF9C8
3CDA2AF0
3D536E10
BCF70E61
BC85B77E
3D0EFC18
3B8971E9
BBCDC641
3D2F7384
3BC1D5A6
3BC932B4
3D19E105
BCBC9C75
3C74A488
3D3E557B
3D326B0D
3CF883DA
3D46A0BB
3AAE2166
3CDC30D3
3AF9C9A3
3D1F8968
3C660AAA
3D02AAF8
BD98051A
BCF4843D
BC8ABD9E
BDD5572F
3CDCBFFC
3CA34BA6
3BCC1F0A
3B8B149A
BD07D386
3D7F2945
BDA73AD8
3C4254B8
BD9DC125
BC5308BF
3BF4E614
3CF9669D
3C559F11
BCE047FB
3CC691A1
BA679BE8
3D733398
BC6F65EA
BCCB28AF
BC5D3BF8
BA0169A1
3BEB0488
BA9267DA
3ADA3E78
BBD4F766
BBB88788
BB476D46
3CE98298
BD3D8961
3C091BD7
BD39EF03
BD8ED5EF
3B4C1BF7
BCC19217
BCD1DB79
BCEC9469
3CCB3A8B
BC0CB344
BCBAB0D9
BCFD0F07
BCA94355
BC933322
BC4A83CC
BC00004B
3C2AA3B5
BCBDE2E4
3CA233DE
BD9707CA
3B4907EA
3B9DC4CB
BC7ACA07
BC343122
3B8462C9
BB87F72D
BDA03C4A
BD52B078
BD0DFC07
3A3844E8
BC0B34E5
3BD1A518
BCF04942
3D10A20F
BD7E5DCC
BCBA4B33
3C955CCC
3CDD6835
BD812F5C
BD7423EA
BB81809F
BAE2477B
BD48A932
3C9487BC
BD22953A
BD213C26
BC25B494
BC365C61
3D028E3E
3C4DDB28
BC008494
3BAF01E2
BCE3D998
BC95D1D9
BAA1D20C
BC89ACDB
3D11C257
3D64FDA8
BD3FE7E7
BB72C449
3CDFF2EF
BCC36707
BB86A212
3C723AC8
BC30B798
3C46F649
3BC49638
3CC6CC49
3C6B0E61
BC705651
3C2ACD67
3D05B4C7
BD5B4039
3CCAB2D2
3CF6DA59
3C56FDF2
3D0879E7
BD066A08
BD81F692
3CB77A5B
BD298220
BC3687EB
BDA3EB64
BD8FFFFF
3C385AAB
BD3DA584
3D0F4372
BD2D1A98
3D65AF8D
3CEB1BB1
BD7E1DB1
3C467C38
BBBD7745
3D46D0CE
BD220B50
3CD869A4
BCF52361
3CEEEC1D
BD6DE8C2
BC1B209F
3D34B809
BCF371B8
3D90B09B
BC236F49
3D66284D
BC62D2E7
BABE6097
3C800C47
3D31E831
BABAC4E4
BD91A1A1
BC8A7AB9
3C9010BE
BD0DBE09
BCB7CB10
BD5B2DD4
3C62238C
3CAC2432
3D57BA44
BDB0850C
3D178334
3B819E54
BBF041BF
3D54A83B
3CAE048E
3CAB09D8
BC395943
BD0F9A27
3CD0FE19
BC75D225
3DD6E4A0
BCBFB849
3BD1FBAC
3C10480B
BC8DEF30
BD137AD4
BD5C8F4D
BD0387AB
BA438E02
BD9CE6B2
3D18C239
3BD70C6F
3D2A5531
BD078466
BD4D6F68
3D8D4029
BD8816CD
BA375511
3AFC386F
3A8A4BC4
3D9356F7
3CEBFA41
3C15B3CC
3D02A577
3C6F9A91
3D189B1F
BDA0D85E
BCAD6FDB
BD93CC25
3CD1F8DF
BCFC2234
3D087ABE
3D1103AA
3C7A88A8
3C402078
BCE1455C
BC5323B3
BC530090
BC8EF230
BB91C980
3BF25A4B
BD09FCB2
3CAB44C5
BD3C99CB
BCE561D1
3D3AEC84
3BA40C41
3C66692D
3C8C9638
3C76D785
3D078620
3B62DB0C
BBB4EF11
BCA7308D
BA94669E
BC820054
3C962564
BCEE8C45
3C8ED8AE
BD6D40C8
3B9DFCC9
BCF69333
BC983F13
3D6C7AD2
3C31BC44
3D680A5C
3B64A3AB
BD91E08B
BC9995D6
3D062F16
BCC9BD25
3C051101
3C90450C
BD02CA65
BD0F514A
3D278D30
3D405967
3CDD0EBD
3D4C21F8
BCBB1A1C
3CD6ED86
3D1E1685
3C9937ED
3AA213A3
BD1C16D7
BC9D173E
BC925BA7
BCD8982A
3CD08A1C
3C02D558
3CC19E1F
BC52C2CC
3CCA1F7C
BBC470FA
3D12BEB5
3C36817A
BCEEAC27
3CEAF6C6
3C053DBA
BCB23D9B
3D393EAE
3C8F18A4
BCB080C0
3DA91596
BCEF5581
3CD7A792
BCAA630B
3BA320AE
BCBB7E53
3D42CD42
3C1AAE3A
3CD89922
BB48F75F
BCC5B709
3D6E4124
3CB9EAD7
3BA2E9BC
3C677F2A
BC8D5DD3
3D2B8678
BD6F10F3
3D565D01
3C087BA8
3C347214
BACA10DA
3D22ACA9
3D09FD40
3CE080A2
BC9C823A
BD3D86DF
3D254056
BCF92CB7
3D63D9F5
3B51DA5C
3D278F46
3D0B6008
BD928459
BC8F5E05
3BBB4FD5
BC88A2D9
BD88CB62
3CDCF9C2
BCEC3240
3C161F25
BCA05AEE
BD8BA030
3CBE75D5
BBF2A636
3D72FDD5
3C4A5FA0
3CBA102D
3D521854
BD85BC1C
3C79CE48
3C06C451
BBC08D99
BD42DE33
BAEE6134
BCAE4DC2
BC58D49E
BD529769
BCCF105E
3C7892E9
BCC17C74
3D5EDA99
BD404531
3D071945
3D00E276
BD6D4F49
3D1BE705
3A61B738
BC101C0B
BCD077F2
3C77316B
BC292E8E
3CF52F58
3D6BFF0B
BBE65FF9
BC0F62FA
BC9CDC7B
3CAB2AC4
3CB27925
BD02D67A
3CB1CF21
3C88CF2A
BCF5D540
3D5391BD
BD2ED3AE
BD49B052
3AC31081
BCD97487
BD0F0DA2
3CFD2812
3CA9033B
BCE64C7E
37EF456C
BD49E431
BDB2CD87
BC9440C8
BD134485
3B8D548A
BD00BB9E
3BE204C3
BD17469E
3D11C406
3D0F0385
BC081A56
3D7A83AD
BD9C96DF
BDAF718B
3D4A37B0
BD1B79F8
3D0F4F83
3B8BFFB3
3D40D015
3D9757FB
BDD70BB4
3CA10174
3D8141CA
BC7D05C4
BD9AABA2
3CE28C4F
BC1CB6B2
3B182FF2
BD7A006F
BD292C8B
BCA1DC4B
BA958C94
3C7C88A8
BD484BF9
3BD9C342
3D5118A1
BC871ED5
3D7E9E5B
3C6F44EF
BCA50F58
BBFA318E
BD8197F7
BD5DA016
3B403C67
BCC76E82
BD5C9CD1
BC5306E5
3C3AA53C
BBDD0341
BD67815F
BB50553C
3CEB6191
BA89466F
BCB51176
3D88AA01
3BCD4953
3D59DDCE
BD829A2C
3C9EE972
BC237A51
3D251E1A
BD495065
3C586CB9
3D13CA0D
3D4930A0
BC752956
3D4D17F8
BC14274B
BC01A94B
BD3C13D0
3D16D29C
BC8EE263
3D01F5BC
3A958EB0
BBC71E81
BCCBA1A2
BD6C2905
3D08FE73
BC0267F3
3BE71657
3CABEAAE
BD2B30A8
BC8D7C3C
3C9D9CB9
BD87D318
3DC6E577
BD092211
3B36554F
BCDDC60C
BD1EE1AF
BCF4C965
BBBBACD6
3C7275F7
3B83DD73
BC7C0168
BD0105D7
BD683A15
3C261EF2
BD6C1A66
BD2BB3C6
3CCA9E15
BD97C024
BCDDF38D
3C10C88E
3D29E3B2
3AE89128
BC973047
3D072EDE
3CCAEE9F
3CA3F8E7
3CB6C57D
3C4715D9
BC69B602
BAB43B1E
3CF161BA
BD078E08
BC482017
BC948573
BA76CE8F
BB0A1F2B
BC7C047C
BD059F1F
BC35FD29
3CB582BD
3BBF2474
BCBAFA2B
3D096D33
BC2F6F5A
3CCE2974
3D227F83
BD134044
3C09FB9D
BC8653DA
BD369B46
BBDD4578
3D0E31E9
3D0C45D0
B8DBB478
BCD54FB7
3C95E4EA
BBEC9DD5
3CC77A09
3D4C05F1
BCB7BD7B
BD5328AE
3BAC49DD
3C59B8D3
BD440E8D
3D4C77CF
BC88A795
3C9FD38F
3B6850A6
3CB91E70
BC0A672D
BC2F739D
3CDDD4BF
BC854389
BD80D687
3C82A19F
BCB38F6E
3D381473
3D3E79A3
BD254445
3D7CC449
BD01AB26
3C9F1C29
BCCD535D
BC7C590A
BCE51911
3DA330A5
3D6CC913
BD323FE9
3C8068CC
3D4F4700
3D8CB358
3C7F39EA
BC23A843
3C98722B
3D2BD337
3C78E1C0
3C88F252
3CA9D26C
BCB217FF
BD1A0ECF
BD2D2F24
3D2EEC6C
3D3E4AE8
BB801DC6
3AAE3088
3C71C8FD
3D4CAEB8
3BB41663
3CAD66C2
3C3ED457
3C9BA07B
3CF37AEC
BCB11DF8
3C37054D
3CD2A3A4
3D1B2167
3A216800
3C7227FA
3CA55D06
3C6DAB49
3A82F33D
BD048FC6
3CF4AA2A
3C183783
3D1ED8FB
3CEBDE07
BB054EAC
3D93653B
BD62B237
3D061578
BA45AD5C
BBD2A9BF
BC809738
3A4AA176
BD130C9D
BB3B139C
BC92A16C
BD22B884
3CAC2B65
3A62C79E
3D18EEAC
BC364FE7
3CA129C1
3D104B1F
BD787BBE
3CBEE21A
3CC6618E
3C3A2AC9
BD26CA6C
BD005752
BD0FD87C
3CD06DAC
3C9CD63E
BCEBB65A
BD03EBBD
BD0C7EA6
3D0559B4
3D3E4E83
BCC7D827
3C34FB0C
3CAED16F
BD16DB0B
3CDD757E
3BCEAB46
BCDA371E
3BED6970
BD5338EF
BCC628C3
3B75C393
3D24E668
BB0C7D3A
3D42CF4A
BD860FE6
BCA495E0
B97E3E9D
BD5D15FF
3CF162A0
3C465B1B
BD1D4811
BCCD6A2F
3D254096
3D042F2B
3C6CA278
3CB76F38
BB792046
3CCFDB85
3BFEDECA
3C67F081
BC236044
3D2AEA8A
3B51B4E0
3D672EB0
BC729C82
3C99027D
BA83A5D2
BBB29A92
BC927AA8
BB395F91
3C821AB1
3C87D1DC
BD394695
3D46F8B5
BD59B45A
BC85321B
BD0F0DEA
BCC77CD1
BC647300
3CE277A5
3C839FF5
3D704328
BC8DDA6A
3C0FD7DD
BBB5CC6E
BDA283FD
BD982B2E
3A4D0E4E
3C06F486
BDAC5FAB
BD1C2708
BD44CFD3
3B7068F0
BD552765
BCB0B638
BBB5489B
BD157841
BCBACAA1
3D84904E
3B653571
3D80DAE9
BD9C6C1A
3C90630E
3C7FCCFF
3CABB8B1
BD790EF5
BCD911E6
3C3BF1B4
BC654E46
BD6C6ED3
3B7B0D7C
3D48D406
BD6F6A5B
3C86E611
3D8B39E1
3C8B0B5E
3D70A7D6
3D0E76A6
3CADBB04
BD33FCD7
BD1CD6C7
3D181DC4
3AA8A1DE
3C20E7BD
BC7433E1
BCA861E1
3D1BC576
3CF3B905
3D0CFBF2
3DA1F10D
BD169DD8
BD11B364
BCCAF617
3B387C5B
BD609E05
3BC13584
BC5E12EC
BD1BA8D9
3BCCD5EC
3C5C70F9
3B2754FD
BAD20EF7
BD16FC6C
BD80272D
3C2ADD8D
BC9F9E60
3D15DE09
B9DEFDA4
3D05CE5D
3D6F5148
3D1D770D
3C62B70E
3C1FFE72
3CA01B34
3D0D0F90
3C0D9160
BBEA4512
3C1CF169
3CFD68B9
BCF771A0
BCB65D91
BBBE703D
3D1F5A3C
BBD94A94
3C947E53
3BF65E1C
BB38893B
3BE2AE97
BCC8CAA8
BCEB28C0
BD2FBC5A
BD007E8C
BCA29C9A
3D2FFF46
BC3B62DF
3CA41309
3C3BCC06
BC12E6A6
3D597927
3CC94492
3D0AB3C7
3D0BE502
BD137C22
BC5359A2
3CC84B96
BD34A79E
3CE66ECC
BBF118D2
BC2E117E
BC2E7615
3D781F2F
BC4EC3FC
BD0EB419
BCCF14FE
BBBC8EBD
BCCBF6F3
BCB5BEEC
BD2356A9
3BE84A43
3C72DC01
39276676
BD0ADCC6
BD3F0587
BC6859B8
3D1A8182
3C359A9F
BD19FC1C
3CA6DF78
BC196500
3C4D3817
3BA04CD6
3C9AC3A7
BD0359CA
3DCAABED
3D65EFBA
BB7BE88A
BBA746E3
3D6C8CED
3C893D2A
3B8CA7DB
BCE44E4D
BB20613D
3D29A211
3CBD598A
BC09CE75
3A9B45D0
3C3A653B
BD16FB2F
BC8C15E9
3D4D1129
3D5B0545
BCCFFB21
3CD7775F
3D1AA267
3C9C612A
3D3A44A6
BCE154CB
3D192AEB
BACD56B6
3C3B4584
3C9DFB70
3C01B28B
BD367BFD
BC9BA7D1
BBC23267
3C499B40
3CC99C8C
BB73AC45
3C9FEEF5
3BBCD7E3
3CAD3B54
3C3FAA43
