024C5
04887
3C6BC
02D02
00181
3F259
00256
3B5C5
0073B
3EAFF
0344D
3DC07
013F8
055BE
3A29C
01CFA
3D23A
03CFA
04549
02776
025CA
3F517
005C7
3D3C0
02113
3D3FB
3CDA5
3F04E
028DB
3B9CC
00570
39226
08D8A
0AE22
3C307
03BC8
0666C
3F402
3E4D7
05F84
01888
3FA10
00990
0733D
01D5C
0585F
3CCB0
01679
3B51B
3D2F2
02D8E
3DFB4
3CD97
3FF70
002DA
3C0F5
3D6ED
0005F
3EC06
03020
3EF83
35A1E
021BC
3862D
3C84E
00A61
3E892
3A570
3E54A
00CAD
000B5
3DC60
03285
3B4FC
3EDD5
3EC6C
3B34C
01CCC
3D442
3EA0D
3847E
3E56B
0803D
3F491
05014
04ACF
3E6B7
3A2F0
3D8C3
06425
37897
051AB
3E87C
37899
01FAD
38E01
3F093
3D796
06AB9
065FB
3D1D1
0251A
02ADD
3D31D
00D1F
3E388
3FCDC
3E695
3FB2E
3B96C
01ED2
3E613
0008B
3F179
013AA
05062
3F921
02FCD
04743
3DB3D
3FFF9
024D6
01FEB
3EB5C
01834
031EC
00736
02390
0208C
00C1C
02C13
063A4
03FE5
01A55
3E926
00E13
04417
3F089
3F9A3
0028C
022BB
05488
3D1B6
044B4
02337
3F491
3B902
3C4F3
3DC96
3DCDF
006D8
3E1EC
00756
01F94
3E5D2
00090
00522
017AA
02A7F
00CBD
00B98
3F5DB
00185
3E7A0
3EC18
3AA51
3F151
3F85C
3DFDE
01B06
00471
01130
016EA
3C829
0083C
03CE8
3D7B4
3E396
3F299
38FEC
3AEB4
3CA9F
3E90F
3D8DB
3C6DD
3C1B3
01CDE
3EF70
3B403
3C3D8
00128
00A3A
3D7D2
3E0C5
07BB7
08DA9
06537
06445
3BAE3
3EC58
07D05
027BE
3E5EA
035B9
3C8BF
3D3D0
00947
3FDA6
3AABD
39BDA
03FCF
3E0C0
3DC12
3EE48
018AF
3C264
3E588
01FF8
3BB5C
01286
3E71A
369CD
03C36
39D9B
041F9
05BCF
052AF
092D1
0742B
00BE7
3DCA8
00924
089C7
3D403
3E508
3F3A9
02776
09412
3CAF0
0546B
3C418
02240
3A690
3A3DD
3B836
00D9D
01E11
3DDF5
00899
388DD
3F499
3E478
3BBE5
03521
3CD77
3DB4C
00903
05EEA
040E3
0276A
3E1AD
3FE20
03F66
3B551
01987
3D6BC
03300
3F510
0010B
017F8
3FA63
005C4
3E1A1
04B76
00BE0
3BBBB
3D5CB
03156
02823
3BB3D
0193A
394F3
3F4FB
3E064
018D0
03A26
3EA74
3B191
3FDCF
04DF2
3D002
3D72D
01387
3C425
002CC
00545
00544
00906
3D694
00C87
3E9D1
036A0
3F3BF
0153E
0135D
023EF
3F338
3E6A3
3F6C1
00FCF
0225B
3E778
007D0
0451A
3E60A
00020
00F91
0285F
3FB28
3B017
3E032
0261F
0226A
3F881
03161
02925
0347E
3F303
023F0
3DD04
3ECC2
029A8
0189B
00C74
0083E
3F229
3CBDD
3C59F
3ED3D
3AF1B
3FA64
01246
3E9D2
3C680
396A9
04245
3C29E
00746
3FCAB
3B04F
3E3F6
3A059
3ED98
3F43E
3FD11
01B83
02BC5
012D2
3FCEB
0178C
0299B
008F2
01B8D
011DB
022DD
3DB56
3E238
0154C
3F397
3E9AF
3F31B
3F52D
3BB62
01CCD
00B79
3AF72
3FE71
3C821
01429
01CF0
00426
006E4
01DA9
01593
3ECD0
0069D
00CAD
00E18
3FA31
014CC
01FF1
3F3DC
3F32F
0003F
00939
3F168
3F5EE
0285B
3E08C
023EE
04067
3D9A3
00A89
03E60
01962
39A88
02D4F
01C93
02156
02D25
3BACA
3D8AE
02073
00D1E
04CDE
00B52
05228
0205D
3FE26
001C7
3F3C4
3EE3B
0121C
3F921
3CC71
07041
3F692
014DE
00D84
03308
00C77
3DEF6
02EF8
3D02B
3DE48
3E178
3FC3B
01716
00E5C
01829
3C0FA
009BF
01452
03F78
3D0B2
3FE68
0167F
00838
3BD6F
020FD
02126
3EBD8
02106
03BA7
3FE42
3CA66
0453F
01828
3FC56
011B8
3F675
3E851
3F9DD
01053
026D2
3EF03
3E305
3D7C7
3F6F1
035B5
01818
3F15A
3E8F7
015AE
3F128
02BC4
3E481
3FAB2
00E06
3C0BD
3EC22
0405D
3FBE2
01378
3FBAB
01E1D
00DFD
3F35B
01812
3C3AA
3FB5E
3FEAA
3F771
05FE1
3BBC7
01B87
3D9F2
01E86
00EBD
3C9EB
02111
3B881
3FB15
045B8
04B42
3DF82
3C6B4
015C7
3F8B1
3FC50
01DAC
00BAA
00544
00FDD
00C8E
3EC9D
3D81F
3C144
3F9AB
3E5F5
3EE82
00A8C
015B1
01E03
02A12
3D05D
00455
045B4
3AE7A
04719
03250
3C6A3
04537
3DA85
3E306
0239D
01EF0
00844
3E901
001D0
02E36
3FDC2
01250
01426
3FD7B
038BF
00809
3DA75
0068B
3D54F
3E8D2
007C4
02DFD
0350D
3D08C
01B3D
00D79
01434
003AB
3F5C2
01FAA
0358E
0262E
3D24A
0186F
3DCC8
005E6
3EBCE
00D54
03445
3E155
00A62
00B66
0155D
3EA1C
3AD74
00636
0099A
3FE2C
020B6
012A4
3CF79
02506
02885
02887
3E390
3E4D4
01254
021A2
3CA85
032D3
0103B
00C8A
024D2
3F22B
3D64A
00DB2
006D2
3DC03
3F4B8
3C894
3F6E5
3FB5F
001FF
3EEB6
01A65
3D54A
3D67E
3F135
3D3C0
3DD90
0291B
3E779
3DB06
02328
02134
01932
3E85C
0062C
3F3A8
0175C
3C411
3FEA4
0307B
3EEDE
03974
3CF1D
3F0AB
3EB96
023B0
3FC0D
3EF81
3FCA8
3B5C6
01269
3FD12
02E51
009AC
3E9AE
3FECC
01465
3F256
0037A
04063
01FF4
3ECF1
0230F
00C17
031AA
3F354
3EFAC
014F8
3F5F8
01544
00884
00857
00A29
3EDD4
007A7
3CACE
02E76
3BD50
02C6E
3EAB3
3F444
03AD9
3F79B
3BB8B
01A09
00641
00BF4
3E96F
007D5
01314
00859
0073D
00060
3D35F
3F37F
3FF28
3EB57
00BE9
3E949
3F32F
017AB
02829
003CD
3E272
0292C
3E107
3FB60
022ED
01403
04E45
01592
01596
3EE08
3FA19
0069D
02841
3B9B4
012A4
3FF94
3EAD0
3CB19
0075C
008E3
02F78
0218E
3BCB4
00AFD
00BFB
03ECC
3FD07
3FB71
3E8F5
03224
3BD0B
02305
03059
3ED6A
3F022
00CB8
022AA
00EDD
3F21B
3F59A
3FB91
3FDDD
00724
00BD9
3D481
3FD72
3EBA1
3E9B1
3E234
01362
3F131
3F121
02B56
3F898
01400
02ED6
01810
3F897
3E724
3F6B5
00160
01015
00CEE
3ED94
01EA1
3C3C2
0074E
03C56
3EDD5
00531
3B7AB
3FE9F
01184
00D28
3F2E5
3BBE9
3D9FC
00DDA
3FFB4
3F663
3E951
01A53
3EC30
3F4CB
3E123
3E9F2
01626
00338
3E661
3FBE8
3E1EC
00303
3E4B5
03DDE
3D0F4
025B2
03EA1
3FADF
03285
01916
3D2A9
3F8A9
3EB26
3F97D
3FF7F
3FD4B
03179
3CC39
00B98
00764
020BE
01681
02C6D
00C43
038A5
3E66C
3F0C8
010EB
3E813
00F40
3F7E1
00724
02B96
3A687
007CF
3F7DB
3F157
0245E
00609
3FCD4
0338E
03007
00A7A
01513
01FA8
0146A
3EA09
00370
04B46
3E7B6
3F366
01CBF
02EDE
020AE
3FE51
000DD
3E070
3D391
043D5
00128
3B648
039B9
02E73
01DF2
3F2E6
3F457
00E4D
029B2
3FC0F
01ADD
025AF
3F7CE
02231
01271
3E777
028C5
02046
3E868
007CE
3FA6C
035B3
3EF10
002CD
00663
02FAB
023C9
02319
3ED9C
3C87F
3CA06
0228F
002BE
3D4BB
02107
0362E
036E4
3F78B
042BD
3F5C4
3EF88
3FE7E
3AF72
025A3
3F6CB
3F468
00112
3DA5D
00AAD
006CE
028A7
3DE60
03B99
000DD
0315B
02204
3F8D7
024CC
3F2E9
3F408
3FC90
3E133
3DCC8
01EA2
00DD9
3C562
008F6
01D6A
02660
3D3A9
018D4
3F6C6
00181
3DF09
007C9
010FA
00325
3E5FE
0069E
3D00E
01494
00585
026BC
3C5FF
3DEE9
0321D
3E2D8
3F3C2
01E53
3E2D8
01F30
3DCE2
3F4C5
03054
00BAF
3E11B
0219C
3D86E
00CBA
3ED81
015A8
0247A
3FA2E
3DE77
009D4
3DB0A
00137
3E68E
042CD
3D34C
3DDAD
035A8
3F3C5
01AF3
04102
014F9
3DA0E
0011B
3F0DD
0108A
3ECB5
01AD0
00261
00076
3EB2D
00944
00023
02A95
00596
3BB41
3E21C
0207A
02449
3D4AC
3FAE5
3F856
003A5
3C633
00E0B
023F0
001FB
015EB
01CB7
008CA
006EF
3E7FF
3FFD6
004D0
3E64E
0290A
00AD4
3B549
00038
0117E
3FDDF
3FF4D
3EB5A
3F7EC
3E14E
03819
3DF11
3E1DA
020A3
01BC6
041BD
3F73F
0112A
02F1A
00207
3F504
00DF1
0061C
3C444
02159
3FABD
00062
01071
3BECA
0116F
025B8
3DDC1
00DEA
3C551
3CA87
01276
3F794
007E0
3F5DA
00396
3D607
3DE80
3A4BA
01675
00615
3F357
00072
009DC
3FF90
001DD
004F3
01A2E
00233
3FB7C
02E81
02BCB
028B6
010E2
3DBE5
3EA4F
3BEF6
02740
3EF6C
3EAA1
0255D
378E1
0285E
02490
3DDB1
03CD4
01474
3E3B5
0297E
3F36A
00E27
3ED14
3DABA
01E8C
001BB
00F53
3EE50
3D658
0104A
3EBC2
00C36
010D6
3F8C2
02F03
035E6
00173
3E4E3
3F686
3F69D
3E13F
3FE71
3F8E7
0071F
3D775
01137
0267E
3EFEF
04F11
012D3
013BB
0118F
0110E
3FB48
00589
3DDAE
3DAB7
00CCC
01198
3FCE0
009CF
3F386
007DB
3FFCC
03630
0154F
01851
00CEF
3ECEC
3E937
00FB9
021BF
3D230
0083C
3D301
3FA61
3CFED
3D789
3F50F
03040
0335B
01063
3E839
3DEE2
3F2D5
00EFB
02DC8
3B7B9
0065A
02E3D
02C72
3E327
04C6B
3DEBC
3DE45
3E537
3CC1B
004E9
00DF1
3F1A1
3E258
3C27F
02C8B
01B23
3FAA1
00E67
012ED
01D8E
0109B
3F797
02442
3EE5A
01667
3E9C9
0007F
00962
3F85E
0169A
0032D
3EF50
01D35
008AA
01AAC
3E622
03238
3F9E7
3D356
3F3AD
3FB44
00D9E
05D6A
003DD
3F2E2
3E461
3E53D
3D3B4
3EE45
3F670
3EF09
0337E
3C6ED
01B3C
029EE
000E5
038AA
3C5F7
00771
02F0C
3F389
3E992
3E44B
00441
3F877
3F0B7
0063F
010C9
01151
3E22A
3F593
006B9
00DE6
3E0AD
3EDB6
3EE97
3EDE2
01775
011C0
023CF
0224B
0283A
018CE
026EC
00CA2
022C7
00C14
01B64
3FE18
00985
0067E
3DE83
3E175
01A52
3F38B
3DAE6
3E2C7
029A0
01A8A
3EA22
014D0
3DECA
3E967
3ED76
00E5B
03C99
3FAED
3F3F6
3E6A3
00992
3E5BF
3FAC7
3FECE
01057
3E702
02700
3E7B4
01667
00A66
0389C
3F12C
0137E
00163
3EA2B
3EB3E
01438
3F487
3E2D4
01442
03522
00403
3D1F2
01B7E
00F2C
3EE02
00774
3EC45
3FE3F
3CF78
005E3
02689
00F8F
00558
3CD54
3EC82
0324A
3D09C
3CF3F
3D1AD
00AA1
3F783
3E5EB
3E331
3D805
003E7
3C1E3
3D9B5
3C25A
3FD44
00E99
3EE8B
3EC59
008D6
3F78E
3DF0A
3DA89
046F4
3C53D
019B0
027D2
0054D
00232
3DFCD
3E8A7
3D0BA
3B36B
01A6A
3CE60
0379E
3F0C6
3B8E6
01C62
01CA4
3F0FD
0222B
0192B
3FC28
02A3C
0173E
012CD
3C766
3D9D3
027EF
010E7
015FF
3CED7
3B844
058B7
3E8F2
01BC8
00BCE
3E2C8
025CA
03D6E
3E632
3E252
3F11C
02537
3D062
3E9E4
3F2E1
01971
3C6A7
0128A
00611
02934
046E9
3FE30
3F654
0072E
00753
0304C
3D439
3F4CA
0038D
01C0B
3EB9A
017B3
01BAC
3FABB
01135
3EB43
0003C
02857
02FBC
02CED
3EDFE
003CE
002B6
05841
3C6B9
02D29
3E654
3CEA3
3D072
0122B
01FDE
04BCD
02206
3E125
3C979
3ED3B
028C0
3F093
0260D
3D05D
3C4A6
01D74
009E7
3EAFC
08A36
3D79B
3BDFB
3F946
3C1FA
01769
02BE5
3C5AD
3D3FE
3C2C4
3EB0C
3F4AE
3FB65
3FB32
001E0
01A73
00189
026F1
02C8A
3F216
00AFB
009D2
3F88B
0067A
01446
01986
3F071
3E623
3F07A
3F27F
00482
3F2A3
040A6
3D8F2
3F2E8
00932
3E3B5
3E926
023EF
3E552
3EB32
0210E
3DEC3
02D35
02FE4
3E4EC
3EC12
3F2F2
3E53C
0197C
027F2
0245E
03FE8
00A25
00A93
0033E
010AF
3F264
00CE3
3FBD8
00CE1
3BD07
3FC93
3F731
3D0AC
00BA9
01B51
01D42
03337
3F20A
02002
3D0FF
01040
00D90
3EDB1
032EC
02CB1
0020C
3F0BD
002BF
001E8
00F7D
0179C
01142
01D78
3ED6F
3E995
3F7AD
3F8AC
026A0
3F2C0
3F107
3DF45
04347
01EFC
3FD76
04C86
3DD91
3ADA5
00178
0017B
3FA61
018CC
009E4
00BB6
3FB2E
3F666
02792
3E6B4
0111A
0102B
3F099
3CBCE
03B24
3E58E
036DE
01A15
3F929
3E3BE
3EC37
00C31
01DED
006E5
3D974
0280C
01684
3F623
3E360
052B4
3ED21
3F764
00198
3CE0F
3F1D2
3E582
00388
3E5D4
3F3B3
3C673
3D2E3
3E487
01425
0300A
3B306
3FCCF
00AF3
029DA
3E669
3F93C
03448
00FBE
3D663
3F463
3895A
00804
3D12D
3F5BC
3F00D
3D970
3DB22
3B99E
3D042
3E770
3E542
000AD
0190F
02FCA
3EBA6
3EA1A
3FCB9
3E798
3EF4C
0158B
3E9AC
048B9
3963A
3AC7F
00650
03CDC
3B3FE
03FF4
038B7
010BF
03647
00486
01055
3E8FC
3D1AD
03EF2
01518
00E0D
3ED73
3CBB7
02EE5
3CE68
01260
3F407
3E3B8
0177A
3F5E7
3EDC9
3F564
026CD
01294
3FEA4
01B02
005E7
3F7BD
3D55F
0348F
3C3B9
01C7B
01455
3E802
009AD
00C79
3FCE7
02A42
3F9D5
0088A
00C9E
0181F
3F421
3F1D8
00DDA
3CF11
3F216
3F629
016CF
3F112
015BC
01EA5
3E190
3BF77
3EC99
03FD4
3F948
05A29
002E4
3E755
3E2DF
05AC2
031D8
0354A
020B2
01444
3EC77
017E6
014B6
3E635
3F3AC
004A2
3EB52
3EEF0
00844
005C7
05D6A
3B9A9
3C0C6
007EE
0034B
02865
3F585
3BAAE
3F2B0
3B17C
3DB79
00ED8
3F8B4
3E0E1
00444
0064D
3E641
03DB2
00AA1
0283A
3FB16
029C9
0066A
016F9
01242
00037
3F420
3DB05
0079A
3ECD2
3FBEF
0003C
017DF
3E365
3EA34
3F754
3F812
00146
3FB81
0291B
02F21
01661
3EAC2
3F1F4
01769
001C1
3F9B1
00577
0006B
3BC9F
01D11
009A6
01AC2
01050
018DA
0310D
3EEB8
3FE11
3FC17
00B40
3FA76
3F78B
3F2BA
3F6B0
3F6D0
003E4
3EBC0
0297A
01C83
3DCFB
3F0AD
3EB0B
02888
00175
3EC7B
00D18
02105
00D9A
02801
00608
3F225
04B79
0473F
0058C
023C7
00BE2
3FF7D
0218A
3FF1E
0592B
3FE50
3DD34
3F38C
037FE
01D1E
00195
009E2
000CD
3AAE8
3F62D
00F6A
3FD6E
007A2
0017A
3F69D
3D85D
00055
3EB89
3F9E5
02AF0
02546
3F6E2
3DBCE
03F4C
3C4AB
01B9E
016AE
002D3
3EADE
00E88
020A2
007AF
3F2B8
3D322
01A0D
3EED2
3F07A
00044
01F91
3BE4C
3DAC3
3FDE9
3E051
3F4E4
0057D
002CA
00448
02980
3E454
01D1F
016FF
00197
024D7
3E5E2
3F722
3E87B
00906
3EEF4
00234
0199D
3EE19
3CD14
008CA
3CF63
3D5AD
016F1
01480
3D16D
3E8DE
3B32E
3FB45
01F2A
3EDB2
02221
3EB9D
3DDBE
03D94
3F1BF
0103D
013D1
3CD4E
00421
0263C
3EF04
0318A
3BAD0
3F033
016D9
0124E
00070
02655
04A50
3FBEB
01CBC
023A5
01713
3E177
3F972
03E36
00388
3DB5C
3D1BB
3ED72
3F4FD
3E3A3
01BFC
3FEE0
3E62F
0150F
04013
3EF9B
3F571
02CDB
007E8
3E96D
02B73
00081
00D7F
3E550
018B2
3DC54
0159A
017E6
3ED63
3F217
00739
3FDA2
03A6D
015C3
004A6
01352
3FBF2
017DE
0058E
3F83F
010E9
3EFD5
3FCF4
003B7
3E865
0069F
0341C
3B004
38DA9
02D84
01224
3C480
07806
3D76F
036A5
0012C
05B1F
03316
00FDE
3F45F
040F9
00709
01B11
3FC49
3E568
00C57
00445
3C6BE
3DFEA
0148D
023FE
00B88
3DCA0
3CD58
3FD89
00D33
3F528
02970
3D3CF
00DDD
0166D
3D8C3
3F4B4
01DBA
006F1
3D945
3CB9F
00E80
036E2
3F43C
03313
3FBA9
3E041
3EA79
3E92B
0036D
3E643
3F356
3F4AE
3F645
3E06B
3EAC0
3F448
011D0
3F833
3DA4F
3FE2E
3F08E
3FAE5
0213E
0137A
01E0D
036BB
3DC3D
3C9CC
00D10
00CED
3EE5B
03B81
3E414
0273E
04348
3EF09
029E6
02D9F
02256
3FCD2
3E6BC
01E0B
3E71A
013C5
01162
01107
3F3FC
3EE3E
3E1EC
3F9B7
3FAF3
0287F
019E3
3EDD6
3D282
000A3
004BE
02512
03923
00386
033E5
0423E
00EF9
3FC14
3E548
0212D
01BFD
0140F
00EB5
3E7C7
01339
3FE8A
004BD
01DE4
013FB
3CCE1
3CE17
00D80
00B69
01031
3F775
00A60
39D83
3EA12
016DB
3F52B
3F328
00764
3E9D0
01DD4
02699
3FE6F
00D5A
05B38
3FD28
0075F
3E002
01001
3E428
0123B
003C9
3DE4C
3E014
3EDC2
01567
3D1CD
3E487
3FADB
01CB1
3E4CB
3C5FF
3F395
018F4
3DA47
3D7A8
3F023
3DEBE
3FCA4
3F326
3E658
02491
022DF
005B8
04B00
02710
3EC6E
00A91
3F252
3FB13
00B9C
01B70
008A8
3F3B9
01E62
02362
3F231
01ED8
3FE50
3DD56
3E6E7
00170
00DC0
016EA
3C32F
3DABF
02F06
3E77C
3E341
01247
3ED34
3FBD9
3CF4D
3F9C9
3F544
3F17B
0021B
01DDD
3F845
01B57
3D81E
3E959
3F864
015AD
3F680
01ABE
02E2E
3E26F
0065D
043FA
02A89
3FA3E
3D915
045FA
3FA22
000AC
3F07F
3FE8A
018A3
00895
01AB8
3F8BF
3BFD2
0134E
01810
013A8
00C49
01776
3D158
3F573
0420D
00B88
01122
3E305
03743
3DD8F
3FA4D
004BD
008AC
3F308
0164A
3DB29
03019
0117C
3F254
01C6C
00A60
0231B
3F96D
3EE30
3E630
00096
00D40
00EF5
3DCD9
01B34
02C87
397AD
3E10A
3EECF
3EAB6
3BA38
0740E
3D16C
02E43
02957
064AA
025C1
00525
3E652
03CE4
3F281
00482
0103B
00445
3F97C
3F1F7
3F68A
01652
00C92
3ECDE
00C21
008C1
3D451
3EB57
01328
01178
0107A
3E45C
3FFF4
008F1
3F556
3E4F7
00309
02695
017EA
3EC8F
3EB1D
0461D
3E49C
006CA
01C13
3F20E
00792
00F46
3F232
3F24B
3F367
3F6EF
00B1F
3EB98
3F161
00AE7
00602
3F22B
3EC23
00BAF
002B5
3F3EC
014B6
3F6E7
010F7
048B4
00C24
3ED41
01A8B
00A2C
3DC5C
01116
3EAB0
3B988
3EAF4
03E37
016EA
009F0
3F58B
3FDEE
018E1
00AA9
01967
3DFB8
00B0F
0039E
01744
3F3F0
3EB87
3F884
3D9B4
02189
00E10
3F04A
3D460
3DF6C
3FDBB
01556
0452D
01629
01DA4
034D1
03999
00A25
3DD99
00FBE
016A0
00376
020E9
3ED4D
014B1
026CD
3E329
00D0C
3F959
3CE56
3FF8C
019B4
3ED4A
01527
3EF96
3F576
3BBBC
3F954
3FC8E
3DE19
3F0E2
008C0
01A82
01B55
023A1
3DBC9
3E346
03742
0018C
007B7
3E34E
01CA3
3D728
3F58D
3F09E
3E168
015EE
00B02
00519
3EDF3
3EB93
3FDC2
00154
3E4C9
3E083
00C41
00CBE
3EA89
3D7AE
005C3
3F672
3E52C
3F0E8
3D7B1
3F8A0
016F8
3F9EB
01553
01838
3EAB1
02086
3E379
3FA6D
3FD72
02E43
3F14A
018AD
01718
3F08B
3D38E
017A9
3D8F3
3F8EE
01020
024A2
3E7DF
02F36
3FF9B
3F001
020DC
3F8D4
3FEC3
00ED3
3E23C
3EB65
3F75E
3E106
013E8
3FF97
3EE03
012F7
00D19
00D96
3F938
004C9
0262F
0173B
00FF3
0055D
01BE5
3D5EE
00EFD
3FC24
00D4C
01157
3CEBB
03B73
3FCE8
3FC88
3E00B
3E027
3E940
3F15E
0164C
3F07C
3BE06
3F7AC
00328
00866
0054E
01E1E
3D304
00EE1
02A07
002F9
00B64
3DF25
0287B
00410
014CE
3F488
011B4
3EA22
015CA
3FB46
01C9C
3F46C
3EBA5
01D1E
00142
01831
01394
3E9F9
3E796
00B7E
3EAD6
004BE
3EE8F
037E8
01D3E
3C5CB
3FD00
3D95F
3F821
3DBB9
0333D
3C28D
01BC8
0292E
06146
3E2D6
0075C
3F67D
018EA
3D1B6
3FBE3
00AC4
3F57A
0168D
3FE9D
00803
0151A
03DCF
3F09E
3CD89
00CB7
3EAE8
003FE
00A27
3FAA3
00AD2
3DAD0
001E2
3FD2F
3EC89
011EB
3F6F1
00505
0239B
3F6BB
00FBC
01C69
3F834
00686
001DB
3FA5A
006B5
003BA
3F10C
3FC01
3E8BE
3F812
3FDCF
3F98C
3F921
002F9
00994
3F819
0030F
00974
0047C
3EE24
3E95C
3EB7B
00AC2
3F2FF
3FBD4
0108A
02396
00B3E
010DD
00B0A
0114A
3F419
00231
01F06
01334
01748
0011B
010AA
007DD
3F76F
3FCBD
3ED0A
00B70
01BB2
01718
009BA
3F3D3
000C2
00EAC
00B97
01AFD
00480
3EC75
3DD8D
006BB
003D9
00A4B
00E77
009DF
0130E
02D56
01D1E
3E3F5
00759
018E9
3FB21
0266D
01918
3FE7E
029C9
3E607
03752
3E4DC
00190
3FC94
008D2
3FFCA
00463
3FC7D
3FA8E
3E180
3ECB5
3FCDA
3D8CA
004E9
00833
00E76
3FE7E
3FEB1
3E63A
00699
014C5
3F81F
015D2
3D303
00337
3FEAB
0046D
005CB
3FB65
3F26D
3F1E9
3E0DC
3FBF0
3D862
3F23D
00B08
3E64B
3E947
3F8E8
00596
3E59C
0068A
011FE
00A04
3DC6C
3FA96
3EF56
3FB33
00A0A
002E8
3E521
00AE2
007FC
01424
3FD1A
3EE4D
00CF9
3EFD9
3E7A1
00E0B
00BFF
0188A
3DF67
024E3
3E8EC
3F54B
3E30F
0087B
3F664
3F519
3D916
3E23A
01F82
3EA5D
3F596
01164
3E723
3E7B4
3FAC1
013DD
3F8EF
005B5
3F285
3FFAC
00AC0
0055E
3F736
3E840
0096D
3ED46
3EAAC
018E0
00909
00105
3F654
00470
3FF1D
3F38E
006A6
02A80
3F3D9
3DE90
3DA3C
3FAA9
001EF
0021E
005EB
0087F
3D7AA
3E0A9
3EB35
00C8C
3FFEA
0118A
3E5A9
01155
00269
00E0D
3F84B
3BA3E
0277D
3DD7C
3F959
3F5BE
005DB
3EA60
0178F
3F566
013A7
007D1
3F802
00E22
0038D
00D3F
00E32
026E7
3E589
01540
3FA83
3EE3E
3F440
01CFF
01A67
3D88C
3E021
3EDEE
3ECAB
3EFB7
01EC8
3EECC
019C7
0209D
048E2
3E5D3
3E82C
3FD43
00D18
3D54C
3B1E9
005A0
3DF9C
3FF02
00DE7
01250
3F87C
00D16
00B2F
3D49E
0208F
3D961
3FB13
3F657
3F459
3EED1
3E822
01133
3F99F
0027F
3D6AE
3FED8
00B2B
3FC2E
3DC7E
3DC95
02137
3F9D1
00D02
3EF1A
3F2CA
00CF1
3F5D1
3F889
3F54E
3EEB5
3FD6C
3F7ED
3FD98
3FA87
0083F
01AE5
3EE51
004DD
3FB8C
3FA5B
3F08D
01908
0088F
3FC63
3FBC0
3FFAA
016FA
00557
3F9E3
00A91
01E7B
01025
00F60
000EB
3FCE3
01654
006E4
3DC17
3B8D1
3EF89
3FCDB
3F0C4
004CE
00635
3FC64
009DF
3F150
3ED79
3FA8F
3F96C
3FE05
3EBA6
0058D
3FE46
00178
3E23B
01108
0100F
0008D
0128E
0139F
01E01
00050
00502
002A0
02BC0
3FFF0
011F8
011CF
3F510
00625
007BA
01CE3
00122
0089D
0084E
00A91
3F49C
012D5
01B93
3E4D0
3DDAB
3EECB
3ECA0
3D7E6
3DA6D
00059
00313
005C3
00EED
3EBBC
014E4
001BD
017ED
3F46D
3C6A7
017AB
3E89B
3F82E
3F9F1
3FEAC
016A0
00021
3FC37
3EC8F
3E498
3FB1D
00887
3FF0B
3ECE9
00797
01E1D
3E72C
3F6D9
3FAA7
00399
3ECFD
00EB2
01C2B
006A3
00D99
00850
3F1C9
00A6F
004F7
3E9B0
010CA
3FBBE
3F979
3FEBF
3FC64
00589
3F73D
00B2C
3E2A6
3FC3B
3EC9C
3ECA3
3FBA5
3FF26
00069
3F2FB
3F713
005AA
3F1E2
3F42B
3FD86
00089
3E8C8
3FCEA
02010
3F2A2
3ECB5
3EFBD
01272
3E8C6
00CEB
3EA0C
3FB1A
000E8
01A8E
00588
00C44
3ECFE
00505
3D86B
00C18
3FDC4
0019D
3FFE0
3C092
00F4E
3FFBD
3F794
3FEBC
3FFE8
3F357
01460
0017B
3E1B0
3CE5F
3EAB4
00728
00B19
0255E
01DF4
3E402
01A78
019C9
00386
3F1A8
3D02B
02614
0006D
009E1
3FE26
3E93A
3F312
3F8CB
3FF49
3FB3F
3F3CE
3EF61
00969
3F354
3F925
3E93A
00929
008DE
3FC9B
3E614
3E4CE
3FD88
0272D
00BC9
3CE67
3FBC4
3F0CB
006C7
3EEAD
01B01
3E972
00D9C
00D5F
05B39
00594
0118C
3EECD
3F8A5
3F4C9
3E953
01648
3D769
00840
3DECB
00A9F
3F230
004C7
3F1E5
3CE68
0329E
3E621
3FAF3
3FB02
3D26B
003F3
3F220
3FB9E
3E92F
3E8A9
0012B
000F3
00083
3FCDC
3FDA6
008DA
00B16
0027A
009C0
00323
0010A
009A0
3EF97
3F913
3EA3B
3E84E
00519
3F387
3EF55
3F1D1
3FEB1
01467
3FA7E
3F65A
3EE2B
3F260
000BB
3EF50
00D80
00040
01AC2
3FA5C
3F14C
01210
00F7E
000E3
3DA13
3F7B6
00406
02304
3F3BA
3F1D7
3D4EC
3ECD6
3DEFE
00047
007F5
3F613
3FB5C
00B2A
00712
3E9E1
3E142
3DD76
00A44
3FB06
3E973
3F7F6
0011A
3E886
3EEB5
3F212
00683
3F65A
3FE27
00F80
3FE9F
00874
3CF6E
3FC5E
010B1
017E4
3FB4C
3F6BD
00485
0118E
3FADD
3F0D2
3D6F8
3E0FD
3FB96
3F62A
3F45F
3EA8B
3FF0C
3F2F4
01685
3CC3B
3F430
3E19D
00134
3DDBC
3FE8E
01ADB
01A04
02200
3CEA0
01C10
017FD
3F202
3EE30
3CF4E
01257
3ED5C
001E1
3F23B
3D92D
3F85A
3E38D
3F0AB
3E02E
3E594
3EB15
3E9B8
3F1F1
3ECB4
0020A
023A0
3E318
3F9F6
3EC52
3DD24
3EB40
3E829
00D8C
3FE66
3EE16
3E8A8
00E64
3F7C3
3F69B
003A0
3E4CB
00335
00A46
00B87
0080E
3F61B
0022D
3F6FA
3FCB6
3FB35
3F06C
3FCCF
006A6
00373
008B6
3EB1B
3F90F
3F414
3FBEE
3F0CF
00453
3FB4D
3FDDC
00549
00C10
3FE3A
0001D
3EFB9
3FFA0
3FC9B
00AFE
3EEDF
3F297
3EFAC
01850
3FE34
00A7B
3F9DA
3F159
3D15B
3F824
3F61B
00F91
01022
3D904
3FD86
00CD5
003FE
3EADD
01AD5
3B829
00A2D
3EA94
3BE99
3DBD5
3F050
0128B
00FC2
0099B
01FB5
3CDD9
0246B
00A47
003FE
3F6C9
3DCD6
00279
3F6B8
0227A
3FDA2
3D06C
00318
022AF
00609
3FEAE
3FCB6
00D57
3F448
01E8E
3F58C
3F6B4
000A3
00DEC
0193D
3F52C
3F927
00033
01639
00E74
3E169
3F8EC
3EAC1
008C0
007B0
0032B
3E774
01545
006B7
0493C
3FB9C
0121B
00641
3E030
3EC5C
3F436
01062
3E863
00B18
3DD53
007BC
00582
3F4B4
3EC6F
3DD7D
00688
3EC30
00340
3F98A
3DF2E
3FCCB
3FF63
000D5
3FE2B
3FF50
3FD27
00846
004F8
3F255
00095
00129
3FDB0
3FE80
00369
3FF04
00264
00499
3F1B0
3FE3D
3FD72
3E823
006A0
3EF62
3FAA1
3FD29
3F9FF
01026
00C3D
0081F
3E7BD
3F850
00EEB
003AF
3FF83
017BA
000F5
3FBAD
00189
3FC21
00BD9
3FDEE
004DE
00720
00FFB
3FFD6
3F9E9
3F6DE
3FE62
3F76A
00302
016CC
3FE2C
3FB7C
3E12F
3FAF6
3F587
00428
3EF91
3F6B2
003B8
00541
3F73E
3F901
3F9A9
0086C
01A5E
016A9
01229
004F2
000A5
3FB78
018D8
3F708
3FA58
3F97E
0141D
02AFA
3FCCD
3F704
009F7
3FEAA
3F7C6
3FB65
3F976
3F193
3E691
3F513
014C9
3F0C2
3F0EE
3F59B
01EBA
3F94A
3E722
3F05B
3FB63
3EB0E
00B84
00897
3FCCA
01B3D
3CA1C
01B43
0080C
3F6E9
3F7EA
3DE66
3FDFC
3F4C6
01396
3F47F
3D375
3EA99
3DABA
3E72E
3EDAD
3E7BE
3FC9C
3E576
3FB01
3F043
3F28A
01CDA
3E7E9
3FCEC
3DA7B
3DD0F
3FF04
00C49
01F66
01B29
01167
3FA92
007A9
3FD3C
01934
3F135
3F3C6
3F1F2
017FF
01A66
009EB
3F86F
00CE0
3F577
00938
01A57
01B21
001DE
3FB88
3FF01
003A6
3FE41
0058F
3FB63
00BDF
3F9B7
3FDD7
00A66
004B8
00FEE
00DBE
01517
0095D
002E5
00489
008BA
3FA1C
3F191
0036A
3F9CD
0209B
00413
000BE
004F8
3FB8D
3EBDE
3F76D
01E47
3EF73
00874
3D466
3F8B1
0053A
00F46
00623
3E7D1
00C76
3F818
3E0AC
00563
00CF4
3EC29
009AD
00F1C
00E8D
01DB3
3CD9D
016A8
025E1
3FDBB
001FD
3C6D5
011CB
3EF4D
01A87
3F963
3F02E
3F225
011B9
3FBAA
3FFF5
0015A
00215
0012B
3FA01
3F528
00325
0122D
3F163
01B38
3E463
3FAD9
3FFAF
02422
0274E
3F17A
3FCB8
3ECEE
02B54
006A5
01BF3
3EB74
00F8B
00A90
03C16
3F446
018DF
00D40
3F9F9
3EE34
0005F
00496
0086A
010A0
3F1EB
006D5
00F5F
3F89C
00BAB
3E46D
3F286
3EF99
3FBEC
00EEE
3F7DF
3FD4C
3FC7E
3F6B2
0176D
3FDD1
3FE8C
0018B
00487
002C7
011D9
3FCB8
3FA8D
001AA
001D7
0159A
002F6
00682
005B9
3FC6D
3F96D
3EBE1
01189
3F5F0
3F255
3F64B
000FC
011DE
003FA
005FF
3EA7F
0068E
00B7C
3F795
3F9BE
3F729
006DB
001D1
3EF0C
002D5
00543
3F930
3FE98
00D55
3F456
00282
3F4DD
3F8F8
3F5C4
3F8B0
3F9DC
001C2
00CD8
3F4BF
3E815
001B9
005C2
3EA00
3FFB0
3E839
0027C
00343
3F023
3FC69
00153
3EF0B
01107
00174
019C9
00AAD
3ECA6
0033B
00525
3FED6
008F6
00A4E
3E791
02A36
3E263
002D6
3F8D9
000AF
00ED7
3EAA5
3E8F1
3FE67
01055
3FCF2
00131
3DE6F
006B7
3FF6B
006B4
006BA
3EB01
3FF43
3FC56
3E694
0026C
008B2
00508
01A13
3CE28
01298
01B04
3F49B
3FF0D
3D413
3F93E
3F0E1
00EE4
3F706
3E7BF
00134
00918
002E8
3E9E4
3E672
003D3
3E7E3
3F761
3F62D
0018C
00DB8
00D65
3FCF7
3DCD3
0053F
00FF7
00746
3FF76
3F81C
3F7C4
3FD88
00758
3F97D
3F3FC
3F055
00185
3FB87
0012C
01309
3E6D3
00359
0026D
3FA11
3F47C
3FBA0
3F68A
3FEB0
3FCF6
3FD3B
3FE02
3F357
3FB47
3F155
3FACE
3F36A
3FB03
3FB28
3FD40
3FBA0
3F793
3FD23
3F6B5
3FE58
3FE28
3F9D5
3FDCB
3F7E7
3F949
3FC8E
00479
3FAF2
3F452
3FFB4
004AB
00EEA
01248
3DABC
3F836
3F6D8
0085F
3F364
00987
3C6C4
005E1
3F9FA
3E467
01323
3EDC8
3FD25
3EB2B
3EAE1
3F4A7
3EF31
3FECF
03204
3EAA4
01500
01CC8
3F8B6
01192
3E4A2
3E0E9
3F5E6
00E56
3FE26
3E322
3EE74
00929
3FC60
014A2
3E71A
3F4A4
00619
0093D
0054E
3EF52
0183E
3F1D6
3FF34
001A1
3FF81
3F02E
3FA20
00303
3E44A
3FE5D
3EB2B
007FE
3FCA7
0100D
00823
0004E
0165E
00C23
3FF66
004A2
3FEA6
00C87
3EF93
3F0A2
3FEFE
007D6
00FC6
3F2E2
0049E
00E6D
3F168
0121E
3E6DD
3EA5A
3F015
002AD
00969
3FBC2
3FE63
3FC54
001AE
3FEBB
00075
0005D
3FF72
3FF5C
3FF1E
3FF8F
3FEF8
3FEC0
3FDF6
3FF69
3FFA1
3FF93
00A3F
00EA5
008AD
001EA
3DCC6
00A46
3F63C
3FA1A
3FCF5
3F2C5
01169
0129F
3FDB8
3F3DE
0003C
008FC
3FC17
3F2C3
3F083
3FAF0
3FC56
3FF16
3FDA3
00193
3F9CC
3FE4F
0104F
3EAC4
3FB52
3FCBD
3FD49
3EA53
3F568
003F5
3F4B2
00BEB
0098C
3EFCB
005A7
00547
3F36A
0084D
3FB94
3EC64
3F31A
0012F
00183
3DFEE
00A94
00460
006F9
02478
3F980
3FB84
019C0
00721
002BA
3FDBD
0184B
3EE50
009C5
005AD
00E71
3D989
3EF79
00BED
3F412
3F728
3F1FB
3FE99
3F648
00D56
3E396
3FEA4
3FBFB
3FFD5
3F713
00087
3FCEA
00B9A
3EE19
3EF71
3F3D3
0060E
0210B
3E947
01797
017F7
3F35F
00B7C
3E4C8
3DF55
3F5BA
00EE4
3FE95
3E19D
01AEE
018C5
3F36C
00264
3CA66
015E5
3EBD0
3F97F
3D4E6
3F6A4
00A3B
00E70
00AD7
3E8C3
3FFAB
009AF
3FEDB
3F7E1
00107
3F8B6
3FC19
3FD24
3FE7B
3FC5D
3F6F3
3FB78
00A7E
3E6FD
3F750
3FCC4
3FDA9
3E945
3F9E7
3F4FF
00078
3F6C6
3FF10
3FB42
3FE22
3FEB1
3F407
3FB41
3EF9B
3F816
3F14E
3FB58
3FAFE
3FD2F
3FDBE
3FBEF
3F75B
3F8E7
3F6D2
0023C
000E8
00639
3F6E5
3FD3C
3F99A
3F9F5
3F61F
3FDEF
3FCF2
3FE0D
3FCF3
3F7AB
3F432
000F8
3E9A7
00570
3FB2B
007BF
3F10F
3F791
3FF0A
3CD16
3F378
3FB0F
3F288
3E0F0
3E2E3
3DF66
3F62C
3EECE
030F7
3EDB3
007B2
016B6
3F0B8
0143B
3DCA1
3C8E9
3F4CB
00666
3F4E1
3FE97
3EA93
00838
3F066
00290
00472
00970
00556
01449
0023E
00A71
3FFC2
3F099
00CE9
00EF0
003C0
0088A
3FB11
3FEB2
3F399
3FEE3
3FDFF
001FD
3FB76
006DA
00052
00331
006C3
00AB9
0022C
3FD2C
3FE4F
00A33
3F1F3
3F1E4
000AE
3F138
0052F
3F5DC
3FFC8
3FFF8
3EEC1
3FF9D
3E974
3EC4B
3ED11
3F915
3F6D6
3FA12
3FE54
3FBC3
001BB
3FEAE
00061
00084
3FFBC
3FF52
3FF1F
3FF85
3FF00
3FE33
3FDF6
3FF6C
3FF92
3FF94
004BF
00E41
3FF52
0021C
3EC2D
00416
3FF15
3FFAE
00017
3FA24
00DAF
006AC
0018C
003BC
0004B
3F8C0
3FB98
3FA02
3FB54
3FAB0
0008E
3FEAE
3FE6B
3FEAD
3FAB5
3FEFE
3F932
3FD51
3FA2E
3FE0F
3FB64
3FE62
3F435
3EFC6
3FCD7
3F940
010CB
3F539
00348
008EB
3EFB0
0038A
3E695
3EC74
3F5C9
00450
3FACF
3FA98
3EBAC
00262
3FBED
005AC
01DF9
00331
00ABA
0137C
3FF8B
0167D
3FDA6
3E935
0129B
01043
002EE
3F513
3E921
00145
3EB07
3F8E7
3F0EF
0017B
3FDAE
00670
3F5E3
3FCFF
3FE12
3E945
3F8DF
0024F
3F5E0
00116
3DF43
3E50C
3F92B
3EC48
02992
3EC5F
004F7
0120E
3EBF3
015B1
3DE4E
3CC0D
3F0E8
00923
3F318
3F836
3FF7F
00D6D
3FDA7
0030C
3D742
00134
3F987
3F483
3F666
3F1DF
00FFD
3FB43
3F7B6
3F99C
3F58F
3E647
3FBB0
3F94C
3FB18
3FA20
3FAB2
00938
3FEFC
004BC
3FABA
001CF
3FB62
3F9E4
3FB4D
00044
3FE30
3FE88
3F9EB
3F501
00078
3F6C6
3FF0D
3FB35
3FE36
3FEAD
3F400
3FB2A
3EF9B
3F81A
3F157
3FB65
3FB04
3FD1A
3FAAC
3F519
000BC
3F8C2
3FFE0
3FE17
3FE5D
3FF08
3F765
3FFA0
3F61D
3FAE8
3F52E
3FC82
3F9E6
3FF34
3F583
3F135
3F79C
00363
3EE37
3FD87
3FF2D
3F7D7
3EA9E
3F820
3EAE6
3F460
3F252
3FCC3
3F419
3FB28
3EFA9
3E466
3F3D6
3F06B
00298
3FD3A
3FDD3
00514
3F354
00562
3E942
3DC0C
3EC3D
3F576
3F4D4
002A3
3E7F3
3FF80
00401
00056
0036D
00156
3FC1D
0022E
3FFBF
3FCDB
3FDEE
3F097
000FC
3FA17
3FC66
00BCF
3F7F5
3FB37
3FE46
3FEB6
008B6
3FDF4
3F917
3FF48
00051
003F2
00319
00646
0017E
3FC92
3FE14
00A6A
3F71A
3F247
3FF58
3F1F3
3FFEE
3F4F8
3FECC
3FD85
3EDEA
3FC94
3E9AF
3F066
3EE32
3FABC
3F6E9
3FA48
3FE45
3FB96
001BC
3FEAE
00061
00094
3FFBC
3FF41
3FF20
3FF85
3FF03
3FDFF
3FDF6
3FF76
3FF8A
3FF95
3FC62
004FB
00C97
3FD9F
00045
3FF0A
3FD95
3FC54
001B2
3FC34
3FF1C
0083A
002B7
00080
0016B
3FF36
3FB9C
3F962
00187
3FADE
000A4
3FEA3
3FF43
3FF20
3FACC
3FD26
3F813
3FBF9
3F873
3FD58
3FC87
3FECC
3F33F
3F13B
00042
3F343
0037D
3FA92
3FDDE
00149
3F3BF
002EC
3ED50
3EDA9
3F0F0
3F92B
3FB29
3FC91
3FEE6
3FC35
002D9
005F2
3F88A
00306
0010D
3FFF1
00802
3F363
004DB
3FFA1
3FFA3
3F936
3FC20
003BC
3E384
3F51C
3FC43
3F7E3
3FF27
3F7BD
3FDD2
3F8C3
3F22C
3FC44
3F6B1
3F35D
3F555
3FB1E
3F378
0086C
3EAE1
3E3F2
3F6C5
3EFAE
00523
3F8F0
3FDE0
00344
3EC12
0023B
3E66D
3DAF5
3E8BA
3F854
3EF47
3FFDC
3F3CC
0008D
001CE
00089
3FC7D
3F7DC
3FDE7
3F83A
3F458
3F923
3F722
007CC
3FA63
3FFCD
3F8C5
3FC09
3FB4F
3F6FC
001E6
3F91A
00020
3FE94
00000
3FEC9
3F90A
3FCF2
3F5F9
3F995
3F697
3FCE7
3FBD1
3FDD4
3F9EB
3F501
00078
3F6C6
3FF0E
3FB36
3FE36
3FEAD
3F400
3FB29
3EF9A
3F819
3F157
3FB64
3FB04
3FD1B
3FA36
3F62C
000C6
3F8FE
00047
3FE1A
3FFB0
3FF10
3F84D
3FC42
3F45C
3F8E7
3F580
3FC17
3FBFF
3FDDF
3E3FD
3F224
000C7
3F242
3FE49
3FB58
3FCFC
3FDEA
3F332
3F214
3EC76
3E37E
3F39A
3FB0C
3F7FE
00531
3FC17
3E662
3F20F
3F898
3F0C0
3FB46
3FF13
3FD12
3EEA1
3F4FF
3EB1B
3F049
3EC27
3F945
3F53A
0076D
3F476
3FC30
3FD91
3FE38
3FF3E
00380
00140
3FD85
3FF68
3F8A1
3FADF
3FC4D
3FD38
000BE
3FC79
009D9
3FF07
3FD8B
3FED3
3FE9D
007CC
001E0
003C5
3FCEC
3FF74
3FCDD
00174
00641
3FB84
00102
3FFAC
00592
3FA58
3F3E2
3FE26
3F1D5
3FC8A
3F5BC
3FE91
3FD25
3ED7D
3FB0E
3E9A2
3F644
3ED31
3FB33
3F857
3F94F
3FE46
3FB92
001B9
3FEAF
00060
00094
3FFBC
3FF39
3FF20
3FF85
3FF04
3FE22
3FDF6
3FF78
3FF89
3FF95
3FBD2
001DC
00817
3F6CC
00696
0001F
3FF9B
3FD9C
3FEF3
3FEFE
3FD0F
0023C
3FEC8
3FFEC
3FECF
3FBAF
3FBA4
3FB12
00145
3FADE
00074
00964
0090C
3FDEA
3FEDC
3EC97
3FAD6
3FA9E
3FA51
006F5
3FC28
005A2
3F3FE
3F07C
3FC5F
3F2BD
3F8ED
0023A
003D9
3F7BD
3F666
3ECFB
3F5E3
3ED7B
3F034
00143
3F499
0084A
00D58
001FA
001D9
006ED
3F03A
0000A
3FE7E
3F33D
007F1
3F155
004B1
00E59
0027A
3FC80
001A3
3FF04
3EB30
3F48F
3FC5C
3F0BC
3FF23
3F640
3FFFE
3F9D5
3F266
3FDC4
3F230
3FE82
3EE31
3FF01
3F5F3
0035C
3FA91
3E7BA
3F52F
3F474
3EFFE
3F5D5
3FDFF
3FA8B
3EA4A
3F862
3E737
3F12A
3E883
3F819
3F387
000E3
3ED6E
000A3
00924
3F581
00463
3F820
3FC31
3FCD6
3FB27
3FC2A
3F5BB
3F9D6
3F839
3FC61
3FDA9
3FD23
3FB30
3F6F2
001F1
3F89C
0002C
3FE8F
00007
3FECB
3F91A
3FD12
3F5EF
3F9A1
3F69B
3FCEF
3FBD8
3FDD8
3F9EB
3F50C
00080
3F6C6
3FF0C
3FB2D
3FE31
3FEB3
3F400
3FB2B
3EF98
3F814
3F14C
3FB65
3FB09
3FD24
3FAA6
3F78F
00136
3F8C8
3FF3C
004FC
008EF
3F9E3
3FBC0
3F0D4
3FC1E
3F459
3F464
003A9
3F89E
004B2
3F260
3F206
00043
3EF43
3FE6B
005FA
00A5B
3F255
3F880
3F0C7
3FD6B
3F32C
3ECE0
009DD
3F46B
0089E
3FF15
3EF67
3F990
3F88A
3FA98
3F582
3FC84
000D8
3ED3B
00450
3EA0A
3F531
3ECD0
3F94F
3FC04
3FC8D
3E702
3FCEE
3FB1B
3FBB8
000DB
00EA2
00917
3F9A6
007F1
3E22C
00DFE
3E9FA
00601
007BA
3F7B7
020B0
3E80F
3FEEA
00039
3FC8A
00279
01129
00A44
3FB4D
01000
3DC9E
00FE5
3EB26
009B7
0092E
3FA5F
01E3E
3FA5C
3F3E0
3FE23
3F1CF
3FC93
3F5BF
3FE97
3FD24
3ED7D
3FB0B
3E9A2
3F644
3ED31
3FB32
3F857
3F94F
3FE5C
3FC5F
001A9
3FEB0
00068
00073
3FFB8
3FF6E
3FF1E
3FF85
3FEFC
3FF0D
3FDF2
3FF5D
3FFC3
3FF94
3F241
3FE69
000E3
3F769
003F3
004C5
00430
3FD75
0033E
3F2CD
003D5
3F866
00345
00203
3FBC7
00C20
3F829
3FAD8
0029E
3FAE5
001E4
3FF04
3FEE3
3FB4E
3FAF7
3FA4E
0001A
3F3BC
3FB5D
3FD42
3FA55
00350
3F16A
3F371
3FEFF
3F43B
3FE36
3FAA4
3FCF0
3FC3F
3F167
3F78D
3EF52
3F102
3F53A
3FABD
3F99C
3FF8F
3FFC5
00080
0018E
3FED3
001EF
00E94
00761
3F8E2
0066C
3EEDC
0105A
3EFC9
000E7
005F6
3F9F4
00D9D
3E1F0
3F4ED
3FC7B
3F0CE
3FD83
00476
009D8
3F69C
3FACA
3E3D4
3FE97
3EC9C
3F9D3
00791
3F436
0148E
3F905
3EB3D
3F77A
3F2AA
3F84B
3F43C
3FDF4
3FD44
3EA8A
00068
3E96E
3EEE4
3E9A3
3F92E
3F5FB
00012
3EB5E
3F763
00036
3EF5D
00227
006AB
007C7
3F65F
3FF11
3EF1A
00131
3F1F7
3F5B2
0082E
3F478
00EF8
3FB3C
3FA99
00359
3F8A0
00141
00CE4
00967
3F755
3FF31
3E88F
00662
3EE46
3F88A
0078A
3F6FC
00935
016C3
0198E
3D0EB
01AB6
3DC62
00166
00055
004C8
02C7D
030F5
3E620
00765
00FFE
00353
0379D
3F33E
3F1C9
3F70C
000C4
3FA00
0009E
0010F
3FCC1
3FF76
3FAEF
3F4FC
3F795
3EFBA
3FC4E
3F92C
00169
004E5
3E265
3868F
045AA
3D98B
3A7C3
3D023
39964
0174A
3186E
04ECA
3F649
3A20A
0079C
398B8
3BD6A
11011
3EED2
3B2DF
03452
3E82F
3CC52
3D457
3C2F3
00C40
358FE
03930
3F056
3BF0F
3F113
3B6F7
3D6DE
09EBC
0B9C6
3BDB4
3E362
3E170
3E7D1
0CAF9
3DD47
052DD
0168E
04774
3E77C
0468A
051DD
03553
0F08F
03AF5
3E095
00A72
0029A
3FB27
00A87
3D756
3F941
3EEF4
00EE5
3F61C
3FB32
01113
00B24
008EA
3D6A2
03240
00B41
3E661
3C6E9
00C0D
3C320
3F1F3
3F79F
3FAF0
3EFC4
043FF
3DDB8
3F347
3F0F7
005CD
01BC7
00742
3E6AD
003C5
0071F
01691
001FA
0407B
000DB
3C7B8
011E8
00E95
3E922
3E5A9
02337
01602
010AD
3DC96
0334F
3EC57
3F4BD
3F36A
001E1
04636
3FB38
01CE6
016CE
00A6C
000FC
02173
01A07
0127D
04BC3
00794
04F8B
3C3BF
3C96F
3CA17
00F61
01BE9
3C2F2
3DE2B
3B5F1
3F498
02A28
01726
03194
025E9
3D916
03F0D
01ACB
3CD53
00A74
3D1EB
00352
02583
3CF9E
000D8
3B09B
0030F
02015
3ED13
00C41
3E943
00800
047AB
05135
3EE81
3D203
000C3
3CEA6
03ABE
3B3B1
02930
3E6DC
06480
3FD1C
01836
02F6B
035C3
041BE
053C8
06FFD
3C5C8
3F158
3CD8C
000AE
09C07
3E2D8
02E57
3F722
01330
3F5D0
00D98
03D80
017DB
09C73
023C6
3ED46
0023B
010DF
3FDBC
3FC22
3C607
3EA90
3F4EE
3C498
01E27
3F505
3DC01
004D4
3F31C
3CB4E
02E04
3E379
3F4F7
0061F
3F138
3F904
001BE
3F8AC
3FA7A
3ECC1
3EF01
3F9A4
3EA87
3FE23
3FB1F
3F460
01E99
3FC4C
00AC8
3F8DD
3F79C
3FEF3
00A7C
3EAF8
3F579
3FE9D
00623
3F884
0009C
3FEFB
007A2
00113
00DDE
3F15C
3E739
3C2FA
3B7D1
3F045
045F9
03F9B
3CA38
02B57
3970D
007C3
00269
3CC82
00F87
3EFBD
3CFF5
3C29E
3E026
014BE
3DBE9
3F69E
371F4
3F781
3D05C
3E3CC
030EF
02D37
0292A
3E10F
000BB
39C58
059E2
05089
07C4B
3CD20
0218B
04C4B
0126A
02EF2
0212A
04152
02792
008CD
0872B
00A8D
057A3
03534
39361
0293F
3F6BE
003CA
03926
03183
3E825
3D50D
02867
3A0E4
3F18E
003E1
3B225
0512D
3D681
3DC0A
0441C
3D71C
01789
3FFD5
3BD37
3F753
3EC47
3F1E1
3E0D8
3FC4B
02298
3FA49
01000
3DF9F
00B2C
3FD33
03BCD
00A19
3EEA5
3EFC1
3AF4A
00ECB
3FCDD
005E5
3C3B6
3DD49
3C8F8
0342C
3C7DE
072C6
0064C
3F26F
023F6
02B7B
3F097
3D1BA
02240
3E7EB
3ADEE
0163B
06466
047A3
02355
3F303
01ACE
02A84
3D45C
0528D
0683E
3EAD7
3E565
3C044
3ED0C
3C191
06210
03CAA
3CC93
003DB
3E4D0
011AA
019F4
3E201
04F68
002F0
3F2F7
00A2D
00054
3BD4A
3C8CC
3E492
041CC
0152B
3C7E9
03129
000CC
0058E
000EC
3F27C
03FE9
03AA3
3DBCF
01341
038FC
3B0BD
06BEC
012B6
011C4
03F3C
04C8E
3EA36
3BF63
3FD33
3F09D
05B41
00513
004B4
00FF1
01C3B
01AD5
3D401
0096A
02F04
3EE55
3F778
01D62
3B70E
3DA5D
3FC84
3EAD6
3F60E
01899
3CEB7
3EC94
013AF
3C2CB
3CDF1
0076D
007C1
3D58B
3F9C5
3F8DD
3D9F6
3F856
3DAE6
00EBB
3F43F
3F3A0
00832
016B2
0364F
3DAAD
002AB
3B97C
3E5BA
02C5B
3E737
00CB8
3E7EB
0344C
01795
3FC29
01CFC
3FB23
05179
05768
0065E
3CF32
01C39
020A3
016C0
3D95D
3C9CC
002BF
3A948
3FA79
3F808
39A5C
04493
3C580
3F065
03AA2
026CC
3F537
3C2AD
3EF85
3EE9D
06392
0182C
3D69C
06518
01C3E
0051E
022F3
00423
0580D
06DAD
3AC48
3DA7E
3E0C2
3ECE4
3F226
01030
3B329
01286
00900
3EE63
04614
0043D
03ADE
3C4A1
0270D
3BEE5
025C2
0313C
3E2AD
3A95E
3A6CA
3BA18
04121
0225B
3E8F4
01480
3C9B4
3D9CA
02556
3FBA7
01620
042FD
02F3A
3F428
00A61
0023D
3F880
3D9FC
3FD23
3F026
3CE49
3C078
03920
007FF
00D89
02229
3F7F5
3F259
03DE6
3F25C
0328E
3D996
3E84B
006BD
3DB11
01AAD
3CC0B
0148A
016A1
00A22
04FAB
3A4E3
00E07
3DD63
3E170
026E9
01AA6
3DAAC
05393
01740
3DF24
3E984
0386E
01D0C
3ED1F
01757
00A57
06901
3C80F
00DA4
3E71F
3EB19
3D581
008AB
0022D
0224E
3EBA8
013C3
00637
039C0
011C0
3EC20
02B7F
3E3EB
3DF0B
033FF
004EB
01E76
0126E
3DE61
033FE
3F79C
00EFF
01153
034EC
3EFDB
3BA84
3F10A
01669
05BD7
3FD75
3FF9A
3EEBF
3E377
3E8AF
008CB
00E92
023D0
3D14C
3FA1D
02A44
0774F
3E6BE
3FEAE
3B8FD
01DE0
3A7AD
05E40
3FC1F
3E0C8
3CF21
3D29E
3DCB5
3BC43
03D4C
01E97
00C0D
3D16B
3B6E7
3F4E8
00EC7
00A7A
02D1A
3C4D7
035B0
3DCB3
00959
3DE9D
3DBD8
3FA2E
004B4
027EA
3DF6A
04146
3F271
3F325
01231
0007F
00560
029E1
00952
0605B
0495E
3D4FF
0873B
01C25
0367A
3FE17
04CF8
3F65A
3EB60
3EB72
01D4F
02C79
3FBA5
01408
3BBDE
07832
02F2D
3A58D
0487E
01677
038FB
3FBAB
03FC8
00465
3DE4C
00B0B
01866
01285
02536
01E8D
3CA56
018A5
3B2E3
3CBDA
3EE32
023F1
027B4
012D1
3E29E
3ED76
02C03
3F6CB
3E034
0357F
00B39
03250
01E01
3C753
3F699
02A13
0354A
017D8
3CDB2
00A61
3F024
03C11
0331C
00A46
3DCF1
0045E
3F486
016A0
03A46
00FCD
3E23A
3E7E3
018E1
009EB
3F42D
001DE
015EC
0258C
3DFA9
3F6F9
3D939
035DD
3DE75
018C2
00F5A
3CBA1
3F07A
3D4C4
3B56F
3FC5F
00550
0233D
3B4E4
05900
3F150
3EB1B
02186
3E3DF
019DA
0273D
3F723
00AF2
00A14
3F9FB
3ECF9
3F6DE
3D57C
00672
3E289
3ED0C
04F23
00A85
3FE3F
3DDC7
0057E
3DF6A
01085
008DD
3D0A9
3FE94
3A4AE
3B7F5
052EA
04697
3DB52
3CC4B
00FBF
3D94B
03D34
00099
05AEE
3F4A0
029FF
3EF0F
02F24
00E0B
3ED63
3B5AA
3E36A
3F7D1
3DB54
3EAEF
3FA57
3F71A
00739
00BC2
00553
3CDCD
01A24
3D607
02379
3FD36
009D3
3E32F
3A6BF
3F0CE
013B7
0010B
0153F
3FA1A
02E2E
3F0A2
01442
3DA85
3E7F0
06291
02BCA
3D55A
3F3BA
3DAA8
016B7
01017
3E8BC
3EE0B
3BE35
3FBEB
013A3
3FB05
0199D
3E35E
3FE4E
02BCD
0015F
013EE
01223
3FF0F
006B7
02F6F
00BEF
01E22
02D9E
3FBB1
02554
00569
025F6
03638
3EE9C
3F8CD
0061D
00D99
3D6AA
3B0C3
3FF49
0007D
00582
3B259
3ADE4
01730
000EB
00A62
01DBE
3C47B
00AA3
3FB46
3EA1F
011ED
0045F
03A89
00362
01EA7
03FE2
055D2
3C886
3F5D3
3E9BB
3C138
3BFFD
0112B
3D956
3A0BF
3C9B7
3C6EF
3D7F7
3EBEC
00768
01364
009CB
3EB45
3FBFD
00CDA
3B3E0
3F6AB
00A95
3DD26
034A1
01BB3
3E339
3D456
00C61
00481
0242B
3FFF3
01900
01055
3FEBB
01EF6
02618
01DE2
0079C
02908
0060E
05EAB
000CD
3F385
01B87
001AF
0478E
3C141
01EBC
3DD77
3D393
01601
03659
01FB7
3DEDC
02CDE
3CEA4
0600B
00348
3F16C
00B45
0106E
01DF2
3E743
04378
3D953
3EE24
3EFAB
05012
3E939
01661
3F658
3F947
019F3
3BA6F
00681
01D47
01EC2
01033
02F59
00BB0
3FC13
043F5
0086B
00593
3E11C
0134C
01E86
0225E
3E4C8
00AAB
3E6E6
3FEF3
0016F
01696
01B20
00AEC
01567
3D4E2
02E79
0048F
00CDC
3DAFC
00B27
01944
00E0E
0331B
02044
3EF67
3DFE9
0373F
00421
3DDC6
3C6B5
3EC4E
3E94F
3D0C6
02546
003EF
3E959
3EFD9
3F57B
3E218
3F2C3
3C8B7
3E540
0152D
02070
021B2
02416
3F6AE
013AD
0026B
3D013
02919
02973
0128A
00A59
3DDD7
005C5
02E6A
00460
3DE39
00D2D
3DB23
0055B
03F60
00DEA
3BE96
3EA38
00A5B
0174D
011B5
3C467
3FF58
3F62D
3E40D
3F0C9
3FE5D
05183
0160C
3DE7A
048F5
3B906
3FBBB
002E7
00A8B
3DE9D
00B71
3BC5E
03989
0139D
0071A
3C898
3E709
3F5BF
0028F
0245A
02A6E
000C9
3EAB6
3F10F
3E899
3F2E5
3F886
003E3
04261
025F2
3F95C
0332C
3D640
0182B
01BB1
3F741
030DD
3FBEE
0106A
3E7A1
01FED
014CE
3F7D2
0310B
05507
3E15D
3B6EF
3B859
0107A
0063B
00B34
3E47B
3EFB4
3FEA8
02B40
00B77
01674
3E9BE
3FB1C
01CBB
3E6C6
01E6A
00048
00C56
008C7
00E1E
3CF9C
3E0A6
03A5A
00B2C
01FE2
001E8
3FD85
019B7
02420
3FD56
0436B
3F70D
3F04F
00C1D
00550
3E190
01AD1
3DC77
3DBCC
00CAD
3FC50
00DC2
00D09
3BE0E
3F7F2
03A64
3D1A0
3E4A9
3FEFE
3FA85
03981
023D4
00E86
00CA6
3EF61
00139
3EEDA
3BEF4
3CB08
01CCD
3D65A
3D351
3B4F4
3C9A6
3B824
03B07
3F95D
035B2
016C8
3D16D
01201
3E9A3
39A3D
034EE
3D660
3D927
000F6
02E60
3ECDA
3F825
014A2
013FE
3FFE6
3DD50
3FAF8
3F6CE
028A3
00856
01625
3F4A6
3FAA5
00A5E
3F55A
05CD2
3DE47
3F5B6
01C11
3FDC3
01572
3EDE1
3E8A4
3EE74
3EFAF
0241F
049DF
00382
3E093
01EB2
00443
06038
0149E
3F753
3D91E
01004
03688
0291A
00B95
3D80F
3FB27
00222
07317
3E8A6
00FAF
0029B
3D661
3D2A4
39F72
3FE75
3F1E1
003F9
018C5
0462E
3EF9B
3DFFD
01866
0049C
3DA03
3EE90
0277F
00ACE
02E67
02AB3
02DE4
02165
3FC8D
00321
00ACA
005FE
3DC48
02C6C
00FC6
01527
01153
00EC7
00193
01DA3
002D8
3BA90
013C7
028D0
3FACB
3E8C2
01E5A
03A6D
3DA66
00949
3D9A2
3F719
3E3E0
3FC07
01F51
3F1A6
3CEF1
3E94C
3CB4C
001DF
00E34
017F6
011EE
0450B
0270D
0006E
0158F
3F833
3FF24
3CB01
03329
02251
3E300
010D1
3F9DF
00B47
0355B
3EEB5
3D75F
3E636
01EEE
01348
0140D
3EE91
3CA35
0053D
3ECF4
016D9
3F2A2
3E3AE
019E9
3FD43
3E7CD
025B0
3D3CA
027F4
01377
01384
3F316
3C830
3BAF2
3D229
3C7DA
001E3
3FA31
3B90C
0612F
00C22
01618
3FF53
3D67A
3BEC7
00E84
02674
3FB00
3E7D4
3E352
3F038
3D16C
3F4EE
013C7
01404
02E7A
02323
3EE28
3F971
3DAB2
02FB9
3F85A
3F6F4
0215C
3D135
01B96
3D5DA
01F46
00788
027AD
00F8E
06054
03ED3
3F124
3C916
3E704
00728
3D5C5
010A7
3E8EA
3D551
022CE
3EA33
015A3
00288
004BA
01C6F
3F140
02093
0080E
3EAB8
3D638
3EDD2
0015B
3E3DB
0167C
3D5FE
009F3
3EA3D
01586
00DB9
014E8
3D5E4
06411
00738
02685
3FE56
00BA7
3B22C
02AE2
02B59
3CCF7
00959
3CB9B
3EB7E
00DEA
3D64D
3E69B
02ACE
3A70F
3CB3D
3E5EC
3D89B
03C8E
3FB8E
3E087
3E611
3D567
3F11F
00C45
00555
00A01
02A48
3FFCF
3D71F
3CE6E
3F1FF
3E6F1
0127E
013BC
3FC58
3ED7A
3FB19
3F334
02480
3D050
029A8
3D51B
0069C
3F5FB
0334A
3D8DD
3FC6F
3EE7D
011F4
00441
00D74
3E6F7
3ED68
00DF0
010BF
00FF4
3E1CC
3EDD7
00A7F
3FE1A
08A18
3DFFD
3FA4F
3FC18
019BA
021CF
01479
3DE2E
3F8C5
3E7B6
01AD7
03FFF
00142
3D473
00B12
3F7E0
05A15
04C28
01B51
3D7A9
3EE82
3F6FA
3FFF6
3EEA2
3B7FF
02819
00267
0491D
02096
3FFEE
0136C
3F743
3D25C
3B122
3FA35
00776
3E4AD
0443F
03CC7
01291
3BF57
01EB7
0171E
3E0F4
01A60
02EF1
3EBA2
01E8D
018B8
01CB2
019A2
00FE4
3FD48
3ED5C
00B02
3D7D9
02754
04C21
000A7
01172
3F6B6
3F7D6
0205D
3EBDF
3F6EA
03454
02803
00BB9
3DA48
006E6
3FD16
3DC13
02605
3EE11
3E94C
00121
3C87F
02FC6
0013C
3D0D8
027EA
3D778
00293
3E441
0177F
00CB1
009BC
007F3
3D986
031E6
3FF9C
0066A
3D74A
3F83B
005D9
01582
00DF8
3E94D
0085E
3D7A5
3D8CD
01601
0063D
3F105
3ECE7
000D1
00AC6
3D7B3
0243D
00C62
0058B
01665
3E134
0304B
009DF
3F132
3DF31
3C504
01FF2
3F86A
3EFF4
3CEDA
3C898
3DC4B
3AD3D
3E41D
3E7A9
3FF74
3BEC5
023BB
00B8F
3C677
3FBCB
3E48D
3D545
00ED9
05D91
3F0E2
3C74A
003BE
3BCAD
3F0FA
3FA65
00C9C
0129A
3F25E
3FFE4
3EEA8
0093F
3CE07
028F3
00608
3F507
01817
3F15F
03321
3EADD
011D3
01427
3FFE1
013F8
034E3
036E5
001D5
00367
3ECF1
3EE05
3EC88
01657
01544
3F699
01E88
3C57B
018B3
00129
0098A
036DC
3F700
3E500
3F91A
3E273
00193
00675
3F4F5
3CF74
3E2A2
3EDA0
025AA
3BEC0
00FE3
017F8
3FA9D
3F487
0191F
048F1
01E3D
0231D
3DD44
3CB00
00760
0268C
02AD2
0236E
3E540
3FCAC
3DA69
3F773
0097A
3EED8
3F034
3C9A4
3E9B8
004B7
05347
027F4
3D241
3E826
3EEBD
3FD23
0077E
03ECE
01ADD
00E62
3E122
3FE29
3F200
004A8
008C4
03BC6
0315C
030A6
01BC6
01B43
02C80
3E541
3D6D1
034A0
3DFCB
02FC4
01E03
0495B
3E195
3D9D7
3F820
3FA40
3FCD7
3F896
010A6
3D3A9
3D44B
00C1F
01F3E
3E47E
3DA27
000B7
0038E
06A17
3EA46
3E35E
3DBEB
03C1A
01B88
01F68
3FB0F
3B32C
01C67
00D49
0308A
02A50
001A9
0070E
3F05F
00B0E
03F84
0379D
3F628
00869
3DED8
002D7
0213E
3D960
3D7A1
3E287
0325D
3BC5D
3FAB0
3FCFA
3D93D
3D80D
3D0FA
3ECCA
0188D
0173E
03FD0
009D0
006C2
3F5BD
01B5C
029AC
3E4B5
01E60
00FC1
008E3
02BA4
3EF6C
00563
0388E
3F5EA
3FD59
3CF0D
3DB16
00375
0044A
3F8AC
3C632
00788
3EA18
3EB12
0195D
0019C
3EDEE
00499
0258F
000AC
3FA20
00B4A
3E768
3D927
032AA
035FB
017F7
013BF
3EDF3
026E4
00510
019B1
02857
3DC6F
3DB0D
01343
3F709
3FC26
02D67
3E87E
3CCB6
3E6C5
00E07
005D4
3EED2
3EEA6
00CC3
00085
3E2EF
3DC9B
3FD9A
3E1E9
01D56
02527
024E8
3FA59
00C5B
004A5
3D5E9
3B710
3FDE1
00435
0121F
00D96
3CC71
00F10
3F77D
00D73
0165E
3F36C
3D5E4
00543
02E70
3E172
3FB21
3D87A
3E7D1
3EFFE
00539
001B2
3B556
01408
01E70
3D62A
0217F
3EA99
00399
3FD66
0359B
002EE
3DE12
3DF40
3FB5A
002BC
010C0
3E31E
0139A
01F1F
3F7FA
3ED6B
3EBD8
3F9C4
0077D
01166
3E8B0
0240E
3DE92
0186A
3E87D
01DF5
0156E
3F1FE
00BD8
03D66
03063
3F107
01065
3BBD9
3F3FF
0138F
0064E
0178A
3FD29
02680
3CAA8
02A67
3F602
3E03E
002D3
3F757
3DFAF
3ED27
3F7BF
3F43B
01120
0001C
3F476
3E3CB
3FCD2
3F622
3F963
0129B
3F53D
0108F
3CA6B
02B86
0491B
00BEE
03436
3C756
3F8AF
3CBCF
05E60
00784
01B00
3EE92
01962
3F802
3F8C2
3F21F
3DB7C
0159B
3EB00
3ECD1
029C1
024D8
0051F
3DCC3
3C155
3FFF1
3DDB9
3D265
03094
00746
3EA26
3F72F
01EE0
00131
3FE16
00E94
3F599
00694
3E595
0119A
0279F
3F8C2
0015B
3E344
032D4
3E434
0311C
00C59
02687
001FE
3E17F
3F85C
005F9
01997
004D1
3F8F0
3DD4F
3CDD8
0001B
3F2C6
01191
3D38D
00ED2
3F2D8
02E4F
3F241
00035
00AD1
01154
3EE3E
018F7
03C79
3A5B2
0203B
00F80
00D39
020F4
00A30
00120
015B5
02144
03D6F
01DD8
0227C
010A5
3DF0A
3F64F
04469
3B0CA
00777
3FE58
005A4
3BF6B
3FDE2
3E021
3EAEA
3D8DE
3A624
3F21F
01BAF
3F03E
3FD14
3FF79
017BD
00693
0281B
01E3F
3D9BB
029BE
004EC
00076
019BB
001A0
01704
009C5
003A7
3F413
3C9B2
003BD
3EA96
3F4BE
3EC7F
00164
01988
3FF83
005BB
00F02
005AB
017D4
00FEA
02812
3F2C1
00E35
00D3A
3EF06
3F49C
04AD8
03D17
3F9DE
02366
0001A
03120
02964
01C6B
0403B
3FF72
3C5B3
3F4E4
3F8B8
3F534
00553
00643
3C2B8
3DE7F
3D580
011F0
3F93C
3DD1C
01532
3F608
3CCCD
3DD3E
00C92
3F9D8
01F87
0153A
01847
00D36
0003A
01BAC
3FA77
3C9FD
0136B
00ECB
3F1BC
3F0E6
015D3
3C82D
00BC4
3B8B3
3CFB1
3DBD6
3EA73
3F938
0147C
3CE26
3E1A3
02BE8
3C082
3DABB
3E7FD
020EC
3B815
00CA7
015D4
3D62E
02D9A
3DA70
3F163
3F229
02629
0282F
3E149
3EF29
3C606
02E83
3E448
3BE05
02036
3F276
3A4FC
0080F
3E199
3F0A7
0204D
0005C
00545
005C1
3DDC6
01F10
3D88E
00A28
0033B
3EC96
01173
023AC
01417
3FB4C
0000F
3EC9C
3FE77
00A5E
02778
02708
022D0
02910
3C1F0
04463
0052F
3F365
014DA
3F31F
3EF61
3E8F9
3FEE4
026AF
009EA
3ED30
3D562
3F8BA
3F37F
3FFD0
01623
0077B
005F2
01FF4
3D8EF
3EA75
01360
3E1E1
016EA
3BF9C
002CE
3DBFA
02F41
046E5
0062A
0174F
000BA
025CD
02EB4
3F930
3A957
001A4
017E5
3FCC5
026AA
01165
3FB6A
3E4E6
0281C
3DF94
3D925
3A7BD
00BB3
00405
021DD
000E5
04CA7
3CC4F
3C346
3C6EB
3F567
03334
3D94E
009DE
3EA64
3FE1E
3FE33
02C42
01301
3F265
005D8
0597C
019F4
0146B
00361
3E71C
00037
01E2C
00F78
3EABA
3D32C
3D0DE
3F710
3EB20
0067B
3EFE6
00782
3F242
3EEB3
0014C
00131
01711
03C9C
3E75D
3F436
04656
3D547
3F67C
00064
3F441
0054B
02D43
3EB83
3DDA7
01CDD
3FC2E
3F6EB
3FE3C
01A93
3EC09
3EFB0
031AD
3C035
3CA90
00641
012A4
3B1DF
0161B
3DEA3
3E1DA
3D62E
3BC29
3DDE2
01542
012A3
018D1
01433
3F9A3
0252A
02F26
00F67
3FC21
04569
003F5
006D3
05154
3EDBD
00D7B
0046E
3D9A5
0062B
3E739
017D8
3EAFD
3D6F1
3E3DC
3E763
002AB
00ADC
013DF
3EF6F
00E44
01CA1
011DA
3F49F
00C84
3DD74
3E32D
005AB
3F1CA
028B1
03526
0116C
036DB
3F545
0293B
01CDF
01869
011EA
3F30B
3E3D9
3F559
00579
3E64A
0188F
3F2FF
3D75B
3D853
3D4A6
3E4C2
3DF85
3DA39
006E8
3E727
3D308
3C0A8
3EA22
3E46D
01E62
02BDF
3FCBA
0266D
3EE77
02E25
3CDF3
3BD61
03A06
007EB
3FF57
02D48
01AE4
3CC40
01ED6
0098B
3C981
3DB53
3FCD6
3EBFA
01300
3BBE7
3FDC1
022CB
3C6D3
3EEB3
3E3C8
01C67
3D5AB
3FB11
00C91
00341
012FF
3BF4C
00595
00716
0442E
3FB94
3CD1B
3EBAA
3E442
0031D
02243
3E1BD
0424D
01A18
3DF0A
3FB64
01650
3FE0F
010DD
0233F
3ED3A
00C79
3E8A2
01454
3E9B1
031B5
005E3
3F6ED
3EC6F
028E2
01E0F
017EA
3F626
3F39E
016DB
3EAF7
02105
02466
3FAD9
03B4E
3F0EF
04FB1
3FC49
3D23F
01B86
3E6E3
3DEF3
3FB27
3E359
0057C
004EA
3F8DF
3E26B
3DE0F
3FF2D
009C3
01065
01413
00146
01C17
3D894
00F54
025F0
3D102
015F2
3C98C
006DB
3DC2F
04488
03544
3E5B2
02256
3EF35
032CA
00931
3ECBA
3BA0B
3DFD4
036B3
3F16F
00F8F
3EA06
3DB15
3B0CD
00FDF
00815
027A5
3C9D4
3E1EC
3E5E6
3F834
04440
0451A
3EE6E
003A3
002D8
3EADA
012D0
3D6E6
00087
00E02
3F464
3F896
00CE0
3DBAD
3EDC0
01004
02E0E
01C6C
3FC7E
3F87D
3F47D
00BD0
00BD7
00AD9
01265
3D5E0
3D17F
3EAAD
3EE17
3EBE8
3F047
012C1
3F954
3D1FD
02EB2
013D3
3FAB5
051E2
3D882
00AD7
04338
3EA58
02C55
3E58E
3E1C3
3EFBF
00E2E
3F454
3C98B
3E54D
00566
00AE1
00F82
0133B
0009C
3F31E
02763
009C8
3EFC1
3F5DF
3F810
3DFD5
02423
0055E
3FA99
3D50B
3D1F0
00D1F
0293D
01141
003AB
3E092
0094C
035D4
012CA
019A0
3D8D2
00B12
0141B
0198D
01A85
3F311
007FC
3E9DC
3DDFE
00E45
3DC8D
00774
000D0
3B692
3F7D6
3E1CD
00776
009ED
3F5A8
3EF72
00E2A
00448
01D5B
016A5
006C2
3E2A8
00A2F
005B8
3E8D2
022F5
03586
005DE
041A0
3F422
03C95
3F61A
3F45A
02820
3F00B
3E69C
3DEBE
00574
01F67
006A6
00748
3C4F3
3D9D3
3D85B
3E984
3E8E3
3F67A
01474
3F605
3E046
3C742
0004F
01FF1
022C5
3FD62
022B0
012BE
00D4C
3FAF2
3EA60
3E840
3F55E
3FF66
3FC00
3C287
03FDF
3BF25
3E9F5
3ED69
3D4F7
0037B
3FC5B
3DBBE
01E6E
3B382
3F4BF
020E3
3CE6D
3F17F
01456
001FB
00FDF
3E287
3F663
01300
3EBB2
3F822
02E48
00D3B
020C6
001A4
3D390
02CC6
000C6
018BD
0173A
3F099
025F6
3D897
00414
3F491
3DFD6
3EECB
0082C
3FDAE
3DD79
3E37E
3DD02
3FF13
3DE2E
00FC4
3F88C
019EA
3DB2A
02D49
02CBF
036C9
3F6D1
3F46A
02278
3C461
035C0
041C1
3FA3C
04E6E
3F665
051C8
3E7F5
3E2C6
00DD9
002DD
3DE4B
3F50F
3FE06
3F6BE
002DB
3F752
3E857
3F17B
3E61C
01011
3F13A
00CEF
3F609
00E07
3E410
02559
01F8A
00D41
3F1C4
3D1EA
00FFA
3E93D
0179F
0291C
3F49F
02A8D
00FAB
03693
3FD02
3FEA2
3A574
3D9F8
03B77
3F63C
00994
3BBF7
3C5F2
3AFD3
01FC7
3EAAB
01B27
3EC77
3B73A
3E4DF
3EDB4
02C4D
02E45
3FF13
3E6C0
3E0C2
3FBBC
031BC
3D14C
3F235
3F4AF
3FB17
000A9
014F2
3E36E
3F26C
014E2
01C82
01845
3F040
3F058
3D21A
006B5
00E44
3F722
3FBC2
3C7F2
3D199
3E93A
3EBF0
3F5B5
3E551
00B3D
00EC8
3E9D4
01903
021BD
01883
03EB4
3FB3A
00767
04A03
3DA58
0283E
3EF93
3D6EF
3E041
01755
00260
3EC61
3E4C0
018B2
01002
3FF55
01E90
3F9AC
00C86
3EDA8
3F8D4
00F8E
3FAA4
00C00
3BCFF
01D8C
3F134
3F172
00B2D
01FFE
3F7AB
01DC9
01B5F
0219B
3CA3A
3FA9F
0186C
028F5
0195C
3EB26
3F078
00310
00748
01AAF
3FDF7
3E91B
3DD25
3C575
3F927
3FA0E
005E2
3DE41
3ADB8
3ECF0
3BDD5
006B4
3E888
0063B
3EE99
01231
3FE26
0016F
01174
035F8
3DD15
00D19
009BB
3D4B6
026BC
031B4
00850
03794
3F7F7
03ECD
3F512
3F241
02CE7
3D117
3E800
3D90D
3EF6B
3FDD5
3F20A
00E7F
3BD41
3ADD9
3DE6D
3DE65
3E70B
3D942
0094A
01F32
00281
3EDB5
3ED4C
001A3
02373
0027D
3FA37
013DF
3F08A
01D2A
3D933
3DD0D
3F914
3FE5D
00D43
00987
02900
3F3FB
3FE99
3F145
3E238
00B45
012B8
3F304
3F11C
3EE15
3EA92
00A5B
3EE5C
00BF0
01E95
004C3
3E4F5
3D5BC
008FA
00158
005F1
3CB1D
01B14
3F803
3F821
3F86C
3E7D5
00BEC
3E066
01614
3F972
008CB
03F29
3E40C
3FA63
01C2F
002A3
023A5
04266
3FF72
3C6CB
3F854
00195
00851
3EF7D
030B3
0056E
3F8A5
3DF91
00F29
01E03
02FF1
006F5
3E709
3FFE6
3D34E
01BE0
036C9
00623
00A53
014B3
02033
3F83F
3F00E
01053
3BC0D
3FA1C
3E79E
3FAE7
01F89
020E5
011B7
3FB2F
3E8FC
3F348
0284F
3F498
02010
005EB
016DF
3CC8A
012AB
01242
3EEE5
024AC
3C896
00549
3F255
3F293
045D9
000B7
3EDA9
3FE30
01D74
3F548
3EBA0
3CAE5
3F2A4
00042
3E6FC
0090A
3E774
3CDEF
3AA3E
01461
011DF
00C62
3F825
3E1A9
3EA4D
3F159
009DF
02F09
00B9D
0086F
3FD2F
3ED7E
02A7C
00C11
001C2
3F06F
00E0D
00465
3FAC4
3F3BE
3FDCD
01743
00678
003B2
3EF01
001F3
3DB8A
00316
0095C
00CDA
0046A
3F4D6
3E4D7
3EAB6
3FC3B
3E6B2
002B0
0108A
00BEC
3EC21
00602
00A6F
3E1EF
04880
00246
3FA44
0103C
3DB10
03841
3FC4B
3E424
3EAC8
3F979
3F3FB
00578
3EC8E
3DF37
010FD
0067B
014DF
00B58
0099F
3EF03
006EA
00B21
002DA
3DADC
3E345
00B84
0064E
011D2
01735
3D1A3
01B0D
01543
019C3
017D2
0026A
00D06
00EFF
01591
00997
00C61
3F0ED
003BC
0160B
030FE
3E8B4
3D8F3
3FBAB
3CFC3
000A3
3FF02
0108A
3ED92
3EE6F
3EB1C
3D7F8
01192
3D3D1
01EC5
3F299
000F9
0025D
3FCB1
00473
02F4A
000EC
01198
0096A
3E725
013A1
02A6A
3F282
015D3
005C5
0218E
3FBDD
3EC72
02C75
3E77E
3E44D
3E1C2
00436
01D94
01301
00990
3CCC9
3CEBE
3E536
3F513
3D015
010CC
0188D
00D2F
3E8EB
3F3A0
0182D
000F8
02582
3F754
00AD7
00BFE
00050
01399
3FD08
3E096
3FAE3
006B3
003CC
00758
01ABC
3FFA9
00428
02272
3ED3B
3D027
00CD5
004CA
00453
3D7FF
3FD7B
016CE
3F473
3F887
3FD02
00A91
3D87D
00938
00332
00E2B
01273
3DFB4
00675
00787
3E77E
02407
3FE62
000B5
00A69
3FB83
3F400
3FFD8
0344C
3E087
3FA2C
3FBBD
00BC2
00800
016D9
0258A
3EBF3
3E58A
3FE6B
3F3EC
3F423
018D0
001DC
00810
3F71C
01E9C
003AD
0253B
0074E
3DA7F
3F71A
3EE6C
3EE97
02C23
3F83B
02150
00ACF
00F86
3D046
3E806
01125
3EBF5
3DB8D
3FB2C
3FB1E
0121F
018D2
01594
012D0
3FE45
01E78
00A0B
00092
00A5C
009FC
3ED21
3CACA
01AD1
00A06
3E91D
030EC
3E69A
00D55
3F523
3F1D1
046DB
006E2
3D5E3
010FE
01107
3F038
3EF3C
3DA66
3FBEF
3FAA6
3FE0D
007C9
3C552
3E30C
3CB10
011A3
0099E
3FD38
01622
3DD3E
3E89F
3E528
00F0C
0168B
01226
002B9
0297A
00057
3DDAA
3FD40
00FEE
00342
3E441
01DA9
3EF10
000C0
3F32E
3F703
01508
001B4
3F4D2
0028A
3ED6C
00466
01237
00C87
0044E
002E5
3F850
004C9
3ECC9
3F9C5
002F6
00DF4
3F7CD
3FA2D
00826
00AB8
3F329
016C4
02573
0157F
013F3
3E417
02EB6
3F104
3DE81
3FD0B
02290
00848
3FD7D
3FCA8
007F3
00C79
00B84
0060E
3ECA7
00494
3F90A
3F9CD
00E8F
3F7CE
3FAE0
3FB18
0039E
3E9F0
3EB62
016FF
00654
3EB92
034E9
008B2
00FD9
0060B
02A35
017A6
02455
029C7
3E14A
00D42
0026A
01AA7
3F70F
3F266
3E7DE
3E536
3CE5C
00846
00C8F
01CC9
3EB04
003F2
3F33B
3F32B
3FE6E
3F249
00388
3FE37
3D58C
00C02
004F7
3F26D
02684
3FDD7
3E0FC
3FC04
3FA1E
3F753
021F8
3FBAC
014A4
3FB0A
00759
3E494
3EA98
01C23
3D195
00136
3D562
000FC
01E1B
01F78
0083D
3F783
3E4FC
3F4DF
3E1AD
3E1A5
00874
01CA1
0074E
3DF7F
3F455
3F803
0178A
00645
3E99C
011D2
0120D
3FBBC
014D2
01BAD
3F22C
00FE3
3F838
0024E
3EAF6
3F3E9
00E4C
3F7B9
02064
3F7B3
00AE6
002E0
00357
0035B
3E8BE
01C71
3EDBA
01DBA
001F2
3EE08
3E5AE
3D795
3F68D
3FBBC
3FD17
009B5
3FAEC
0005C
00440
00247
005AC
01EC0
3C81B
0112D
0048B
3F108
3E76C
0344C
3F5CE
3E471
00D60
3F6EE
026EA
016B3
01BF4
3E809
3DD4A
008C7
3FC01
00322
01A82
00B20
3D7C2
3FAD3
00294
3FAAF
01F1D
006A9
3D27F
3FC95
3F691
0002E
006A6
01254
0100F
00B0E
00976
3F793
3F755
00AE7
3EBB3
3F210
3EC4F
00DD9
01F40
0020F
3F8CA
00953
3D7AC
3F6AA
3FCAE
0068B
013D6
0012C
3ECE0
3DE65
00503
007C1
3E8FE
02B11
3E98E
00592
0154B
3F35E
02539
3FF0B
3DC1E
3FE3C
010EC
3FB2E
3EF58
3F566
3FFDC
3F3A2
00B3D
00430
3CBAD
3EFF7
3EEF0
003CC
00618
016AD
3FA51
3ED1B
3F0C4
3E82D
0008E
0054A
0070F
3F85B
003AF
3F503
00A66
003BC
3FDE3
3FBBA
3FBB0
020B3
3D645
01A17
3FE7A
3F0FF
3E040
00199
000FC
3FBC1
3F080
00181
00F45
00658
3FF19
000CB
3EE8D
3F83D
3F113
0024E
00767
0049E
3F2DA
008E1
3F62C
0053D
00216
01128
3E450
3FDE5
00175
000F0
3EDAF
00D29
3D3A8
3F9BD
3F5DA
3F52F
3FA91
008D9
3E6D4
3F295
01A29
3F30C
3E00D
3F6BF
3E160
011C5
3DDC8
3FF41
0039A
0093D
004D7
00151
000C2
00383
3F49D
3FFFA
01788
01666
3FBC4
00805
3ECCC
012D0
3F23D
02CF5
3D5D9
0142E
001C2
00111
3EC3E
3F7A1
3DD22
3E2BD
3CD8F
013DA
00774
00D7C
3E95C
3FD64
3DD96
3E904
3FD42
3F24E
010E7
3EFCD
3D973
3F7F5
3F73D
3F800
005E7
00F0C
3D0A2
000B2
3F437
3F683
3F9EC
005E5
002E8
3FA59
3FF97
3EF04
3EFD1
00865
3F198
3EBE4
3DEA3
3FF01
015E3
00EA3
00AED
3F4AC
3E478
3F99E
3E6DB
3F6C7
01003
0016B
3E8E1
3F534
3F9D1
00165
00286
00AE6
00AD6
3FE27
002E5
3FAFB
0143C
024BF
3C0A8
00C4C
3FECC
3FCB0
3E2FC
3F7BB
3F80B
3FE4C
3F9AD
00142
3E917
009AC
00644
3F4E1
3FBA8
3EECD
3FB72
00840
3FA81
3FABF
3E0D8
3FAFA
3FA0D
000FC
3FAE2
0053F
3F348
0052B
003AA
3FA70
00321
3F438
3F6C6
00331
3FAE1
3FD94
3F059
00305
3DA8B
3F521
3E116
0051B
3FC6A
008F9
00DAB
3D5D3
3E625
3E5D5
01564
3F490
3F984
3E75C
3F969
3E969
011EF
3F1F4
3FEE8
01444
3FE48
3FB5F
3FCB6
3DE07
01FBA
026E3
3FA2A
3EEF2
3EA69
3E6A9
3E639
3FAED
3D968
3F21D
3F1D1
3F623
3E21C
009D6
3F9F0
3FB33
3E1FA
00C63
00F74
0129D
00B5B
3FA4C
3ED6C
3FF19
3FD89
00663
3F400
00C97
3F996
00464
3FEEA
3FC67
003EE
3F8CE
3F920
3FFE3
3FDF2
0045B
3F325
3ED80
3FE51
3F3AE
3FBD9
3FD1E
3EB37
006C2
3EF1E
3EAD3
00C2D
00BF1
3FE19
3F968
3F4AA
3E3FD
3EBC1
3FDFF
3FFB1
3FDC4
3FC08
0010A
3EB48
014EE
00A07
3FCD6
3FFA9
3FEF2
004BF
01650
3FF54
3FFD1
3E19D
0092D
3EC45
3FED7
3F05A
3F861
3FA18
00484
3FD09
00605
3E066
3E88D
00D1D
00AC4
010FD
008C9
3F1E3
004A6
000F0
3FB77
3F84B
3F4DE
0089C
00339
3F0BC
3F7BD
3F6E2
018F6
3EB82
00D1E
00182
3F3E7
3DCF2
3F55C
3F3A0
3EEAA
3F352
00164
3F4AF
00927
3F4C9
3EE2A
3FF74
017C7
0025D
3F6B7
3F97B
3E329
3E3B0
00735
3F5B8
3F3AF
3FDC6
3F982
3FBEC
00312
3FE2F
3F7D4
3FA1E
026B0
3FD37
01E65
00230
3FCF5
3F119
0080E
3C47D
3F398
3D3A8
3F0D5
3DD6B
01A79
3FE7D
3E860
3CB26
3D529
02AC7
3F7D3
00FA0
3F144
3E6C7
3FBB2
3FB84
3EB99
3F8D8
00773
3FAF4
3FCE2
3FC06
3D9B0
00FEA
01CC5
3F510
3F829
3F17B
3EEED
3E00B
01628
3D2CD
3F9C0
3E0DE
3F383
0018A
00330
003D8
3F915
3C7D5
3CF2D
00E26
004D4
00FD2
0018D
3EEC3
3F6BC
3F796
3FB57
3F76E
0032D
3F17F
005AB
001F9
3F59E
3FA53
3FA76
3F024
00119
001B2
3FA41
3F0C1
3FC35
3FDDD
3FEFE
00043
00514
3D875
01A93
01A54
3F37C
3FABB
3EF9B
3F7A4
01386
3FFBC
3FC86
3DD11
3F97A
3F709
000AA
3F687
00057
3F0DB
00A1D
00C8F
3F6CB
007D4
3F613
3F639
3FEAF
0000E
00101
3F532
3FFDE
3EDCA
001EB
3E931
00862
3D14F
02667
021AF
3D924
3F23A
3D5C6
3E61B
014A9
00413
3FA76
3E4CD
3EF48
00FA0
00097
0089D
00A8A
3D821
0070C
01C3E
3D5EE
014BE
0003E
3DC3A
00D8D
3E284
3EC57
3F0C4
00FC9
3F95D
3FDD6
3E7EB
3FBA9
3E97C
011CE
0163E
3F7E5
3F80F
3EBCC
006D2
00B3D
0091F
3FA29
00400
3F9BF
3FB5C
007D2
3F43D
00657
3FA52
0043F
007FC
3FCA1
01071
3F882
3FB25
3FE2C
0011D
006E0
3FFDD
3F614
3FA2F
3FBCB
3FA2A
00070
3CC16
010A4
00E18
3EC7C
0017C
3EECE
00196
008A8
3F7E0
3F135
3DEAF
3FE86
0037A
00093
001EA
00653
3DF84
01A8B
01B71
3FF10
3FFD8
3FEFC
00118
01BC9
3FF38
3FFB6
3E1DC
0069E
3F2CF
3FDAC
3F551
3FA13
3F9DB
00C39
3FF92
00377
3F4BF
3F514
00D8F
3FC47
00E1F
3FF35
3FAD1
3FCEB
3FAD6
3FEF2
3F7B7
3FE7B
3FF9C
3FC95
3FD54
3F861
009E5
3F7CF
002AF
3FB03
3FCF0
00348
3FC31
3FCC9
3F881
3F954
3F6EF
3FFB3
3D46C
00836
00F34
3E81B
00123
3F35D
3F4F4
00EF7
3F001
3F2DA
3EB10
00FA0
00DEB
006ED
3FED6
3FF75
3F6A5
3FE60
014C3
3F81C
3FF8C
002FD
3F06E
018CB
3F57A
3FDA5
01337
00F02
3D703
3F2F8
3D83B
3EF66
3E205
015E6
3FD2C
3F085
3E258
3D920
01F3B
3F03F
00DBA
3FA92
3F162
3F6F6
005D5
3FCC1
3FBD2
00230
3E694
0006C
01648
3D5B3
00EBC
3F5AF
3E634
3F9C7
3E85F
3E6D0
3F279
005C3
3DD41
3F8DF
3E222
3F63A
3E933
01D19
001E4
3F495
3E64F
3DED3
00E53
3F91C
00DBF
3FB81
3E7A5
00254
3FDFC
005F4
3F719
0030D
3FC2A
000D1
00576
3F91A
00A4C
3F684
3F14F
3FB9F
00138
00300
00274
3FAC3
3F503
0007A
3F6C6
3FF08
3FB33
3FC5A
3FE21
3F400
3FEF3
3EF90
3F87E
3F28A
3F96A
3FDD8
3FD16
3FF10
3F839
000E4
3F894
00266
3FBF0
3F994
3FC77
3F7D5
0077C
3F47F
3F84A
3F84E
3F5FF
00171
3FDEE
00142
3F398
3FE0C
3EE1F
3FA76
3E94A
3FEC8
00609
3F612
3F713
3E5B1
3FC9C
3FB42
3F9C4
3FCE6
00166
3EBB2
012E5
00948
00865
007D5
3DE38
002F2
0165F
3EAA2
007D2
3F325
3EBBB
003E3
3F5C1
3F868
3EB71
00552
3EFB3
3F9B8
3FA4A
3F9E4
3DB83
00E55
00DFF
3FE76
3F66B
3F824
00D46
00FEF
0042F
3FD53
3F4EE
00297
3FD5A
3FFE1
3FBDA
0030F
3FCEE
3F7C1
3FDED
3FBE0
00975
3F8C0
3FB71
3FF8F
3F6BC
004D2
00151
3F963
3F6BB
3FEDC
3F47B
3FDF1
3E097
006B7
0065B
3EE36
3FFAA
3ED14
3FE4D
3FCDF
3F91F
3F8D7
3E882
3FE69
3FD27
001B4
3FEBB
00065
00090
3FFBB
3FF55
3FF20
3FF85
3FF03
3FE46
3FDF6
3FF6F
3FF8E
3FF94
00685
3F331
3F8DD
3F42B
3F8C8
3FAD6
3FFD4
3FD77
003C5
3F98C
3FEF4
0064E
00448
001BB
3FCBD
00755
3FC07
3FDEE
000A8
3FEA8
00572
3DC73
01763
0153A
3FAB7
3FDA4
3F814
3FE81
01688
3FD6C
3FC32
3DF9F
3F9F3
3F7E8
0001B
3FDC9
00128
3D258
00B8D
01078
3EE6E
0005A
3EEFE
3FC39
00398
3F926
3F3A3
3E2CB
00647
00403
00249
004E3
007C3
3D451
0127F
01BBA
3FE5D
00527
004B1
002FA
01B77
3FBAB
0018A
3E857
006AE
3DE72
3F1CD
3E64B
3EE82
3ECEF
3FD9C
3F3E9
3F209
3EEBC
3E3BD
010CE
3F014
3FFA0
3F2D3
002BE
3EE22
004DD
00422
00489
005F4
3D5BB
0094F
01830
3E77C
004FD
3EC55
3F165
00112
3F74E
3F846
3E379
00853
3E3C8
3F649
3E541
3F688
3F75D
00090
3FF28
3FC8B
3F2EA
3EAD0
3FFE1
0006D
3FC94
3FD8C
006AF
3FD4D
3F800
00140
3F92A
00042
3F731
3FE04
3FADE
3F90C
3FDA0
3F632
3FC89
3F8E0
3FBF6
3FB61
3FBC5
3FA46
3F445
0002A
3F6BB
3FF0B
3F998
3FDA2
3FCBE
3F400
3FB2A
3EF9B
3F86A
3F157
3FB85
3FA69
3FD1B
3FB5F
3F562
00087
3F8BB
00003
3FB30
3FECF
3FB70
3F74F
3FD9D
3F435
3F9DC
3F523
3FBF8
3FACB
3FDB1
3EFD5
3EB92
3F924
3ED71
3F7F7
3F3C8
3FA9D
3F867
3EC2C
3FE32
3E963
3FC7B
3E892
3FCAF
3F115
3FF58
3E88F
000BF
0031C
3F7D7
3FBC9
3F7B9
3F863
3FD4F
3F2C1
3FD69
3F14C
3F3E2
3F2F6
3F727
3FBF3
000EE
00EAB
00089
3FDB5
00511
3E63F
001E9
3FEC7
3F395
00290
3E8C7
3FB67
00EB1
3FD35
3FB29
3FE43
00AE8
3FF5C
3FBEF
00057
3FC8A
00140
3FF7D
0002E
3FD67
3FBD6
3FBFA
3F880
3FC8C
3FAE4
3FF2F
3FD07
00181
3FA14
3F4D0
3FDCB
3F1D9
3FD10
3F3BE
3FDBA
3FCBD
3EDA2
3FE13
3EB8A
3F8F8
3EC95
3FA3C
3F8B2
3F99D
3FE4C
3FB9E
001B8
3FEAF
00060
00093
3FFB8
3FF41
3FF20
3FF85
3FF01
3FE12
3FDF6
3FF71
3FF99
3FF95
00AA7
3FBC9
3FBDE
3FAD0
3EE62
3FECE
00377
3F9EE
00455
3F4D5
3FFF6
00B76
3FD77
00242
3FB9C
00097
3FB9C
3F963
00188
3FADD
000A7
3FEA4
3FF44
3FF21
3FACC
3FD1F
3F812
3FBEC
3F872
3FD59
3FC87
3FECC
3FA3C
3F521
0038B
3F608
3F31C
3F8F1
3FDFB
3F85C
3F372
3F154
3EDB9
3FFEF
3F0DB
3FA96
3FAAB
3FC51
015C4
006A4
005F5
00D9F
3E816
3FFF5
3FAAE
3F01D
00E05
3EC19
001EA
017F6
00706
3FC67
0049C
00739
3FD0E
3E9DF
3FA54
3F258
3EE41
3F2A7
3FDF7
3F654
3ECE4
3EFDA
3E6D3
001C5
3E9B3
3F9C2
3F479
3FE0C
3EDA8
3FD45
000F8
3F4EB
3FA88
3F5F2
3F9C4
3FBD3
3EBC2
3FC7D
3EC2E
3EE75
3EE7B
3F6D8
3F8C8
3FCE9
003A6
3EB93
3F756
3EED7
3F896
3F8F1
00083
3FACD
3F0C5
3FB59
3ED54
3FED6
3EF09
000FA
3F409
3FD26
001DB
3F722
001F0
3FB06
3F509
3FE8B
00019
3FB2F
3FBB1
3F299
3F5FC
0049F
3F665
3FC1A
3FCAE
3FDD3
3F9EB
3F501
00078
3F6C6
3FF0D
3FB36
3FE35
3FEAC
3F400
3FB29
3EF9A
3F81B
3F157
3FB64
3FB04
3FD1B
3FA9C
3F62D
000B4
3F8C7
3FFE0
3FE0A
00032
3FF0A
3F765
3FD31
3F410
3F8BC
3F523
3FC07
3FB7F
3FDB1
3ED3A
3ED90
3FFFF
3F29C
3EB2F
3F812
3F9EF
3F470
3F514
3E588
3ECBA
3F5C2
3F0C5
3F8F3
3F4ED
007CC
3E81B
3F756
3FDDD
3F791
00055
3F545
3FB23
000FC
3F41A
3FFF0
3F38D
3EE52
3F237
3F7A6
3FC7A
00187
3F35F
3FB82
3F890
3F9F4
00297
3FE77
3FBCF
0034E
3FA84
0022E
3FBBC
3F2F5
3FD99
3FD16
3FB92
00D72
3FEAB
3FBA7
00039
3FC7B
001A2
00110
000EE
3FFC0
3FBFE
3FBBE
3F861
3FA72
3FAE3
3FF45
3FCCE
00183
3F9F7
3F485
3FDF0
3F1CF
3FC9F
3F503
3FDFB
3FD28
3ED84
3FC40
3EAD4
3F75E
3ED27
3FAAE
3F81C
3F9AA
3FE49
3FBA9
001BA
3FEAF
00063
00091
3FFBC
3FF40
3FF20
3FF85
3FF02
3FE71
3FDF6
3FF74
3FF91
3FF94
00A08
3FEA4
00244
3F9C0
3EEB6
00040
0029C
3F8B8
0062D
3F2BF
3FEDD
00B17
3FD38
3FF4E
3FBA6
002B7
3FB9B
3F960
00188
3FADD
000A6
3FEA4
3FF46
3FF22
3FACC
3FD20
3F812
3FBEC
3F872
3FD58
3FC86
3FECB
3F974
3F46B
3FF95
3F430
3FD62
3F7B9
3FD36
3FC75
3EFC6
3FD60
3EF7C
3F739
3EF34
3FA54
3F979
3F989
3F500
0015E
001F9
3FF9E
00407
00225
3FF56
3FD13
008F8
3F66C
007E3
3F924
00985
3FFAB
3FF55
009B0
3FC4D
3EF82
3FBC3
3F293
3F133
3F30D
3FDA6
3F915
3EB5B
3F251
3E657
3FD0B
3E9DB
3F9B1
3F60B
3FBDB
3E721
3F1F5
3FBBB
3F2B7
3FE8F
3F4A5
3FDE1
3FD1A
3EF83
3FDA9
3F002
3EAA7
3EDD1
3F901
3F75A
00070
008F1
3F0BA
3FFD2
3F509
3E89D
3FC7B
000F2
3F2B3
3F797
3E626
3ED14
006E1
3F0CE
3FC97
3F61A
3FF45
3FB42
3F6EC
001F1
3F89D
00029
3FE8A
3FFFF
3FECA
3F933
3FCEF
3F5FA
3F992
3F696
3FCEA
3FBCA
3FDD4
3F9EB
3F501
00078
3F6C6
3FF0E
3FB36
3FE36
3FEAD
3F400
3FB2A
3EF9A
3F81A
3F157
3FB64
3FB04
3FD1B
3FA9C
3F62B
000B4
3F8C7
3FFE0
3FE0A
00033
3FF0B
3F765
3FD31
3F410
3F8B6
3F523
3FC07
3FB7F
3FDB1
3F7B6
3EEB5
3FCF0
3EFB5
3FA70
3F983
001FA
3F85F
3EEDB
3F726
3EE60
3F451
3EAB7
3FCD9
3F4AC
00172
3E979
3F3BA
3FDC0
3F589
3FE58
3F974
3FF62
3FC1F
3F75D
3F378
3F52B
3F192
3F3AF
3FBE9
3F9D5
0084B
3EEC1
3FDD3
00033
3FD52
3FC62
002FB
3FD8F
3FE03
003E4
3EF0D
3FF82
3F5D3
00423
3FEBD
3FC9F
00EDE
3FEA7
3FBA1
00039
3FC7B
001AE
00111
000EE
3FFC0
3FBFE
3FBBF
3F861
3FA6E
3FAE3
3FF45
3FCCE
00184
3FA5B
3F3AA
3FE04
3F1D0
3FC9D
3F58D
3FE19
3FD21
3ED7A
3FBD7
3EA4E
3F6B7
3ED33
3FB04
3F80E
3F99A
3FE48
3FB9D
001BC
3FEB0
00060
00093
3FFBC
3FF37
3FF20
3FF85
3FF04
3FE13
3FDF6
3FF78
3FF8E
3FF94
00073
3FF50
00280
3F738
3F93B
000FE
000C8
3FFA1
000F1
3FA94
3FCF9
002C0
3FE20
000FA
3FBEF
00212
3FB9E
3F95C
00191
3FADE
00095
3FE99
3FF89
3FE75
3FB0A
3FD20
3F905
3FB3D
3F870
3FD6D
3FC20
3FEF8
3E9F2
3F359
3FFC7
3F451
3FD80
3FF5B
000EC
3FB72
3F958
3ECA6
3F456
3ECB5
3F921
3FE6C
3F945
00889
3EA06
3FFF9
00157
3FFB5
0048A
006F8
3FCD4
3FFDE
00CB2
3F17A
008FE
3F6B4
00E6D
3FFC9
0006C
01184
3F7E2
3F19B
3FC34
3F0E0
3FB3C
3F3BF
3FE35
3FC2F
3EA2E
3F9DF
3E67D
3F3D1
3EABD
3FAA2
3F634
3F9C1
3EBDB
3F104
3FCC3
3F207
3FBE4
3F5AF
3FF7A
3FA27
3F116
3F5BE
3F017
3F0BB
3EE2F
3FAD0
3F6C1
0009C
00981
3F333
3FD6D
3F1C3
3F9C3
3F9B3
0013D
3FCD7
3EEA4
00165
3EBE2
3FDC0
3ED36
3FCCF
3F6A1
3F790
3FA2E
3F74A
001F1
3F89F
0002C
3FE9E
3FFE9
3FEE1
3F9F0
3FBFC
3F648
3F91C
3F791
3FCFB
3FBD0
3FEDA
3FB64
051E5
04E5D
3FD0C
012C9
3A39B
3EF36
018C6
00371
011F2
3FBB5
008D5
3DB49
3F82F
01747
3DB96
3F3C6
3ED91
00519
3FA51
3FF4F
0068B
3FFCE
3FDD2
3FB11
3FAE2
3F4F0
3F325
3F4A3
3FD70
3FDAC
3FD59
00AEE
3E87A
06F5E
07539
02736
3ECA6
3A831
062B9
3FBF0
035DA
04251
00F67
3E2A8
00B1B
3E007
04A52
005D6
3E861
041ED
0424F
011B6
3EB66
3CB53
03963
3F125
02B36
02183
009BE
3DED6
0038A
3E5D2
02873
3EC7F
015A4
024CB
3FC66
02863
3D511
00B4B
01492
02DF2
004E8
3E2F1
0428D
3E105
3A3BE
00CC3
01DB7
00F79
3FF65
007B7
01FC9
3FD94
005D3
0343A
3FE78
01548
3FB99
3D7CB
3E343
3E2F9
00BCC
02B33
3F959
3FA6E
0623D
05928
015DE
00A21
37283
3F987
04646
3F61D
00B21
3F5EE
014F5
3D40D
3E65A
007E4
3EBB0
3E61B
00930
003B7
3FFB7
00E6D
00121
3EACA
0123E
02F9D
3F6A3
3FA2F
3F89A
3EB12
00E46
02D65
3FA32
3FBF6
009AA
0074F
3FCFA
00A65
3F489
3FDC5
00596
01164
0009D
3E88B
01687
3ED6F
3E0D6
0119F
00274
0197C
3C2A6
009FD
02947
3FD3B
3E606
056C3
3E5B8
01E9F
3F197
3C56D
3C72E
3DC03
00B23
036D1
3FA56
3F4FD
3EAE1
02174
0172C
00769
3C9DC
00A8A
0027C
3F7D2
3F6A2
3E2E1
3F06A
3DCF7
3EB2A
3EC99
00AD8
3E4E1
03750
01B7A
00C25
02F2E
3C12F
00F58
03AD2
02801
3EA1D
02DB2
023CB
019EA
3D677
3F300
0344B
3F192
3F975
01DC1
3EDB7
01221
3CF1A
0092A
00201
00A2A
0018C
3CB04
02210
3CBF2
3B8F2
00940
00F39
3E3AC
3FBCC
3FB92
3E7B5
011F8
00212
00123
00B3B
00A39
3E87C
02772
3E011
016BC
017CC
3DB8B
00D0C
3F3F3
3F503
003E2
3F6C6
3FDDD
00415
3FE82
002F0
3F849
3F004
3F23E
3F4CA
3F5C4
00097
3F875
00B01
3E88E
3D9AE
3FE31
000D8
0006E
3F211
016D8
3F67B
0003A
3F837
3F762
3E493
3F35C
3F296
00601
00D96
01700
3EA3F
02676
025AD
00FB2
0271C
3D3EA
3FADB
3CD7E
04D42
00768
3E288
3BEAB
0330C
3EA8B
01DE4
005EA
00485
00C6D
042F4
01EEE
3E119
3F694
03E7D
00AFB
00DAC
3E2BB
01860
3F808
3E682
3F9BE
02579
02A87
01FB6
3BD7E
39306
3F596
3DF4A
0287F
3E3AE
3FB69
3CA43
0049B
01F9C
01B8A
3EDDB
3D109
3B28A
008FE
3D337
02305
3F437
3FCED
3E6A3
3FDD9
3DC9C
004B3
3F4E2
00FE9
3FC67
002E2
044EC
3EC4F
02B06
3DBFC
3FE59
028BD
0257C
02AE0
0516E
3E016
01F85
3ADCB
0480E
03982
3ED56
3FB90
00D0E
3B078
3FEC1
3FA13
3E692
01CC8
01FCB
001EB
3CDBD
044FB
3FE71
02919
3E701
3B959
3EC81
3B821
3F9DD
03755
3DC40
03F90
04BD6
08A5A
00175
02F0A
3D2EA
3DBFD
01FA5
3EBF4
01F9A
3FC79
03AD5
3D36D
3B627
03277
3CD6E
3D12E
3D287
0322C
01430
00869
0070C
3F0C3
00F5D
00C61
3FE31
3E60D
3D424
3B317
3EF6B
022C3
3FAB6
3FBC7
0360C
044EF
01C79
00BBB
3D2DE
3FF8D
3FA91
3D895
02FEB
3EB6C
00282
3D9D6
3DDF8
3FA04
3E75C
008F5
3D8A0
3F98E
3F8D8
02231
3E83D
012AA
3E6E8
3F8D7
3C301
3EC18
3C1C0
03749
00B8C
00F7F
3ED19
3FF12
3FCC1
03C66
3BBF4
0106C
3BF68
01A6E
0026C
3FAB1
02175
01290
3FC5F
3FCFE
01C25
3EA6F
3FBAB
3DCF8
0207C
3F3DA
3F875
3FC3C
00A2A
3FC61
027BC
003F7
3C9B4
003BA
00C77
3DEC5
3E7BD
3E08B
3D9BE
000D6
3FA4C
04DC6
02CC7
02B35
3FC36
3D03D
033EE
3E3EB
05B1B
3EFB0
0503E
3B7A3
3BDC8
3F424
3FCBE
3E01C
3FCE3
3E8D9
3D8E0
00B6D
3F707
3E3A8
00C77
023B3
3D1C2
014F6
3EE97
00C60
023A9
00220
00E4F
3C7CE
07A1E
3EFF7
3C258
018D2
3B2C4
02B76
01725
008DC
3DBF3
004AC
0239C
00B5C
39E4B
3D2F3
3AD97
3CCE0
00B3C
3FEE2
01400
3F249
018AB
3DC34
02F3E
00144
019DD
3F957
01AA5
3CCFF
011B6
3DB1D
02BA5
3E3A7
00505
034D9
3F8C9
3E810
3C678
3D6F3
00623
3F451
02868
3F823
013F2
39669
0193F
3EE30
00D51
0097B
3F827
3D7D8
01DCB
01184
012C4
3D07E
03EF7
3E997
004AC
00C74
037E5
3DF67
00F73
3DDB6
015E7
01C9F
026B5
00409
0030F
00690
3F920
00C0F
3F02D
00475
3FEAA
01C2F
3EFBF
3DE21
00966
3EA04
3E846
012CB
3F17C
3E824
3DD37
3E455
3DE95
3E77B
3F308
3E49E
00438
3DDE6
017BF
01693
01BEA
3F55F
3FADC
00E28
022A1
0451B
3FF2C
036B5
3DD2D
03138
0555F
3BE00
046FE
02397
00108
3EEE1
03B0B
3C1FD
3E0C4
004B8
01464
3F95E
3E664
00EE3
3F474
3F42F
3EE2F
00C70
3CB01
3DA6A
3FFD1
028DD
3EBEB
3FB05
3D2F2
3E1B4
01CF7
05877
3D215
01BDA
3FB4A
00090
016FB
3E66B
01844
3DFFC
3F874
3E289
00404
02BAF
3F663
3EFC8
0040C
0342E
3D444
3F073
01F09
3DC06
006D8
3F253
3FF96
3F726
3E5AC
399C6
3F78F
01705
02CE8
3F82F
01DB0
049E1
3F7B1
00252
3F172
032A6
01EFF
3D6EA
02018
3F999
3E642
3CEBA
01435
3FC9A
3CC6E
0063B
3ACB1
3E35F
3BEA2
01A8C
3F4AA
043A4
3E04E
03829
3F032
3C695
3F2AC
007A6
3CCC4
03DF2
3FB57
02201
00388
3FFE0
003DE
3FEA6
3E9F5
014A3
00FE0
016B6
00B64
3F0EB
005D2
013B6
01B92
01ABD
3E244
3E7D4
01E9E
3F28E
3EF27
034FA
3FC12
03889
02DBF
00BD9
3E2FF
03748
3ED72
3F29A
3F56F
3D5FF
3CD3A
02915
02324
03462
001C5
0043E
3DF18
3F438
06337
3C041
02FBB
3D8A9
00926
3D1E7
03E41
3E873
3FC64
3F8AA
0131B
3F12A
3C10E
01685
3AAE0
3CD04
3ECCC
01109
3F827
3EBAA
00FC2
0210E
3D6C9
3F6C1
3EE82
00CE4
01508
03CF2
010E0
00352
3E9A5
00361
02C4C
3B19D
031A6
00D27
3F90E
3BF86
022CF
3E080
3DA78
009C0
3BAFA
3E7D1
009C8
0020E
023C1
0166C
04ED9
3E244
3EF74
02F2C
00BC9
3CA80
3EECD
3DF96
015BD
0040D
3E586
3D99A
3E448
3EF60
008FF
38943
00348
00CB8
0142B
3DDB8
0262F
3EB00
00E06
00AB6
05337
026FF
01B80
3E97A
038A9
3DFD1
02339
3F4CC
01998
3EFAC
3DF57
3F490
02BE4
3E8F2
3FFB8
3EBB7
02FC4
3F346
017D7
007EB
3F4A4
3FD8A
3D251
0293D
01CF3
3DA85
3F86C
01693
00D00
3CF9A
3F59C
3C43D
3E4E9
03DC9
3FB30
3F9C1
01903
00177
00DC5
0046E
3F684
3FC3C
02B32
3F52F
3FD70
3FF54
00857
009E9
01392
00E47
3FD36
01EB1
3EF29
02CA3
0000F
01EC1
02226
3D475
01326
007D8
0103A
0150B
004CD
3F62B
02857
026CE
034DC
3EF82
02015
3E80E
01099
3DC04
3D884
3E7B9
3ED16
3F792
01C85
02833
3E62F
3EEDC
016CB
019B9
021CD
031EE
00F4A
00353
3F877
00471
3EE59
3FD33
01C45
3E167
00324
016D3
023E0
03CF7
3F1C2
00A22
00E67
3DC19
3B8C9
3FDF4
3FB1E
39641
01802
01523
02FAB
3FD58
00AB8
3CF38
028DF
01571
01310
3F4C9
01B70
04AFF
3DF09
00E81
00044
00B06
00D24
3F01F
01755
00126
3E9D9
3FAB7
02C4C
01772
3F027
3E1DF
3D375
03ADA
023A2
3EC13
00A81
06381
3CF25
010AC
02171
3F664
3CF21
02BD7
01DC8
0175E
3E1E2
01C5A
3F280
3DAFB
01D05
01556
01EB2
3FD7A
02430
3F800
3F6FA
00468
3F96B
02C11
3D7CF
006FD
3EA5B
3FA01
01D78
3D8D4
3D658
0201B
3F6D8
03993
03A76
3EB0D
3EB30
03CD4
03DB7
008FC
3F007
3CCAE
3E1D2
00758
3EBBC
03A2B
0074D
0263D
3ECAA
01D00
01637
3FD77
034BA
3FBF2
0089F
3E936
00C30
01303
005CC
3EB57
00355
0005D
3F386
3F342
003E6
01B09
3E171
3EEBB
3E4C1
3ED31
3E70E
0312C
3E6D6
00B96
3ED66
3DA79
03FEF
03440
3E516
00A63
3F984
03B48
00C91
3E479
02FD8
006CF
3DDEC
3E1E9
02F9C
3FBF7
3C96D
3E990
3B281
006CB
02173
021CF
02E07
078D3
046B7
0004A
3CF9A
0175C
00D6C
3D770
3D76A
3D45F
3EF70
3FA96
3F96C
3D411
3C018
3DBEC
3F5AF
3ABC2
3F93E
023AF
3E31C
3CBEF
029B5
3FCDC
00905
03399
02591
01DD1
3DB34
3D439
030E5
3F49D
0189A
0178C
3EF5C
3F1E5
3E4E7
3F8D9
3FCAE
3BE99
3DD7D
3F1E2
3F830
3E4C1
00500
3FFDF
3F576
3ED3D
3F2C6
0520D
042D8
3D09A
00A50
00CD3
033C4
3D903
00999
3CE60
0059A
00E07
3FF63
021DB
03D7C
3EDD8
3DAED
02CB3
3E742
009D7
02912
0061B
00117
00701
00E5C
3F752
01987
00DEC
00271
3E673
0012D
3F988
02183
02D8C
0146F
3E403
00B91
3F229
3F3EF
3F4C5
02836
3FC8A
0132E
01CC3
01A21
03C83
00E5E
3FED1
0174C
0096A
3A88E
3F5FE
01141
3E56C
3F62F
00989
3F18E
02E0A
3F50C
3ECE6
00292
033A3
01AA6
3F1D6
3FE83
3D71F
01E55
3FB9F
3E760
3D83D
00EA8
3F59F
01453
014A3
3F68E
3D843
3C0F0
3CC87
3EDA8
001B4
00C4A
3D610
04FD6
0525D
3E215
3E038
047B3
002F7
00109
011B0
03F2F
3FAE5
0019F
3E4CB
3E42F
011D0
0076F
3D478
00291
00A31
3EC40
006CC
001FA
3F243
00888
01413
3FEF4
01328
00E03
029CC
0296D
006C1
3EF36
053B5
0075D
3CCB9
03680
0139F
3E94C
3FC5D
011BF
3F392
3D6B4
3FB7D
3FDDD
3E6AB
0053A
3F833
3F146
003B7
00F27
3E7BE
0198C
01167
02358
01B44
01969
3EA96
013F7
3C7DE
01837
3E922
3C9F7
036E9
3DB00
03F08
041AE
00B84
3F2D4
037FD
00A22
3F6F9
01A26
39644
3DE4A
0111F
0076F
3E858
3E7C7
3F12F
00BD3
3DA6F
0027F
01867
3FEC0
3E5D2
3E978
00FE7
02726
00F92
045C0
00EFF
0134D
019F6
0057D
3F7B4
3F901
02E84
3D8D2
007B0
00438
00FAC
3C9F0
021B8
3FF5A
3F709
3D26C
002C7
02580
01F84
00856
00F37
3FB39
3FEB3
012A0
00607
3E590
001B0
01B2D
3FC09
02668
3FFB1
3E2FF
3F6A4
3DA2B
01F65
004F0
027C9
3EF44
049EC
03783
3EC70
3E1F4
3F854
3DD60
3AFDD
3F884
3DE4B
3BACD
3EEF2
3D263
3F1EC
3C146
0130C
3F804
3C416
00837
024DB
01976
3D4D0
00BF4
001BC
3C3CE
049B8
034D3
02D6A
3D60B
3F861
03129
3ED77
3F014
0456A
3FB91
3D661
3DE1C
3FAF4
0017A
3D6B9
00C24
00A33
3D657
00314
3E845
3ED43
3F228
03D32
01012
3F925
0512A
3DADE
00042
02BD9
01D1F
015BC
00F83
3E4F1
3F1DB
02788
0251B
0065D
04443
3F463
3D7CD
3F1CF
3E5DB
00035
02D70
3E800
00287
0092A
019B5
3FF59
00337
3FDE0
01286
3D2B9
3E338
3F68A
024E8
3EF52
01535
3F9A9
3DD1E
01718
3E520
3FAC6
0052E
3E729
007EA
0247E
03D1B
0219A
05058
3C53B
3D946
034CB
39BA0
03505
3D6D7
3E260
3CD47
02AA4
3D3A9
0455E
0002A
3F6B0
3FBEC
3E985
3F42D
3DF5B
025D5
39F61
3CFB2
00C4A
003C3
3F738
00382
3F0D8
026FC
3F402
3FB9C
3E047
3E251
00075
3D4F8
01B2D
00BFC
3E126
03C1F
01F19
3FA53
01E18
03F2E
009E1
3F7D2
00558
3F213
00159
3EFB6
3F4CB
3ED88
002DC
3F9E1
3DE21
01201
00AA1
3F7B1
3F127
00DBA
3F2E4
00C03
00B0A
02477
3D839
3F5FA
3FD99
00B01
3ED74
03A08
02783
3CF0C
3E14E
02595
0413C
3FD7F
3C661
01FFA
3CA8E
3B7AD
00BC7
3FC5E
3F3E1
01171
01638
01067
3B80E
01F47
3D96A
02D17
01002
02026
025FB
035D0
3E53D
3F17A
3CCB6
0237A
3D3A5
3D70F
02041
01A59
010D6
06890
3D8AA
3BB95
06C60
012A0
0520C
010C9
3C25E
3ED8C
009D5
0147D
3FA60
005F5
3E72C
3F8B6
3A893
3D66E
01CC1
3F9AE
3EE63
004E7
3FF0C
03C68
010EF
012E9
01B93
05655
02F16
02DA8
003C0
0020E
3FE79
3DC39
3F2CB
3E6C2
0273C
3CAA1
0432B
0174F
00780
3D8B7
3CD56
3F45C
3F69A
3E818
00844
3DDDF
3E40C
01DFE
01A5D
3DCE9
0075B
00F3A
3E820
3EA63
3DE76
3FD56
3EC28
3F2B6
02B59
3FDC8
02FA3
00D80
01432
013D2
3F364
3ED55
01DDF
3F00E
3DFA4
3F223
3FE3F
3A8E7
3FC70
3C8D9
3E44E
3E3B3
00C51
0079B
3D389
00E1B
0027A
012FF
3ECC8
01301
01BFB
3EFB7
041C9
3F0A8
3FB38
00057
01BA8
00688
013B7
3FC76
006E3
3E2B0
3C05B
0082F
3F589
3E457
00AB4
3D0F1
0076A
3EBF7
3F6CA
3FF2B
3F2D0
3EE2F
043DD
3DC6D
01280
0317E
3EBAD
3EC2C
01863
3FBD4
3F6A6
3DE44
3DBE2
3E065
013F8
3FB04
00BA2
00F48
3F43E
3E56C
025F7
3E960
00F10
0076B
3ECAE
00DFE
0043E
3F6EC
3EE2B
3F154
3E0EB
030DB
3DA18
3DEF5
0039D
3F6D2
3E77D
02570
3FC10
0035C
0194F
00B81
00384
3FF24
3C422
007DB
0354A
0512D
03709
0327D
3E0CF
3D9F5
013D8
3D685
02A9B
3B746
01986
000C4
01F17
3D3BE
0200B
3FFF1
01F0A
0009B
3D871
02050
3D428
3E63C
3D871
3DA1B
3ED03
024E0
3E689
02EAA
0103A
00A7D
00566
016AB
3E99D
3E53D
3EA16
006DC
03385
003FF
3CB00
02D4C
01B74
3EE71
013BA
00F05
3FB6E
3FDF5
00D83
01D65
3FC8B
3E82D
3E33F
3F344
3F440
3F22C
3EC05
01D10
012C1
00B6E
3F060
00791
3F909
01CDF
00B11
01A83
01C0B
3EA01
3F08E
01566
3E348
013EA
00CEA
3CAD3
3D5B3
01865
00FB0
016B5
3B0A9
018C4
3E0EF
3F203
00692
3F096
3F9FF
3D358
011BE
3E413
016A9
3FE47
3D7B8
01CFA
002B8
0107B
3D664
028B0
3F405
3FD2C
3D7FC
01919
3E844
3F3F3
0312D
3F799
04A28
02FA3
00CE3
3E557
02C8D
3DEA5
05613
000E2
3D442
01709
3DD3F
02471
00425
001A2
3EF0D
3DE23
3DBA4
3F00F
3F49A
0089B
0021D
3FBAB
3DBAA
04151
3DD67
00745
3F33E
0205A
01216
01B14
3F2AA
3ED07
03A22
3D68A
00E60
3F401
02986
3DDA4
033D4
3F410
00095
3E744
3F28A
3C69C
3DCE8
3D8BF
015A7
01031
3F162
0188B
015FB
00460
3FCC9
0195A
3E5DD
3F4C1
3DBAC
003F2
0138F
010A8
00A42
00745
0246A
3FC87
0294A
00362
3E4B2
3EC22
3ECC2
3C327
022A8
3E714
3FC52
3DC1C
02583
3C186
3CDD2
03C70
3EE7E
3F3F1
0012A
0174E
3DC4A
00D30
3CF4D
3E79D
01820
01519
0398A
3F6E2
034AE
3EDF6
3F85B
01267
3EE1E
3FC3B
00305
3F23E
3E7F1
000CC
3CB10
3D822
3F8C2
3F758
04105
3FAF0
3BDD1
3FF58
3E2F0
3EBF8
01DEC
00B10
0354F
0313C
3FC1C
3E4E9
01192
008FD
3DFCC
3FCA8
3BE05
3D90C
00254
01896
024D6
3FCA8
3F052
0061B
00E60
3FAD8
3E5FB
3EF79
3E811
02813
3D203
009FE
3DF30
3F3D6
3D9F8
00119
00698
3EA16
0339B
0093E
00BDD
030C0
3FFB4
00B5D
00EDF
01BAF
00970
00D14
3DB29
00979
015CD
03A11
041AC
009E1
3DF6D
3FC03
00837
3C203
02001
3E799
00E41
01201
00ED7
3EEE0
010DE
3F1D1
0285B
3F20A
3D41C
3E995
3E1CD
3DD4B
00DA6
3EBE0
3FF57
0080F
3E9B4
036E2
0349A
005E1
3F8D0
3F3B7
3F910
3E3E3
3F246
0131A
3FD3E
3DD7D
3EAD7
01F2F
006E2
00484
01B6A
00F75
3E9FF
3DEDD
3EFC4
3EC48
3F224
3FCC3
3DD46
3DE48
00225
3DD42
3E6FF
01CB6
0157B
008E4
004AF
03322
3FC90
007C5
3F658
01633
3FB69
3C1EF
3F76D
3D69B
3EAEC
01F0F
3F532
3DB84
01720
3E664
02C3D
00809
01428
00A40
3FA8C
00A1C
3F2B1
02286
3E437
003C6
009C2
0149C
3FE05
008FC
001B1
00B11
3FAFD
02BA1
3EEC8
03AD2
3C0B9
3FCA6
3F6DD
00ED3
01953
3FB61
03E56
005F4
033BF
029BF
3FC8A
00BAF
03DDC
00299
04D9C
3FE58
3D238
3E8EC
3CCA6
3F065
3FDD3
3EAE1
3F20A
3C678
3E95D
3FB7E
3E48B
013DD
0363D
3FD52
3EE0E
3FC09
3DA5A
01432
3F524
026EA
01F21
0336C
01086
3F990
01602
3E567
00D08
3FF56
01C24
3ED2D
031C6
00E13
3EF01
3E184
3E8ED
3EF0D
3C54D
3E291
02605
3D965
3E5F6
03263
01551
00D07
0113F
02D53
3E64A
014E1
3E71B
0069B
00424
00839
01BA2
006B1
00797
00004
01079
00533
3C6B8
00DAA
00F3F
3CB0C
02CE6
3DD0D
3FCAD
004C2
3D378
3F9B3
3E6AC
01705
02D8D
3EF2A
0086E
00671
03970
01397
3F8C8
3FEE0
0108E
00C82
006F9
00E6C
01341
3FC9C
3F066
00CCC
3EF13
3FEB5
0016F
3FFEF
3DE7C
3F41F
0058B
3F039
3F375
01BEB
3E850
3FE60
002C4
02EB3
006F8
3F406
01A97
3F25B
00D03
03111
3C994
00030
0224D
3FBDC
0063B
3F2B0
39A2D
3E329
019E8
3E853
01FAD
3F580
3F583
0030B
01DAE
01218
3EF41
3F491
3F253
019A3
3E999
3F220
0064E
3FD4C
3D4B6
3F7C1
000B3
3F7EF
01873
3F3E8
009BC
025D3
3FD52
3FB7B
017F5
01552
0043A
006C6
3DCB8
3EC38
02C33
3F17A
3F4AF
01976
3FF6D
3E7ED
3F8F8
00162
3EE4C
3EBF6
3E9EF
002DA
3F841
3ED4B
0263D
3F704
3D2D1
00A96
3D23D
3EE2B
3FB24
3FC08
00896
0013B
3FAF0
000F7
0000D
057E8
02498
022DD
3E8FF
3F921
3E2E7
3D1DA
3D97E
0090C
3F3B4
3FC3E
3E9B5
0032A
01FCD
3E871
0034D
0022B
019C4
3F20D
009DF
3FE18
3DAEE
00D27
3F241
3F38A
00A23
3F0AF
3ED74
00812
0010E
004C2
01272
0140F
0031A
0035D
3E31F
3FB24
3F2C2
3E0E2
3F646
3F421
3F571
01B77
3E11A
3DE61
0001A
012AB
3F68C
00EE0
3C98A
00F4B
3FD92
00B74
3EEFC
000F7
3F424
3CDF4
01230
00255
00EE2
022F4
3FC83
3F63C
01147
0320B
3E0F3
3F94F
3C47E
3F510
3F068
3F761
006E1
3FD20
022F2
3EE8B
02665
03A31
0148D
00111
0269A
3E6BD
032A6
3E518
3F262
3FDE3
3FEA2
3D870
009F4
0107A
0079D
3EB7A
003D7
042B7
3CD87
00B47
02561
005F0
3DFE0
3F883
3E853
3EE77
00773
3EB79
019C8
00AA2
00498
3FDC3
02064
0069A
3DB9F
3FA47
01266
3F0E9
3E54C
3E0DD
3EEB0
3E68C
3D93B
00955
3DF47
3DCE3
0285B
3E56F
3E65E
00EF6
3F72B
0191C
013BE
024D0
3E805
3FE68
3BDBE
3F961
01865
3F3A0
3EEDB
002DC
3F9EF
007D4
00285
01A29
3E503
3F5EC
0052E
3D741
01163
00AA8
3F6D7
3E3C7
0067A
3ECA3
3DA4B
3EDD2
003AF
3F09E
3F849
01082
3F8D2
02031
007F3
00725
3F76A
02935
0078B
0030E
00B0C
014F1
00380
3FFA9
00AA9
3FD73
002B9
01575
3F420
00DAA
00C35
3E9DC
3FEDB
00799
002C3
3F6EE
3DBE9
01F11
018B2
3E511
028F2
3F302
0131A
02345
3D46C
3FCD3
3F7A9
00735
3C12B
00171
3AC39
3E82F
3DA03
00E84
0243F
01629
00196
00CCF
0090F
01970
3F185
3EF13
3FEC9
3EFB0
3C35E
01539
00141
00CC2
01DD7
3FD27
0123D
014E3
02C81
3FA49
3FE32
01CD5
3FE6A
3FE4E
00BE4
00F50
00A76
3E9C8
3EF6D
3E2E3
00B31
3F0C9
00193
3FF67
00944
00094
008A2
3EFCC
00D9A
3D425
3F13E
3F92E
007B5
3FAA7
017B0
3EABA
3C584
00C3E
00B56
3C5F8
01FE2
3FED1
00D54
003F8
000D2
01241
3F42D
02954
3EC6F
02142
3FB3F
0146A
00F0A
3D712
3FD60
3ECA7
3FCDD
00298
015C1
3F351
00D50
0018F
012A9
3FBF0
3FBA9
01494
021A1
3F088
3F110
3FCD0
3F60F
3F917
0137D
3EB28
3F9AE
007BB
008DE
00693
00DCA
01AE0
01EFB
3FBA9
3EAD7
3FF6C
3FABC
3D8DB
3F704
3E828
3F5AE
01F82
3DD74
00220
3F5EE
009AB
3FF36
00A71
3F7E1
3E6D1
0044B
007AA
3DE48
0074E
002D7
3FB6C
00177
3EFF7
002BE
01523
0112D
3EE56
0136F
0194A
0052E
019FB
3CC79
0187F
015BD
3FCAE
0010C
3EFEF
00BA2
01A40
011AD
005A7
021D8
3EAB3
024AB
3F18C
033C7
3EA56
007C6
3F096
3F19C
3C378
014BB
00B71
0145A
3D246
00D91
02C9D
3D9E4
002FD
0037D
011D1
3D44B
3F1AE
3E19F
3FB2E
00AA2
003B6
028D1
011DA
004EC
02583
01B04
00D91
3F4D3
3E571
00119
3EBCC
3D95E
00540
00A69
3F13E
3E6D1
3F50E
3F69B
3E9AA
0287D
3E76C
3E0C1
0166A
3E189
01CAE
3FFCF
01896
00CCE
3F570
3C9B7
3E965
01848
3E4D2
3EE55
3F088
3ECA4
006C0
00B0E
3F8E5
00858
3FE1E
0112A
3D850
0115B
006C9
00444
00424
3FC1D
3DE2C
0023D
00621
3F71E
3E932
02A3B
013FC
3E1DD
00D83
01C29
3F49C
002C3
0226D
3EC44
00388
001D0
3F82B
01671
005C9
0065A
3FC0B
01DAD
01EAB
3E218
01298
3FCA7
3E793
3FA1D
0176B
3E237
3FA7F
008C3
0082F
012DC
3FD78
00989
3E6F5
025A5
021DD
3EAB8
3DFAC
02856
02D00
01DCD
3FAD1
3C0CF
3DE87
010FC
3F580
02839
0156A
00CC1
01B52
0261E
037B6
3D613
00D8C
010D8
3E863
3D630
01B30
009ED
3EFE2
3FA41
0119A
3E876
00484
00BFA
3FF4A
3E808
02C59
3EF37
3EC57
3FD63
02EBF
3F177
3EBBE
3C244
016BB
00EB7
3B708
3E9AC
00920
000CB
00FD5
006A5
0015B
3D70D
0133F
3FAAE
010E1
3E743
3FCF1
00359
3E2C0
3FBE4
3EE55
3F55D
00451
00C27
00A11
016F1
0255A
3FFD3
01D52
3F073
0165D
3F007
02AD9
0273E
01268
01471
3E17C
3FF05
00B13
00BCE
025D0
02773
0025C
3DF77
3EEE1
3FA31
3F628
013AC
3FAA7
01405
00121
3FA7D
3F4DD
3EBAE
3FB3A
00B86
3E276
3EACD
01146
3FB7F
3FFBC
3FEB5
0221C
00B30
3F581
3E166
00EC2
01B0A
3F460
00672
00A83
3F6E3
3F77B
3ECBC
00B93
3ED33
01EE9
3E979
01123
3E336
00BF9
00A7D
00CDE
002F2
013DE
0080B
3F81C
0001E
000A4
0142C
03446
3F36F
3F683
00580
00BB1
3F36F
00D6E
3F0E8
0059F
00632
0257B
3F330
3E6E7
023DC
02BAF
014B4
00BB9
3FAA1
3EC69
0197F
010FA
01505
3E808
3D3A8
3F67A
01DD0
3B046
3FF4D
01624
00EF6
3FA54
3F233
02A46
3D87C
0068B
3D68D
01331
3C6C0
3E300
3F54E
0205A
0150E
3F9D2
00C3A
001FD
00A44
02252
01E4C
02BFA
3E482
3F745
004A4
00A7B
3D591
00435
3FC69
3EE11
3EFCE
3E932
3E38B
3EDFF
01F3C
3CD58
3E6BC
0288B
00314
3FB0A
00A9A
030D1
01CF3
3E974
3C9D2
3F705
01DF9
00967
003BA
00F14
3FC4B
038FD
3FCEA
01330
3D94D
00D91
3E2F6
3FFD7
000A2
01CED
3F46B
00BFE
3F4A9
012BE
3EB92
01422
3F904
018D4
00137
01FF6
3D99D
3F6C2
01AF2
3D543
00B66
002F5
007B5
3DF33
014AC
005A8
00C3C
015B2
00288
3F545
3FC6B
01A0E
3F20E
3F4F8
3E7F2
3DA0C
3E43E
01832
00458
3E7CD
3DE96
03A10
005E1
3E53F
01068
3F211
00EA2
000B0
0097A
3E304
019CD
02373
01A90
3F5D4
3D6F4
3F30D
02241
00E5E
02040
032A8
3FEC7
02580
024D1
01A21
3FEAD
02903
009A3
3FC44
3F607
01A85
007B5
0086B
3FCD7
00B95
3F99F
3F3D5
01129
3FC1E
00174
00BC7
0190D
3E9A2
3FBF9
02350
3FB7A
3F73C
3F475
3EEE6
017AA
3F0B5
3E3CA
0037B
3F055
3FC78
3FE4A
3FB60
0140C
3FDC1
3DDD0
3FC00
3EEE8
00EAD
00C31
007D8
00978
3F2E4
3ED56
01877
3EABB
0263D
00AF4
001AC
3E022
02C52
01569
00713
3F103
0234A
01D6E
00F08
3EE13
3E6EA
3F006
01B57
3F52B
3E7D0
3FCAD
00C78
3EA82
3FF39
01F13
3DB8F
01307
3E3E6
00B50
3E68D
3EF9A
003A4
3EB10
3F5D2
0026F
3DC22
3F29F
0103D
008ED
3ED07
3E846
013AD
3F942
3F88F
3F35F
3F700
024F2
3F732
3FCE3
3E73E
3F9B6
3FF97
00FF9
3F4AC
00426
3FDBC
3DAD7
0113D
3F281
004D6
00D19
00974
01146
018F7
01996
00389
01433
3F395
01906
009D1
00A9B
012ED
3F02D
01281
3F80C
00728
3FD71
3EA66
00ADA
00CE6
003A0
3FD08
004B7
0140E
00814
3F80C
00A2F
3E98D
022EA
00F7F
01170
3F3CA
3F827
3E08F
00AB9
3EE96
3F3E4
01729
00960
3F1C0
3FF4F
02AB3
00501
3F25D
3E44B
01DA3
3E825
3F86C
00888
3F746
021F5
3F22B
01A66
01605
3F314
00FB6
02193
00BA1
3EA86
0154B
00C30
3FF92
3E510
0056D
005C1
3F1A5
3E677
00F48
3E200
3DAA8
00525
3DC64
3F6CC
014AA
3FDB7
3D959
3EAA5
025FB
007A9
3F399
3E17D
3F06F
005F0
001EC
3FDD6
3F2C7
00560
3F630
3F4F0
008AA
0034A
3FF91
0013F
3E45B
3FE1D
009A5
3F49E
3E9A3
3FF9C
01324
001D7
3EEA9
000C3
3CE43
002EC
00EA4
3F7B3
007A0
3EA63
3E96F
00043
00EA5
3F748
3DFE8
01130
01AF6
3FBCE
3E08B
3FA54
3E97E
3F4FE
00328
3F2FF
0188E
3E21C
00E24
3F186
01D2B
3FCBC
3F549
3D51D
021B2
3D367
3E98C
3FB84
00F4A
3FF78
0194D
02940
3ADA1
01EFB
3FB39
01BD8
3F613
3E7F2
3EA49
004A3
004B9
0053A
01E82
3DE90
01FAA
00BDF
023AE
3EE3C
3F5CD
03354
3F25E
01721
01D14
3F9E1
015E5
3F3F3
018A4
3F0D3
3F1B9
3EA71
004A2
3F2B2
00416
005B7
3E50B
01BA3
00C41
3F5AF
3F715
00A36
00157
00959
00A39
3EF4E
3F0E9
3F33D
001BD
3EF41
3FFE0
00C61
00E80
3E9E5
0175D
3EA74
0174B
00158
00565
3FCD7
3E912
3D5EA
00096
3EB9B
00364
00514
014BF
3D945
00E72
01B85
3F3E0
3F42F
008CE
005EC
3DF02
3E53F
00FDA
3FE68
3FD9F
0087C
3E434
01B6B
016E6
3F396
00077
0044B
3DDD5
03609
3FB02
3F620
3E50C
3F1B5
00D95
3F783
3F117
00B49
3EAE3
3F26A
3F559
0118C
3F94A
3EA87
00F9A
3F710
3F581
3FEDE
3FC86
01324
00FAA
0080F
01432
3EB44
004C9
3ED75
3FFE6
3DD8C
0007D
011B6
3F1A1
3F8DC
3EFE3
01895
3E2E0
3F19E
00B7D
010E2
02432
3F592
3FE03
00056
016DB
3FB5A
3F09D
01CD4
3D501
00573
00C26
0010D
006F1
3F3F0
0284F
3F4A3
0036E
3E841
00A8D
00FCB
01DA0
3F303
3D6BD
0402C
3DD51
03B29
3F754
00714
3F753
3FC70
00D2E
3E348
3E8C6
0019B
00C3D
3EA5E
3FAF4
00A13
00439
3E015
02AC0
3DCDD
3F49E
0050D
3F89A
010FF
3F428
3FEA1
01312
3E4A3
012AD
0105F
02328
3E07C
3F07F
02FE6
3EEFB
01562
000B5
3FC60
3EC41
3EF0A
0041D
3E1E1
3EB9E
01699
3E59F
3ECFF
00129
02286
3EE37
3DFA0
01EE6
3F02C
3E783
3FFDE
3DC6E
00FAE
00C25
00224
3ECBC
3EEED
3FD62
3FAAE
0086E
3E7DB
002AB
0027A
00036
0024D
007EB
010E6
3F8A6
3FC54
003D6
00739
3FAAA
0032F
3F06D
00FA2
013D3
3DC1D
010EA
3F630
00EB7
00BBA
3F859
3F98E
3DCC5
00319
00117
01519
3F650
3FC36
00835
3FDEE
3FB6B
3EC35
3FFBD
3F6FC
0128B
3F0AE
00199
002DF
002EC
3F956
3FA22
0042E
00872
3F5CF
00AF5
0155E
02D7A
3D7A7
3D60E
0031D
00075
008FE
3E6DF
3EB18
3E7C1
01C91
3FB12
3EA8F
3E6E8
3EF13
02628
017C0
02665
3DA61
3F496
00349
01C7D
00761
00EAD
006FA
3F9E1
3D1D4
010C8
00A28
3DEF1
00307
00486
006C6
3ED38
0097A
3F131
3F93D
3FEE5
0209D
3FDD3
3F783
00734
003BD
00C51
008E3
3FDE7
3FD2D
00255
3FEEE
3FE8F
0022B
3ECB8
3FAC8
0087D
3FE21
003A8
00729
0087A
0014F
3E323
3ED71
3E8D3
3FA76
3E433
014A0
3FC5F
3DDE3
002DB
3F58B
01EF0
3FA00
3EF46
3FAA4
3E15D
0042B
3FDA6
00626
3F665
002F8
3FC6A
3FE3D
3FEA8
3FF27
0016F
004A7
005DB
3FCDE
3F854
3FEE2
3FF35
3E42A
00B0C
010E5
3FA97
00090
3E5B9
3F9D2
3EC39
00B16
3F6AB
3F862
3F96B
3FDBD
3F38A
3F515
3FB2A
3DE2E
00A85
0061C
3E8CA
00E08
3F8E9
00319
015B6
3FB2F
00723
3F765
3F386
01AA0
00FE7
3FAC0
00D40
00116
0055F
3FF42
3DAB4
3FE87
009AE
0148A
00ED1
3E008
3FA3C
3F1E2
3FD36
01AD7
3FC7D
000D5
3E386
3BDF2
0287E
014CC
3E115
0075C
019C1
010A3
3FAAA
014EE
3E622
01437
3F724
04493
00269
3EFAE
0180F
3F378
00A0E
014A6
3E3C8
3FE47
3F83F
3F378
3EA4C
3FBA3
3F2E5
3EB3F
02197
3EC25
3EECA
3F8E1
3EBAB
3E4CC
00173
3F930
3DC5E
3F188
01749
0164D
01950
3EB04
3EBEB
3FEA1
0065D
0148B
009A8
3F222
3FFD0
3CB8E
0035D
00DD2
3FA84
3FE1D
3E97E
3FAD7
3F465
000A7
3E52F
3F363
3F25C
3F2FA
3E91D
3E48E
3F3BE
00602
007C7
020E7
3EB43
00455
00599
00485
3F601
3F55B
00753
3E9E5
01A0F
00422
00AD7
3FE30
00AD9
3FF94
006D3
3F9C5
3ED6B
3FD1D
3FD74
3FFA4
00324
3F002
004C7
3F2B2
3FD88
005F5
0045B
3F575
3F7FE
00098
00407
3FE1E
3EA59
00067
3FBA5
00647
00ECE
3F7F1
00D70
3EF63
00D6D
003A8
00E2D
0034D
0026E
3E112
00E7A
3F163
3F7B2
00620
3D3CA
0076C
010A9
002A2
3FFC7
3EB14
3EF00
010B7
3E607
3ECA9
00C79
00986
3F7F9
3EF92
00F8B
3ED24
3ECE5
01780
01FCF
3F593
3EF4D
00712
02B1E
00291
3F36A
3F6EA
00B67
3EDB8
005D6
3FBAE
3E7BB
00958
00D5F
019B9
0074C
3FB30
3FDF0
3F981
3F247
009D7
00570
3FF18
00E89
3FEE9
00A56
00B4F
3EC85
00045
3FAE0
00171
00A42
3FEC0
0043D
3F5DE
017D7
003B9
00A2D
00382
00A14
3F9E0
3ECA5
3E50E
3EF35
3FD9B
3E7EC
3FF22
3F807
3E8B5
3FF8E
3EF29
0109B
3F2EA
3F66B
3F293
3F2C2
3FD89
0055D
3DFA5
3FD09
3FE20
0002D
3FF61
00766
3F824
00314
3FE69
3EDB6
00EDE
00176
3EE12
3FAE6
3EC11
00193
00182
3EA6B
00AB7
3FC4C
001EE
3F89D
00097
3FF4F
3F322
3E930
00270
00475
00060
0001D
3ECDA
00BA8
00504
3F486
00054
00627
0151C
0057F
000BF
3ED75
3FA24
004C0
3FD91
00C59
3FA29
00728
3E734
3FCBD
3F4F3
3F481
00AE9
3F576
01351
00177
3F1DC
3ED85
3FB2F
0008F
3FE3E
3FCE4
3EEAA
00405
00A77
01062
3F55D
3FB26
3FD6D
01355
023D5
017C1
3F417
00097
00660
0080A
01DF5
3FE2B
3FF98
00752
3EDB0
3F93E
3F5B8
3D9E0
00763
3F972
00535
3FF41
3F783
00738
3E452
3FEA3
3EFB3
00AA5
00362
3FE85
007D1
3F26A
3F7AC
00629
3EE72
3F0AF
0180D
0171C
3E446
3FAFD
3FB3E
026A2
3FC4B
3EFCE
3FA3D
3FAA4
3DF5A
0033D
0072C
3E1BC
00BDF
3DEB1
3FB11
3EEA3
3FCCE
007F3
3E5A0
3E215
0035D
3F238
3FC39
3F3DB
3F2CB
006A4
3FE2F
3EECA
002C9
0002F
00F7C
00FCC
3F63C
0033D
3ECCD
3FD1D
3FC34
008B7
3FC7F
008F8
3EC78
3FD18
0024C
3F3E7
0062F
3F7C6
3FEA4
0025B
3F6F3
3F6C9
3E740
3FE21
3EF61
3FDBD
3F8DE
008D6
3E884
00033
00339
3F67B
00A96
0030C
00BB1
001F2
00109
3E9BF
3F1B0
3FA1C
3F415
009FD
3F4FF
01557
3D7E6
3F9E0
3FA49
3DEE7
00FB7
3EEC3
007D2
3F4C3
3EE3B
3EB59
3E200
3E5D7
3F3E4
3FF29
3F24C
00457
01600
3F575
3E444
00C78
3EAEA
3FAD0
3FAB6
01273
3F546
00019
3F84E
019AA
3F7E7
3FCDD
003A7
3FCC3
3E653
008EF
3F2A4
3FB97
016D6
3F48C
008DB
3FFB4
3FAEB
3F795
3F6E2
3F25F
00290
00332
3F846
3F66D
3F0F4
00006
0020F
3F968
00697
00146
007D7
3FDE1
002F3
3F436
3F2CF
002AD
3F8C9
001CB
3F866
01109
3FA9B
3F087
3EDAA
3F08E
3FC04
3F702
3FF56
3FB99
3EBFD
3FED4
3EA14
3F543
3F2F5
3FCEC
3F6A4
3F86B
3FE8C
3FDDE
0019F
00097
00042
0007E
3FFA1
3FFFB
3FF1F
3FFBE
3FEC6
3FED5
3FEBA
3FF57
3FFB6
3FF91
3EA36
001F1
0016D
3EEBC
00CE7
3F9DA
00480
3F869
3FEBA
3F76B
3F712
3F307
3FBE2
3FF00
3F6CA
3FFDD
3FBF8
3FDCD
3E23E
3FAC2
3FF54
3FE55
3FEFD
3FE64
3F77B
3FDAF
3F86A
3EC2E
007E6
3FD43
3EF3C
3FCC6
3FCA8
3F621
3E80D
3F689
3FD1D
3F505
3FBD3
00036
3ECAD
00075
3EE76
0050F
3F90F
3F914
3F395
3F3BB
3F817
005E3
3E3C9
00FEB
01376
3F980
3FCAA
009B9
3FCF6
002AC
001E5
3FA3C
00EFD
3FFEF
3F646
3FE11
3DC1A
00809
005A0
3E5C5
01266
3FE36
00669
3F3B9
3F7EA
3EF4A
3EC18
3EC35
3EE66
004F1
3F26A
3FCD8
00F0D
3F026
3E238
00828
3F1D7
3F049
3FD73
011E1
3EEA3
3FDC5
3F0CF
00D99
3F9FB
3F7CF
3FC06
3FB2F
3D5DC
3F56D
3FEA4
3DC2A
015D1
3EE80
003EA
3F0D9
3F357
3EE71
3E6D5
3DD75
3F260
3FBAC
3EC21
002B2
3F3D0
3FF02
3FBE9
3FBC6
00CE8
3FBF0
0009F
0044B
3F769
3F9E2
3F708
3F008
3FA9C
00171
3F7E7
3FEA5
3FA42
3F496
000A5
3F7DE
3FFB1
3FA9E
3FDA9
00018
3F3EE
3FB83
3EEEF
3F84C
3F2F2
3FAFF
3FBF8
3FD25
3FAB4
3F508
000FB
3F8D7
3FFFE
3FD5C
3FEA3
00047
3F6D5
3FE3F
3F37E
3F974
3F5E0
3FAF2
3FF07
3FDC3
3E16B
3F02A
3FFC2
3FD59
00BA0
3F2A5
3FCEF
0064D
3F51D
3FB59
3E84B
3DF98
3FBCB
3FCDA
3FD78
00345
009CB
3FBC7
3FDDD
3FFBE
3F6F7
0076D
3FEE7
0033E
3FA6F
3F273
3FB14
3FE86
3F6B8
00316
000B4
00048
3EBEA
3F50C
000E2
3FE7A
009E5
3F681
0020C
001D6
3FC1C
00342
3F87B
3F8FC
3FE6E
3FD89
001DA
0001E
3FEFC
3FA97
00024
3FC9F
000A0
000EA
0000F
00011
3FB35
3FC9D
3F813
3FB46
3FB8D
3FE40
3FFFD
00156
3FA5F
3F48E
3FDFE
3F1DC
3FC87
3F5C0
3FE5E
3FD28
3ED82
3FB01
3E9A3
3F644
3ED37
3FB5B
3F82C
3F94F
3FE45
3FBA7
001BA
3FEB2
00062
00093
3FFBC
3FF4B
3FF20
3FF85
3FF02
3FE32
3FDF6
3FF6F
3FF90
3FF94
3F262
3F808
001A2
3F6E6
00547
3FA44
000E4
3FEF7
3FBA5
0022E
3F574
3F87B
3FBCD
3FCE1
3FC2B
00088
3FBBF
3F8FE
001A2
3FB11
000A2
3FE8F
3FEEB
3FF47
3FABA
3FD6A
3F7FD
3FC03
3F8F7
3FD13
3FD57
3FECF
3FAE6
3F2C7
3FEE0
3F602
3FD5A
3F99E
3FDB4
3FD08
3EFDC
3FB15
3EF13
3F5A6
3F208
3FBF9
3F936
3FAE5
3FE8E
3F900
00097
002C6
3FFAD
0011E
3F7FC
000EB
3FC92
005EE
00666
0000D
009A1
3FA84
011F2
3FF5B
3E87D
3F750
002CD
3ECE7
0033C
3F22E
3FD36
3F8A7
3F057
001C2
3E8E9
3F281
3EEE9
3F975
3F3FD
3FC38
003BF
3F39D
3FB9F
3FBA8
3F92C
3FE23
0002A
002DC
3F2D4
3F583
3F0C7
3FDFD
3F190
002DF
00078
3FB1B
3E36B
3F260
001A3
3F05F
00B50
3ECF4
3FCE5
3FC9C
3EF0C
0061A
3E63E
3EA76
3F112
3F9B4
3F57A
3F9FA
3FC12
3F3EF
0026C
3F89B
3FF4C
3FE6F
3FB00
3FE9E
3F777
002B7
3F590
3FA5C
3F963
3F89A
006A6
3FDEA
3F9ED
3F4EC
00072
3F6C5
3FF0E
3FAF9
3FE1F
3FE61
3F400
3FB29
3EF9A
3F81A
3F157
3FB6E
3FAEE
3FD1A
3FAA9
3F61F
000AB
3F8C7
3FFE0
3FDEC
0002A
3FEEE
3F765
3FD32
3F410
3F8BF
3F523
3FC07
3FB77
3FDB1
3F46C
3F22B
3FFCA
3EE78
3F969
3FDAA
3FE94
3F445
3ECF2
3F851
3EB47
3F2AB
3EC57
3FA8C
3F116
3F792
3FF35
3FCED
3FAB0
3F8ED
3FA54
002BD
000AD
00055
3FF56
3F19A
3FB85
3F93A
3FBE6
00373
3FD04
00904
3FB7B
3F6E9
3FE93
3F840
002BB
3FDFB
00444
3FD1E
3F904
001F6
3F6AA
3F9CA
3FAFC
3FC47
3FA1E
3FC7A
3FEFA
3FBC7
00022
3FC91
000FA
000EF
000E4
3FFB5
3FBFE
3FBD7
3F86D
3FB2C
3FAF7
3FF48
3FCF1
00154
3FA5C
3F3E1
3FE21
3F1D2
3FC92
3F5BF
3FE94
3FD24
3ED7C
3FB0B
3E9A2
3F644
3ED32
3FB33
3F857
3F94F
3FE4F
3FC23
001BD
3FEAF
00062
00095
3FFBC
3FF3E
3FF20
3FF85
3FF04
3FE31
3FDF6
3FF76
3FF89
3FF95
3F8AA
3F807
00199
3F971
00257
3FBCD
3FFBE
3FEEF
3F880
002E9
3F533
3FA44
3F72F
3FB83
3FB5B
3FD21
3FBA2
3F966
00188
3FADE
000A2
3FEA2
3FF41
3FF21
3FACC
3FD24
3F813
3FBF7
3F873
3FD58
3FC87
3FECB
3F9DF
3F3DA
3FF79
3F3EE
3FD2F
3FA0E
3FF59
3FCB9
3F029
3FA48
3EDB9
3F691
3EF61
3FBF7
3F9A4
3FB09
00067
3FFB0
002B5
3FD89
3FF39
00232
0006A
3FA6B
00060
3FF4A
007F4
3FC78
0033A
00010
3FDA4
3FFE3
3F46A
3F1CC
3FE8E
3EFE5
3FE7C
3F057
3FC97
3FB32
3EA22
0033F
3E9A7
3F950
3E9E9
3F82D
3F575
3F8BF
3FCFF
3F521
3FDED
3F4B6
3FA9F
00000
002AF
3FCF0
3F7B6
3F2FC
3F327
3F59E
3F54B
000D9
3F945
000C0
3F389
3F177
0009D
3F000
3FE7E
3F339
3FBD6
3F6BD
3E952
0054C
3E9FC
3F4AD
3E855
3F666
3F303
3F47F
3FB9C
3F6E1
001B9
3F89D
00023
3FD8E
3FF9E
3FDB8
3F933
3FCF0
3F5FA
3FA16
3F697
3FCF7
3FB9C
3FDD5
3F9EB
3F501
00078
3F6C6
3FF0E
3FB36
3FE36
3FEAD
3F400
3FB29
3EF9A
3F81A
3F157
3FB64
3FB04
3FD1B
3FA9C
3F62E
000B3
3F8C7
3FFE0
3FE0A
00030
3FF0B
3F765
3FD35
3F410
3F8BB
3F524
3FC07
3FB7F
3FDB1
3EFB0
3EEBA
000E9
3EDB3
0010B
3F432
3FC98
3F9C0
3E9D5
00739
3E956
3EF0C
3E796
3F82C
3F508
3F9A7
00280
3FABA
3FBBA
3F638
3FBDE
00001
00084
3FD39
3F92B
3FCDF
3FA37
3FAD7
3F8AC
000E8
3FA27
0029E
3F0E8
3F80D
3FE47
3F988
00674
3FF11
003CC
002E3
0009D
3FA0B
3F8D0
3F4A9
3FF10
3FDEC
3FC1E
005BB
3FEF8
3FBC0
00022
3FC90
000F9
000F4
000E4
3FFB5
3FBFE
3FBD6
3F86C
3FB14
3FAF7
3FF48
3FCEF
0015A
3FA5C
3F3E0
3FE1E
3F1D7
3FC91
3F5BF
3FEA1
3FD24
3ED7D
3FB0B
3E9A2
3F644
3ED32
3FB32
3F857
3F94F
3FE4D
3FC2F
001A8
3FEAD
00065
00076
3FFCD
3FF4C
3FF1F
3FF8A
3FEFE
3FE9A
3FDF2
3FF59
3FFBE
3FF95
3F625
3F796
00107
3F9EC
001A0
3FC6D
3FFCC
00062
3FBF9
3FD8D
3F626
3F9F8
3F8C2
3FC7D
3FC98
0014B
3FBA0
3F962
00187
3FADE
000A1
3FEA3
3FF41
3FF22
3FACC
3FD24
3F814
3FBF6
3F873
3FD58
3FC87
3FECC
3F606
3F374
3FF6D
3F49B
3FD37
3F9C0
3FDFB
3FD6E
3F116
3FA07
3EE5E
3F4CC
3F1BB
3FB00
3F99A
3FCC0
3F990
00140
00247
3FE9E
000C6
007D4
003B3
3FC53
0076A
3F098
00BAE
3F5FC
0063C
00250
3FD11
008D8
3F05B
3F29F
3FDCE
3F0B0
3FE5C
3F180
3FC94
3FC74
3ED87
3FE08
3EB62
3F3CA
3EB8E
3F959
3F613
3FC3C
3FC5C
3F518
3FCCF
3F6F8
3FCFD
3FF57
00333
3FD41
3F5E4
3F787
3F347
3F101
3F453
3FFBD
3F9C0
000A0
3F09C
3EF91
0002F
3EF61
0003E
3F1C5
3FC7B
3FB7C
3EAA8
00330
3E903
3F261
3E7C0
3F81A
3F708
3F72E
3FB46
3F70D
001EB
3F89D
00025
3FE82
3FFED
3FEC5
3F933
3FCFE
3F609
3F9AF
3F6B5
3FCF1
3FBE1
3FDD4
3F9C4
3F5D7
000D9
3F6C6
3FFA6
000F4
003D6
3FBC6
3F68E
3F26F
3F5A0
3F2FB
3F22A
00002
3F939
001F9
3F6B0
3F638
000B4
3F8D8
0007F
3FFE5
3FEB8
3FEF7
3F685
3FECD
3F352
3F993
3F763
3FC38
3FC6A
3FEBE
3E910
3F060
3FF1F
3F649
3FB57
002CE
004DB
3FC22
3F9DD
3E519
3F59C
3E53A
3F2A1
000D3
3F8E0
00B56
3FA2B
3FB8A
3FF50
0033A
3FFAD
0073B
00834
3FA9E
00243
3EDB2
00295
3EEF0
3FCAC
00488
3FC1D
00776
3EDD0
3F81A
3FE01
3FE75
0030E
001A5
00054
3FE92
3FA5D
3F9D3
3F3B8
3FC92
001B8
3FEED
3FE0E
002A7
3FF8D
3FBEC
00022
3FC94
00159
00105
00085
3FFC1
3FC19
3FC8A
3F87D
3FC5B
3FBA4
3FF42
3FD72
00157
3F9E1
3F411
3FDE8
3F1D1
3FD95
0053E
009CC
3F84A
3F314
3E657
3F550
3ED0E
3F166
005DB
3F592
003A1
3FEC1
3FE1C
001BC
3FEC0
00078
3FFD6
3FF5D
3FFB2
3FF05
3FFD9
3FEF2
3FF7E
3FE43
3FF2E
3FFCC
3FF97
3F7D3
3F845
3FFF0
3F7B8
00026
3FCC1
3FD27
0019A
3F7D8
0015B
3F2FB
3FDC5
3F92B
3FCC1
3FC76
3FFF6
3F503
3F99C
00188
3FAF1
00141
000B6
3FD1B
3FF05
3F890
3FC4B
3F6E5
3FCB1
3FD0F
3FD92
3FDAE
3FFE4
3F258
3F33A
3FF7D
3F440
3FDC1
3FBF2
3FF21
3FC29
3F0B9
3F99A
3ED1D
3F6C1
3F426
3FC52
3F9FB
3FE0C
3EB84
3FFE2
00273
00D31
00144
0081D
3FE30
3FFB1
005E2
3F546
0018F
3FD04
00B98
00111
002F1
00889
3E954
3F12F
3FCF8
3F0FA
3FC69
3F629
3FEA7
3F8B9
3EDBD
3F672
3E695
3F56C
3F447
3FC30
3F59C
3FEC3
3F580
3F493
3FEAA
3FB65
3FE93
00306
006A5
3FC4A
3FA98
3EEED
3F710
3EBE6
3F6EC
001B9
3FBA8
005AB
3EC8F
3F02C
3FD8A
3F13A
3FB41
3F64F
3FDCD
3FDE5
3EFC3
3F431
3EAC9
3F023
3EDFB
3FA1E
3F69D
0000F
3EA8C
3F7CB
001F1
3F8D2
0022C
002B0
3FD49
3FCC9
3FAA0
3F86B
3F43F
3FB90
001FD
3FE67
3FC91
00281
