BF1F3844
BEDC283F
BCEADDE5
3F036238
3EB838CD
3F29F12B
BE4F28E3
BECF5336
BEDD4F9B
BF24F269
3EAAB16D
BEE08A37
3E94B33F
BD22834D
3EEF35DE
3EEE91C1
BDDC326F
3F5125D9
BDA337F6
BEF4000D
BF3CC640
3F04D1AF
3EC93A85
BF109501
3F0AA508
BEB4A7C7
3EA5F478
3F10A7E2
BF326B91
BE85DE13
BF1152C6
BEC5A012
BEFF4F16
3D9BE7B6
3F06CC34
3E7C2803
BEFDF14E
BF1A98CC
3E080723
3EEB1C38
BE9C9759
BF14A1FD
3E947F93
3E9D1020
BED78DE5
BF2D88A6
3ED50B25
3F1EA317
3F208369
3F1EAD59
3C62FE0E
3D8AFBB0
3E7DE74A
BE72912F
BF0BD81F
3F567C9E
BF1F5BBB
BE5C9F59
BF3586A2
BEB892EE
3F2C5768
3E8B3185
BD5BE437
BF0A7A8E
3F236E8B
3F31C4E8
3F37D89F
BDF68A51
3E67877A
3E3C03AD
3E9A5BE2
BF2A9F08
BF310234
BF26229E
3F243398
3F0A87F0
BEBB4C45
BF1F754D
BEB5CB1F
3D99E6E0
BF059661
BD25E0D2
3EBEE8F0
3F007052
3F00C881
BED222B6
BDFAF25C
BEED7AE7
BEA71585
BEF39EE7
3F07A3AB
3F1AA921
BE840564
BEF16845
3EA3642E
3F40894F
BE44B772
BF200DA9
BECABEC0
BF098489
BE344DB4
BF50C76D
3ED03E44
3D85A317
3EC3D258
3EB1B80E
BE6A713C
3EC8B155
3F238AC8
3ED1B30F
BF45152B
BF350EAF
BE9CA89C
BEDA7EBA
3D0073F8
3EE15C53
3E87C50F
BF2A7D89
3F2E0DC4
3E24A3CF
3F1BEE42
3E61FB68
BF1119B4
BF04226A
3EE6AC14
3E6CE948
BF0462D4
BEAEE6CA
BEF284A9
BF117005
BEDDD833
BE87A7DF
3F34EF0B
3F204AA2
BF259767
3CA7D8B6
BED45CD8
3DE94E39
BF1676CC
BE314919
3E6C2AE0
3F3BBED6
3F0A7BC6
3F0C6551
BEBCA440
3D744BB5
BEF34149
BD96DF24
BDA31841
3EF981CC
BEA3DD2B
BEEAD7B4
3F1DF8E3
3F1DCED0
BEF24459
BECF6FAF
BF0ADD18
BEAD897B
3EDFE3C9
BEA4AB66
BF069847
BDF3CF85
3F02C450
BEDFE6FA
3E4732D1
3DC64E06
BEFBB3FA
BEED1517
3F03DE85
3F3D3818
BEECDAC4
BF201EC0
BEBAB32B
3EAD0FE0
3F4A0A67
BEDF69BA
BF0021DE
BF08F170
BED292BF
BE7DD877
3F07265F
BF0A615D
BE9BCB5C
3F00A7A1
BEEA8EB9
BF07F4FF
BF1C2927
BECB6A9C
BE88E387
BEED479C
3E235468
BF023B7B
3F1966B7
3EEA1535
3DF3137B
BE409A93
BF258706
BD9BDAB4
3ECD20EE
3ECDDDF7
BF0D47B1
BF121826
BF1D4526
BD3FB66E
3EC38AF3
BF0B4A59
3F270A12
3F34625B
BEF5E63C
BF1E58A9
3F0F817C
BE02E263
BD1C71B3
3EEFA8F8
3EB84596
BEE6E8C4
3F147846
3E93F458
BF2D758E
BF36E9A8
3E8D97AC
BEC66C14
3F1F0723
BEAB2EF9
BEB2513D
3EE4DACE
BEB7D0A2
BED50596
BE09CE60
BE892765
3F2640CC
3EF71B52
BE63E8BE
BE28EBF5
3ECCF5B6
BF036DB3
BF06C523
BD43BA80
BE35E801
BEDE0485
BEEF98A8
BF1FCE52
3F1E0204
BF0146DD
3EB22501
BEC6D7BA
3F035087
BEE5E7A2
3F1A08E4
3DBB0423
BE9E8540
BEE8D11E
3F04D366
3EBB553B
BEAAB8AE
BF0F0689
BEF14781
BF3A30B4
3F28C5F6
3EFCB1AE
3E3FDD2B
3F050366
BF1C31FD
BF1290BB
BEBF2D27
3F094D5D
3F33E09E
3F29509E
3F2ED638
BEDBF1A3
BF14BB3A
3E1482B0
3EE4BA98
BECBCDEB
3F166AD0
3EB51601
BEBC9196
BF01D96C
3EFC5A15
BF26937D
BE99493D
3F429E4A
3EB0E6FD
3F149E2D
BF019786
BE8813E0
BE3955A1
BEC18BEA
3EFAF544
BECF29F7
BF19FFE3
3F35DD06
BEEA810C
3F3E3463
BE2EAB94
BF0AC8F1
3F3B21CA
BF02DCB9
BEB7326D
BEA5D4F1
3F05B1B9
3EC34F44
3F1C320B
BE5D64AF
BEFE08E3
BF036E6B
BE92179C
BE3C5DB1
3F0F9C48
BD3FE97D
BE47AA1A
BECDCF08
BDF5D58C
BE5A5F46
BEE801FB
BE5D9753
BE0B8F05
3DA5757A
BE147E85
3F252F73
