7C
76
05
76
6B
7A
72
09
07
77
7F
72
0B
7D
03
14
78
2E
1F
1D
0E
0E
5F
07
7E
6B
17
0E
65
71
06
6A
74
0A
2A
1F
71
18
6B
30
00
72
7A
15
78
52
10
0C
09
0D
03
10
07
0E
11
1D
71
09
7F
07
13
6E
0C
7F
7C
15
02
0E
11
00
72
7C
71
71
0C
04
69
6C
7B
73
79
03
7A
07
0A
77
01
72
6E
77
7F
7B
0C
0A
7A
7B
78
02
7A
77
10
72
03
74
7D
05
07
7C
03
10
01
02
04
10
73
7C
17
65
6B
4A
17
64
04
7D
74
21
79
61
6F
04
0F
6D
70
0F
7F
7F
14
78
7B
7B
1C
1B
04
10
7E
79
02
07
7A
0A
78
16
68
0C
7F
0C
0D
75
75
12
05
0C
07
0C
7C
07
06
14
77
0C
73
05
75
60
03
08
01
76
14
7E
6B
24
68
2D
7A
01
01
12
0A
6D
00
1A
04
01
63
7D
0F
6A
16
73
6B
0A
73
73
7F
70
69
02
79
0D
0E
0E
7E
03
6F
7C
7C
73
7F
04
05
7A
7C
7D
02
74
6D
66
0A
5D
0F
6F
7B
11
02
77
74
09
7E
02
5C
09
6C
75
17
65
61
65
13
67
68
0E
6F
10
57
01
6F
7F
07
79
7A
77
04
7B
0E
61
69
01
18
0F
1A
07
0D
1A
03
12
79
0B
7A
76
7C
77
05
00
01
06
00
72
08
0D
79
0C
04
06
0F
06
63
0C
7B
73
06
77
00
09
7B
08
00
03
0B
7E
04
11
7C
08
0D
01
05
6F
00
06
7C
0E
7D
13
79
7B
02
08
7B
7B
7B
7C
7D
6D
74
7C
77
78
00
08
09
08
7F
0B
73
0C
7C
07
01
7C
00
03
76
02
04
7D
00
79
07
7C
03
00
02
08
7F
02
06
00
04
0D
0B
07
7B
08
71
00
02
72
7B
0C
02
09
01
78
04
03
04
02
02
15
79
02
79
77
00
7B
07
0B
03
07
7D
73
7A
7D
0B
7D
03
7A
6C
0B
7B
7E
01
02
09
00
0B
17
00
01
7A
02
06
10
7B
04
7D
7A
05
7F
78
07
7E
74
7E
03
01
03
14
03
70
06
73
7B
0B
06
0A
0A
7B
7F
75
7C
75
6C
09
07
08
77
70
7B
00
76
6E
7B
04
02
04
04
79
77
78
7C
03
7C
7F
7A
7A
00
77
77
09
0E
7F
6B
78
6F
77
7D
7F
7A
13
78
75
01
04
7E
70
75
5F
07
0A
05
01
62
5F
09
65
08
7F
17
76
03
76
7A
7A
09
06
78
08
7E
05
6B
76
7F
0D
03
0B
00
0E
7E
06
05
01
79
01
0C
08
01
7D
77
7D
00
07
71
07
07
04
01
71
7B
7E
10
09
74
7D
00
00
7C
7E
7F
7F
72
07
08
01
7E
07
0F
04
03
03
7B
7E
71
78
04
6B
79
0D
00
7E
76
0F
06
7D
69
71
05
77
76
01
7C
6E
77
08
0A
01
08
7E
06
7F
7B
7D
08
03
7C
7F
04
7D
04
08
7D
02
00
03
7D
75
7F
7E
00
02
05
06
7F
0C
04
03
05
79
7D
0A
00
0F
71
70
08
00
02
03
72
0A
00
7D
02
06
01
7A
7D
7D
7A
04
7F
10
09
01
02
7B
7D
0A
7C
08
7F
02
07
7C
00
07
02
01
0B
77
05
05
0A
7E
7D
7F
75
7E
09
07
74
77
71
05
01
01
7C
71
07
7B
01
7F
00
08
07
74
78
7E
7F
0A
08
00
08
6E
7A
77
7D
79
74
05
7F
08
73
66
02
01
74
02
7A
0A
03
7A
04
7A
7A
7F
07
0B
0D
02
03
03
72
75
78
08
0F
77
72
75
7B
70
7E
7F
0D
00
00
06
7F
7F
00
6A
73
73
7C
7F
03
04
7A
74
07
77
17
00
7B
7A
16
75
79
7D
6F
0C
7F
09
7F
05
74
79
0B
02
0A
02
02
0F
7F
04
7F
76
7A
04
0E
0D
7F
76
71
76
7C
0F
6C
7E
09
02
7F
00
6F
7B
06
02
73
77
77
0C
7B
02
01
79
69
06
12
00
7C
0A
7E
0B
14
7B
04
02
77
7B
78
7A
7E
0D
00
79
79
00
03
0B
6F
78
75
7D
02
03
7A
78
76
11
01
01
7C
72
0A
79
79
04
7F
08
03
02
09
7F
7B
13
06
00
01
02
06
72
00
0A
78
03
06
06
00
03
03
7C
02
76
7C
12
0D
0C
7B
04
7B
7E
7E
05
6E
0C
05
7E
01
05
7E
79
06
00
05
7D
7E
0D
7E
00
06
7A
08
0A
79
00
78
0D
7D
7E
6D
73
72
06
16
04
0C
04
00
00
03
7D
78
7F
13
0E
76
71
76
04
7C
00
7E
7B
03
09
78
7E
7A
01
05
00
78
7B
7F
07
05
7D
07
72
03
7E
7A
02
7A
03
7B
0C
74
78
7D
02
08
7D
0D
03
06
72
04
7A
7E
07
00
04
06
05
79
00
74
02
72
09
02
7B
7E
00
7B
79
06
7C
04
0E
74
7A
75
08
78
73
05
7E
01
7E
78
09
79
6E
07
0B
09
05
09
79
1E
72
70
0F
75
01
03
7C
0B
05
79
06
7F
0B
14
05
15
7B
03
00
00
7C
02
03
0A
0F
77
14
78
76
79
0F
70
08
07
04
03
00
7A
78
07
03
70
04
00
0A
00
05
7D
7B
76
7B
0A
00
79
0B
71
09
11
75
76
07
05
75
00
01
77
0A
75
77
79
00
09
0A
7A
00
7B
76
7E
04
7E
73
6E
16
7C
05
02
75
02
73
7E
7F
79
7F
08
02
14
7D
7C
05
02
74
7E
7D
05
02
79
78
78
7F
7F
78
03
04
00
75
7C
79
05
05
0B
08
0A
7F
02
75
78
0B
71
7B
07
7F
08
07
01
6D
7D
0A
7F
77
06
12
7F
7E
05
73
7B
10
7D
7E
7F
79
07
71
79
7D
79
7B
7E
7D
0C
7A
7E
79
00
02
78
7D
0D
05
04
74
04
01
76
01
7A
05
00
0D
01
7C
74
74
09
75
7E
02
72
08
06
00
7F
74
77
00
79
7D
73
01
04
06
79
77
7D
07
02
00
02
09
03
78
00
76
08
7F
0B
07
7E
0D
7D
74
70
7B
71
7C
0B
79
04
7D
7B
7C
00
0E
7E
79
7D
03
7E
00
73
7A
7A
06
01
09
69
04
76
72
02
01
6F
07
05
7A
1A
76
05
0F
78
06
01
76
04
0B
76
06
72
01
05
7A
0A
7D
0B
76
71
09
08
07
0B
0F
08
0E
77
76
01
0A
6E
04
08
76
78
0C
04
09
05
00
7E
0B
01
04
79
05
00
04
66
05
08
7A
7E
7C
6D
0A
0A
5E
78
03
04
7B
09
7A
05
07
79
75
7F
01
06
04
7F
01
73
6F
79
02
7F
71
01
06
76
00
7C
6E
7F
72
7F
01
03
7E
02
03
12
01
08
0B
04
77
7E
7C
7B
7E
77
7E
7F
02
7D
7B
7F
7F
04
78
77
76
03
0E
04
05
0C
0B
01
66
7C
7D
78
7E
75
7E
04
0E
0B
00
00
7E
07
7D
05
08
7F
7D
0C
7B
05
08
7B
7D
7E
75
08
71
7C
00
7F
06
73
02
06
7E
02
75
05
09
7C
0B
03
00
09
7E
03
08
7F
06
7A
79
06
7E
03
04
00
03
03
70
79
7E
7B
09
7E
05
03
0B
7B
0C
7A
01
7D
07
05
7D
05
78
6F
00
05
7C
03
0E
7F
08
7D
7A
0A
7D
09
06
7F
0C
01
7A
7A
00
78
0A
0E
06
04
7B
7F
73
79
09
02
00
78
07
7A
7D
79
7C
76
0C
73
04
73
73
7B
75
04
75
73
04
7E
79
1A
07
79
08
7C
0E
04
08
0C
7D
7D
04
71
05
75
7A
08
03
07
79
73
76
08
14
01
7D
7E
11
7E
79
0A
0E
77
06
09
79
79
02
7E
7D
03
7E
7E
00
04
01
7F
09
76
7E
6B
06
06
7D
72
7C
6A
03
05
69
77
04
7C
08
04
08
00
04
6D
75
00
7C
06
00
7C
08
7C
75
05
03
7A
7E
02
01
71
7A
7F
74
7E
73
02
7E
7E
77
7C
01
0D
01
02
07
00
72
78
72
7A
7F
78
7A
79
02
77
7D
05
7C
0C
74
79
77
00
00
7F
77
04
06
01
71
7B
04
7C
72
00
02
0C
09
7D
00
7E
74
03
7F
0B
00
78
04
09
7B
04
01
72
79
77
7B
01
7A
06
7A
7B
7B
7D
13
07
02
00
7D
7E
06
01
7D
02
7F
0C
01
00
02
7F
07
7B
7E
0A
7E
7F
05
7A
6F
0C
73
05
7E
7E
06
7A
0B
07
07
00
0A
7F
01
7F
05
0B
05
74
7A
76
7E
00
77
79
7F
03
78
7D
75
03
05
04
01
7C
00
01
7D
06
7F
72
7F
0A
7F
06
76
72
76
74
08
7D
71
7B
05
79
78
75
79
70
0D
7F
7B
7C
7C
7F
7E
76
6F
70
01
7C
5F
0B
03
02
03
7A
09
7F
07
0F
0B
7C
02
02
05
7C
7B
02
01
7E
75
6F
7C
0C
05
0A
78
7E
0C
7A
76
03
0A
00
0C
7D
03
01
05
02
08
01
71
7B
03
7F
09
08
08
7E
0A
7C
77
06
7F
7B
6B
79
7E
0E
75
02
05
7B
0F
7B
09
7B
75
6F
03
01
09
06
76
07
06
7F
7B
7E
04
7F
7C
01
00
77
71
7D
7F
7D
7E
02
06
00
7A
79
01
09
01
03
05
7D
02
77
01
00
7D
7C
7D
02
04
7F
03
0A
7B
01
00
76
7C
7A
7E
06
76
02
06
00
6C
70
03
0C
7E
7A
7C
7F
0B
00
12
77
00
7B
7C
03
7B
7D
03
07
03
03
03
06
79
75
7C
02
7B
7B
02
7B
0B
02
06
03
01
7E
6C
76
0D
01
08
00
77
0A
02
03
7E
7D
09
00
00
0F
79
7D
0D
02
00
12
78
00
03
02
08
7D
07
06
09
7B
06
01
0A
79
0A
05
06
7E
7C
01
0C
07
7A
7D
08
01
07
04
01
7C
06
03
7F
77
07
7E
07
0A
7E
7D
0A
07
05
05
04
6D
7B
6E
01
74
73
78
13
7E
7B
05
7F
7C
0A
0F
6A
07
6C
7D
0E
7E
00
73
79
70
5F
05
7C
08
7A
01
08
06
0B
08
01
7A
04
7B
03
03
00
01
0C
79
78
74
00
00
0A
03
7B
02
0C
7A
7C
00
0B
01
05
05
79
02
04
7B
78
02
7F
04
01
00
04
7B
07
04
03
72
03
0B
7E
77
74
7D
02
11
73
79
04
7D
05
03
10
7D
7E
73
7F
00
7C
05
7B
01
10
7B
08
01
05
02
79
07
78
7B
72
00
00
7E
7F
04
7D
02
02
7D
7B
03
7F
05
03
7F
7D
78
7D
00
00
7D
7F
02
01
7C
7B
7C
78
00
79
78
71
7C
7A
03
7E
01
79
05
75
70
00
7D
70
09
73
00
76
01
09
7D
09
7C
7E
79
03
01
7D
0A
7B
08
7A
06
7F
04
79
03
7D
03
01
7E
07
7D
01
03
02
01
77
7A
00
03
00
7E
77
7F
0A
7F
03
7E
06
04
72
08
7B
04
03
78
77
09
7E
02
7F
02
0D
76
07
07
03
02
04
7F
06
00
7E
08
05
76
08
7B
09
01
7D
03
0E
7B
01
7C
04
06
7C
09
03
06
09
7E
03
0A
01
7E
7F
01
05
02
04
72
76
73
0B
7D
7D
01
7F
79
7A
05
07
6F
7C
07
6E
00
05
06
01
06
04
7D
7B
7B
64
7D
7A
07
00
04
01
7B
05
01
0A
01
02
00
7F
7D
02
7C
05
76
7D
76
03
0B
06
03
79
01
06
76
7B
0B
09
01
02
03
7E
78
05
01
03
7F
78
7C
05
79
02
05
07
05
03
00
7E
7E
03
7B
6A
7F
0C
11
77
03
00
00
7D
0C
08
01
79
79
02
08
09
09
7B
00
05
01
7D
07
03
7A
7C
0C
79
7D
78
79
02
01
7A
01
7A
07
02
7C
7C
7D
00
05
05
01
7F
76
01
04
06
79
7B
01
06
7D
7C
02
78
7F
05
03
6C
76
7E
00
7F
7E
6C
01
7E
74
79
7C
77
08
03
76
02
72
01
77
09
01
01
7F
77
76
7B
03
7C
0E
7F
7C
09
75
7F
04
7E
7C
00
01
08
7B
02
03
00
00
76
7A
03
05
04
7F
7B
03
03
00
7E
06
06
7E
79
02
7C
7D
04
7A
05
01
78
7D
7C
7D
06
7B
03
03
02
02
09
06
05
7A
00
7E
03
7A
7F
04
01
03
04
7B
04
03
00
79
07
7F
7F
02
02
03
05
7F
05
06
00
03
7F
07
0E
07
7A
6B
76
7A
0F
79
76
7E
05
78
7E
01
06
7E
7B
00
7B
03
77
05
76
05
01
79
08
07
6E
01
7D
7B
03
7E
78
02
78
7B
01
7E
7D
7C
01
7D
78
00
0A
7A
78
71
7F
06
02
02
7D
02
03
7D
7E
0F
09
00
03
02
7C
77
04
7F
7E
7E
01
04
02
7D
7F
03
04
00
7E
02
07
02
7F
73
72
01
0C
0D
7C
7E
7B
78
7F
07
0C
04
7D
78
00
06
7F
08
7D
00
07
7D
0B
0A
01
7E
7C
06
02
06
7A
78
7F
00
7F
7D
7A
03
08
7D
7E
7D
03
05
7E
7E
7F
7D
7F
03
02
7C
01
7E
09
7B
01
02
03
05
00
7E
72
79
73
74
01
7A
6D
00
00
7A
01
04
02
78
00
7B
78
01
72
78
05
04
7C
7F
02
7E
7F
03
78
09
05
00
03
7A
02
05
05
7B
7E
03
05
79
7A
7A
05
02
79
79
7F
04
79
07
7F
7E
06
7E
08
05
02
7C
7C
08
7F
7C
01
00
7B
00
04
7F
00
00
02
02
01
7E
04
7D
03
00
02
7E
02
02
7E
7B
04
7D
0C
02
7D
7F
07
7E
01
7C
7F
02
06
04
00
03
05
00
06
05
00
7D
03
7E
00
7D
7D
75
7B
7E
06
7D
7E
78
0A
7C
7B
00
09
05
03
76
7D
7E
7C
05
09
0B
0B
00
07
0D
7B
01
7E
7D
7F
01
7B
01
79
03
05
02
00
02
02
7E
7D
02
05
75
79
77
7C
7C
7D
02
7C
01
01
02
00
06
07
7E
05
77
78
7A
78
01
00
7D
02
7E
00
7F
05
06
07
00
7A
03
01
01
79
7F
7A
77
7C
01
7F
78
7E
7D
02
06
03
7D
00
79
7E
7B
7F
04
7B
02
01
7E
03
00
02
00
01
05
01
05
7C
7B
7D
7C
7F
02
7B
79
05
78
02
01
7E
05
7F
00
7D
7D
05
00
7E
7D
7F
7D
03
7A
7C
05
7E
05
02
00
74
7A
78
77
77
03
70
76
7C
73
03
07
02
7F
79
08
7F
79
7E
7D
07
06
7D
7C
06
79
04
01
02
7E
7B
02
78
01
05
7B
7F
7F
7D
79
07
00
06
00
7F
7D
7A
7C
7D
7B
7F
01
7D
00
01
01
7F
7E
00
7D
03
7B
7B
7E
7B
03
08
7D
03
7B
7D
79
0A
02
08
03
01
7F
02
00
7D
7E
03
05
7E
7C
01
7E
05
00
79
02
06
7A
7C
7F
7C
7E
03
01
01
03
01
01
08
04
03
00
01
07
7E
00
7A
7B
01
7D
7F
7D
7E
7F
03
7E
77
03
04
72
00
7C
73
02
72
03
75
00
02
7D
0B
03
77
7B
7D
7E
7A
7F
00
7B
7C
7C
05
00
7D
7E
04
7A
00
02
05
77
75
76
7D
00
7E
02
7C
02
05
05
00
06
03
7D
08
7D
77
7F
03
7E
7D
05
05
04
01
05
07
7E
03
7A
7E
07
7D
02
7F
77
7E
7F
7F
03
01
02
7F
7F
00
01
7F
7C
79
7B
7B
7E
7E
01
7D
7F
01
07
00
03
02
00
79
07
04
00
7A
7C
00
01
00
7B
7A
7F
03
7B
7E
05
79
02
02
03
7D
78
03
7F
04
7F
7D
03
7F
7E
7E
03
72
07
04
7C
76
7C
7E
7F
7C
78
72
7E
7B
77
7B
09
7C
03
7F
7E
7C
78
7D
01
7F
7D
7E
7E
00
7F
7B
02
01
05
00
01
03
7B
06
06
0A
7C
78
04
0A
7E
01
7F
00
7B
77
7D
7D
7E
02
7F
7D
7D
01
04
7C
05
02
7B
01
02
7D
06
04
79
03
01
08
02
7A
05
05
7D
05
7C
7D
7E
7C
01
01
7C
01
00
03
7E
00
05
04
02
7E
7F
03
7C
7F
7A
7F
00
7F
05
03
01
03
04
07
05
7F
03
77
01
7E
02
7E
77
07
7D
04
79
7C
00
7E
01
78
7F
00
02
7B
7C
7D
76
72
00
7D
7F
07
02
0B
07
02
05
00
01
00
01
7F
7F
7F
7F
7E
7F
7F
7F
7F
00
00
7F
03
76
78
6E
7B
09
7D
08
73
7F
07
02
7C
05
7A
7D
01
77
7A
75
7C
02
00
06
7A
00
06
02
7C
04
7E
7B
79
00
00
7F
7F
78
78
03
04
7F
7F
03
7F
7F
79
00
04
7A
7A
77
7A
04
7C
04
79
00
03
01
7F
7F
7D
01
76
05
02
04
7A
7B
01
7A
05
7E
7A
02
00
7D
7C
0A
7B
7F
7F
00
7C
7D
08
7F
01
7C
7D
01
7D
7E
01
04
70
08
02
7E
73
7A
01
7F
04
73
75
04
7E
79
77
0B
7F
02
01
01
00
7D
01
7E
00
7F
7F
00
7E
03
7E
00
77
7F
00
03
7A
7E
09
7D
03
7E
7F
04
7C
00
79
04
03
7B
78
75
7F
04
7F
06
74
7F
03
7F
7B
00
7D
7C
7A
79
7C
7B
79
7B
08
7F
00
7D
02
03
7C
02
02
02
02
7E
7C
7F
7D
7D
01
7F
7D
7E
01
01
00
7F
02
7F
01
7C
00
7D
7E
01
02
02
02
00
03
02
01
04
7D
7E
7C
01
7F
01
7E
7B
06
01
7D
7B
7C
00
7D
7F
00
7F
7F
7F
7E
75
7B
7E
6F
05
7E
01
05
06
03
06
7C
00
7F
7F
00
01
7F
7F
7F
00
00
00
7F
7E
7F
7F
7F
00
04
00
7A
75
7D
06
77
05
78
7F
02
00
7F
04
78
7B
00
7E
7C
7A
00
01
7F
03
79
7F
02
02
7B
04
7C
7A
00
7F
7F
7F
7F
00
7F
7F
00
7F
7F
7F
7F
7F
7F
7F
04
01
00
7A
7D
06
7E
03
7F
7E
01
7F
01
03
78
7E
77
02
00
7E
7B
7D
0A
7D
01
79
7C
7D
00
7D
7E
06
7C
02
01
01
7E
7C
08
7C
03
7C
7E
00
7F
03
7D
01
74
04
7C
7A
74
7C
0A
7C
02
6F
76
7D
7E
7C
7A
05
7E
02
00
7F
7F
00
7E
00
00
00
7F
7F
7F
00
7F
01
78
7F
7D
7E
7F
7D
0C
7F
7D
79
7E
02
7A
03
7E
00
04
01
00
7B
7F
05
78
04
7D
01
01
00
7F
02
78
7C
7B
7E
7D
7D
7E
7E
07
01
7C
7A
7D
02
7B
03
7F
7B
02
00
03
7F
7F
01
06
7E
02
7D
01
00
00
06
7D
7F
01
7E
00
7D
00
7F
03
7F
01
7F
02
02
02
07
00
7D
7C
02
03
01
7E
7C
06
7B
05
7A
7E
00
7E
07
7B
03
03
01
7F
78
7B
01
78
03
00
00
02
01
02
08
7C
7F
7F
7F
00
01
7F
7F
7F
7F
7F
7F
7F
7F
7F
7F
7F
7F
03
7D
7D
7A
7C
03
75
02
7C
7F
02
7E
01
01
7A
7F
02
7D
7F
7C
7C
02
78
03
7F
00
02
01
02
02
7D
7C
00
7F
7F
7F
7F
00
7F
00
7F
7F
7F
7F
7F
7F
7F
00
01
01
7E
7A
7E
04
78
01
7E
00
01
7D
01
7F
79
02
7D
03
7D
7D
7D
7E
06
7B
7F
7B
7D
7D
7F
7F
7E
7F
7E
02
7E
7E
7F
00
01
7E
00
7E
7F
7E
00
7F
7C
01
78
06
79
7A
78
7D
08
7A
7C
74
77
7A
7D
7D
7C
01
7F
7F
00
7F
7F
00
7F
7F
00
7F
7F
7F
7F
7F
7F
7F
00
01
7D
7A
7C
00
01
7E
01
7C
7E
00
00
03
7C
7C
01
7F
7E
7B
7F
03
74
04
7D
7F
01
7F
00
7E
78
02
7F
7F
7D
7B
7C
01
7D
00
01
7E
00
00
00
03
7D
7C
00
01
7E
7C
00
01
7B
7F
7F
01
00
7F
02
7F
7B
01
01
7F
7F
7E
00
00
02
7E
01
01
02
01
02
02
7F
7D
7E
02
7D
7D
00
01
7C
00
7F
7C
7D
7E
01
7E
7C
00
7E
7E
7F
79
7D
02
7A
02
7F
00
7F
7E
7F
01
7A
02
7F
7F
00
01
7F
7F
7F
7F
7F
7F
7F
7F
7F
7F
7F
7F
7F
7E
7C
7F
7C
7F
7D
00
7B
7B
7F
7F
7F
7F
7F
7E
00
7D
00
7E
00
01
7D
03
7F
7D
01
00
00
7F
7F
7F
00
7F
7F
7F
7F
00
7F
00
7F
7F
7F
7F
7F
7F
7F
00
00
7F
7F
7F
7E
7F
7E
7F
7E
7F
01
7F
00
7E
01
7F
7E
00
7F
7F
7C
7F
7F
7D
7E
00
7D
7D
7F
7E
7F
7F
00
00
00
00
7F
7F
01
7E
7F
7F
00
7F
7F
7F
00
7F
7C
00
7C
7C
79
7D
7C
7C
7C
7A
7A
7A
7D
7D
7C
00
7F
7F
7F
7F
7F
00
7F
00
00
7F
7F
7F
7F
7F
7F
7F
7F
7E
00
7F
7F
00
00
7F
00
00
7E
7F
7E
7E
7F
00
7E
7F
7E
7E
7E
00
7F
00
7E
7E
7F
00
7F
7E
7F
00
00
7E
00
7E
7F
00
7E
01
7F
7F
7F
7F
7F
7E
7F
00
7F
7F
00
00
7F
7E
00
7E
7F
00
02
00
00
7F
01
7E
7F
7F
00
00
01
7F
03
7F
01
00
02
01
01
00
00
7F
7D
00
7F
7F
7E
00
7F
00
7F
7E
7E
7F
7E
7E
7F
7F
7F
7E
7F
7E
7E
00
7D
00
7F
7E
01
7F
00
7F
01
7E
7F
00
00
01
7F
00
00
7F
7F
7F
7F
7F
7F
7F
7F
7F
7C
7F
7B
00
7B
7F
7F
7E
7B
79
7D
7E
7F
7E
7E
7D
7D
00
7E
00
7F
00
01
00
7E
7D
00
00
7F
7F
7F
7F
00
7F
7F
7F
7F
00
7F
00
7F
7F
7F
7F
7F
7F
7F
00
7E
7F
7F
00
7E
7F
7E
7F
7D
7D
7F
7F
00
7E
7F
7E
7F
7F
00
7F
7E
00
7E
00
7E
7F
7F
7D
7F
7E
7F
7D
00
7F
00
01
7F
7F
00
7F
7F
00
00
7F
7F
00
00
7F
7F
7F
7D
7C
7A
7D
77
7F
7C
7A
7A
7A
7E
7D
7C
7E
7F
00
7F
00
7F
00
00
7F
7F
7F
7F
7E
7F
7F
7F
7F
7E
00
00
01
00
00
01
00
7F
7F
7F
7F
00
7F
7F
7F
7C
00
7E
7F
7E
00
7F
00
7D
7C
7E
00
7F
7E
7E
00
7D
00
00
00
00
01
01
00
7F
7F
00
7F
7F
7F
7E
7F
7F
00
00
00
7F
7E
00
7E
7F
00
01
00
00
7F
00
7F
00
00
00
00
01
00
04
7E
01
00
01
00
01
00
00
7F
7F
7F
7F
7F
7E
00
7D
01
7F
7F
7E
7F
7F
7F
7F
00
7E
7F
7F
7E
7E
00
7D
00
7F
7E
7E
7F
7F
7E
7E
7F
7E
00
00
01
7F
00
01
00
7F
01
00
7F
7E
7F
7F
7F
7F
01
7C
02
7C
7F
00
7F
7A
7A
7E
7C
7E
7E
7E
7D
7E
00
7F
7F
7E
01
01
7F
7D
7D
7F
7E
00
7E
7E
7F
00
7F
7F
7F
7F
00
7F
00
7F
7F
7F
7F
7F
7F
7F
00
00
01
7F
02
7E
00
02
7F
7D
7E
00
7D
7F
7E
7E
7D
7F
7F
7F
7F
7E
7F
7E
00
7F
7F
7E
7E
7F
7E
7F
7E
00
00
00
00
7F
7F
01
7F
7F
01
00
7F
7E
00
00
7F
7D
7F
7C
7C
7B
7D
75
7F
7D
7B
7B
7D
7E
7C
7C
01
7F
00
7F
7F
7F
00
7F
01
7F
01
7F
7F
7D
7F
7F
7F
7E
00
00
00
7F
00
02
7F
7F
00
00
7E
7F
7F
7F
7F
7F
01
7E
01
7E
00
01
00
7C
7E
7F
7D
7E
7E
7E
7E
7E
00
7F
7F
7F
00
00
7F
7F
7E
7F
7E
7F
7F
7E
7F
01
02
00
02
7F
00
05
7F
7E
01
00
7E
7E
7F
7F
7E
00
00
00
01
01
00
04
7F
00
02
01
00
00
00
00
7F
01
01
7F
01
7F
01
02
00
7E
00
7E
7C
7D
7F
7D
7E
00
01
7F
00
7F
02
01
7F
7E
7D
7E
7C
7F
7E
7D
7F
0A
74
13
06
04
00
73
74
19
07
0B
77
74
74
78
0B
71
73
6C
0F
7C
04
4A
0C
07
0C
0C
67
11
54
70
12
01
03
04
00
7E
7E
0F
7C
7E
7C
00
02
7B
09
03
79
7C
77
00
7B
05
06
79
06
7A
7B
00
7C
01
78
7E
09
7B
70
06
04
7C
0C
4B
05
23
07
0D
66
0B
75
68
1B
09
0A
15
74
7A
7F
1F
66
0D
7E
05
04
6D
30
03
73
78
7C
0B
7A
06
09
10
7B
06
7B
7E
04
00
15
02
7B
7E
7B
04
6B
71
7C
77
7E
07
7A
05
75
74
0A
7F
05
16
00
0C
7D
77
00
7E
71
06
06
05
06
7A
03
00
78
0E
0C
19
74
7C
02
26
61
12
01
08
03
6A
3B
02
70
7A
6F
77
7E
7A
0B
47
0F
19
07
0B
67
0E
6B
6C
17
03
02
14
72
7B
7D
0E
7C
19
7A
7F
05
76
20
02
7C
7C
6E
0D
02
07
11
5B
7E
1E
05
0D
6F
01
7F
6A
19
00
7D
0A
07
7F
09
79
73
0F
7E
09
7E
7D
07
77
02
73
67
7D
7C
09
18
76
03
72
05
06
78
03
7E
7A
06
7E
02
00
04
00
00
03
01
7E
00
01
7F
7D
7E
7E
7D
21
7C
0D
6F
71
06
7D
11
7D
75
75
00
05
01
70
74
6B
7A
76
12
7D
01
79
75
79
15
0A
5E
7F
69
7C
13
6D
71
6C
0B
00
12
5A
08
76
02
02
78
19
5C
71
0A
06
7E
79
12
10
03
00
66
66
11
04
77
75
74
04
07
7B
0A
02
09
7B
7B
00
7F
02
0D
09
76
00
07
7E
04
0E
7D
09
71
07
74
08
0E
1B
6E
7C
7E
05
0D
01
7E
01
7D
06
7D
06
78
0D
01
05
7A
7C
00
02
07
05
7C
00
79
06
67
6F
77
07
09
1F
75
7D
6F
72
09
76
09
12
7C
0D
64
04
05
5E
09
07
6A
7C
7B
07
7E
7D
08
03
72
77
78
04
7F
69
15
7C
78
01
7A
1A
72
01
0E
7C
7F
75
0A
7B
05
78
00
6C
0F
08
74
01
75
7F
0A
7F
70
6F
78
76
1D
68
13
6A
7C
7D
7E
15
72
7C
09
02
07
05
04
73
79
12
79
7B
7F
00
07
7D
13
11
7D
70
05
7D
03
79
04
77
78
0B
7C
0B
74
04
7E
7F
08
00
7E
0B
09
00
69
05
72
75
09
00
7F
7D
09
11
08
16
7B
15
0E
08
71
1C
76
12
08
07
00
76
70
03
7F
11
78
01
71
72
14
6B
17
73
76
06
08
07
7A
74
01
7D
03
00
04
03
78
09
7F
7D
7B
03
6D
00
00
0C
06
76
08
74
0F
79
72
7F
79
6F
0A
05
7C
75
7D
0A
7C
12
0F
00
08
07
72
7D
6C
0A
12
03
71
04
04
71
77
7F
03
06
04
7E
79
06
05
04
7F
04
7C
03
03
04
76
13
77
0A
7E
07
7E
79
07
0A
77
75
79
04
75
72
03
0C
7D
12
7E
04
7A
7C
7F
0E
7D
7D
6F
0A
06
00
06
77
62
7B
69
7B
08
78
02
15
74
67
66
05
69
75
02
15
77
7A
77
01
00
66
08
07
6B
10
7B
08
77
04
13
05
05
09
0E
7A
7B
01
03
76
02
77
7A
03
07
03
02
00
05
78
0F
77
6E
78
7D
74
07
04
75
7F
76
08
04
13
7E
03
00
7A
78
74
0A
70
18
01
7E
06
04
03
02
7C
01
7F
7E
75
00
03
7E
00
01
02
7E
77
02
0B
79
76
01
7E
05
7A
04
08
77
09
00
7F
7D
79
04
0B
7F
7D
7F
7E
07
7A
7F
02
77
03
05
02
6D
05
7D
0E
07
02
7E
01
7A
0B
77
09
0A
0A
71
73
01
13
7F
75
78
0E
75
07
75
79
7E
75
0C
78
05
09
09
78
7D
7F
0B
03
7E
7C
0A
7C
7E
01
7C
7F
7F
06
7A
73
72
7E
7F
01
02
07
14
73
6E
7C
6D
00
74
03
74
05
02
0A
08
05
15
02
10
77
72
0E
73
7E
0F
76
73
0F
10
6B
6F
7B
08
0B
7D
06
75
72
07
0B
7E
0B
7D
78
79
79
03
0E
0E
7D
7C
0B
72
7D
06
7A
06
7C
05
06
7A
74
7D
0A
07
77
01
7D
01
0C
03
06
0C
00
77
05
7B
7C
02
06
07
77
7F
0A
04
7E
0A
7F
74
75
7B
75
78
6F
7D
17
78
07
76
05
05
6E
79
01
02
11
07
7D
78
01
19
01
08
07
7A
7D
78
04
01
02
7F
0A
08
7F
08
01
00
7F
0A
7F
01
72
02
79
77
7A
01
04
78
7B
02
08
05
01
7F
09
0B
77
69
7D
06
00
10
0C
00
01
08
7F
7A
72
0E
06
01
7A
02
00
08
06
04
09
03
01
0C
07
03
76
0A
7D
01
03
03
7F
7F
04
7C
06
00
7C
7A
0D
00
75
01
78
04
70
09
0C
6B
06
7A
77
74
08
0B
05
06
0B
78
00
75
06
02
05
0B
78
13
78
0A
02
7D
74
78
00
71
05
7D
04
7A
74
7E
05
08
0A
10
05
7F
0D
0F
03
76
7A
01
7D
02
00
01
02
78
7C
03
7A
09
0A
00
7E
0B
0D
00
75
06
03
74
0C
7A
01
7A
06
0B
0D
10
79
09
79
05
7E
73
0F
75
74
7E
76
71
07
0D
67
6E
7E
00
02
7E
7D
79
7F
02
03
7F
00
7D
05
0C
07
0A
0F
19
79
7B
0F
63
7C
01
71
1B
04
00
06
7C
70
02
01
09
7A
03
7F
06
04
75
7B
06
79
00
00
7C
7B
01
11
7F
03
7E
0C
79
7B
74
00
0E
77
79
7A
09
7E
07
19
6F
09
02
01
72
65
71
07
0E
11
12
09
7A
09
21
77
0F
77
01
79
75
07
0A
03
05
79
03
03
05
7B
7C
0E
08
74
7D
7C
7E
02
7E
7F
02
02
7F
09
05
08
09
01
09
03
00
7F
75
71
09
04
06
03
09
0A
0D
09
06
02
7B
0A
06
7B
02
75
06
7F
04
05
78
03
04
0D
7F
01
07
03
05
7F
0C
04
79
06
7C
03
77
00
00
02
7D
76
06
7A
7E
7C
0B
09
66
05
73
78
75
79
02
0A
05
7F
7D
7A
7F
05
7B
02
0C
76
0B
04
08
01
79
73
7A
02
7C
04
72
0B
76
75
7F
0B
0B
7E
14
0B
07
08
13
0C
7A
02
7E
04
06
7A
75
7D
0C
79
07
03
09
06
0B
02
09
7B
75
78
02
01
72
07
03
79
06
08
15
0C
12
7B
0B
6F
75
04
04
0E
78
75
76
7A
7C
6E
7F
6B
72
77
00
0C
7C
78
7E
79
7F
00
7B
02
7F
7E
0A
01
0F
70
0B
08
00
7E
6D
7E
10
6B
01
0D
01
7F
7B
06
03
77
7D
02
0E
02
75
12
7E
01
7D
7D
70
7A
04
00
79
7E
6E
09
01
05
00
7F
6D
6E
11
78
7A
79
05
02
0A
15
74
01
02
0B
7D
6F
6F
09
1C
12
12
07
78
03
13
7F
0A
00
02
74
72
79
0A
06
03
02
01
06
7E
04
0D
05
7E
00
01
7D
06
00
79
01
79
01
7C
7C
02
03
04
78
08
02
7F
00
6F
04
09
75
0E
06
06
03
0E
0D
06
01
7F
05
7E
75
05
7A
02
01
7E
7F
79
07
05
01
08
10
75
06
07
04
06
08
74
02
05
7D
73
7C
04
08
00
06
02
79
03
00
00
0B
6A
09
78
00
72
7B
7F
79
7E
71
04
7A
7E
04
7A
06
16
78
7F
06
00
7B
74
76
67
05
01
09
77
04
69
7E
01
0F
0A
08
12
00
05
7D
06
04
7A
09
7E
05
77
78
71
7B
0B
00
7C
05
06
06
0B
0C
7C
00
73
7C
7B
00
77
00
0B
00
7F
7E
0C
07
09
72
00
79
7A
0D
02
08
0C
7D
7D
75
0C
73
00
6E
77
05
7E
0E
75
75
75
7A
03
78
04
00
7F
01
07
07
0A
77
0E
7E
7A
77
74
78
09
76
02
06
04
00
04
09
01
7A
7A
05
03
7C
09
06
7C
07
74
7D
74
7B
04
7F
01
0A
7B
7E
12
03
78
7E
6D
70
03
03
71
7C
06
7E
7E
09
0C
73
78
7F
7F
73
76
01
0D
0E
0D
09
77
7B
10
71
04
7D
75
7F
7B
7D
03
7C
0B
09
01
7C
05
7F
09
06
7C
02
73
00
7E
7C
79
00
01
7C
7D
04
06
01
0F
77
08
7A
72
7E
77
08
08
7D
11
06
0E
7A
10
03
0F
04
05
7E
01
7B
79
76
02
7D
07
08
79
01
7A
7C
03
00
7E
03
09
7D
07
08
72
7C
78
79
6F
7C
7E
03
7F
08
7D
01
09
78
09
01
75
12
73
7F
71
7D
7C
78
01
5A
01
76
09
78
7F
0A
15
0B
79
7C
0B
00
76
7F
69
02
7F
7C
6E
7F
7F
7B
03
08
7D
0B
0E
7B
03
06
0C
0C
77
04
7C
0C
6F
05
79
75
04
7F
02
00
00
05
03
07
08
03
71
08
7E
04
78
7A
07
7D
7C
03
08
06
0C
02
79
7E
73
0C
7C
7B
05
02
07
70
02
70
00
78
78
07
09
02
74
7B
76
08
7B
71
04
7E
78
03
79
06
03
77
08
05
77
7B
79
7F
0C
7D
07
07
00
77
03
05
0D
04
03
7F
0C
7E
00
07
74
08
7A
03
79
01
02
02
7A
03
09
02
0A
05
6F
7B
68
6C
73
03
76
7D
7D
7B
7F
00
0F
75
03
04
01
08
07
7D
7D
0B
0D
7B
6C
6A
03
7C
04
06
7C
7C
7D
79
01
03
0A
05
78
7F
01
02
13
06
04
7B
74
09
7C
7F
7F
7B
01
7E
00
06
7D
7D
0A
03
10
7A
68
7F
73
05
7D
73
07
08
00
78
05
0A
09
01
7E
7E
74
77
08
7B
00
79
01
05
74
05
7C
7C
0F
10
77
08
0B
7A
00
0F
72
05
00
76
76
03
00
04
02
04
00
7F
02
7D
09
0A
76
0F
6B
04
77
02
7D
77
7B
57
03
75
11
78
06
03
0A
08
7B
6F
0D
04
74
03
6E
7C
0C
7A
6C
6D
01
04
05
07
7F
7A
09
7E
79
01
00
0C
76
05
7D
0E
75
02
71
7A
06
7F
03
78
01
7F
02
0D
00
7F
6F
03
7F
04
7B
7C
0A
7D
09
7E
03
01
09
0A
71
7D
7A
0B
7E
71
7D
0C
0F
79
0B
70
77
05
7D
0D
7E
01
78
03
74
09
79
72
03
78
7B
7D
7E
07
08
79
09
7D
07
78
78
78
0A
71
06
07
7A
00
03
08
06
76
03
06
0A
79
04
01
7C
7C
79
7F
79
06
05
00
7D
75
78
02
10
7E
76
0D
72
6E
72
03
71
76
7F
7E
6C
75
0F
7C
02
7C
03
7C
03
08
77
0B
01
7C
72
79
07
7A
05
01
05
77
00
77
09
7A
06
02
7C
04
01
09
0D
12
01
06
71
06
7C
75
7B
07
02
79
7E
7D
7C
7F
0D
03
09
75
6A
79
7E
07
01
7C
08
7F
0E
7A
7F
08
06
0D
03
03
75
7C
04
03
78
7D
7A
7A
7D
04
01
02
01
09
7A
0C
06
7D
7C
03
75
00
7D
00
75
05
0B
02
02
78
04
07
05
02
0D
07
74
01
69
7E
79
00
01
7C
78
5F
0C
7B
11
71
04
05
06
7B
7B
03
06
02
75
0B
73
74
06
7D
79
7A
03
79
00
06
7A
7C
0C
77
77
7A
7F
08
78
01
75
17
79
0C
75
05
07
7D
04
71
06
7E
03
02
07
00
75
13
7F
05
7C
0C
04
7D
7D
7B
04
7F
02
06
6E
04
7D
03
7A
68
05
0B
11
7C
03
7A
76
06
06
08
03
7C
7E
7E
7B
03
77
72
02
7D
7A
7A
06
03
05
7D
04
03
7E
6F
01
70
05
73
0A
03
7B
06
04
07
06
03
01
02
07
7B
01
7B
7E
01
00
04
77
02
02
02
7D
74
01
00
09
7D
75
0D
71
79
69
00
6F
77
04
7F
6F
7C
03
06
7B
00
06
7C
7D
00
7B
06
00
70
72
00
7C
77
09
08
7A
04
0A
7D
01
00
01
03
01
04
06
05
06
0E
7C
7C
75
06
02
75
7B
03
0B
7F
02
77
7A
7C
0D
79
0C
7E
73
7D
00
76
09
02
0A
03
7A
06
75
01
0A
7F
09
7B
03
7B
04
7F
7A
7A
7B
7F
7D
04
7A
7F
01
07
7D
08
02
02
7E
0E
7B
7B
79
7E
7C
7D
0C
7F
7D
79
02
7D
04
02
09
0A
78
03
6F
04
79
78
7F
7C
7A
73
7E
78
7E
6E
01
00
7E
73
02
78
0D
0E
7C
11
7F
7E
0D
7F
7A
7B
7F
07
7F
05
78
02
7F
78
7C
7F
7C
0C
73
7A
77
0E
7C
08
6E
05
0B
7A
03
74
0A
74
0A
0E
01
7A
78
05
75
7C
74
07
0B
7E
01
79
02
7B
04
07
01
7F
7A
03
7E
7B
7D
0D
10
7D
7E
08
05
7B
07
03
7B
7E
7F
08
7C
0A
79
75
00
7C
7F
76
05
7C
05
76
04
06
05
72
7F
76
04
6E
00
02
78
04
7E
04
00
7E
03
00
05
7E
7E
01
7E
02
03
01
7C
07
02
01
7F
6A
7C
07
0E
7B
76
14
79
71
78
7D
77
7D
0B
06
76
7B
7F
04
78
00
7D
03
7B
06
03
05
04
76
78
7C
06
03
02
7C
03
70
77
73
7C
79
0B
7E
7A
01
7B
06
7D
04
7B
7D
74
09
02
79
7D
0C
01
7E
04
76
7B
71
0B
00
0A
01
7A
7F
74
7E
7D
00
03
01
7E
01
7C
01
05
7B
04
02
00
02
7D
04
04
7E
7B
02
7E
7B
79
7F
7F
0A
00
7F
04
01
7B
01
75
7F
06
7B
7D
7D
00
00
7E
7E
7F
00
00
00
03
7F
03
09
00
04
7A
7E
7E
7B
7F
70
0F
00
10
70
7A
7D
7F
6C
75
7A
04
0D
02
03
76
7A
08
7E
78
04
77
02
7A
08
06
7C
03
06
7D
78
09
05
76
7D
7A
10
06
01
7B
07
0E
7C
7F
79
7F
77
06
09
7E
7A
79
07
05
78
01
0E
0B
7C
01
00
7C
7A
05
0A
7A
7E
77
7E
07
6F
01
7F
0B
08
7D
03
04
7B
04
08
7C
7C
7A
04
05
7E
00
7D
0B
7B
7B
79
03
7F
06
7F
06
7E
02
7A
7E
7A
7C
73
01
04
7D
04
00
04
05
7B
02
01
04
7F
7F
00
7F
7E
7E
01
00
00
03
03
7E
71
7B
04
0D
76
79
19
75
6F
77
03
7B
7C
09
14
71
7F
09
79
7C
01
07
09
7D
03
03
0B
04
7E
01
77
07
01
08
7D
7D
01
01
79
04
08
05
05
04
09
7C
7E
07
08
7E
79
71
08
02
71
03
0B
0D
79
01
7C
7D
72
0A
07
01
78
79
78
02
78
02
04
04
00
02
01
7A
03
03
7D
06
01
7B
04
01
03
03
09
03
7D
01
02
05
7C
05
00
00
00
06
08
03
04
00
00
03
01
02
01
01
79
07
75
0A
00
00
07
7C
01
7E
09
7E
7F
03
01
08
79
00
71
13
06
03
70
78
08
77
73
73
02
7E
03
08
07
7D
7D
01
7C
77
7D
06
03
7F
78
7D
04
7E
00
00
7A
07
06
79
7B
7F
07
0E
77
78
01
0E
7D
7E
7F
7F
73
09
02
7A
7F
7F
06
08
7C
01
05
09
7B
02
7F
7E
78
06
09
79
00
05
00
05
7F
00
7E
07
7F
03
09
77
03
7E
7F
7A
77
05
7F
06
00
7C
79
0B
7D
01
7E
79
7C
05
00
01
7F
01
79
7A
7D
78
76
00
7C
7C
02
7E
0B
01
7D
7E
7E
07
7A
01
0A
00
75
01
03
01
7E
7B
08
7C
7F
7A
00
04
7A
76
09
77
6F
7D
06
7C
01
00
0D
76
7D
02
03
03
7E
02
79
7E
7C
03
00
7A
01
7D
7E
7E
7D
7E
02
05
7E
7F
72
7F
01
08
7A
03
7F
7C
05
01
7C
7F
7A
00
7D
04
7B
01
02
05
7A
04
7E
7A
78
03
05
7E
7C
7D
03
08
7E
7F
7E
0B
7E
05
04
7E
02
06
73
7D
7C
09
78
06
07
02
79
7D
01
05
7D
7D
00
7E
7F
77
7E
04
01
00
7C
7C
7E
08
7D
7F
7E
7F
7E
03
74
7D
7C
07
76
06
0A
06
75
7C
01
07
7B
7A
03
7A
6C
0B
00
00
74
7A
25
7F
76
64
7D
05
02
01
7C
7C
00
01
01
7D
01
03
06
7F
7E
7E
7E
00
02
7A
7F
02
06
7A
7A
05
7D
0A
70
77
05
0F
73
77
02
76
7B
0D
00
7B
7D
7E
7E
06
7A
79
06
07
78
78
02
7B
78
08
78
7E
00
7F
00
7A
79
05
09
7B
7B
0A
04
7C
78
7A
02
76
7C
7E
7F
00
7A
77
7E
0C
78
7C
7E
7C
7F
0B
01
7D
7A
76
7B
79
04
7D
7B
00
02
06
02
7F
04
00
7E
7D
00
7D
01
7B
06
00
00
7E
00
05
02
03
02
7C
7C
78
7D
7B
7B
6E
06
7B
79
7A
7F
05
06
01
0B
77
7E
7D
7E
7B
01
00
00
05
05
7B
7B
08
07
7E
79
7C
00
7A
7C
79
00
00
08
00
03
7E
00
05
05
00
7D
7E
02
7B
7E
01
01
06
77
7D
03
09
77
7B
7D
7A
7A
0A
7B
7D
7C
7A
7C
7F
01
7B
03
01
7D
00
03
7F
7B
03
00
7E
04
7C
04
01
04
7F
7C
7F
7E
7F
7F
00
7D
02
01
79
7C
7D
01
00
02
7C
01
06
7E
01
02
7F
7E
04
7C
7D
00
7E
06
00
0A
02
00
7A
7F
03
04
02
00
7C
6D
04
77
72
7E
7D
11
7A
79
71
7C
7E
01
00
7A
0A
7C
7E
7F
00
7C
7B
7C
01
04
7D
7B
07
02
7E
7A
7F
08
7E
77
03
7C
05
78
77
7F
0D
77
7F
01
79
7E
0F
05
7F
7E
7F
7F
06
79
7C
03
0A
78
7C
7E
7B
7B
0B
7C
04
02
7F
7D
7E
00
01
7F
7E
7F
00
7F
00
7E
7E
07
7C
7A
7E
7E
02
7A
7A
01
09
7C
01
00
7E
7E
0B
00
7D
7F
78
7A
7C
7C
7F
7E
7E
02
01
7E
00
01
7C
7C
7F
01
7C
7D
7A
05
01
01
7C
7F
04
7F
7F
02
7A
79
7F
7D
7C
7A
72
00
7F
00
7A
7E
07
00
7D
07
76
7C
03
02
7F
79
7B
7C
02
7F
7F
7D
02
00
7E
7E
00
02
7B
05
79
7C
00
7C
02
03
03
00
7E
00
7F
02
7E
04
7C
7D
7F
00
03
7B
7B
01
03
7B
7F
00
7E
7B
09
01
7F
03
78
7C
02
78
7E
01
05
7B
7B
7D
7B
7C
04
7E
7D
7F
7D
01
7C
03
7F
03
00
7E
06
02
01
7C
00
03
7E
7D
7D
7B
7E
7F
7D
7F
06
7F
01
01
7F
00
09
79
7F
7F
7D
7F
7A
05
03
03
79
7B
06
02
01
7D
7B
7B
05
76
76
03
07
07
7E
75
7C
7E
00
7C
03
75
0B
7F
02
00
01
7A
7E
7B
00
7E
02
7F
7F
04
7D
7F
00
05
7B
78
03
7B
7F
75
78
00
0D
7B
03
06
7E
02
0F
01
00
7A
00
7D
02
7D
7C
7E
06
7B
01
03
00
7B
0D
02
00
00
7F
7D
01
7F
7F
7F
7E
7F
7F
7E
03
7E
7F
04
02
78
7F
77
7F
7B
7B
7D
07
7B
02
03
7F
7E
0C
7F
03
7F
79
7B
7F
02
01
7E
7B
7F
7F
7B
00
7E
7B
02
05
7D
7C
7C
03
00
00
7E
00
7E
00
00
7F
7C
7E
7C
01
7C
7D
7A
78
7B
7E
7C
7A
7E
00
7E
7F
02
7B
01
02
7C
7F
7D
7B
7C
7F
7F
03
7F
01
04
7E
04
7B
7E
08
7E
7A
7C
03
05
00
7E
00
7D
01
7E
7F
7B
04
03
02
7B
7E
7A
00
7C
7C
7E
06
7D
02
03
00
00
0A
00
03
78
7E
7C
05
7D
7C
7D
03
7C
02
7E
00
79
08
04
05
00
7C
7A
7E
00
7E
7C
03
7F
00
03
00
7F
04
02
02
7C
00
7C
7C
02
7C
7D
04
7F
02
03
01
00
07
03
04
01
7C
7A
01
7D
01
7D
02
7D
00
01
00
7E
01
01
02
79
7D
76
79
00
00
77
7E
7E
01
01
7B
03
08
03
01
00
01
7F
04
00
7E
00
7D
00
7F
7C
04
7C
7A
04
7A
7E
03
7D
7C
7C
7D
02
08
7C
01
02
7D
07
02
04
7C
7D
02
7D
7D
7F
7B
01
04
7F
01
03
02
04
02
00
03
7C
7F
7F
00
7D
00
7F
01
7F
7F
03
7F
7F
7F
01
7D
00
7E
7E
02
7C
01
03
02
7D
7D
7E
7F
7F
00
00
02
7E
7B
7D
02
7A
00
7F
7B
7F
7D
7E
02
78
7F
00
01
7E
7C
7F
03
7E
7F
7F
00
00
7F
7F
00
7C
7F
7D
7F
7C
7B
7B
7D
76
7F
7C
7B
7D
7D
7F
7E
7C
7F
03
02
7F
00
7F
02
00
7E
01
7D
00
7F
7B
04
7C
79
05
02
7D
7D
7E
05
7D
7E
7F
00
00
7F
01
05
79
7E
02
7D
00
00
7F
7F
00
7F
03
01
7F
7F
7E
00
01
7F
02
7F
7D
7D
7D
7F
7E
7D
00
00
7F
7E
02
02
7D
03
01
01
7E
00
7F
02
00
7D
00
7F
00
00
7E
02
7D
7C
03
00
7D
00
7F
00
7E
7E
00
03
00
01
02
02
7F
00
02
02
7D
7F
7E
04
7F
7F
00
7D
7F
7F
7C
03
7C
79
04
7F
7B
7E
7D
00
71
00
7E
08
7C
7F
05
7B
7E
01
7F
00
00
01
7F
7F
7F
7F
7F
7F
7F
7F
7F
7F
7F
7F
03
7D
01
03
00
7F
00
7F
01
04
7D
01
7F
7E
03
7F
01
7E
00
03
01
7E
02
7E
01
02
00
01
7F
00
03
7E
00
7F
7F
7F
7F
00
7F
00
7F
7F
7F
7F
7F
7F
7F
00
00
7D
00
00
7E
02
7F
03
00
00
7C
7F
7E
7D
7F
7F
7E
00
7D
7C
7C
00
79
00
7E
7C
7F
7E
7F
7E
7B
00
7F
00
7F
7E
7F
00
7F
00
7F
7F
7F
00
00
7F
7F
7F
7D
7F
7C
7B
7B
7E
75
7E
7C
7B
7C
7D
7F
7D
7C
01
7F
7F
7F
7F
7F
00
7F
00
7F
7F
7F
7F
7F
7F
7F
7F
7F
00
00
00
7F
00
7F
00
7F
7F
00
7F
00
7E
7F
7F
01
7D
00
01
7F
7F
01
7F
00
00
7E
00
7F
7F
01
7F
7F
00
7F
00
7F
00
7E
00
00
00
7E
7F
7E
7F
7F
7F
7F
00
00
01
7F
7D
01
7E
7F
00
00
00
00
7F
00
7F
00
7E
00
00
00
7F
01
7F
00
00
00
00
00
7F
00
7F
7F
7F
7F
7F
7E
00
7D
01
7E
7E
7D
7F
7F
7E
7F
7F
7F
7F
7F
7E
7E
00
7A
00
7F
7F
7E
7F
7E
7E
7E
7F
7F
00
00
01
7F
7F
7F
7F
7F
7F
7F
7F
7F
7F
7F
7F
01
7D
01
00
01
00
7F
7F
01
01
7F
01
7F
7E
7F
01
01
7E
00
01
00
7F
03
7F
00
00
00
00
00
7F
00
7F
00
7F
7F
7F
7F
00
7F
00
7F
7F
7F
7F
7F
7F
7F
00
00
7C
00
00
00
02
7F
03
01
7E
7D
7F
7D
7E
7E
00
7E
00
7D
7F
7C
7F
7E
00
7E
7C
7D
7D
7E
7E
7D
7F
7E
00
7F
7F
7F
00
01
00
7F
00
7F
00
00
7F
7F
7F
7D
7F
7C
7C
7B
7D
76
7E
7C
7B
7B
7D
7F
7D
7D
00
7F
7F
7F
7F
7F
00
7F
00
7F
7F
7F
7F
7F
7F
7F
7F
7F
7F
00
01
7E
01
02
00
7F
7F
7F
7F
00
7E
7F
7E
00
7E
00
00
00
7F
00
7F
01
7F
7F
7F
7F
7F
7F
7F
7E
7E
00
00
7F
01
02
01
00
7E
7E
7F
7F
7E
7F
7F
7F
7F
00
01
7F
7D
00
7E
7F
00
00
00
7F
7F
00
7F
00
7E
00
00
00
7F
02
7F
00
00
00
00
00
7F
00
7F
7F
7F
7F
7F
7F
00
7E
01
7F
7F
7E
7F
7F
7F
7E
7F
7F
7E
7F
7E
7E
00
7C
00
7F
7E
7E
7F
7E
7E
7E
7F
7F
7F
00
00
7F
7F
00
7F
7F
7F
7F
7F
7F
7F
7F
00
01
00
01
00
02
7F
00
7F
01
01
00
00
7F
7F
7F
00
01
7F
00
7F
01
7E
01
7E
01
00
00
00
00
01
00
00
00
7F
7F
7F
7F
00
7F
00
7F
7F
7F
7F
7F
7F
7F
00
7F
7F
00
00
00
02
7F
02
00
7F
7E
7F
7D
7F
7E
00
7F
7F
7D
7F
7C
7F
7D
00
7D
7C
7D
7D
7E
7E
7D
7F
7E
00
7F
7F
7F
00
00
00
7F
7F
7F
00
00
7F
7F
7F
7D
7F
7C
7C
7B
7D
76
7E
7C
7B
7B
7D
7E
7C
7D
00
7F
7F
00
7F
7F
00
7F
00
7F
7F
7F
7F
7F
7F
7F
00
00
7F
00
00
7F
00
01
7F
7F
7F
7F
7F
7F
7F
7F
7F
00
00
00
00
00
7F
01
7F
00
00
00
00
7F
00
7F
00
7F
7F
00
7F
7F
00
7E
01
00
7F
7E
7F
7E
7F
7F
7F
7E
00
00
00
7F
7E
00
7E
7F
00
00
00
00
7F
00
7F
00
00
00
00
00
7F
02
7F
00
00
00
00
00
00
00
7F
7E
00
00
00
7F
01
7F
01
7F
7F
7F
7F
7F
7F
7E
7F
7F
7F
7F
7E
7E
00
7C
00
7F
7E
7E
7F
7E
7E
7E
00
00
0C
00
7A
05
03
7D
02
04
7E
7E
7E
02
7E
7D
06
02
7D
7F
04
7C
6E
01
03
7D
7C
69
79
08
7B
7D
00
02
01
00
03
01
03
06
7F
00
03
03
01
7D
7F
7E
7F
6A
07
7C
74
7F
6C
7C
0E
7F
00
03
0C
7F
07
04
05
7D
09
07
0A
7B
71
0B
02
0A
7B
74
04
7D
76
0C
7D
75
08
0B
01
78
0C
01
7B
0D
7D
0F
07
6A
7B
0B
00
09
7F
01
0A
75
05
0A
04
03
04
02
03
00
7B
06
7B
6E
0F
00
74
79
6B
6F
0C
0F
76
04
0D
76
00
7F
0A
7F
7F
02
7D
7D
02
7F
00
03
00
01
02
7A
00
7F
00
71
0F
14
04
78
15
08
00
13
01
19
0A
63
7E
10
7D
7E
07
07
08
7D
75
0A
01
08
7D
78
03
7E
78
0A
7D
0D
02
71
12
08
06
1B
01
7F
0A
7B
0A
06
75
7C
72
7C
0D
00
07
01
72
0E
7F
09
7A
7B
05
03
7C
0C
7B
7B
02
00
04
7A
03
0A
02
7D
02
7F
03
7E
00
05
78
07
0F
04
04
6E
75
05
0C
09
77
06
08
00
03
07
7C
7F
7F
7F
7E
7E
00
7C
00
7F
7E
7E
7F
7E
7E
7E
00
76
7C
05
04
04
78
02
73
10
7E
75
01
00
77
79
06
74
0E
06
67
77
7F
79
7B
0A
7D
7A
18
73
14
7D
03
01
7C
6F
03
74
71
03
16
7B
02
70
00
14
7D
79
76
69
0B
0B
68
7E
08
03
79
7D
77
10
02
64
07
06
7E
7C
7F
08
71
63
0F
01
03
01
03
79
0C
76
0B
7C
01
7F
7A
07
06
02
7B
08
7D
7F
07
7D
06
79
7F
09
08
05
7F
7B
01
7A
02
03
7D
05
02
02
03
7E
79
7D
7C
75
05
76
77
01
74
79
08
07
0E
7F
1A
6F
7D
03
0C
7E
7B
00
0A
09
68
76
7A
08
7A
75
7F
12
76
10
0C
0E
79
78
05
7E
7B
05
00
75
0D
75
06
09
7C
7F
7B
75
06
7D
6A
71
09
7F
0C
00
04
00
0C
05
12
7C
04
01
7C
7D
0A
05
79
07
00
78
05
73
08
0A
7C
05
7E
7D
05
01
76
6B
14
07
03
00
00
7E
0E
7C
0C
78
7D
01
03
72
7F
7B
77
02
7B
00
01
77
0C
05
7C
00
01
00
0D
71
79
78
0E
7E
7A
04
78
07
09
00
01
75
71
7D
11
7B
7A
06
06
7D
7A
02
7D
77
76
04
03
7B
08
7C
05
03
0F
7F
6C
7B
6F
03
73
76
71
0F
05
08
12
67
7F
7E
6E
01
06
06
7C
0A
00
7A
17
00
0B
7A
0E
78
0B
75
77
04
14
09
7E
7B
0B
09
13
01
0A
7F
00
72
7E
05
7E
75
07
7E
7C
7A
0C
0E
0B
5B
01
7E
02
0D
0C
00
76
7A
0A
01
05
02
05
06
09
00
05
7D
02
09
7B
0A
7D
02
7C
7D
01
02
03
02
79
7B
00
04
07
0B
0C
74
71
7D
7B
79
01
09
06
7D
7E
07
06
00
7D
72
7F
7D
75
0C
72
7F
00
79
01
06
03
78
7C
04
0A
7C
05
05
04
7E
00
01
73
06
7B
7C
72
16
03
76
0D
0C
7D
7C
00
78
05
05
02
05
01
7E
7D
01
00
02
7C
70
17
6D
79
01
08
03
06
01
08
04
0D
06
08
7E
7E
7A
01
7D
03
0D
05
0A
04
76
07
07
05
06
03
04
00
17
09
03
0A
6F
09
7C
7D
04
7F
7E
78
0E
7C
7B
02
79
77
75
72
72
7E
06
00
0A
7C
7A
09
00
78
79
77
02
00
6F
6B
7B
00
7B
02
09
0D
6F
01
02
7E
02
7D
03
79
06
01
05
6D
76
7B
77
06
7B
77
7C
73
77
02
7D
13
7D
03
0D
01
76
7C
10
71
03
7D
08
7E
03
01
63
7B
10
7B
0B
02
0D
0A
7B
78
7F
06
79
04
00
0B
6F
0B
71
7F
79
07
00
07
7D
05
04
04
7F
04
00
7E
03
67
09
04
67
7C
79
01
7B
0C
7A
01
66
00
01
7C
03
03
0D
77
7B
03
73
79
0B
78
06
77
7B
03
09
0C
02
01
0C
00
02
04
01
03
02
73
02
7A
7B
05
06
06
11
07
76
02
7D
02
00
01
7E
0A
79
06
0B
06
7F
73
76
04
0C
74
09
07
7E
02
7F
7E
7C
00
7A
07
7E
03
76
01
02
0F
02
02
03
79
02
76
7A
09
14
0D
01
07
03
07
68
7A
7C
7E
04
7A
05
06
04
7E
7A
7B
05
02
76
07
76
7D
7A
07
7A
7F
00
06
04
00
78
74
01
05
7E
15
7E
79
03
08
01
0D
7B
08
07
7F
08
07
02
7A
0B
18
79
7D
7C
03
02
7C
0B
78
7B
7A
05
7F
02
7C
7D
00
76
7D
00
7C
0A
03
7C
0C
04
03
04
7E
7C
7C
14
05
64
76
71
7E
01
00
06
0F
70
0B
05
00
79
73
0B
06
02
76
12
75
04
0B
7E
72
01
01
09
7A
73
6F
03
08
7E
7F
04
05
74
05
07
7A
7F
04
09
01
05
03
62
70
12
10
09
7C
03
0A
74
02
02
00
72
7E
05
04
06
7C
76
01
7A
04
79
02
01
05
01
7D
7B
77
7F
00
09
71
09
78
67
01
73
03
01
00
7F
75
69
03
7B
06
01
01
05
7A
09
00
7F
06
75
7B
05
7C
78
00
01
0C
7C
78
10
01
7F
7B
01
7B
79
00
7F
7C
05
09
03
12
07
08
7C
04
73
7B
06
7A
05
02
7B
7A
0A
7D
03
02
6D
7D
11
04
7E
00
05
02
76
04
00
08
78
7F
01
08
00
00
7F
10
02
01
7F
7D
01
75
05
70
0A
01
03
7F
0C
06
6E
73
76
08
05
78
07
04
7D
05
10
06
02
7E
7A
07
76
01
04
78
00
7C
79
02
02
79
78
7A
7C
05
0E
05
76
02
7E
7D
09
03
7C
01
00
00
79
75
03
06
0A
0E
77
78
0A
7D
09
00
7A
03
7B
04
03
00
04
7E
7B
7F
7B
07
7E
7D
01
01
00
04
79
7C
06
00
05
76
09
02
68
7B
6E
7E
03
78
04
05
70
01
08
7E
02
7C
05
0A
79
7A
11
7C
02
05
03
02
72
02
0A
08
7D
75
04
0A
79
08
7D
01
04
04
0A
7F
05
03
79
7D
7C
05
74
75
0E
7A
7F
0A
05
00
74
08
00
71
78
02
0E
0E
05
0A
79
7C
7D
04
02
02
7F
01
7C
78
72
7D
05
78
09
69
7F
77
6E
7A
6F
76
06
7E
6F
78
7D
03
06
06
79
7E
7D
7A
09
7B
06
7D
7C
02
04
01
7A
77
03
05
01
79
09
7B
79
7E
7F
02
7A
02
7D
06
00
00
7E
0E
00
7D
78
7E
77
06
7A
04
06
04
74
07
0D
7A
7A
03
68
6D
10
09
77
77
7C
08
74
7A
06
7F
7A
7F
08
0B
7A
7D
08
14
02
0C
77
7A
75
04
08
7B
08
7F
04
01
15
08
77
01
71
04
09
78
04
07
7C
7E
04
00
7B
7D
01
76
78
04
76
7F
79
74
75
08
77
79
01
75
7D
09
11
05
78
76
7B
06
7E
05
7A
08
7A
00
7A
7D
7D
08
05
10
73
7B
0C
04
09
07
7E
7B
07
0B
7F
70
7F
72
04
7C
02
79
08
7D
01
08
02
00
02
05
07
7F
08
7B
7A
04
69
03
6E
0A
06
04
05
7F
75
0E
0A
67
7F
76
7D
0E
7E
77
1F
6E
73
0D
16
70
07
08
19
09
79
71
04
0D
0E
7D
7F
08
70
00
04
02
06
7A
0B
0D
09
7E
02
7A
0C
7D
74
76
7C
0B
74
01
06
7D
00
7A
09
05
7F
74
79
7C
77
02
7B
79
75
06
78
04
7A
7E
7E
03
01
70
07
7F
71
03
7C
72
7E
73
7A
00
76
0F
02
09
74
00
7D
75
7D
7D
04
02
7D
02
04
08
7A
7F
06
02
0B
0A
7E
04
7E
01
06
05
01
01
7F
7E
01
7F
7C
03
0C
07
77
02
7B
76
05
03
01
7D
79
7D
05
74
7F
79
01
05
0B
08
07
00
00
06
6B
75
0C
0A
07
7F
03
09
7C
7D
07
1A
75
08
78
73
6E
05
7F
7B
04
08
02
7A
0E
03
70
7F
74
04
02
00
0A
06
7B
06
00
7B
7B
7F
04
70
7E
7A
65
7F
01
7B
7C
05
75
7D
7C
01
05
03
06
7D
7A
71
79
09
07
7C
75
07
7B
07
01
00
7F
09
77
02
7A
07
7F
05
07
02
7E
7F
7D
02
03
05
7E
78
01
05
7D
01
0E
79
08
04
7F
03
04
7E
01
75
7D
7F
7F
07
71
03
72
7F
03
7B
03
79
70
03
00
7C
78
71
09
06
09
79
22
04
70
12
11
7A
0C
0D
0E
7D
77
76
0D
02
04
0A
02
7D
7B
77
77
7E
03
76
7B
00
07
77
03
7D
02
02
68
77
75
00
73
01
02
7D
7D
79
06
05
06
7F
78
7D
6D
04
7C
03
77
05
7D
03
00
7C
7B
7F
08
7F
01
73
76
7A
00
76
04
73
75
7A
09
08
01
01
02
0C
75
00
05
01
08
79
05
00
0B
00
75
7A
03
7A
07
07
77
7E
02
00
7F
07
7A
04
01
05
02
78
04
7C
00
01
71
03
05
05
7B
05
0C
07
7B
0B
09
02
7E
7C
07
0D
04
08
7E
75
78
09
75
77
07
07
0E
7A
09
09
7F
79
06
0E
71
02
7F
78
7A
7C
7C
70
77
03
00
03
0C
08
72
02
79
01
00
02
7A
03
75
08
09
7B
77
7B
0A
76
70
7C
72
01
02
7B
78
04
7A
7E
78
7C
7F
7C
0A
05
74
79
75
09
04
02
78
0B
79
07
00
7D
7F
7A
7D
06
7B
0F
07
7F
08
74
05
03
02
7D
01
03
04
7C
7C
7F
03
00
0F
00
06
04
08
03
02
09
07
09
7E
07
7D
7F
71
07
7B
01
79
02
0F
7D
74
0C
07
7F
7A
79
7B
06
08
73
2D
73
02
12
0A
01
08
0A
0A
0B
00
0C
7D
7F
7E
07
03
05
04
7A
78
06
7A
7B
01
7E
07
79
02
78
79
7A
6F
78
7A
7C
79
76
02
04
03
7C
7C
7E
7A
77
79
74
74
7D
05
02
76
7D
7A
05
7F
7A
02
02
7C
0C
76
00
74
78
02
77
02
77
00
79
7C
73
02
0B
02
7F
7F
77
7A
7F
06
06
02
74
0B
08
7C
7F
02
7A
06
0A
73
7B
03
7D
07
01
06
00
77
01
06
7A
07
7B
08
04
7A
7E
05
08
7C
01
06
09
00
02
04
7C
78
03
01
7E
7C
75
05
78
7A
01
7D
7C
00
08
08
7E
01
0A
7B
79
78
03
7C
7C
07
76
7D
01
7B
78
74
7E
05
01
01
08
78
76
01
7F
7E
02
08
7E
72
06
09
7A
00
7D
0A
7B
78
02
6B
00
01
00
79
7C
7E
05
04
7C
79
7B
7B
03
68
76
7D
7E
07
7E
78
0B
78
09
02
78
04
7E
7C
05
0B
01
06
7F
06
0A
7F
7C
06
7F
00
02
02
04
02
01
02
7B
05
7E
7F
7C
0C
7C
00
00
7C
02
7D
00
7B
7F
7D
0B
02
0B
03
09
0C
05
79
01
08
76
72
03
7C
04
7F
7E
0D
79
79
04
07
7E
08
7D
0E
09
07
05
7D
7E
00
78
01
02
03
74
7C
7E
04
04
7A
01
08
04
06
04
73
00
6A
7B
79
79
7D
77
7E
04
7F
79
7C
01
06
00
70
79
77
7B
7B
00
7C
00
79
08
04
7A
7C
00
78
03
04
01
7F
7A
02
76
05
05
7F
7C
03
7D
10
07
7E
07
79
78
7C
00
07
7F
0A
7C
7C
08
7A
00
00
74
00
04
00
7E
0A
02
0A
02
01
0B
7F
04
01
7F
03
7E
7F
7F
7C
79
04
01
79
07
7F
08
7E
06
00
78
7B
00
05
07
7E
05
74
02
7D
7A
78
7D
04
78
7D
76
7A
02
0E
79
07
05
02
74
7B
78
06
0D
7F
03
09
77
0B
7E
06
06
76
7E
07
7F
05
03
02
10
7D
0C
05
7D
7D
7B
03
01
76
7B
79
78
7A
00
02
7F
79
07
02
75
7C
77
7A
04
74
7A
7C
08
7F
06
01
0A
7A
0D
05
78
7F
7C
7E
01
7E
7A
07
7D
02
02
00
02
7B
09
01
7F
7C
77
01
00
7E
7F
02
7D
02
7E
00
01
05
02
00
01
01
7E
03
78
7C
7C
01
78
7C
05
00
7C
77
02
08
75
77
7A
74
04
04
00
0F
05
7D
09
79
01
05
02
7E
03
01
04
00
7D
03
7D
7D
7A
76
78
02
0C
03
00
7D
01
05
09
0A
7A
79
7B
70
7D
75
72
7F
7A
7B
7E
00
7C
03
7D
01
7F
77
7E
7B
00
78
7D
01
04
7C
07
03
79
7E
7B
00
7D
7C
7C
04
7D
06
7B
02
05
02
00
7D
7F
08
06
06
02
7E
77
00
06
01
7E
03
01
00
01
7E
08
03
7F
7F
0D
7E
00
01
0B
02
06
7F
04
01
00
01
00
7D
03
00
08
7A
00
02
01
02
08
08
05
7D
01
05
02
7F
7B
05
0C
7E
7D
73
0D
00
7D
7D
04
02
7A
02
05
00
7F
03
03
7B
03
03
76
09
7A
7B
08
00
00
7C
76
00
04
7E
07
75
01
00
05
7B
02
03
09
7B
07
0A
77
7D
00
04
00
75
7B
7E
7B
7A
7F
7E
02
78
04
03
7C
7F
7B
7E
0B
7A
7D
7D
06
7E
04
04
07
00
07
02
7F
7E
7C
02
7D
7C
7D
01
00
00
7E
03
05
7F
01
03
05
02
02
01
7C
7D
00
03
00
03
7A
01
03
7F
05
00
00
06
01
03
79
78
08
02
7A
7A
00
08
0D
72
01
0F
7A
7D
7B
73
7D
7C
7B
7F
06
08
06
79
02
06
0D
75
04
7D
7E
79
02
05
7F
04
00
7E
02
7F
02
01
7C
79
7E
7A
01
01
72
7F
79
6F
76
76
78
7E
7A
78
02
7C
7D
03
03
00
7A
79
7D
78
7F
7E
02
03
7E
7C
09
00
77
7F
79
07
7A
7D
78
00
00
04
04
03
01
7E
05
0B
7E
01
04
7D
7C
09
7C
75
03
7C
7D
7C
7D
01
02
78
7D
7B
00
00
0A
7C
7B
02
06
02
08
05
03
07
04
04
08
7E
7D
7E
07
01
00
7F
03
04
06
01
08
06
7F
01
7F
77
7B
06
10
7B
7B
7D
02
7B
7D
02
02
09
7D
09
10
7E
09
73
05
0B
7C
01
02
7F
08
7D
01
01
00
7A
7E
7A
01
01
06
7B
7D
00
06
07
0D
08
08
02
0A
08
7D
7A
6F
7D
76
7F
7D
77
7F
7E
7E
7A
01
7C
02
7A
77
7C
7A
7D
02
7A
7A
7D
08
01
07
06
7F
05
09
05
7A
7F
79
7A
7F
09
7F
79
02
02
02
7B
01
01
00
77
7B
77
7E
7C
7F
05
7E
7E
7D
04
7E
7E
05
02
02
7B
01
7D
7F
03
02
02
02
01
01
04
08
7F
0B
01
7E
01
7A
6D
7A
01
7D
7B
7B
76
03
03
7F
7A
04
02
04
7B
01
7E
09
7E
01
02
7F
00
7A
06
03
00
7F
03
7F
7F
03
02
7F
7C
72
02
7D
73
71
02
7A
72
7E
79
00
7B
02
03
00
7F
73
03
7C
75
01
03
7E
77
03
7A
7F
7B
7E
7A
7E
00
7A
7F
7A
79
0D
7F
05
7F
7F
7E
7F
02
00
77
7C
02
7E
01
7F
7E
7C
01
01
79
7F
03
00
00
02
7F
7C
05
07
77
7E
7F
07
01
00
05
07
00
7F
03
00
7D
7A
08
03
76
7E
7E
07
01
05
04
07
7E
7E
03
7A
75
7C
09
03
72
76
76
7C
7D
7E
05
08
7D
02
0E
04
7D
7F
03
02
7E
02
7C
04
03
03
00
04
7C
7E
04
7E
00
03
00
00
7C
7E
7B
0A
01
00
7F
0A
7C
7F
7A
7B
75
7B
01
7A
7B
02
7E
7D
01
01
79
03
7B
00
7F
7B
7D
7C
07
76
7A
7C
75
09
09
7F
7B
08
7A
7D
7F
7D
78
7B
01
00
00
01
02
03
02
04
7C
01
04
00
01
00
7B
7D
7C
7F
05
03
7D
02
03
04
7C
02
7E
00
7C
7C
7B
01
05
01
77
04
02
08
7E
06
7F
07
7F
7F
06
74
6E
78
73
00
06
7D
7A
02
7D
06
7A
01
00
7F
77
02
7C
7F
7F
02
7B
7D
7C
7B
7E
00
03
03
7A
01
7D
7C
7A
01
74
7A
7F
7E
77
71
7C
02
7B
79
7A
05
7B
7D
00
00
7A
01
00
03
7A
7E
03
08
79
7F
7C
7E
7E
7A
7B
00
7C
03
01
00
7E
7D
01
03
7C
00
00
7B
7C
05
00
03
76
01
00
7E
7C
76
79
01
03
7D
7D
01
7C
7C
7B
7F
07
03
75
7B
79
05
7F
01
03
01
01
7A
04
7E
7B
7A
7E
03
78
7A
7D
04
7E
06
06
02
7E
7E
01
7C
77
7D
08
77
6E
72
72
7A
74
7D
01
00
79
7F
0A
7C
7B
7B
7C
02
76
03
79
78
03
7D
02
01
7B
7E
7D
7F
7A
7C
04
06
76
02
79
09
03
09
02
01
7D
77
04
77
75
7B
72
00
7C
7F
7C
79
7C
04
02
7C
7B
01
79
7B
78
7F
7D
03
7F
7F
7A
00
04
09
7A
02
00
79
7E
7E
79
00
79
04
7C
7F
7F
7D
7F
04
03
00
7B
7E
7E
78
77
7F
7D
03
7C
02
7C
7C
02
06
04
7F
7F
01
02
7F
00
7D
7D
04
73
00
7D
06
7E
0B
07
00
78
7F
05
76
6D
79
79
00
03
7F
7E
79
09
05
78
00
00
7E
7A
01
02
02
7F
7E
7F
7E
7F
02
7F
7F
00
7C
7F
7F
00
00
01
7F
72
7E
79
7E
77
72
7F
7D
7B
76
7A
06
7A
7F
01
00
77
7F
7C
7B
7D
79
7D
07
06
7C
7B
02
7F
00
7E
7E
79
02
01
7F
7F
78
79
05
03
7F
7F
04
7F
00
78
7D
7F
03
7C
7D
7E
7E
01
02
7E
7F
7D
03
7F
01
02
7E
04
7F
7E
77
7E
06
7A
06
01
02
7F
7B
03
7E
7A
7F
01
03
7D
7D
02
04
01
03
02
03
7E
7E
03
00
7B
00
7F
7D
78
75
77
7C
6D
7D
79
00
7F
7B
02
7E
7A
02
01
7F
7E
7C
7F
02
01
00
7F
7C
00
7F
02
01
00
7E
7D
7E
7D
75
02
01
7D
0D
09
00
7C
7E
02
7E
78
7F
7B
01
7A
7E
7D
7E
03
02
7E
7C
7A
03
7D
7F
02
7F
7A
01
7D
79
7C
7B
7C
07
07
7F
7D
01
7F
02
7C
7E
02
06
00
7E
04
03
03
05
01
01
7D
00
03
02
00
7F
7D
02
7E
7F
03
7B
7E
03
05
02
7F
02
04
00
7D
01
02
04
7C
7D
05
06
03
06
02
00
79
7D
06
00
7A
7F
77
06
7D
7C
79
73
74
03
03
7F
7C
02
7B
7F
78
7F
00
01
7F
00
7F
7F
01
7F
7F
7F
7F
7F
00
7F
7F
7F
77
7E
78
7E
78
7A
01
7A
76
74
79
03
7E
7F
7F
02
79
7D
79
01
7E
7E
09
7D
7D
77
7E
03
7F
7F
04
01
00
7F
7F
7F
7F
00
7F
00
7F
7F
7F
7F
7F
7F
7F
7F
00
7E
7D
7E
7F
01
7D
7F
7E
7C
7E
00
02
01
00
7F
02
7D
7D
7B
7E
01
79
7D
04
02
00
7F
01
7F
7D
00
01
7D
7E
7D
01
03
00
7E
04
7E
01
7F
02
02
7F
00
7E
00
7C
7A
7A
7C
72
7E
7B
7E
7A
7E
01
7C
78
01
00
7E
00
7F
7E
7C
7F
7E
7E
7D
7E
00
00
7F
00
7F
7E
79
79
7E
01
01
03
7C
05
7D
01
04
01
7F
02
01
7D
7C
7C
7E
7E
01
7F
7D
7D
78
7D
7F
00
01
7F
02
7C
7E
79
01
02
7F
09
7D
7F
7C
00
03
00
00
04
01
02
7C
7F
7C
01
02
7C
7F
03
7E
00
7F
03
01
02
7F
01
7E
7E
7D
01
01
7F
7F
02
7E
00
01
02
00
02
01
02
7B
7D
7B
03
08
78
02
04
7D
7E
7D
05
7F
7E
7F
7F
00
7E
7E
7E
00
01
00
7D
7D
7D
7F
7E
7F
7E
00
00
00
00
00
7F
7F
7F
7F
7F
7F
7F
7F
7F
7F
7F
7F
7B
7E
7B
7B
78
7B
78
7D
7A
75
7A
7D
7F
7E
7D
01
7E
7F
7E
7E
7B
7E
01
7F
7A
79
7D
7E
00
01
7F
01
00
00
7F
7F
7F
00
7E
00
7F
7E
7F
7F
7F
7F
7F
7F
7F
01
7F
7E
7C
7E
7D
7F
7C
7D
7D
7F
00
7E
7F
00
00
00
7F
00
00
00
01
7E
00
01
01
00
00
01
7F
7F
01
7E
00
7F
7F
7D
02
7D
01
7E
00
00
00
00
00
00
7E
7E
7B
7B
7B
7D
77
7F
7D
79
7A
7D
00
7D
7D
00
7F
7F
7F
7F
7F
00
7F
00
7F
7F
7F
7F
7F
7F
7F
7F
7F
01
7F
00
7F
7E
07
7E
7D
7D
00
00
01
04
00
00
7D
7F
7E
7D
7B
7D
7D
00
7C
7A
7C
7E
7E
7E
7E
01
00
00
7F
00
7E
7F
04
7F
7B
7B
7F
00
01
02
00
00
01
00
00
7E
7D
7E
00
7F
7E
7E
00
00
01
7F
00
7F
01
01
7F
7F
00
7F
02
7F
00
00
00
00
02
00
00
00
01
7D
7F
7C
7B
7E
7E
01
7F
7C
7E
7F
01
7F
01
00
7F
00
7F
7E
7E
7F
7C
00
7E
7D
7E
7F
7F
7E
7E
7F
7F
00
00
01
7F
7F
7F
7F
7F
7F
7F
7F
7F
7F
7F
7F
7B
7F
7A
7A
79
7B
76
7C
7B
78
7A
7C
7E
7C
7C
00
7D
00
7E
7F
7D
7E
00
00
7D
7B
7E
7E
7F
7E
7E
7F
00
00
7F
7F
7F
00
7F
00
7F
7F
7F
7F
7F
7F
7F
7F
7E
00
7E
7F
7E
7F
7D
7F
7E
7E
7E
7E
7F
7E
7E
7F
00
00
00
00
00
7F
02
7E
00
00
00
00
7F
00
00
7F
00
00
00
01
00
7F
03
7E
01
00
01
00
7F
01
00
7F
7D
00
7C
7D
7B
7E
78
7F
7C
7A
7B
7D
7E
7C
7B
00
00
7F
7F
7F
7F
00
7F
00
7F
7F
7F
7F
7F
7F
7F
7F
7F
01
00
01
00
7E
06
7F
00
7D
00
00
00
7F
7F
7F
7D
00
7D
7E
7D
7E
7B
7E
7D
7C
7D
7D
7E
7E
7E
00
7E
01
00
01
00
7F
04
00
7F
7C
7F
7E
7F
7F
7F
7F
7F
00
00
00
7F
7E
00
7E
7F
00
00
00
00
7F
00
7F
00
00
00
7F
01
7F
02
7E
01
00
00
00
01
00
00
00
7E
00
7F
7F
7F
01
7E
00
7F
7F
7E
7F
7E
7F
7E
00
7F
7F
7F
7E
7E
00
7C
00
7F
7E
7E
7F
7E
7E
7E
00
7F
00
00
01
7F
7F
7F
7F
7F
7F
7F
7F
7F
7F
7F
7F
7B
7F
79
79
79
7B
72
7C
7B
79
7A
7D
7E
7B
7C
00
7E
7F
7D
7D
7C
7F
7A
7F
7D
7D
7D
7D
7F
7E
7E
00
00
7F
7F
7F
7F
00
7F
00
7F
7F
7F
7F
7F
7F
7F
00
7E
7F
7E
7E
7E
7F
7C
7F
7E
7E
7E
7E
00
7E
7E
7F
00
00
00
01
00
7F
02
7E
00
00
00
7F
00
00
00
7F
00
00
00
01
00
7F
02
7E
00
01
01
7F
7F
00
00
7F
7E
01
7C
7E
7B
7E
7A
7F
7C
7B
7B
7B
7E
7C
7A
7F
7F
7F
7F
7F
7F
00
7F
00
7F
7F
7F
7F
7F
7F
7F
7F
00
00
00
00
01
7F
01
7E
00
00
00
7F
7F
7F
00
00
7D
7F
7D
7D
7C
7E
79
7F
7D
7C
7C
7E
7E
7D
7E
00
7F
00
7F
7F
7F
01
00
7F
7F
00
7F
7E
7F
7F
7F
7F
7F
00
00
00
7F
7E
00
7E
7F
00
00
00
00
7F
00
7F
00
00
00
7F
01
7F
02
7E
01
00
00
00
01
00
00
00
7F
00
7F
7F
7F
01
7F
01
7E
00
7E
7F
7E
7F
7F
7F
7F
7F
7F
7E
7E
00
7C
00
7F
7E
7E
7F
7E
7E
7E
00
7D
01
00
03
00
00
02
00
7F
7F
00
7F
7F
7F
7F
7F
7B
00
7A
7C
7A
7C
74
7C
7A
79
7A
7D
7D
7B
7B
00
7D
00
7E
7F
7D
7F
7B
00
7D
7D
7E
7F
7F
7D
7E
7F
7F
7F
7F
7F
7F
00
7F
00
7F
00
7F
7F
7F
7F
7F
7F
7D
01
7F
03
7F
00
7F
7F
7E
7E
7F
7E
7F
7E
7D
7E
01
00
00
01
00
7F
03
7E
7F
01
01
7F
7F
00
00
7E
7F
01
01
04
01
00
05
7F
01
01
02
00
7F
00
7F
7F
01
01
7C
00
7B
7F
7E
00
7B
7B
7C
7A
7D
7B
7A
7C
7F
00
00
00
00
00
00
00
7F
7F
7F
7F
7F
7F
7F
7F
7F
7F
00
01
00
7F
03
7F
00
01
00
00
7F
7F
7F
7E
7C
00
7D
01
7E
7F
7C
00
7D
7D
7E
7E
7D
7D
7C
7F
7E
00
00
02
00
01
02
00
7F
00
00
7F
7F
7F
7F
7E
7D
01
01
04
01
00
04
7F
00
00
02
00
00
7F
7F
7E
00
00
00
00
01
7F
02
7F
01
00
01
00
01
00
00
00
7D
02
01
07
01
01
04
01
7F
7F
01
7F
7E
7F
7D
7E
7F
7F
7F
7E
7E
00
7C
00
7F
7E
7E
7F
7E
7E
7E
00
