BDCEA87D
3EC442E3
3EE446AF
3E3E5A71
BD433CE3
BE8496CC
BE2797CE
BE8CFE7A
3E204C4B
BE8BA7FA
BD77BEFB
BEA115D4
3E4DED0A
BE9157DD
BE14484E
3CF33D8D
3EB47725
BE432025
3E72DF5C
3E557711
3EC3ABF9
BD941810
BD8F0CE9
BE20DCF5
3C32F42A
BE9A15DF
BF0E92FA
3E5F7B86
BEC353E6
3ECD9AEC
BE22813A
BEA9F664
3E8E5517
BE3910D8
BD819DF6
3E8F5C50
3CF4B613
BE2EA460
BBDA97CA
3E6D50F5
BE850BFE
3D196AEB
BE456C0A
3E7ECE7E
3E47AB92
BE330E97
3ECE57D2
BE41B7BD
