BCF1FDB1
BA9BC422
3CFF9567
3D40D142
3C946F30
BD039BB9
3B86B035
3C6A9B34
BCFA8533
3CBF2765
BD01317D
3CE4E3A7
3E044426
BB7E3A99
BB217FA4
3CA4FEFE
BDB046E2
BC92435C
3DBC44E6
3D4243ED
3DA5DF80
3D830611
BD8C2033
BCFB6F62
BD272423
BCCD9584
3D327528
3CD83E79
BBB18E92
BB6A028C
3CE18666
3B8E8C55
BC35F08C
3BCC3A7C
BD0F9795
BAFE5B2B
BB9E359B
3B3B842E
BCCD18B4
BB1415D8
BCC04DCC
BC087B7C
BC11349D
3A2978D4
BBD495DD
BC1BFE0F
BC1FC0EB
BCA7531F
3D296290
3E1AD8CA
BDAA3A93
3AAE04EC
3D027547
BD6287F7
BCB3EBCC
3D97CDBD
3C935726
BC94CBDB
3D6C272D
BB459FE2
BCE3D472
BC991F8C
3DA8D4B3
3CF23E37
3D573CAB
BCA74B1B
3CB70D87
BAF629FE
BC38D874
BBDCAF55
BC16FC8A
3D5308E3
3DE3F5F4
3D12AA08
BD2BD501
3C2C5C67
BD286FE9
3DAF3735
BD2A58F4
3D7071A5
3C4D1C53
3DB123A6
3DDF5FC1
BD37811D
3DAD0C87
3D9BF5AD
BD3A8366
3CC8CC39
3CED1E85
3BCFB12A
3D379277
3C4702FD
3D93A05D
BD3648B4
3CFCEA17
3C3E3853
3D001491
BCE6BB33
3D180BED
BC061948
3D0EF9E3
3CCBC6DB
BD050FC5
3C647E43
BD14E366
3C3A4149
3CF5BDA8
3D07F422
3D9D20E8
3D81BAC5
3D5B31F5
BD78E9DE
3D4E93BF
3CDD41DD
BC499BFB
3D576A38
3C95258C
3D97CF75
3DFCEC32
3D22CFD3
BCA78D94
3D3226CC
BC209ACD
3AF1A245
3B2103C0
3AC37E34
3BF54593
3CA09672
BC6F7510
BC041A82
3BB10831
BADBD45C
3C7C911B
3BD2796D
BC87E62F
BCCC93FE
3C07A0A5
3C7979B5
BC85BC3B
BC40829C
BC20C6DA
3B93E18C
3D703BDD
BC3DBE3A
BD1B4854
3DEB7554
BD4755BB
BCC1F950
BC9CACDD
BC890335
3D27D2D7
3D6CACDD
BD68F7C8
BC66A018
3D43F159
BCBDAC56
BC640E5C
3D03CC1F
3D36FA13
BCB8E76F
BC9489FB
3CBD5C84
3D5B4E1E
BBDE93F1
3DB52D65
3D02DB1D
3CA23DE7
BC21E1EA
3C424F6E
3C9C1CC4
BC1A9FA6
3B78FDE4
3C973FC5
BC172234
BB214CF4
3C739525
3C942038
BC81C16D
BC1C6913
3CA133A9
BCBE5D33
BC95ABFA
3DADE505
3D76A249
3CC50A73
BC4FDCF2
3D1BB069
3CE362D1
BD120310
3B2E783B
BCFC50CA
3D1B4788
3D63A96F
BC212E3A
3C9810F6
3D3ABDF5
3CD51209
BD33BBD6
3D5E0093
3CC72B04
BD34A49F
3D315484
BD7434BE
3D78FC89
BD82BAD7
3D0D16D8
3D0CD9CA
3DAD770D
3CF5DC2C
3C81E2EE
3BA9C63A
3CDBBF76
BB78974B
3C19DEEB
3D2FAF8E
BC3E3227
BCBAADDA
BD1E72FE
3D6CCF6F
3D1DBBC0
BCADC6E3
3C96BBCA
3D5B4F15
3D241276
BD4FC4AB
3D2EB97D
BCCF18F4
3BE4977E
3D7A1295
3C33A23E
BC8205ED
BCB1FA4A
3C327322
3D2F3E1E
3CDC1F2E
BC2BA4A3
3D27FBB5
3C4616FB
3CE61AB6
3C762170
3C4DC478
3D7721DB
3B7B3520
BD5D9226
BC2AB57E
3B8F2FC7
39A1C81E
3D3A6010
BC0A3A9F
3C11BF14
3CDB6A5B
BC2909A0
3D6867C9
3CEF1811
BCDDACD0
BC857663
3CC4829B
BB66225F
BC2F9E6E
BC1F71CD
3D5FD818
BC7849D9
BC1DE7F6
3CD192A2
3C0C539C
3D2A4CCB
BC893B5F
3C98DB42
BCAEAA33
BC38F06D
BD069C93
3D872EF4
BB7F55C1
BCB036E8
BCBE08EB
BCB17DC9
BC809DA1
3C8F100C
3D1B4AB8
BB77B29A
3C884105
3D1A52C6
3D08524B
BAAAEC80
3D2E8CCF
BC4C32EE
BA1984F0
3C68E8DB
3CA6C34B
BBF48F67
3BF2565C
BD2A3DAC
BB9F05E2
BC7EFCBD
BBD09AA8
BB121C97
BB404E90
3AE45D5E
BBE1A969
3C3E2123
3C4AC7B9
3B36C94E
3C083B2B
BCCF5E30
3C31B1D7
BCAED181
3CF2EF1C
BCB6769C
3D6581BB
BD010A0D
BD60FE67
3CF0FF75
3C6902D5
3D0D2E30
BC4C0199
3C2F6B9B
3D290F1B
BC22C266
BC4E52C8
3C9B9E70
3C830034
3CC5DB21
3D49A7B7
3C28BE60
3CCA5027
BA5A4730
BC608E48
BC378C59
3C77255C
3C2D5680
BBA58F14
BC38C7C3
3BDAF0C8
3C50D75A
3C45450D
3C244A8C
3D9B7A1D
3B597DF5
3BF9F5BA
BCE6AE82
3CDA0134
3C446985
3D427723
3B964249
3D09363B
BC4D766F
3C914209
3D327DDD
3B99F3EB
BCDEF470
3D001CA7
3CD8BDA2
3AB2B3A3
BBE9651A
3C947F4A
BCB93962
3D688712
3C916257
BD87175C
3CB3BA73
3C9483FD
3C86AAC0
3CF41DE5
BB66BF4D
3D0AC8EE
3C2A554F
3CB9B16E
3CE333AE
3BCB849D
3CD2828C
3C78EC28
3CD97399
3C8E8917
BB052E92
BC3289DF
3D74B226
BB7E5E19
BCB5B9A4
BBB7A438
3C009B2F
BD0422F2
3D2B67E2
BD163728
3B9389BA
3C91F6FF
3BD17EF1
3D644DFB
BB9BDFEB
3D01826D
BC22075F
3C63846A
3D1EEF1D
BCA9342B
3C97B9A8
3C34BE58
3D168070
3D7F0109
3ADDAF99
3C22F23A
3D3F85B9
BBEB58A3
BD0A3CDA
BCD65D16
3CD18DFC
3D8CE270
3B96F0A4
BD2BB470
BBE8BB4F
BCB5740F
3C2C2436
3C1E4B87
3DC18BB7
3C8B3780
3C69A719
3C1B155B
3D9B6C1D
BDAB4A2D
3D72B956
3D5B2599
BB08E6BA
BC38A1CF
3D01E384
BC0DE455
BC7F3BFE
3CFE2EB2
BC2E64D6
3CABBAED
BB9441AD
3CA525A4
BD3A4E94
BBC0FDF4
3C83F727
3B733460
BC888247
BC2C2590
BAFB1A86
BC0A7DDD
BC94E28D
BC299F01
BCE2C083
3C08ED15
BBB8CD64
BC7EA1D8
BBC64715
3D238677
3C038A04
3C9167E2
BA12570E
3D3663ED
3C271617
BC664DBA
3C1A91EB
3D65547F
BC41A855
3A061594
3D0AB2CD
BBCAA5BF
3D2AAEC2
3D01A869
BA04EC08
BD9867AE
3CD25B74
3CB04B3C
3DD981A5
3D3EC863
3BAC01DB
BC1810ED
BD868D04
BC4D9891
BBC18BD6
BC29482A
3D819318
393739CF
BD051144
BC8593A6
BC9962F4
3C2CBC78
BB95D92A
BD1C1EDA
BC29B77E
BCC05997
3C420468
3CC87644
3B828F8E
3B827FE1
BC8939DF
3D24A3C6
BBDD4AA3
3D0597A2
3BD80B0C
BC858F47
3B9D6F2A
BC33F12F
BCA34F3B
3C412376
BC3BC048
BCED9BF6
3C6CC0D7
3AD102D4
BCBE0F68
3CDC44D4
3C90532C
BC7D5EF5
BC0D2103
3D01841F
3C039B44
3CCDC213
BD047347
3D10E565
BA48FF85
3B23FA70
3C1C005F
BB82C3F4
3B88E840
3B57C7FD
3D229276
BCA5A3DC
BC498770
BC327CD1
3BC93D2A
BC29DEC2
BC949631
BC6D1862
BD1E561F
3C73EE78
3C62E9AA
BC1C9F01
BC58AD9C
BC2739AE
BBFDE966
BC0E42B9
BBD9D60B
BC90672B
3B07C8D2
BC19D6E1
BC6C6CE7
3C36A963
BC238F03
BC02456F
BC8EB89F
BC81E134
BC6503B8
BC06B02C
3D34EC0F
BC71A831
BA9D13C2
BC73E6C4
BCC66B64
3C957A6D
3B98FBA9
BC2A1B3D
BCD5AABD
3D1C3B1C
BC07F476
3CC0AE87
BC71D9CA
3C3C9B92
3CC66636
BBCA3D18
3C8DA571
38D567C4
3D132E19
3D3F3566
BAF46B2A
BCBC023C
3D3C98E4
3C639796
3B365737
BCED366A
3D1068D6
BC589657
3D8530B6
3C612E89
3C391C38
BB35B83E
BD2C1CF1
3CAFDFD8
39A8CB2E
3D7FA15E
BC7C76F1
3CC7C0F7
3CAE509C
3D9B08E6
3D14CC62
BCFD5658
3D52B2E0
3D290D78
3D366322
BD578977
3D734D2A
3CC13978
3C2DB2D4
BC45B932
3C648F89
3D027C24
3D0E04DA
3D316190
BC3F4868
BD058D37
BC69F400
BB499B3F
BC938A9F
3D2CAE2B
3D13BF67
3D84F1B1
3CE07506
BCE54C2A
BABCD6DD
BCA60D10
3CDE1C77
3D9177F6
3CC12DCF
3AFC6CEF
BC6F8B72
3CCF43C4
3D505BAF
3BADB971
BC316432
3D12E616
3AFEEA98
3D310E8C
3C38E8A0
BC7B6E85
3BFEF13D
3B741F42
BC40A08A
3C4742E1
BC9CEB39
BD0B992F
3D0D669B
3A1C3993
3B9A6AE3
3D24957D
3A3F1637
BCECFE5B
BC86E820
B9C9DF47
3D1B51B0
3C6A6459
3D040B81
3B7751E3
BC51246B
3D350E76
3D0A5C77
3D00B275
3B13F37F
BCE0E36D
3C96AC92
BD1732AC
3D113D72
3C508210
BC9A033C
BCB3E7E6
3D3C1F80
3D045268
3D013F0E
3D1DDD5A
BBE57FF4
3BE0BA8A
BC9DB741
3A88B739
3CB54508
3D0B4A19
BB77BD24
BCB2E47B
3CCA7171
3C203E65
3D624D42
3D82C748
BCB687DD
BD4FE199
BBB06234
3C7ED455
BC1D4F72
3C85CAE4
BC256743
BC811474
BC8D7B0E
BCB83D8E
BB83A1ED
BCD76644
3D7FF736
3AF3C2A2
BC7BD422
3C312B77
BBFA3326
3CF5B381
BCF93E83
BBD1E39E
3D3A6BE7
BB7A55FD
3C2F22A5
3C507869
3CF631DC
3D0025CC
BB419BEA
BCB9514F
BCFA714C
3B95BBB5
3C8CCEC2
BC311B6E
BC8B633E
BB952255
BD30782E
BC063D98
3D38C9AA
BBD4F842
BC2815B8
3B028B4C
3C91EB14
3D0B1DD8
BCC667F9
BB10798B
BC85DCBA
3CF97E0F
3CA6D35F
3BE564C2
BC50A284
BD10D2CC
3CD2A104
3C089A92
3C092DB2
BBE43FCE
3B7D8C63
B91E597E
BA566435
BC2D3328
3B4BB483
3C993BF7
BCA136A3
BC763246
BAE1CAB2
3C9C86E5
3C3179A9
3D4DD8DF
BD8775B7
BCAE799A
3DA75414
3CEEFD63
3D1432A8
3D9BE19F
3B01CCF4
BD215E4E
3B860AE9
3C820512
B9D07DAC
3C582C71
3D0949ED
3CEB76A7
BC07A611
BB0C64D9
3CBDBA91
BCA37B8E
3CE684D6
3CBF4BA8
3C955083
3D0170F3
3CE42481
BC876BB3
3CCC804D
3BDAD966
BC8B0A9C
3C9C21C7
3CD548F7
3D178BC7
BC68B659
BBEA7131
3CABCF60
3CA97967
BB695992
BA141C96
3D13EFDD
3BA18806
BC3EA246
BBB07A62
3C707757
BC82A08D
3D8CC617
3D1CEA2D
BC25334E
BCA722F8
3C331857
BC30D41F
3CD2D92E
3C8315BA
3B1EAD78
BBEDFED4
BC807C17
3B2CDF2F
3BF81E5F
3C59B4AA
BB57CA56
3B19CB99
BCD86ECB
BB3EAFD7
3DD90F23
3D5AC592
BD649836
BC90C998
BD32B22E
3C902C15
3C27F05A
BAE45AC6
3CCBDF68
BD46E16E
BB92D616
3CBE9A63
3C6F1C79
3B9E4F6B
3CF66A31
3D08858F
BC62ADED
3CCF2ECB
3C9F0042
B906A4BC
BA85868E
3A5CD40A
BBDB6CCF
3CDA847D
BD1CD51A
BCC7576C
3D0D01EA
3C70D7CE
3CA6DDA2
3D0F0B28
BA6BC25D
BD0ADA55
BBA7CE2C
3CCA272B
3C01A195
BCB2B4ED
3CDE5DD0
BC0251A1
BCD0A054
3D906112
3B5DA17B
BC4D6F75
3CA9D4F4
3AD5F120
3CD66FA6
3C63ACF1
3BDC8303
3C5C4714
3B83610F
BAC93045
BA3332F3
3C19C759
3B28D776
3D419698
BD655160
3BFD0C42
BC4018B0
3C14EC22
3C6571C8
3C93E918
BCFB5C2A
3AED8D33
3C4A67EA
3C356DF4
BB317A39
3D7BC23C
BCD0D16B
BD06BF74
3BE70DF4
3CF7381E
BC54AA3D
3BCE927E
BC8851A6
3C13691B
BC011F50
BCA4336C
BCD4C701
BC0AF468
3CCC2895
3D1F1F90
BBBC01CC
BCAE4163
3C0A6BF9
3D5025B6
BC4F276E
BCB05318
3D540FBD
3CC93521
3D3BA951
3D696D30
3CA2F63B
BD24FD54
BAE220FC
3D1F10DF
3C8A24B6
BA80C5ED
3C57FC90
3D474078
BCB07401
BC494FFC
3C96456B
BBCFB203
BC6038A3
BB614490
3D38B4CA
BBA0297C
3AF33D4A
3C3AC20D
3CC8BCB4
3C7B77B2
3BA35950
3AE4EAB5
BB6B0CF4
3CBC30A8
3CC7BD3E
3BAC12FF
3B22D68F
3ABEF50D
3BA1381E
3D2ED555
BD2AB65F
BD3E4066
3D8B5275
3B437615
3D4943A0
3D46DF4E
3BC6D044
BCA10EE5
BCE16149
3D1C65D1
3A88501A
3A721563
3C04272F
3CBD22B3
BBAB5984
BBE2160A
BCB41C3A
3DDDD41F
3B97259F
BD3EC874
3CA02F71
3C0340EA
3AFE7F4A
3BDCE2A5
3BD8A9A0
3C87139D
39AB811A
BD04E470
3CA619E3
BC0B4ED8
3D1503DD
3CAC692B
BC0EA734
3D10DED8
3D9127AB
BD5F8E34
3D3E0E85
3D3CD550
BD6B4EDB
3C72D077
3D780E09
BD94C45E
BCB5EE8D
3C0BCB6B
3D2623BA
BCFA3599
3C81F6E5
3D4FEE13
3D093FBA
3CD8DE4D
3C48D8BA
3A74F3D0
3CA47B8E
3C52C51E
3CD9446B
3D3F7E25
3BD1D2EE
3D70E19D
3E02767F
BD98E179
3D6D8E10
BB87A3C1
BD9B3057
3B4C01E6
3DD2AAAB
BDAABEA4
BCD8EF0B
BCDBB24C
3A540506
3C15CF32
BC9A2837
3AF46156
3CA24171
BCC24B2B
3CF59BF4
3BE1ECCE
BC727D56
B98F8305
3D5F017E
3CA1841E
BCC2D873
BC061F1B
BC4B2EF1
3D344407
BCA379C8
BC60C025
3D31320E
3D0028A4
3CC94018
3D2BF18A
B7B44C62
BCCEE9D4
3ADA8FA3
BC4897EA
BB1EDECE
3D1708D1
BC9D29EC
3B6BBC2F
3CB9CE53
3D3A65F0
BC09AE57
3D293902
BC9CFDDF
BD149BEB
3C938EB9
3CB26835
BC329BB7
3C8E214D
BC741D6A
BAB1AB3C
3CE83769
3C5FF0C0
3BF7D12E
3D7F78B7
3B986742
3CBEC139
BB84957D
3D8686B2
BC9E9A8F
3D0472CA
BC3A9D38
3D45BE00
3CEF0029
BCE37EC2
BA75DF22
3D493480
BC25E18E
3D851E2B
3C6E2C49
3D1F7738
3CD3C008
BAABEA96
3B855834
3B966623
BC9F68B8
3D60D6D9
3BBF8497
3CF11EBC
BCE5F7FD
BD09E88B
3CE9FD1B
BCC9BC21
BC281BFF
BCCE7FE1
3DAE8DDD
3B96D0C5
BD1EBEEC
BB9ECA98
BD89F61F
3D45AF85
3D31036E
BCA8E130
BAB0B6D6
3D459742
BBC7CD20
BC234286
BC882052
3B9F2CBF
BC2EA77C
3D1CBF3F
BD026B5B
3D622DA4
3BF54824
BD46FEAA
3CF93B15
BC972E36
BAAAAAF0
3CCFCDAF
BC9D2760
BCFD69A2
3CA02979
BC837975
BC31DBE9
3D0F9182
3D4C8BFC
3C06E241
BCE29EE9
3C7A0384
BC08F847
BB0561A4
BC4E0BC0
BC20C758
BB9FD6F6
BC4C0908
BC0A19B1
3CB03209
3C0F5E65
BCC1D650
BBAA2131
BC54DDBD
3CAAF504
B8E18212
3AC3D322
3B470983
BC828A98
3CD85132
BB9E0745
3B09635A
BD17E473
BCC1D208
3C192BDA
BC13BF74
3D2C1919
BBDF087F
3C738959
3CF2C55F
BC366142
3D85E261
BCDA6C5A
3D48664D
BD1E5E66
BC954ED5
3CE767B9
BD0557F6
3D157EC1
3D3BD6D6
3CA5EA29
BBAEDCF7
3B97E800
3D2A0E75
3D2B7FD2
3D261F45
3CB90E1D
BCAD4245
3B5734A8
3D92AC8F
3C2AB5DE
BADDBDBD
3C8D8568
3D49117E
BB950BF5
3B7F3865
3D04EA50
3AAEB710
BC06D66A
3C13144A
3C9DFD4B
BCB74FE5
3BA30D62
3AD573CD
3D81A55C
BC22185C
3C2C9E5F
3CB12E3B
3C5BE4D2
3CCE80F1
3D92C12F
BBDDBAA6
3B943244
3D8599B7
BC26129A
3CBC40E6
BBC83E3D
3D1F650A
BB8449A4
3A75E410
BC54940A
3D010FF5
BC85AF12
BCB20905
3D2FFA07
3AE6E586
BCF78D2D
3C87C66E
3C267656
BC99A519
3CE361CD
3C15E03E
BC60282F
3D4B05E5
3D4E4146
BCB0A4C2
3BF41194
BBB930A3
3D1C59BC
3B2C3E97
3CCA7BF6
BAC581DB
BCA7FFD0
BC4196CD
3D007FE1
BD8A8EE3
BBD903EB
BB5D26CF
BA1CD5AB
BCC32E7F
3C6CBC76
3B782650
BC356E0E
3C108F89
BB0C9991
3D19D4CC
BCD68D5E
3CCAAB16
BD0D4696
BB8413F4
3C028A8A
3D42B7BB
BB102305
3D214217
3D7C2AFC
3BB27479
3BB3E57E
BC878FA5
3D6D5AD1
3CF1EFBE
BB0B1582
BCA1D880
BA4B0226
BAF84B9E
3BCD6F12
3CD95EFB
BCF4AD73
BB5903B8
3CDB5E23
3D264041
3BB296F2
3D97EA49
3B1371F2
BC0D118D
3C5ED826
BC9CD4E6
3D44969B
BD08B7E7
3CFA55CA
3D2AC295
BCE95531
3CF161C7
BC8A0A87
BC6072F1
BD33A3BD
3C86A5F3
3C926A8E
BD141BAE
3C9D8A0E
3CE3F01D
39804761
BBD54FF0
3D2208D0
3CA2F985
BC329C99
3CE6C545
3CF7CCE0
3D0157A9
BCBF0FF7
BD09B4D7
3D7C83F5
BC85DE4E
3CDB2BB9
3D7D16A5
BB0CB5D2
3D050116
BC74D439
3CAC6615
BD5F3FEF
3D4ED9D6
BA330B02
3CCA7031
BCDC0DE2
3C02DB18
BC839E67
BCC71F3C
BC448CB5
3B4EFE71
3B23F5A6
3CE77D75
3D5BDAB9
BD012DF6
3BBFB807
BBDC72C5
3D6F44C4
BB99432B
3D21F40C
3D05FF66
BC8E5EC4
3B03B850
3D26CBB6
BCE5C4EB
BBE1A0B6
3C40E08E
3C879E64
3B9E4682
3D428DBC
BCE01185
BC8786D8
3D152483
BCCE1101
3CCE45F6
BBFAC82B
3C3B6E17
BD05425C
BC5E54C0
3CB7B4E2
BC3391C3
3D492D63
BC6ECC72
3BFEFD28
3C99B123
BC901ECC
3D95399F
BCF4A0B4
3CFE1602
BC9A2C13
3C018163
3CBE08A8
BCB3789C
3D1D7A8F
3CBF3540
3CD7F997
3C93183D
BCAC7C9D
BBFF0727
3CD846AA
BC98E029
3D0E4F1D
BC1E8258
3C7E1B74
3DDB5A83
BC4D1F51
3C563688
3A3A1D51
BACBD0C7
3D3F9198
BBFFC882
3D5E86EE
3B3F6215
3DA5D36F
3CCB2856
3C47308E
BC5DA888
3C234DCB
3CC64541
BBF9474E
BBAB2F8B
3CBC02A0
BC0CCAC7
3CBE2A2C
3B8B9CD3
3D1CDB48
3C0FEC5B
3BC1D547
3DEDAD10
3C2D0D78
BCC82089
3D09CC7E
3BAE1B70
BC0C0588
BCF84A81
3A88D03E
3DC33983
3B5F1DA3
BC06C64B
BD46C18E
3D301597
BC702328
BD1322E6
3D7B02B9
BCD976E6
BCA7E189
BCF322C3
3D0D2DFD
3B99C1C3
3D190D73
BCCA7A2B
BCC23B00
BC4BA8B2
3C2ECB85
3B79D009
BC17B3E6
3C843BD7
BC35E99D
3C490774
BC609734
3BB16CDC
BCC93B1D
BC3D4305
3C874BF2
BC7E3D6E
3C9C9469
BC1AC4DD
BCE23A7F
BB9DD116
3D2A1A35
3D0E0883
BC8E2350
3CAB69BA
BC6084E6
3CDF9642
BC498B2E
BC7735D2
3C9D702E
3D874B62
3CD6BB21
3B391454
BC626D6C
3CED1958
3D833EBD
BCB9ECCE
3CB8BCF5
BD134919
3CAFE3FA
BBDC1164
BC7D77B5
3D142C06
BC011A71
3AD21587
3CE3F5B1
3BA4F861
38237148
3D8CD5B9
3C5D1147
3C50A2B5
3C9130CD
3C9ED361
BC459C83
3C03714C
3CA828F5
3C51064E
BB6C703A
3C797FDA
BC8B46D2
3C0ED6CD
BCA34DD0
BC016526
3C8905F5
BBF1524E
BB78DA7D
3CF1C353
BB2414CF
BD1D8B91
3CAB3BE5
BCF6FE90
3B988716
3D3F846B
3DCA3763
3B749043
BCD162AC
BD05189A
3C28221C
3D539475
3C23CF52
3D17592A
3D273611
3D91D352
3B4D3CC5
3D36917B
3C315BA6
3CAC843E
3D149014
BD3779C4
3D38AC5D
3C89DF51
3CBC76ED
3CB0D92E
3BF668B5
3D693BE4
BC41FFA2
3C0C22C6
3D5EB804
3D0E2430
BA2D1AC0
BD44D432
3D09BD92
3CC52D29
3C1DB1E4
3CAA7892
BBE90A67
3D13D75D
BC2239C9
BC6C8B4C
3AD0A8D4
3C00C646
3C248878
BD0A091B
3C871DB9
BC870380
3C2CEB21
3C828CBD
BC632E0E
3CBF7733
BD19AAA9
BB631BA0
BD130BE5
3CD07587
BB73E45B
3CAAC830
BB02786C
3CADA8AF
BB9DCBEB
3BB66FF6
3B7679E8
3CFBEA4D
B9893B7F
B9B3D6A2
BCC262DF
BCCF4FCE
3CE01311
BD1D8BBC
3C2BA117
3C38F853
3B933EE5
3BAD084B
3CF71391
3D0A2C35
BC903B7E
3D44106A
3D6BCBD0
3CD466E3
BC159CD3
3CC11A6D
BBCBFD02
3D02F722
3CC90286
BCE6F4AE
3C61BB5D
3CCCA847
3D2D6F73
BBEF5273
3CA876B8
BD0E80E4
3C23AA41
BCDE5334
BA87F7E5
3D5275B0
BB43ED03
3B834750
3D8CBC91
3D040DEB
BCD1A927
3DCC4F5E
3DC5FE86
3CB7DD9F
BB1F0985
3D583FFD
3C3765A3
BBFED239
3CDEBD0A
BD744A37
BCD2762D
3C85B139
3D87D49B
3C58E1EC
BCF241D1
BD3310A1
BD438DA1
3C383B12
BC92B2AC
3C9C96D2
3D33F820
3D079165
3C0BBCFC
3BCE8485
3B1C13A3
3C45B53C
BAC05196
3C6D5EE6
3C49A42D
3CC3AFF9
3D23AAE6
BD3FDC97
BCEAFC91
3D29070F
3D6E2CF8
3CB2A3C2
3CC39B70
3D183F98
39833D34
3CA3439F
3BDA91F9
BD477738
3D557206
BC5782CB
3CBC294D
3B310FEF
BC403C0F
BCCFC902
BB8A06EE
BC238327
3AE08E9F
3CBD5EB5
BC67B75D
3D106FA1
BD2422D2
3D824DAB
3CB903B7
3D7E3C52
3C279EA1
3CB991CB
BB087024
3C94BFE2
3CCD674F
3BDA74FB
3D89BB92
BCBE3C54
BBD32E33
3B8FA985
3C8BFA4F
3CB7A852
BC1A1880
3D11E854
BD0695D3
BC013E30
3B9F4887
3AA8E625
3CADB569
3CD89679
3C9565D6
3B82AB99
3D55AB24
3CAF7786
BC743E96
3CCAC74C
3D4A37EA
3D52C814
BC925499
BD02405B
3CA7EBB7
BCC5027C
3D290168
3BCFFD50
3D5E0A5B
BCBAEA3D
BB147884
BCCAE7DC
3D3AD414
3CC96A64
3D5631D7
3B37C5C9
BCC3D569
BD3C0D4F
3D616115
3C9288F8
3B8FF966
BCBFD447
3D20AEC1
3C065A17
3D857BB4
3C877EB7
3C3E4995
3CA6F88A
BBF2EFB1
BBD781FB
3C596F4A
3D0392C6
3BB3D153
3C9F84F4
3BDCB6CA
BC82DD7D
3B442EBB
3A9DFE25
3D3163F6
3D70E96E
BBC6D883
3C1AC4E0
BB7A1D4F
3BD06B63
3CBE63BF
3D3BD573
3CCFF334
BD2213D1
BCCDA3EB
3C682C95
3D55A170
3D9CCBCA
3BD81EF8
BC9C271B
3CBFC115
3C20BAF8
BAE72DA4
3CAD047C
BC2205F6
BC864857
3C376EAB
BD0470D1
BC820D04
3C3453FD
3CA457C5
BD13DEDD
3D432CDA
BC1ED59B
3DBA3AA7
BBCEBF8F
3C16EDC1
3B5219A5
3D405DB9
3DC87A73
3D23BAAA
BD18C348
BC1E82E9
3BA12FF5
3C2AB733
BB6BA3DD
3D1356DB
3CD92184
BD18C8CF
BC9A05CE
BCADA6FC
BD47C8F2
3D890FBD
3CD5C4AA
3C11A498
3DCD3404
BD48937A
3CB2CF3A
3DFF5C95
3CD5C01B
BCAEF63A
BB2D9742
BC2BD28E
3D9EC7F9
3D2C44BE
BC93D798
3CC966A4
3D163083
BCB48A98
BBACBB50
BCBFB0F0
BCA5615B
3C825D01
BC38D225
3B3C67D2
BBC16C25
3DACAE61
3CFACD4F
BCCF3064
3C8DFAEC
BBF5E5EA
3D02B248
3D836796
BCA42CE8
3A445CFD
3C4CAD22
3C6E6BF1
3CFAA8D2
BCF6BCDD
3A75B879
BD183388
3DDB8ED7
BD58BAB2
BD04AE94
BBEF951A
BC7A483B
3D02292A
BC8F2BC2
3BC1CE51
BD01BE2C
3CB49479
3D4D39C2
BC356D62
BC5B9EB5
3DD3E687
BD476907
BD2370B8
BD3782E1
3B5C4859
BCDEC5B4
3DFE0DAC
BD586258
3C11E5E1
BC627BA3
BC94A605
BD47CF26
3D3CA030
BD12B959
3D9FDA3C
3B7C0874
BB7B2823
BC867DBB
BCB0497D
3BFB860C
3C885756
3CE663F6
BCCD0CB9
3D0402F0
BC0C35A9
3D254DC6
BC83F13D
3D12257D
BBAD1A91
3CDA598F
BC0C1472
3D32A38A
BC91E128
BD1659B1
3D4371A9
BB465368
BB9AEF1B
3CA8C162
BC6D78BA
3C5A2B04
BBB3838D
3BE35189
3B8D869D
3AC5D1E7
BC4BA7EF
3C48D707
3C926835
B9DFCE4B
BC3AFD73
BC996D5A
3D495529
BBD84A8E
BBE41D3A
BC7624C7
BBA9AAB1
3C14A48A
3D23C4DB
3ACD2A58
BCB59363
BD09DECC
3C3EF06D
3D0BD94D
3B8654F9
BCE98777
3A7C773B
3C4D30EB
3C435BEE
BC34478B
3DBD65FB
3BC7D3BC
BCDFAB1F
BB1E354D
3C96F5B8
BC352F0B
3A854F1C
3BC9C159
3D3BA1BD
BD1D6722
BBC22099
3C49C54B
3D102E32
3D106D56
BCAE1D15
BD1C62D4
3D9C362B
3D827B6C
BC56096C
3C0542B5
3CB441E4
3D05CB2B
3D7FB684
BD04E87D
3D38F72F
BC7F5184
3C965EE2
BB41F8F8
3D44F1B0
BC96533E
3BC483FB
3CCE3FEC
3D513097
BC9DA134
3C2E5634
3D00653B
3DB9A0E1
3D4D2EDB
BC1335C9
BD0A09F2
BC068FB6
BA7836BF
3D853B20
3CACE1CE
3C96A412
BD06B777
BC5ACD26
3D3D538F
3D77D1FF
3CF443AE
BBBABF75
3C9AE271
BC8531BA
37814392
3CA97930
BB90AE78
3C78A1DA
3D1B076D
BC2C681A
3D1E598D
3D584FE9
BCCD0801
B947362A
BC73EF36
3D8958CA
BBE1E58F
BCC5120E
BCD68339
BA85C0FE
BCFA7926
3DB8E02C
BD215E1E
3D00C5FD
BCBB203E
BCAC5AD1
3D85B880
BD0827CF
3D9CA8A6
3D21920D
3C9EE21B
BD29C675
3D1FFDB3
3CD0D667
3C900815
BCB72F2B
BD151476
3D5DE22B
BD6CD5DC
3ACB0D54
3D10D24F
3D3D1584
3A3C6892
BCE2FF1F
3D5E7C8E
BD40DE5B
3B7BF18A
3D6BFC06
3BF92D6F
3AF8670F
3D009569
BCF32863
3C9DD936
3DA7E9CA
BBE7C398
BCC44B98
3E09AD90
BD703A88
3D35A7CB
3C965A44
3C922940
3CBE1016
3C1CB23A
BBB06BFB
3CD5F325
BC2D7286
BCE99838
3CAD0826
BC21C393
3CFCB179
BC77E872
3C8454D6
3C40AB0C
BCCE3323
BAA823A3
3DB5EE48
BD3F4B0B
3BFC5FC7
BD828A4E
3CBFD12A
BD12D30E
3E1CF2E9
3CF82A62
3B9753AC
BDD9BB0C
BCB8CD6A
B9DFC80F
BC1873CA
BD619998
3DB2CD9C
3A1C208A
BBF727E9
BD832A59
BCCC2DC2
3CD070B4
3D6381DB
3CBF9E0F
BD143635
BD468616
BC635854
3C1508AB
3E06592D
BBCF04D9
3980BBF8
3D043192
3A3B239B
3DACCDA5
3D672E09
392CC538
BC9C0B61
BBA7F4A3
3B15448A
BC9D4CCA
3CD6D101
3DA4DCA3
BC2F512C
3C00A1BC
BD89F338
BC7AC538
BC12EECA
3D9863B8
3CFE2826
3D9CBADD
3CE28A39
3C59C8DD
BCA80AA1
3D29C2D6
BC4CB911
BC7DDECD
3D4CE6E3
3CEE2AC1
BD29D8F2
BCDA77D8
3CD92F57
3D2A3B73
BD0BB474
BB0B3DC8
B7B02574
3C058F07
3DB2A059
BD16AB37
BBCDA5B2
3BF6C23C
3D677BFC
3DF1C3DA
BC96C186
BD7D972F
3C715625
3D4FBC75
BD4F81EF
BC85BF3B
3CA3F711
3DC7B469
BD6A8247
3D9AA6DE
3C0B8519
3B06E67F
3CC84F5C
3BB584F6
3CF2FE73
BBE637E1
3D2ACA7E
3D272E48
3C9321DC
BB1E176B
BD0D9096
3D5705C4
3D5FD878
3D34C4F0
BC42F774
BCC3C32A
3CCBE154
BCFCF2A8
3D0EE203
BCFB87D6
BC86830F
BD34BF5E
3C5081D7
BB8F5E07
3D18BD1B
BBC2634B
BD064F0B
3CC50690
BD231588
BCF7688D
BC019894
BB759FEE
3C72A812
BCE90537
BCD17F8C
BC2E97EF
3CFD758B
3D08F584
BC2A670F
3C442EBD
BCA19EEA
3C5100EE
BC9D7291
BCB2F72B
3CD1752D
3A4B9B1C
3C4F6E76
3D33A941
3C288989
3D263766
BCF471AB
BC8B8DC6
3CF642D3
BCAF2061
3DA01B84
3CECBC6D
BCD2B54C
BC6722C7
3BA8848F
3D4CCD5D
3D7DF78D
BC6A3D7E
3B8A78C3
3DA1B59D
3BEE6195
3D7C654F
BD1041FC
3C8142BB
3BCA4837
3D1D6A2C
3D2A60CF
3D7D98DB
BD2A42C7
BD336999
3CB2928E
BD17FF27
BCE32A93
3DB37D3D
3D024558
3D327755
3C0FF06B
3D55DFDC
BD30BE03
3C477E19
3D8E3806
BCA87987
3D4BE48A
3D6149CE
BD1B9195
3CDCC1F5
3D837EED
BCA03DB4
3C20B666
BD33594D
3D173C70
3C601456
BD1ACECB
3D0CD792
BD67F220
3CEE478D
BD3465C9
BA772E78
3CC272C7
BCEACF4F
3CF6D859
3D002A20
BC18007A
3CBCB626
3D9ED6AA
BC258C91
BB89810D
3E2786F7
BC40B7C0
BDB8AF9D
BD09CBEA
3D3F3CD5
3C8B588F
3B18A48D
BD1A5BD0
BC7BB04F
3D0C41D2
3D5AEED3
3D945D11
3C65A0DF
BBF99DA8
B98874DC
BC8A90FA
3CC5F4CD
3D399249
BC57DC2F
BC8E63E2
BB327AB5
3BE2B08C
3D83C294
BB14A93D
3CBBD2ED
3D1466B9
3D7FEF9C
BB9F4B83
3CD3199D
3CF50ACB
BC5B22D5
3D8CCC3D
3D13B259
BC942CFC
3C1DBBB6
3CEEF38A
3D7CB104
BCB0A4A9
BCE65E0E
BD1DD73D
3CB1CDA5
3D22500F
BCF27E59
3BE18979
BC730D21
3C944C1D
3D65D460
3BFECFF9
3D32A982
BAAB28A3
BB17B945
BC933D78
3D4E52D1
3CAE4DAC
3D03EDAD
BC8AE705
3CB8D020
BCB79058
3D891741
3CEA6B1A
BD166906
3D088B8A
3CFFA35F
BB3D30FC
BD068E2B
3D1E70A8
3C545C30
3C95354D
3D76CE06
3D29CFDF
B9675B22
BCCA726F
3BAB346B
BC03E8BA
3CA5104B
BD0FFE89
BC22EC38
3D5E316D
BCC43A7C
BC904DF0
3CBFEC1E
3D41FC2B
3D997F36
BC81B011
BCE574F8
BC094E94
3BC80589
3D1BD06F
BD9EEFBA
BD1AFDAE
BD078C76
3C508D3B
3BE344D6
3E1D8F6A
BD88870E
BD4A42B2
BC9671BB
3D52DA10
3D190298
BD803568
3D3557A9
3C3EBA75
3DA1BD94
3BB95B0E
BC9E89B1
3D25CE41
3CA77740
3D8FBC4A
3D705273
BC149E01
3D03084A
BDA926D9
3D8BF477
3C746126
3D1EAADF
BCE22822
3C87DA8F
3BCF0E98
3B64C317
3DC6B865
BC7E157A
3CF896BB
3D5DC6F0
BBB8544A
3DA9B849
3D396A9E
3DBBB0E8
BD04CCF9
3D7BBF5B
3C3EEE98
3D7356A3
3D6870B7
BC5961EC
BC4F765F
3CC7C9C6
3CBCE0BE
3C8659F6
3C8C7295
3D21276E
BD29209C
3D315177
3D7C471F
BC88412B
3CDF94A1
BDA7CFD1
3D4A7815
3DB7FBC4
3DD593EA
3CF73A34
BD1E67A1
3D6DEE07
3DF87CCD
BCE57386
BD3E6F17
BCE73AE5
3CB341C7
