E4
EC
24
FC
29
0E
19
FF
B4
E8
03
03
09
12
EE
03
F6
EE
F6
00
01
FC
FF
FF
EF
F3
FD
F4
09
FE
07
08
F6
0E
10
FF
06
15
09
03
19
09
FE
EE
04
02
EB
12
F8
F6
FB
11
E0
F1
EF
0C
00
F7
0C
FD
02
F1
17
FD
07
F6
05
1B
FB
1A
1C
F0
FB
F9
F5
EB
0E
F9
06
18
02
FC
FA
02
FC
FA
F8
05
05
FA
FF
FD
01
FD
05
04
E8
F1
24
0B
0A
19
20
11
00
0B
F5
01
04
F3
F7
13
FA
FC
00
FE
02
00
04
01
FF
FC
FF
FE
01
01
02
02
18
ED
FC
F0
FB
07
00
09
E5
0A
F0
0C
FD
EC
0E
EB
05
19
06
11
05
1B
10
0D
20
09
F8
E9
FF
04
00
10
F0
F0
08
DD
1E
0E
25
F3
BB
01
10
1A
01
FC
05
E8
F6
FF
05
01
F3
F4
FB
FC
08
FD
07
FD
F9
0A
0F
F5
0D
16
03
ED
10
FC
15
01
0A
0A
F7
18
EF
F8
F9
F8
FA
FF
0B
F5
0B
F1
08
F9
07
F6
09
03
07
FA
EE
15
F2
E6
EB
FD
F7
FB
F2
05
C6
EA
1D
0D
F1
00
17
F4
06
F1
FC
F5
03
F7
F1
03
07
F2
1C
00
FA
FE
FF
02
EF
EC
12
07
0B
FA
F7
0F
FF
EB
FE
05
FD
02
FA
0E
F0
F4
FF
FD
03
03
00
0B
01
F7
00
0B
02
F2
FA
FF
F4
FD
0E
FD
08
04
F7
04
F5
FB
FB
06
FD
00
F9
05
0F
06
07
02
FD
0B
02
03
FF
FE
06
06
05
E9
05
F5
09
FE
FC
18
E4
05
07
F6
03
FE
05
E9
02
0F
1C
FE
FE
FF
06
01
03
07
FD
05
FF
FD
F7
03
04
F5
FB
F5
FC
F3
FA
0D
F5
08
FA
FB
10
03
EC
FF
04
FB
08
0C
FD
FC
03
FF
00
03
FC
01
02
FD
F8
01
FF
FA
FD
FF
09
FC
00
F0
F9
07
FD
06
FC
05
F1
01
02
FD
08
F3
05
0B
FF
04
FE
07
06
FA
01
FE
04
F2
03
09
04
08
FE
E9
EB
F7
F9
EF
E8
04
00
F3
0D
06
FE
03
15
07
FC
0C
FF
E4
0B
FC
0D
03
14
FD
06
07
EB
F4
0F
04
FD
12
FC
F4
0A
F1
FC
F6
07
F9
11
07
F4
FB
EF
00
0A
01
03
04
05
F8
F2
0C
EE
F7
F9
03
0B
00
05
FC
01
F0
E8
F8
F6
F8
F8
05
09
FB
09
F8
05
FD
0A
06
03
FA
F7
02
01
06
08
0B
F7
00
05
FE
08
03
04
F9
F8
FA
FB
F3
08
F9
F6
F9
05
FD
FD
0C
04
F2
EC
F8
F9
04
F9
F4
0A
FC
09
FE
0C
FD
04
05
06
F2
F3
08
FF
FF
FD
F8
0A
FA
FA
05
00
F9
FB
0E
FB
FA
EC
06
0C
02
0B
FE
03
0C
05
07
06
0C
0A
0A
F9
EB
FD
EC
10
F9
F6
01
EA
11
0E
0E
F4
04
00
F3
01
05
19
00
00
FB
FB
F8
FE
01
FB
FC
06
FE
05
01
03
F9
FB
FB
01
02
FE
12
FE
02
01
0A
03
EF
F7
03
05
EB
FE
FF
02
FF
FF
02
02
00
FA
FF
02
FA
FE
01
01
FB
FD
FA
0E
FB
0C
00
FD
03
F2
08
F2
00
F2
01
0A
FD
04
F9
FD
08
F5
00
04
01
0A
01
04
02
FE
FB
FC
00
07
08
F9
F3
F6
F3
09
F7
04
0F
05
FB
FB
08
08
F3
FF
05
01
03
FE
F4
03
F3
06
03
FE
F6
01
03
F0
F9
06
0F
0B
07
01
FC
09
00
01
04
09
F3
09
04
FA
F8
05
0A
F8
FD
0D
FB
04
FD
F4
01
00
FF
07
0E
FF
F6
F7
F9
FE
F3
F0
EA
07
01
0A
03
02
18
08
02
09
03
F9
0A
F7
EF
F4
02
EF
FD
03
01
FA
01
07
04
08
07
06
FE
EC
00
EE
F2
02
EF
FD
E8
08
03
01
05
FE
FC
EA
03
04
04
06
EC
0C
FA
01
F7
0C
0A
0A
08
F9
F4
F5
FB
00
09
F4
01
0D
F6
FD
FC
02
F2
FD
06
01
FC
EB
06
10
09
02
F6
04
F9
00
F9
03
0B
0D
02
02
F9
05
EE
0E
FE
08
FD
F3
FB
02
0F
FA
0D
05
03
FE
04
0C
03
05
01
01
FC
05
03
FC
00
04
F2
01
01
FF
FD
00
00
FB
00
F4
06
04
FC
02
04
01
F0
00
F7
F7
03
0F
F8
FF
00
FC
02
03
00
FE
FE
03
F7
FB
FF
FD
FF
FE
FF
07
00
0D
F3
07
F8
F6
04
08
F8
F6
03
04
EF
02
00
04
FB
FD
F4
01
03
FE
0E
01
0A
04
0F
01
04
09
05
02
00
FE
F1
0F
01
0B
03
09
01
04
07
08
F8
FC
06
0B
F2
01
FB
06
0C
06
0A
FC
05
FC
FA
FF
FE
FD
03
0C
05
06
06
00
07
0C
FD
06
00
FF
06
FC
F7
07
06
02
0D
08
07
F7
FD
E6
F9
FB
ED
0A
06
FE
F9
FB
F7
07
F6
FE
FA
FE
F0
00
00
0B
06
FD
0D
FA
01
FF
0D
F7
FE
FF
FF
EF
F6
06
01
F8
18
0D
0A
01
02
FC
02
01
0A
F5
FD
0E
EC
00
F6
05
FD
FB
06
F7
07
F5
FC
00
FD
F9
F9
09
FB
03
FE
01
F6
08
05
01
01
F4
FF
01
FF
F4
03
03
F4
04
FB
FA
F3
FB
FF
0A
05
FD
F3
0B
0E
FE
F1
00
03
08
0F
FD
05
18
0B
05
05
07
02
FB
F1
0E
F2
F7
FE
04
03
FD
0E
06
00
FB
03
14
06
03
FF
00
FF
FB
00
00
FD
05
FD
FF
FB
FF
FF
02
FF
02
F5
F4
07
0E
09
03
F7
FC
EF
F8
FE
FB
08
04
FE
FF
FF
FF
01
02
00
FD
FE
01
F9
FC
FE
FD
01
FE
FD
F7
F9
0A
F8
03
00
02
FD
00
F8
F8
07
00
FD
05
F0
FE
F9
03
F7
05
FC
03
F6
FA
11
02
07
06
02
10
FE
FE
00
09
F2
07
0F
FA
01
01
F6
00
0D
FC
F5
F7
01
09
FF
08
FA
F5
00
F4
FB
FB
09
07
0B
00
01
03
FB
09
FF
13
FD
03
FA
01
F8
08
0A
03
FE
FD
F6
FA
FB
FD
0F
03
0B
FD
F7
FD
FA
FD
F2
06
F6
01
F8
F9
EF
FB
FD
FD
ED
FB
FC
F3
01
0A
01
FC
FD
02
F5
FD
08
04
06
03
09
F3
EF
12
00
FF
14
07
03
FC
F5
FA
00
01
06
EA
02
07
F6
FB
FD
09
F8
06
F3
03
0D
FA
FF
06
FE
FA
03
FE
F5
F5
03
FA
FC
F6
F9
00
02
F7
FD
01
02
F7
FF
03
F7
FB
FC
FC
FF
F5
F6
01
FF
F2
07
11
05
07
F1
06
06
07
0E
02
F7
FB
FB
03
FD
01
00
03
F8
03
F7
FC
F9
02
0A
F9
0B
0A
03
06
FA
1B
F8
02
01
04
FC
00
05
01
03
00
FD
FE
03
01
FE
02
02
04
07
FF
05
07
0E
01
F5
F4
FD
F5
08
02
06
FD
F9
00
01
00
01
03
04
FE
00
FF
FB
FD
02
FF
FF
FD
FC
FF
FB
0F
FF
FD
0A
05
0B
01
F3
FA
07
FA
F9
05
F4
06
FA
F9
F0
01
FE
01
F3
FD
0E
F6
00
03
0C
14
02
06
01
00
F3
0F
04
F9
00
08
FA
FE
FA
02
FE
04
01
04
F3
07
FD
F7
F9
F7
01
00
05
06
07
01
FB
F1
02
01
F3
FD
16
02
FA
FF
04
04
18
13
08
F4
07
00
05
00
05
06
0A
F3
F8
FE
FE
04
F0
06
F4
09
F9
01
FD
F2
F7
02
EE
FA
F9
ED
F4
04
0A
FD
FB
FA
ED
00
FD
03
09
0C
F9
F6
F2
09
FD
FF
0D
0B
01
03
E8
06
06
06
06
F2
F5
08
02
F1
FA
07
F5
F5
F3
01
0E
FA
F5
06
FF
FD
F6
0D
05
FA
FD
FA
FB
F4
F9
03
04
F8
FC
FE
FC
F9
00
05
FE
F9
FE
02
F7
F4
FE
00
03
FB
FC
07
F4
FB
F6
00
0F
FC
0D
03
FB
09
F6
07
FB
00
FF
FE
01
04
FC
FF
F2
06
FF
F7
07
FA
08
03
07
13
FC
06
FB
00
FE
00
01
FC
00
04
01
FF
FD
03
FE
02
03
FA
06
FB
09
04
09
09
FD
F9
F9
F3
08
0D
FE
00
FE
00
FF
FE
00
01
01
FE
00
00
FC
FB
FF
02
FF
FE
FF
00
FD
0A
F3
00
FD
02
06
0A
F8
FB
FF
04
F1
03
FE
05
F9
07
F3
01
04
03
F8
F6
FF
E9
FB
02
00
0E
FF
FA
FD
02
EF
10
08
F4
04
FE
F4
F9
03
FF
F8
00
F9
F2
F6
14
08
05
F0
FF
FF
F7
03
12
0A
05
F4
02
F5
FB
F3
00
FB
10
F5
FF
02
FF
04
08
0F
F8
04
FC
02
FA
06
FD
0F
EF
FE
04
01
05
FA
11
F2
06
FC
FF
06
F6
F7
07
EA
F7
FC
F4
F4
FE
FD
04
01
00
E8
03
F5
FE
0A
11
03
E9
F0
03
F5
08
10
0B
FD
FE
EE
02
FB
0F
FB
EB
F9
06
02
F1
02
02
03
F1
F2
05
07
FF
F5
0A
F8
F4
FF
FC
00
F2
F7
07
02
FB
FC
00
FF
01
FC
00
FC
FB
FC
02
F9
FE
FA
FA
06
F5
09
02
F3
06
FE
05
FD
0B
F2
06
03
F2
08
0A
F6
F8
02
F7
00
00
F1
F6
FE
03
10
F0
EF
04
F2
FD
08
F9
0C
02
07
13
FE
FE
00
03
FC
FC
01
FE
01
02
FD
00
01
00
FB
02
00
02
0D
07
08
03
0A
09
08
03
0A
F6
10
03
02
FC
09
00
00
01
F9
01
02
FF
01
01
FE
FF
00
00
FE
FF
00
FA
FC
19
EE
F8
06
F7
0F
0B
FE
05
08
03
E7
04
FD
06
F7
FE
F4
02
06
04
FA
F8
04
EB
08
07
F7
06
FC
04
F5
04
F8
0A
05
EF
0B
FE
FA
FE
FD
0A
00
03
FC
FD
F8
F9
18
FF
F2
F9
FB
F7
FE
10
0D
00
01
FC
FF
01
FE
F5
01
07
F8
FB
03
02
FF
02
0F
FB
02
FD
14
FF
03
F4
0D
F1
F9
09
FC
07
FE
FF
F5
04
FC
07
0A
F5
00
08
F3
F0
FA
F6
FD
06
FF
FF
FF
FF
FC
04
FF
F5
00
0F
FA
E8
F5
FE
00
0B
06
03
FD
01
FB
01
F8
04
02
F5
FB
FD
04
F1
01
03
FE
F9
F6
01
06
00
F2
0A
01
01
F7
03
0A
F7
06
FF
F7
F9
03
01
04
01
F2
03
02
03
FB
00
F7
00
F7
F8
04
F4
0A
03
FE
01
FC
08
FD
FE
F4
07
09
FD
0C
FE
FC
02
05
05
00
06
F9
03
05
F8
0C
F7
FD
FC
FC
F4
02
FA
06
04
06
0E
FB
03
01
01
00
00
FD
00
FF
01
02
FE
FF
02
FF
FF
00
06
06
09
04
F5
0B
F3
01
FA
0A
FF
13
05
FF
FA
FB
02
FF
FF
FF
FF
00
FD
FF
FF
FF
FF
FF
02
00
FD
00
02
FD
04
FC
07
FA
07
0A
03
F8
FD
FD
07
F6
03
03
09
FD
05
F8
02
00
0C
FB
F6
FD
E8
0D
08
F4
04
FD
01
FF
07
F4
03
03
FF
FE
06
F8
FD
FE
FC
00
01
F7
FD
FF
F8
0C
04
F7
05
03
00
00
05
06
07
03
FD
05
FF
02
06
07
05
FD
08
08
04
00
F5
08
09
FA
FF
02
03
07
FA
03
FC
04
0A
FE
03
FD
F5
F7
09
05
01
04
FA
01
0D
F6
F4
FC
F7
F9
09
03
02
0C
F6
FA
F7
02
F4
FF
0A
06
F4
F1
FF
F4
08
02
01
F6
F9
F8
FB
FE
0B
09
F6
FC
00
FA
ED
01
FE
01
FF
F9
04
0A
FA
F9
03
01
FA
F6
01
FE
F7
03
FF
F8
FD
01
01
FE
FB
02
FF
FC
FD
FA
FE
FA
00
F9
F9
05
F9
06
00
F9
FC
01
F6
07
0A
F5
02
F9
05
07
FE
FC
FB
07
00
FE
FF
F4
0D
01
F9
02
FE
0C
F9
04
F7
FE
F9
00
06
01
01
FE
01
00
01
FF
03
01
01
03
03
00
01
00
02
01
FE
01
0B
08
09
00
FB
09
01
01
FF
0F
F6
07
0A
00
FA
F8
02
01
00
FE
00
00
FE
00
00
00
FF
FF
02
00
FE
00
09
02
06
F5
0A
07
05
03
0B
F3
02
02
02
FB
FA
03
04
FA
03
FA
01
04
05
00
FA
F3
EE
09
04
F4
FD
FF
05
FE
FD
00
FA
08
F7
FF
00
FB
FB
FD
04
FF
FF
F7
FD
FE
F8
FE
05
FB
05
03
FD
FC
FD
06
05
07
F7
06
02
00
0A
FC
04
F8
0F
04
0D
08
00
09
01
01
00
07
08
FD
FA
FE
FA
0C
10
F6
01
06
FC
FB
08
FC
05
00
F7
FE
09
05
FD
FC
04
FE
03
00
09
02
03
FA
FB
FE
03
FF
07
FC
FA
F4
FF
FF
01
03
FD
F9
01
FF
FE
FA
0B
08
FB
F9
06
FB
F5
FB
FC
02
FA
F3
08
03
FD
F5
08
01
01
FE
06
05
FB
06
F9
FD
FB
FF
07
FC
FE
FA
FF
FA
02
F3
FD
F6
FF
F7
01
FD
F5
00
FB
FC
03
02
00
03
0C
F9
FE
07
FD
FE
06
06
FA
05
FF
F8
FB
FC
07
04
FA
03
FC
0D
FB
08
F8
FE
F7
00
05
00
FF
FA
02
01
01
FD
02
02
03
FD
00
FD
FE
01
FE
FF
FD
01
07
09
06
FA
FF
0E
FC
01
F8
05
F6
07
03
05
F4
FA
01
00
00
FD
00
02
00
FE
FF
FF
FE
00
00
FF
FD
FF
FF
01
03
FB
04
05
05
FF
00
00
07
11
FF
FC
F6
FE
02
F7
01
F3
FC
02
FF
FF
00
F7
F3
0A
FC
F5
FE
FF
0B
02
02
F9
02
01
F9
FE
02
FC
FF
FD
05
FD
FD
F9
FD
05
00
01
00
06
01
FF
FA
02
02
04
01
00
00
04
04
04
06
FF
04
01
02
F8
FD
01
FD
00
FC
01
00
02
09
00
0B
F5
FB
06
07
F9
03
00
F9
F5
FE
FE
0E
00
02
FF
09
FE
F7
FB
FD
02
FE
00
FF
02
04
FC
FD
FE
FE
FE
08
00
F0
F6
F6
02
FB
03
02
FB
01
FD
01
F3
05
06
02
F5
FB
00
FF
F8
05
06
F5
FB
02
FD
FE
F7
FF
FC
01
FA
00
01
02
FF
01
02
FA
01
00
00
FC
00
F7
FA
FE
F5
FD
F6
FB
FE
00
FE
F7
01
FB
FB
04
FF
07
00
05
02
08
FD
FA
FD
FE
01
FD
FF
F7
02
FC
FE
05
08
06
03
00
10
FE
06
FD
04
00
01
00
F9
01
FB
01
FF
FF
02
FF
00
FF
FF
FF
01
01
FE
FF
00
FE
FD
04
08
05
FC
FA
16
00
03
01
01
F6
02
00
FC
FB
FE
01
00
00
FF
FF
01
01
FF
00
FF
FE
FE
FF
FF
FE
FF
00
F8
FE
00
05
00
06
02
01
F1
FD
FB
FC
F8
FE
FB
FD
F8
03
F4
02
FD
FA
01
00
F7
F6
02
FA
F9
04
FA
08
00
05
FB
FE
03
02
F9
01
FB
F5
F9
FD
FB
FD
FA
05
04
05
05
0B
01
00
FD
F8
00
00
FD
FD
03
01
01
FD
FE
02
03
FB
FB
FF
01
FF
02
03
FD
01
01
FC
FE
00
FD
02
F8
F5
FD
03
FF
FA
FF
FF
FD
05
FE
06
F8
FE
00
00
F9
FB
07
02
FD
00
F8
F6
FE
FF
FC
FB
01
F7
FF
02
00
FA
FF
00
03
04
FE
01
FD
00
FF
FB
01
07
06
FC
FC
FB
05
F6
FA
04
08
F9
FB
FE
00
FB
F7
03
01
F9
FD
FC
05
FB
FC
05
01
FC
FF
FE
FE
FA
FD
FB
FC
FC
F7
06
FC
07
02
03
FC
F8
03
FD
FE
FE
04
00
FF
FB
06
FC
FD
F5
00
00
FD
FF
FF
FC
02
FC
FB
05
04
FC
FE
03
0C
FC
0A
F8
01
F9
00
06
08
08
FE
03
00
FC
00
00
01
01
00
01
01
FF
03
02
01
FE
03
10
07
03
05
FF
10
FE
07
FA
08
FA
02
06
02
04
FF
02
00
FF
FF
FF
01
FF
FF
FF
00
FF
FF
00
00
FF
FF
0B
FE
00
04
06
FF
0B
FE
05
05
01
04
FC
F9
F6
04
F9
FA
01
F3
06
FE
07
04
FD
F7
F4
03
FF
FC
01
FD
05
01
08
FE
FE
02
FF
F9
00
04
00
00
FC
FB
F7
F8
04
00
FD
08
FF
03
FE
FF
FB
FA
01
FE
00
01
FD
FC
01
00
01
03
FB
01
04
FF
03
00
FE
03
03
00
FF
02
F9
FF
01
FF
FD
F4
FD
06
04
01
FE
00
FE
02
FF
FE
03
01
07
FE
FD
02
03
00
02
04
FE
02
FF
F7
F8
FE
FF
00
FE
03
00
FE
05
FF
FD
01
FE
05
02
00
FC
FE
09
04
F0
03
FE
08
F6
01
F9
03
F4
00
02
07
03
FB
FF
FF
F8
FE
00
03
FB
FF
FC
FF
FA
02
FE
02
FF
FB
00
FD
FD
F9
08
03
08
03
02
FC
F9
03
FC
FD
04
03
FD
00
FB
FF
05
00
FE
01
FF
FD
00
07
FF
00
FB
FF
03
02
FF
FF
FF
09
FE
08
FD
FD
F9
01
01
05
06
FC
00
00
01
00
00
FF
FF
00
02
FF
FF
04
FF
01
00
02
03
05
FF
04
FE
09
FC
05
02
05
FC
06
01
08
01
05
00
00
FF
00
FF
00
FF
FF
01
00
FF
01
FF
01
FF
00
03
FE
F5
FF
02
00
FF
FB
04
00
FC
09
01
05
F5
0D
FC
FB
04
F4
05
02
08
01
03
F9
F6
FD
FB
F9
03
00
05
FF
F7
FA
FB
05
F9
FD
FE
FE
FB
00
02
02
FE
FC
00
00
00
01
01
00
FF
FF
FD
FD
01
FF
FF
FE
01
FF
FF
01
01
00
01
FF
00
FF
02
01
00
01
FE
00
FE
03
01
FF
FE
00
04
FC
00
FF
01
00
FF
06
00
00
FD
FF
04
FF
FC
01
FB
00
00
FE
FF
00
FE
02
04
01
FE
FF
FF
FF
FF
FF
FF
00
FF
FF
FF
FF
FF
FF
FF
00
FF
FE
04
02
FD
06
FC
03
FB
06
00
00
F8
03
00
05
04
FC
00
FF
04
03
FF
00
FD
02
07
00
F9
03
FC
03
02
01
02
FC
FA
FA
0A
FF
07
04
05
F8
FA
01
FC
FD
FE
04
01
FE
04
01
FF
02
FE
FD
05
00
FC
04
FE
01
00
00
05
02
04
03
02
02
00
02
01
00
FE
FF
01
02
05
00
01
00
01
FF
00
00
FF
FD
01
00
FF
FF
FF
FF
FF
FC
02
03
03
FE
00
07
FE
05
08
00
FD
02
FE
05
FF
03
00
FF
00
FF
FF
00
FF
FF
01
FF
FF
00
FF
00
FF
FE
FD
FE
FD
F9
05
04
01
00
0B
00
FD
05
F8
FF
FA
04
00
FB
FB
F3
0A
00
07
02
04
F9
F7
FD
F8
FA
FF
FF
FD
00
00
FF
FE
02
FB
02
06
FF
FA
04
FB
00
FF
01
00
00
FF
01
FF
FF
00
FF
FF
01
00
FF
00
00
00
00
00
01
00
00
00
FF
00
FF
FF
01
00
00
00
FF
00
00
00
FF
00
FF
01
00
01
FE
01
FE
FF
00
FF
FF
FF
00
FA
FF
01
F9
FC
03
FD
00
06
FD
FE
03
FB
00
FA
02
02
FF
FC
00
03
01
FF
FF
FF
FF
FF
04
00
00
FA
FD
03
FE
02
03
FC
FF
F8
02
FE
FC
FA
00
01
01
FD
F5
03
FC
FF
00
01
FE
FD
FF
FE
FB
FD
FF
00
FF
FC
F8
FF
FD
FC
FE
05
FE
04
02
04
FB
FD
00
FE
FD
FE
02
01
FD
FC
FD
04
FF
02
00
01
FC
FE
02
FE
FE
F8
FB
00
01
00
02
FF
00
FF
00
00
00
FF
FF
00
FF
00
00
00
FF
FE
00
01
00
00
00
00
00
FF
00
00
FF
FD
FF
05
02
01
03
02
04
FF
01
01
00
FF
00
01
02
00
FD
00
FF
FF
00
FF
00
FF
FF
00
FF
FF
FF
00
00
FE
FE
06
00
FC
01
09
03
FF
03
03
FD
FB
FF
01
03
FF
FA
FE
FD
FA
FA
07
FD
04
03
06
F9
FA
FE
FB
FD
00
04
03
FF
02
02
00
FF
FC
01
02
FD
FC
FE
00
02
01
F9
00
01
00
00
00
00
00
FF
FF
01
00
FF
00
00
00
00
00
01
FF
00
00
00
00
FF
FF
01
00
00
00
00
00
01
02
FF
FF
FF
06
01
04
FD
04
FC
FF
03
00
FE
FA
02
03
FE
00
01
00
00
FE
FF
01
FF
FD
FF
00
02
01
FA
FF
FF
FF
FF
FF
00
FF
FF
FF
FF
FF
FF
FF
00
FE
FE
FA
FC
FD
FE
FA
FE
FA
01
00
F9
FB
00
FE
FB
F6
F9
FC
FD
FD
FE
FD
00
FB
FF
01
FB
FC
FE
FE
FC
FA
FC
FF
FD
FE
FE
FF
FE
FF
00
00
FD
FE
FF
FE
FE
00
FF
FD
FE
FD
FE
FE
00
FD
FF
00
FD
FE
FE
FF
FF
FD
FD
FF
01
00
00
00
01
00
00
01
00
FF
FF
00
00
FF
00
00
FF
00
00
01
00
01
FF
01
FF
FF
FF
FF
00
FF
01
FF
02
00
02
00
02
FF
00
01
FF
FE
FF
00
00
FE
01
FF
FF
FF
00
FF
FF
FF
FF
00
FF
FF
FF
FF
FF
FF
FF
FF
FE
00
01
FE
01
FB
FF
FF
FD
FD
FE
FF
FD
FC
FD
01
FD
FE
FD
00
FD
00
FF
02
FC
FD
FF
FD
FF
03
FF
FD
FE
FF
FF
FC
00
FC
00
00
FD
FD
FF
FF
FD
FB
FB
00
01
00
00
00
00
00
FF
FF
01
00
FF
00
00
00
00
FF
01
FF
00
FF
FF
00
FF
FF
01
00
00
00
FF
01
01
FF
FF
FF
FF
FF
FF
FF
00
00
FF
FF
00
FF
00
FF
FE
FE
FE
FE
FF
FE
FF
FD
FF
FF
FE
FE
FF
FF
FF
FE
FC
00
FF
FF
00
FF
00
FF
FF
FF
FF
FF
FF
FF
00
FE
FE
F8
FB
FD
FE
FB
FC
FC
01
02
F9
FB
FF
FC
FC
F8
FB
FB
FC
FE
FE
FC
FC
FD
FF
01
FC
FC
FF
FE
FD
FB
FC
FF
FE
FF
FE
FD
FE
FD
FE
FF
FE
FD
00
FE
FE
FE
FC
FD
FD
FF
FF
FC
FE
FE
FF
00
FE
FF
FF
FF
FF
FF
FD
FF
00
FF
00
FF
FF
00
FF
01
00
FF
FF
00
FF
00
00
FF
FF
00
01
FE
00
FE
FE
00
FF
00
FF
00
00
00
FF
00
00
02
01
00
FF
FE
FE
00
00
00
FF
01
00
FF
00
FF
FF
FF
FF
FF
FF
FF
FF
00
FF
FF
FF
FF
00
FF
FF
FD
FC
FD
FF
FC
FE
FD
FF
00
FD
FD
00
FF
FF
FE
FD
02
FE
FF
FD
FD
FD
FD
FE
FF
FE
FD
02
FF
FE
01
FC
FC
FC
FE
FF
FC
FD
FD
FF
00
FD
FD
00
FE
FE
FB
FC
00
00
01
01
FF
FF
FE
FE
FF
01
00
FF
00
FF
01
00
00
00
03
01
FF
00
FE
FD
FF
01
01
FF
01
FF
01
01
FF
FF
FF
FF
FF
FF
FF
FF
00
FF
FF
FF
FF
00
FF
FE
FF
FE
FF
FE
FE
FE
FE
FE
FF
FE
FE
FF
FF
FF
FE
FC
00
FF
FF
00
FF
00
FF
FF
FF
FF
FF
FF
FF
00
FE
FE
F7
FB
FE
00
F9
FB
FB
03
01
F9
FB
00
FC
FC
F7
FA
F9
FB
FF
01
FB
FC
FC
02
00
FC
FC
00
FD
FD
F9
FB
FE
FE
FF
FE
FD
FD
FE
FE
FF
FE
FE
FF
FE
FE
FE
FD
FA
FC
FF
03
FD
FD
FC
02
FF
FE
FF
01
FE
FF
FA
FC
FF
00
00
02
FF
FF
FF
00
00
00
FF
FF
FF
FF
FF
00
FE
FF
FF
01
FF
FF
FF
00
FF
FF
00
00
FF
00
FE
FF
FB
FF
02
04
FE
FF
FD
04
00
FF
01
01
FF
00
FB
00
FE
FF
FF
00
FF
FF
FF
00
00
FF
FF
00
FF
00
FE
FF
FA
FB
FF
02
FD
FD
FC
01
00
FD
FF
01
FE
FF
FA
FD
01
FE
FE
FD
FF
FD
FE
FE
FF
FE
FD
01
FF
FE
FE
FC
FD
FC
FF
FE
FC
FC
FC
FF
00
FD
FD
FF
FF
FE
FD
FC
FD
00
FF
04
FF
FF
FF
02
FF
00
FF
00
FF
00
FD
00
FC
00
FE
06
FE
FF
FF
04
FE
00
00
01
FD
00
FC
00
FF
FF
FF
FF
FF
FF
FF
FF
00
FF
FF
FF
FF
00
FF
FE
FF
FD
00
FF
FE
FD
FD
FE
FF
FE
FE
FF
FF
FF
FE
FD
00
FF
FF
00
FF
00
FF
FF
FF
FF
FF
FF
FF
00
FE
FE
F6
11
1A
14
08
FE
24
0A
E0
1D
03
FC
08
FB
25
BF
04
1C
1F
13
09
F8
22
FB
E1
25
FF
00
04
03
27
C4
08
0A
01
FD
05
E6
00
F2
F9
07
F9
04
FA
08
FB
E8
09
15
1C
0B
FE
F1
18
FC
F3
22
FB
02
04
0C
0F
E8
00
FC
01
FB
F2
07
F5
00
FB
FD
FD
06
FB
01
FC
FA
F8
06
07
06
05
02
0B
07
F6
09
05
FB
FF
FE
0F
ED
F9
01
02
07
FC
04
FD
FB
04
0A
FB
0C
EE
07
F8
FF
FD
02
05
02
01
FF
05
01
FC
06
00
FE
FE
00
06
F8
23
1E
0D
18
00
C6
FC
DE
FF
0E
F0
06
F0
2C
FD
19
26
04
F5
FC
FB
D9
F0
D4
1D
05
EC
10
EF
25
CA
3A
00
03
01
04
FF
F4
00
FA
FA
00
FC
03
FE
FD
FA
EE
03
FE
00
0C
E1
04
04
EB
02
0E
08
0F
E5
0C
0C
F8
01
FD
00
F7
F4
0B
F9
FB
06
02
F4
0C
F1
01
F8
FD
FF
FF
FF
FF
FF
FF
FF
FF
00
FF
FF
FF
FF
00
FF
FE
F9
00
FF
08
02
F6
04
00
FB
02
03
FA
FA
01
FC
F1
F9
FC
02
06
03
FE
01
03
F9
07
06
F5
00
FF
06
F6
E1
F5
FF
03
F3
F6
0A
1F
F1
0E
02
EE
0D
F7
18
E7
F8
FB
FA
F5
EA
F9
F7
06
03
F6
F4
FD
03
FE
06
06
03
08
F4
F4
05
E8
09
F3
00
14
F8
11
03
EC
EB
E7
F0
F7
E9
E5
FA
04
F5
06
02
ED
F8
05
07
F2
EB
12
0B
FB
01
08
ED
02
01
FE
07
F5
0A
12
F1
F2
F1
06
FB
FD
FE
F4
F9
FC
F5
04
0C
F5
FB
F7
03
00
03
0F
00
14
0A
FE
10
F7
16
00
06
12
01
08
F7
0A
F8
F6
F9
00
01
F7
FF
FB
FE
03
04
FF
FA
FB
00
02
FF
01
08
11
06
F8
16
0F
00
08
03
FC
FA
02
F9
F3
1A
E7
1C
0E
FE
FB
12
FF
00
E2
09
04
03
1D
F5
F2
DB
00
FE
04
00
03
0B
0C
02
10
EF
07
0B
F1
FA
0B
1D
E4
09
02
02
04
17
0B
F1
03
F2
06
03
1E
F3
FA
F9
EF
11
00
10
FE
16
03
F1
F4
FA
F6
01
13
FC
FD
10
FC
EA
01
08
00
05
FC
07
01
F4
08
FB
FB
00
EE
01
DF
EC
F5
07
FD
E8
F6
E7
0A
06
F8
00
F1
FC
FB
0E
FE
FE
F0
0A
FE
F3
F4
F6
0B
FF
FE
01
FA
00
02
01
0C
F7
F3
03
F8
F6
F3
F8
19
0C
FE
FD
EC
08
F1
FE
05
F6
FD
09
FE
F6
F5
FF
03
08
FF
FC
FA
01
FA
0A
FC
F3
04
F9
00
04
FA
02
F3
06
0E
05
01
03
F8
FA
F5
F3
05
07
FE
FE
0A
01
07
04
FB
F5
FE
04
F7
0C
00
0C
EF
F8
0C
F7
04
FA
F0
01
00
0A
10
03
05
FD
10
FC
06
0B
00
02
FD
00
05
06
02
F6
FE
FD
05
01
04
F7
0F
02
03
04
F1
0E
FB
0D
00
04
F3
F9
07
F1
FB
FC
02
02
FC
FF
FA
FF
01
02
01
FC
FD
FF
02
FD
00
00
02
0E
F4
05
02
F4
09
05
FF
F7
FC
F7
FD
10
05
06
F9
04
0F
02
06
0B
EB
F9
06
0C
14
01
F1
F5
F8
01
FA
FE
FA
E8
05
FA
09
FA
F3
F7
FB
0B
FB
03
05
05
02
F3
05
0C
15
FA
FA
E7
08
FC
16
01
03
F8
F1
10
0D
09
02
0E
0C
F9
FA
E7
FE
F4
0B
FF
FF
08
ED
E6
FD
0C
F1
F8
07
F0
FB
04
11
01
F3
05
DA
05
E1
04
FC
FB
00
D9
EF
FF
03
FD
04
03
09
08
F7
04
0D
08
F2
07
13
FB
E4
EE
06
03
F9
00
FC
FC
09
04
09
F1
03
FF
FB
00
04
03
09
FF
06
02
05
05
FA
FD
04
08
01
0C
F3
11
F9
06
08
01
F8
FA
FF
04
FD
FC
02
F0
FB
01
FB
0B
FD
09
02
FE
FE
FE
F9
09
EA
F4
F8
05
02
0D
FF
F2
03
F5
03
02
05
FB
FB
FD
03
03
FB
0F
F5
00
09
F5
06
F9
F0
F6
FB
06
12
0E
09
0A
FF
03
01
08
FF
02
FF
02
06
04
02
F8
F8
FD
02
FC
03
FB
02
F9
01
04
EE
0C
FF
0B
03
0A
F4
FB
FD
F7
F8
00
00
05
FE
02
FE
FF
01
00
04
FF
FC
FD
FF
FD
FE
09
03
08
E9
07
F5
F4
05
0E
FF
F5
FF
F6
07
03
09
08
F1
FB
09
FB
F6
01
FF
FB
FA
0F
03
0E
EB
04
02
FC
01
05
F4
F2
F8
FD
0A
08
FB
F8
05
03
FA
06
02
00
03
F3
03
F9
0F
FD
FD
F6
04
02
08
0B
01
02
F6
08
06
0B
F6
FA
09
0F
F0
EC
07
F3
FE
FD
02
0A
EC
EE
FB
10
FB
0B
0E
E9
01
09
00
F8
F1
F2
EF
01
F3
07
09
FD
0A
EF
F8
FF
04
FF
00
FD
14
06
00
05
08
05
F8
F8
09
01
EC
FD
0F
FF
FA
F7
05
0C
F6
F8
10
01
0E
0A
F8
06
0C
04
0B
08
FF
FA
FC
01
FD
F7
FD
09
01
10
F1
02
06
05
03
00
00
EF
F6
07
F3
01
02
FE
FE
0A
02
07
F8
F5
F8
06
02
FC
EB
02
EE
FE
00
10
F8
15
01
F1
0B
FC
08
03
FB
F5
FA
03
05
04
FC
0B
FA
E7
0C
F7
01
F4
F8
F9
EC
04
12
0B
00
03
06
0A
00
06
FF
FF
FC
01
FF
07
FC
FB
FD
FE
FE
00
05
F8
F9
01
08
0E
F2
FA
0C
F9
FB
06
F8
F1
05
F9
FC
FF
00
05
01
FF
FB
00
FD
04
04
FF
FE
FC
FD
FD
02
07
FE
04
01
01
F2
01
0A
0C
F7
EF
F9
F4
FF
FF
0D
0A
F0
FF
FA
F9
06
FC
11
EE
FF
0C
09
11
F7
19
04
04
00
16
F8
08
F8
FE
0C
08
00
03
F4
03
01
07
09
FB
FD
F5
02
FC
0F
FD
F4
F1
07
03
00
06
03
04
F2
10
0C
1A
01
EB
0B
FF
EB
FB
0E
07
09
F6
01
06
EF
F8
F1
13
01
FA
01
F8
02
10
F3
F8
F0
F0
EA
03
FE
05
08
FB
FA
FB
FA
08
0A
F2
F9
FE
11
13
F8
FC
08
F0
FB
F2
0D
0C
F1
FE
0B
04
FD
01
FF
0D
05
03
15
03
00
13
FC
FC
0B
FC
F9
08
15
F8
F3
03
FA
FF
FD
00
FE
09
FC
FF
FE
F8
03
FB
0B
F7
FC
FD
FF
FF
F9
F7
FE
09
0A
F7
F8
FB
00
FE
10
FE
F2
FF
00
03
FB
14
FA
02
F6
F9
0E
F7
00
00
FC
FB
FB
04
FD
0B
01
F7
FE
DA
00
04
FF
12
06
F3
F0
09
09
1B
FB
02
07
02
02
04
FC
02
01
FC
01
04
00
FF
FD
FF
01
01
00
ED
FD
FC
0B
FC
E7
F9
F9
0C
FF
04
FC
ED
10
00
FF
01
FF
04
02
FE
FF
FB
FD
04
05
00
FD
FB
00
FE
FE
04
03
0C
F6
04
EF
00
06
07
FB
FA
00
F0
FD
05
FC
FF
F7
F8
EF
FF
08
FE
13
FD
F3
FF
0B
0F
FF
0C
0B
10
FC
FE
F5
03
FE
0F
06
02
FF
F6
FF
0E
FA
02
11
03
04
01
FA
F2
06
0C
F9
FA
04
0B
02
0D
F9
FA
F4
11
04
14
13
F2
0A
0E
05
F9
07
FD
01
F7
FE
02
F5
05
FE
1B
0B
EE
04
F4
EC
12
05
F1
E8
F0
EE
F6
F3
06
FA
F7
F8
06
01
03
10
01
FA
FD
04
09
FD
FD
08
EE
F4
EC
01
0C
F4
F8
01
05
FD
06
04
09
F9
02
15
02
FA
0F
FF
F6
08
ED
FA
FD
0C
FB
FC
FE
FD
09
03
01
FB
0D
F8
FA
04
F8
FB
03
05
EF
00
FD
FF
0F
FC
F3
FD
06
0D
F6
00
ED
08
03
FD
00
FC
F9
F7
04
0B
0F
F2
F6
F6
ED
0D
F9
FC
FF
00
FD
FF
09
06
0C
00
FB
14
F1
FB
09
08
22
08
F8
FA
0A
04
13
01
FB
FD
06
FD
04
04
FD
00
FE
00
06
FD
FF
FD
FE
00
01
FC
E6
00
04
0A
FF
DF
02
0A
0A
03
0A
01
F6
0B
FD
03
FF
FF
05
02
FF
FD
FF
00
05
02
00
00
FD
FD
00
FD
FF
FC
08
02
05
EE
00
06
0D
FE
FB
04
F9
03
04
02
F6
00
F6
EB
05
03
FD
0B
00
F6
FF
00
02
08
FD
0B
15
03
F5
ED
06
08
08
FA
01
FC
F4
FE
10
F8
FE
00
03
02
F7
07
F3
06
0D
FC
00
04
04
02
0F
EC
F8
05
1B
FB
0B
07
FF
0C
17
05
FC
FB
F4
00
FD
04
07
FF
09
FA
15
1D
F1
FB
FD
F7
0B
0A
F1
FC
E7
F6
03
FB
02
05
F1
FD
EC
F1
0D
03
FC
FD
F7
01
15
F7
01
FF
F7
02
FD
02
05
F7
01
E8
05
01
01
04
02
00
00
08
06
EA
00
FD
F1
16
ED
FB
09
FB
03
F9
FD
F5
FF
05
09
FC
07
F7
FE
0C
F9
FA
05
05
FA
02
F7
F9
06
00
F6
F8
02
0A
FE
04
02
05
07
FE
0B
F9
FB
FF
0C
10
18
F8
F8
F6
FE
10
FF
F6
FB
05
F7
F5
FD
04
0D
F9
F9
14
FD
FF
04
F9
16
05
F9
F6
0D
02
0B
08
FD
F9
04
FD
03
03
FE
03
00
FD
FF
FF
02
FF
FE
FD
00
FF
EA
FD
01
07
0C
EC
FF
05
0C
FC
0C
08
EA
00
FA
04
FE
FD
02
02
FB
FD
FC
FF
03
00
03
01
FB
FD
FE
00
05
05
0D
02
FF
F7
FE
05
03
01
FE
04
F3
00
01
F6
F5
F6
F6
E8
04
FF
08
0D
0A
FD
F9
F5
05
09
FD
0F
11
F3
F9
EF
02
08
FE
01
06
F5
F2
FB
06
F7
03
03
04
09
FE
02
03
FE
13
08
FC
FB
EB
FE
FB
FF
0A
FF
05
FB
F6
0E
07
FD
11
17
F5
F1
F4
07
F5
05
10
03
09
06
14
12
FE
07
07
06
04
05
09
01
FB
F2
00
0A
FC
00
EF
F3
FE
F5
00
FA
02
00
F8
F1
08
FB
00
02
F9
0A
06
07
F6
FC
F8
EA
F6
FF
FF
00
01
00
00
03
0B
E1
FF
03
F2
0E
F2
E9
0F
0A
07
F7
FD
FB
07
10
05
F3
F6
F7
FC
02
F5
EF
0E
FD
00
FB
FD
F8
06
04
F2
F5
F1
05
04
04
FC
01
0E
0A
11
FB
FB
08
01
14
17
F8
00
FD
FA
06
01
F6
05
FB
FC
F1
FF
00
04
FA
F1
0C
FB
F1
F7
0C
0C
0F
F2
F1
05
F1
0B
0A
06
F6
02
02
03
00
00
FB
01
01
01
04
05
FF
00
FD
FF
FF
F3
0C
11
04
02
EF
FD
0B
01
05
0A
05
F2
0D
F8
06
FE
FE
02
00
FF
FD
FF
00
02
03
03
FE
FD
FF
FF
03
00
FF
08
F2
08
EA
05
0C
FB
FF
01
05
F8
FE
02
FA
F4
FA
FB
EB
F8
02
F4
0C
06
F9
F8
ED
03
08
FB
03
0D
F2
F7
F3
FA
05
FE
F1
05
F9
F6
FC
FE
FC
01
FB
06
04
F6
F9
07
05
13
00
F9
FD
FD
09
01
02
08
F9
12
05
FB
08
0D
F8
0D
FF
03
FD
E9
0B
F9
04
08
07
0F
05
09
18
0D
FF
05
FB
F4
02
06
12
01
F6
12
0F
FB
03
F2
F9
01
F3
07
F2
FE
F4
F5
FC
FA
FC
F9
F5
FA
05
05
F1
F4
FD
05
E5
FB
02
08
00
02
FC
F9
F3
08
F1
F8
03
F9
04
EF
EC
0C
0D
0A
F2
FF
FB
FF
0D
00
02
FC
07
F8
FE
F1
F0
03
02
01
F5
FD
FB
01
09
F6
F6
FF
FD
09
F8
00
03
13
FB
0A
F5
00
FF
FB
14
0B
03
FB
FC
FC
FD
03
FA
F7
FD
FC
FD
05
05
08
FB
F8
0B
07
F5
F5
08
0A
08
F9
F4
FD
F4
01
FF
07
F5
03
00
04
01
FF
FE
FD
FB
00
01
FE
01
FF
00
03
FC
FC
0D
FE
06
06
F9
FA
09
0A
06
05
0B
F8
01
FA
0A
FF
FF
FE
00
00
FE
FD
FD
03
01
01
01
FF
FD
FE
03
03
05
07
01
03
F5
01
F9
00
FB
04
03
06
00
FD
05
EE
F8
00
EA
FA
03
F9
10
08
F9
FA
EF
03
09
04
FE
07
F6
01
F8
FA
01
00
FE
01
FF
02
FD
01
FD
06
F8
05
03
FE
FE
02
01
0B
FB
FA
F9
FA
03
FF
00
0A
FC
FE
FA
FA
08
0C
FA
04
FC
02
FA
FB
0B
F4
05
0A
FF
18
FD
06
0B
06
FE
01
F8
F9
08
06
06
05
0A
12
0B
F4
02
FF
F8
05
01
08
00
03
FE
04
F3
00
03
F9
F5
F8
FC
0B
FE
F1
F9
FB
E9
F0
09
01
FC
02
02
07
F0
07
F9
FB
07
F6
03
F5
E8
10
0E
FA
FB
FE
F7
01
0E
FE
F9
F8
FF
FE
FA
03
F6
FE
07
02
00
FF
FD
05
FF
F2
F9
FE
EF
01
FF
01
09
0B
03
07
F8
02
F8
F3
0B
03
F7
05
01
00
FB
10
02
F9
05
FA
FE
00
09
10
F4
F9
05
01
F1
FE
08
09
0C
07
F2
06
FD
F9
04
0B
05
FC
FF
00
03
00
FC
02
FF
FC
05
03
FF
01
03
00
FD
F3
FA
0A
FF
FD
F9
F6
FF
03
00
05
05
F7
02
FE
01
FD
FF
FF
01
FE
FD
FE
FE
FF
03
01
00
FF
00
FF
FE
FB
FE
04
FD
FF
F6
05
F9
FB
0A
FD
FD
FE
FF
05
F5
E9
FA
02
E1
00
06
F7
12
06
FA
03
F2
00
FF
F8
04
03
FB
FF
F6
FC
FF
FC
FA
00
FC
F3
00
00
F5
03
FE
F1
00
F1
F8
06
FC
07
05
0B
F7
FB
05
F2
01
01
0A
FA
FC
F3
0A
05
FC
0C
01
00
06
00
02
FE
01
FD
0B
0B
FB
07
07
0B
F2
08
02
F7
07
02
00
05
04
0A
07
F7
FE
FF
F5
FA
F9
02
FD
02
F7
FB
F1
FF
F7
03
F6
09
02
0A
03
EC
F2
F5
FA
F4
00
01
FF
03
FC
FE
F3
01
F2
00
06
02
FE
F4
EF
01
0E
02
F3
04
05
00
FD
05
F4
03
03
FB
FE
F8
F8
FF
03
FC
F8
04
FE
FF
F8
EE
FF
F9
EE
FB
00
FD
06
10
FC
02
FB
FD
FF
EF
03
0C
F5
01
FF
F7
07
03
FF
F3
05
F9
F6
03
FA
08
FF
00
FF
FE
F6
05
FE
0C
0C
08
EF
F7
FE
FA
06
02
04
06
FE
02
03
01
FF
FF
00
FC
01
01
FC
FF
FC
03
00
01
FF
02
08
04
F4
FE
09
04
FD
FE
FE
F6
FC
F9
02
01
FE
00
02
00
FD
FF
00
FE
01
00
FE
FF
FE
FF
FF
10
03
0B
10
FC
FD
0A
03
FA
FC
FE
06
F9
F7
FF
FB
E7
00
FB
E5
F4
03
FB
04
0C
F6
FA
F7
F9
FA
F2
00
00
FE
02
FD
FA
02
F6
F2
FD
02
FC
00
FB
01
01
F7
08
FD
FA
FF
0A
F8
10
05
FE
F9
FD
06
FD
FC
F8
0E
0D
00
FA
06
0D
FA
0D
0C
FF
FB
FC
03
FC
00
01
15
0C
05
FF
FF
FB
00
00
04
FA
03
FB
03
03
04
FF
05
05
02
03
00
F8
FD
FC
FB
01
FD
FB
F9
FB
FE
FE
F6
07
04
03
01
FB
05
00
FE
FC
FD
FE
00
04
FE
06
F2
0A
F0
00
08
FE
FD
F3
F9
F7
08
09
E9
03
00
10
01
FC
F9
F7
FB
00
F9
F9
FA
F9
02
05
F6
00
FE
01
FB
F8
FE
FE
F8
FA
03
FE
05
04
FD
FF
FD
FD
FB
FA
FB
FE
FE
FE
F7
02
F8
03
F7
01
FE
03
F7
FD
00
02
FA
05
FD
F3
F3
10
FF
13
09
06
F4
F7
02
F9
FD
FE
0F
FE
FE
01
FE
00
FE
FE
FE
00
FF
00
FE
00
FE
FF
FF
FC
FA
FC
FC
02
F6
FF
FE
FD
01
FE
F8
02
FD
03
FE
FF
FD
00
00
00
FD
FF
FF
FF
00
00
FE
00
FE
00
00
03
F8
03
03
05
F5
04
F5
FE
06
FE
FC
09
F9
00
F6
F1
01
FF
EF
F1
01
FD
FE
09
F9
F6
F9
F8
F9
FA
F5
06
F7
01
03
03
FA
FA
FA
FB
FF
00
F7
FD
FF
05
FB
06
00
F5
FF
0D
03
09
02
01
FD
FE
00
FB
FD
00
0C
04
FF
FA
02
05
02
04
03
01
FF
F9
00
FD
FD
FE
00
07
02
FD
05
02
03
02
00
F9
00
01
00
04
01
00
01
04
FD
00
FE
FA
FD
FA
FD
FE
F7
01
FD
FE
FD
FD
F6
07
FF
FE
FE
F7
00
F3
FE
FC
FA
05
FD
FE
F8
FF
F3
02
F6
0A
FD
FA
F9
F2
F7
FE
03
01
EC
FF
FE
0F
FB
FF
FA
02
00
FF
FD
FA
FB
05
FD
FC
F5
FB
FD
08
FB
00
00
FE
F8
F9
05
FE
FE
04
FB
00
FF
FD
FB
F9
FA
04
FB
06
01
01
FD
FD
FF
03
FB
FB
FC
F6
FE
05
F5
07
FE
F9
FE
05
07
05
03
02
FC
FA
FF
FD
02
06
04
00
FF
00
00
02
00
FF
00
01
FC
FF
00
FE
01
00
00
09
FA
F7
04
03
00
F6
F9
FE
FA
07
F7
F8
01
02
FD
00
FE
FF
FF
00
00
FE
FF
00
FE
00
FF
FE
FF
01
FF
0E
F9
EF
05
0A
FC
FF
F7
FE
FD
04
FB
F8
FD
00
02
FC
00
FB
F6
F5
04
FE
FE
02
F6
F6
FB
F9
FC
FB
F6
05
F8
FD
FE
03
F7
FE
FB
00
FE
F8
F7
F9
FD
05
FE
06
FE
F5
FE
12
00
08
0C
06
FD
F8
03
F9
05
FF
09
06
FF
FA
00
09
03
04
00
02
FF
05
FF
FD
07
FD
02
09
FF
FD
FB
FE
06
FF
FE
FF
FC
01
FF
FF
F9
FD
FC
05
FD
F8
FD
01
02
02
FC
00
FB
04
FE
FC
FB
FD
FF
09
FF
FD
05
FE
0A
FE
F5
FE
FA
03
FB
FB
00
FC
F6
FF
FA
11
FE
F8
FF
F5
F9
04
FF
02
F1
FE
FE
08
F8
02
FC
0A
00
F7
00
FA
F7
FF
FC
02
FA
FD
03
FF
F7
01
FF
FF
FF
FE
02
01
FD
03
FA
FD
FE
FE
FF
FC
FD
03
FC
06
00
FF
00
00
F9
00
FA
FF
FB
FB
03
FF
FD
08
FE
FB
00
08
05
04
06
FF
FD
04
FF
04
07
04
04
03
00
02
00
FD
00
02
FE
01
00
FF
FE
02
FF
FF
FF
06
FD
04
FE
0A
05
06
05
FF
FF
F8
F9
02
09
04
03
00
FF
01
FE
FF
00
00
FF
00
FF
FF
FF
00
00
00
00
02
FE
FF
01
08
FD
01
FA
FA
00
F7
FF
FF
0C
FF
FD
01
FE
F9
FA
F8
02
01
FB
00
F8
F4
FF
FE
FF
FB
FA
FE
F9
03
FF
FC
FC
F5
F8
00
FD
F8
FF
FA
03
00
FA
03
FF
02
03
FF
00
01
FF
FF
FE
04
02
01
03
FC
FA
06
03
06
02
00
06
08
00
FF
FE
FD
00
06
01
FF
FD
07
FF
FD
03
FE
06
02
F9
01
FA
01
FD
FF
01
FD
FD
00
FD
FB
FF
05
FD
04
02
02
FE
F9
03
FC
06
FD
02
01
FE
02
FF
03
06
08
00
FF
FC
FB
00
05
00
FA
06
01
FF
12
FB
F3
06
FE
F4
03
05
05
F0
03
FB
09
F4
01
FF
08
FD
00
02
03
F8
05
01
FE
FC
01
FD
FF
FF
00
FF
FE
FC
FE
01
00
FF
00
FC
FC
FF
FF
FE
FB
FD
00
FF
04
FD
FD
01
01
F9
04
01
FA
04
00
FF
FA
01
03
00
FF
FB
04
FF
05
00
00
02
FF
00
02
FF
00
FD
01
00
00
FE
00
FE
00
FD
01
02
00
00
FF
FF
FE
FE
05
00
09
FD
01
02
01
FC
07
00
03
FC
01
FD
FD
FF
01
FF
01
FE
FE
FF
00
FE
01
FF
FF
FF
FF
FF
FF
FF
08
FE
06
01
FC
FC
FB
FE
07
01
01
01
00
FF
FD
02
01
FC
FB
FA
FB
FD
FD
FD
FE
F8
F7
00
FD
FC
FB
FB
05
FB
0B
FE
F3
00
FC
F9
FF
00
FF
F6
02
FC
05
F7
02
00
05
00
01
01
03
FB
FD
02
00
FF
05
FF
FF
FC
01
01
01
FF
00
FE
00
F9
FE
04
04
FF
03
FF
FE
F9
02
FF
01
FF
02
04
05
FF
00
FC
FB
FF
03
00
FD
04
FF
FC
02
01
FD
FC
FF
01
00
FF
01
02
02
FF
FC
FE
00
FF
01
00
FF
FF
FF
FD
FF
01
00
00
FF
00
FF
FB
FB
01
07
FC
F9
FF
FF
F6
02
06
02
FA
FD
FD
00
F7
FF
FE
FF
FF
FD
00
00
FC
FF
FF
FD
FC
FD
FF
FC
F9
FF
FF
FF
FE
FD
FE
FE
FF
00
FE
FD
FF
FF
FE
FF
FC
02
FE
FF
FE
FD
FD
FE
FD
00
FF
FE
FE
FE
00
FD
FC
00
00
01
FF
FF
FE
FF
FB
FF
04
02
FF
01
FF
FF
F9
01
00
00
FF
00
00
00
FF
FF
00
00
FF
FF
00
FF
00
03
00
02
FD
FF
00
02
F9
FF
06
02
FE
00
FF
FE
F9
00
FF
00
FF
FF
00
FF
FE
FF
00
FF
FF
FF
00
FF
FE
04
FD
00
FD
01
01
FE
F8
01
05
FE
FE
FD
00
FF
FD
01
FC
FC
FA
FC
FC
FB
FE
FD
F9
F8
FF
FE
FC
FC
F9
FF
FE
02
FB
FB
FF
FD
F5
03
02
FE
FD
FB
FC
FC
F9
FF
00
FF
00
FF
FF
00
FF
FF
01
00
FF
00
FF
00
00
FF
01
FF
00
FF
FF
00
FF
FF
01
00
00
00
00
00
01
FF
FF
FF
00
FF
FF
FF
FF
00
FF
FF
FF
FF
00
FF
FE
FE
FE
01
FE
FE
FC
FD
F9
01
02
01
00
FF
FF
FC
F9
00
FF
FF
00
FF
00
FF
FF
FF
FF
FF
FF
FF
00
FE
FE
FE
01
06
FF
FC
FF
01
FE
FF
03
00
FB
FE
FF
02
FE
FE
FD
FF
FF
FE
FF
FE
FE
00
FD
FE
FE
FD
00
FE
FE
FE
FE
FF
FE
FD
FE
FE
FF
00
FE
FD
FF
FE
FE
FE
FD
FF
FE
FE
FE
FF
FF
FF
FE
01
FE
FE
00
FD
FF
FE
00
FF
00
00
00
FF
FF
00
FF
00
01
FF
FF
00
FF
00
00
FF
00
FF
00
FF
00
00
00
00
00
00
FF
FF
00
00
01
00
00
01
FF
FF
00
00
FF
00
00
FF
FF
FF
00
FF
FF
FF
FF
FF
FF
FF
00
FF
00
FF
FF
FF
FF
FF
00
FF
00
FE
FE
FD
FE
FD
00
FF
FF
00
FE
FF
FF
FE
00
FC
FD
FF
FB
FD
FB
FB
FB
FB
FD
FE
F9
F9
FF
FE
FC
FC
F9
FF
FD
01
FD
FB
FE
FE
FD
FE
FD
FD
FE
FD
FE
FD
F9
FF
00
FF
00
FF
FF
00
FF
FF
01
00
FF
00
FF
00
00
FF
01
FF
00
FF
FF
00
FF
FF
01
00
00
00
FF
01
01
FF
FF
FF
FF
FF
FF
FF
FF
00
FF
FF
FF
FF
00
FF
FE
FF
FE
FF
FE
FD
FE
FE
FE
FF
FE
FE
FF
FF
FF
FE
FC
00
FF
FF
00
FF
00
FF
FF
FF
FF
FF
FF
FF
00
FE
FE
01
01
02
FE
FF
01
01
FE
FF
03
00
FC
00
00
04
02
FE
FE
FF
FF
FE
FF
FD
FF
FF
FD
FF
FF
FE
00
FE
FC
FE
FE
FF
FE
FD
FE
FE
FF
00
FE
FE
FF
FE
FE
FE
FD
FF
FE
FE
FE
FE
FE
FE
FF
FF
FE
FE
FF
FF
FF
FF
FD
FF
00
00
00
FF
FF
00
FF
00
01
FF
FF
00
FF
00
00
00
00
FF
FF
00
00
00
00
FF
00
FF
FF
00
00
00
00
FF
00
00
00
00
FF
00
FF
00
00
FF
00
00
00
00
00
FF
FF
00
FF
FF
00
FF
00
FF
FF
FF
FF
FF
00
FF
FF
FB
FC
FF
02
FE
FE
FF
01
01
FD
FE
01
FD
00
FB
FE
FA
FA
FD
FE
FA
F9
FB
FF
FF
F8
FA
00
FC
FB
F9
F9
FE
FD
FF
FF
FD
FD
FF
FE
FF
FD
FD
FF
FD
FE
FD
FD
FF
00
FF
00
FF
FF
00
FF
FF
01
00
FF
00
FF
00
00
FF
01
FF
00
FF
FF
00
FF
FF
01
00
00
00
FF
01
01
FF
FF
FF
FF
FF
FF
FF
FF
00
FF
FF
FF
FF
00
FF
FE
FF
FE
FF
FE
FE
FE
FE
FE
FF
FE
FE
FF
FF
FF
FE
FD
00
FF
FF
00
FF
00
FF
FF
FF
FF
FF
FF
FF
00
FE
FE
00
01
00
FF
FF
01
01
FF
FF
03
00
FD
00
00
04
03
FE
FD
FE
FF
FE
FF
FE
FE
FF
FD
FE
FE
FE
00
FF
FD
FE
FE
FF
FE
FD
FE
FE
FF
00
FE
FE
FF
FF
FE
FE
FD
FD
FD
FF
00
FE
FD
FE
FF
00
FD
FD
FF
FE
FF
FE
FE
FF
00
00
00
FF
FF
00
FF
00
01
FF
FF
00
FF
00
00
00
FF
00
00
FF
00
00
FF
FF
00
00
FF
00
00
00
00
FF
00
00
00
FF
FF
FF
FE
00
00
00
FF
00
00
00
00
FF
FF
00
FF
FF
00
FF
00
FF
FF
FF
FF
00
00
FF
FF
FE
FD
00
FE
FD
FD
FD
FD
00
FE
FE
FF
FF
00
FE
FC
FB
FA
FE
FD
F9
F9
FB
FE
FF
F9
FA
FF
FD
FB
FA
F8
FE
FD
FF
FE
FD
FD
FD
FD
FF
FD
FD
FF
FE
FE
FE
FC
FF
00
FF
00
FF
FF
00
FF
FF
01
00
FF
00
FF
00
00
FF
01
FF
00
FF
FF
00
FF
FF
01
00
00
00
FF
00
01
FF
FF
FF
FF
FF
FF
FF
FF
00
FF
FF
FF
FF
00
FF
FE
FF
FE
FF
FE
FE
FE
FE
FE
FF
FE
FE
FF
FF
FF
FE
FD
00
FF
FF
00
FF
00
FF
FF
FF
FF
FF
FF
FF
00
FE
FE
F9
02
0C
F7
F5
FB
0A
FF
0B
00
FD
07
08
E6
FF
0D
F8
FF
05
F3
FD
F9
09
FD
07
F8
FD
07
04
EA
F5
0C
0A
FB
F3
E9
03
12
0C
00
02
F8
FA
01
13
F0
EE
0D
F7
01
07
F2
F9
F7
09
FB
06
FB
F9
06
05
ED
FC
0C
0A
07
08
07
03
F6
FF
04
FE
00
03
00
04
FA
06
FF
FE
01
FC
03
FE
06
00
01
FF
FA
FE
02
03
F5
FA
02
FE
07
01
03
02
F3
FD
FD
07
FB
04
FF
FF
F5
FA
05
FE
00
FE
01
FE
02
FF
00
FF
FD
FE
00
01
FA
FC
00
01
02
EE
F0
23
07
0F
ED
EE
F6
F7
F7
FB
21
EB
05
F1
FE
05
FD
07
F1
02
F3
FA
FD
FA
FE
F8
0B
FC
04
F8
FB
FC
11
02
FC
F9
02
FD
F3
0A
02
FB
F9
FA
FD
0F
08
0B
0C
05
F1
02
03
FA
01
05
01
04
F9
0C
FF
08
05
04
05
04
F8
00
01
00
FF
02
01
02
FC
01
00
FF
FF
FF
FF
FF
FF
FF
FF
00
FF
FF
FF
FF
00
FF
FE
08
FC
FC
EE
07
11
02
FB
FB
F9
F5
04
11
F5
F2
10
0B
02
ED
E9
FE
01
12
02
13
F7
05
01
09
F4
FE
06
13
04
FD
FA
06
16
18
FA
F9
04
DE
F8
18
FC
ED
17
0B
04
EF
01
0D
04
06
F9
EC
FF
E7
FF
05
19
FD
04
10
01
FC
FB
FA
08
11
F6
FE
00
F6
FF
10
F7
05
06
FE
00
F3
0B
03
EF
0B
02
FC
F5
02
FB
FF
0D
F9
04
09
05
06
0A
F8
00
FB
FF
FD
05
FD
05
04
F7
0D
FF
0A
06
F9
04
08
05
04
04
FB
F5
FD
F6
03
07
FB
01
06
02
09
F5
F9
0B
08
FD
16
FA
F1
04
05
DB
04
09
05
02
FD
01
02
01
03
FF
FF
FD
F9
FB
00
00
FE
01
01
05
F9
13
ED
FC
F0
F8
0A
EA
FE
FE
FF
F0
FC
F8
FC
FF
FD
FC
F2
FF
F8
F5
F9
09
FD
08
FE
FC
0A
FE
02
FD
FF
E9
FB
0A
F4
00
FD
F5
F5
06
02
F5
F4
06
F4
00
0B
FE
02
FA
05
F9
04
08
03
09
01
FB
FF
FF
FB
05
1B
FB
F8
00
0B
02
00
07
07
07
FA
F0
0D
F7
10
06
F6
EE
F5
19
19
FE
03
FF
07
FB
12
F3
01
FB
04
00
FD
F3
0A
F9
FD
F8
F4
03
F7
01
FB
13
FB
FF
F4
F9
FE
FC
1B
F4
0C
FA
04
0A
F9
EF
FE
11
F9
05
14
02
F1
F7
12
FA
13
FF
FE
03
FC
F3
0E
0F
F8
05
09
04
03
FD
FE
FF
FF
00
F8
F1
F6
FD
04
FF
03
03
07
FC
F7
FE
01
09
07
02
FF
0A
FF
F8
04
07
06
FE
04
02
FF
F9
FC
01
17
02
0A
04
08
F6
04
00
0C
06
FB
F0
FD
FE
04
0C
F1
00
FD
02
08
06
02
F7
04
FB
08
04
F7
03
FC
FD
01
FC
FC
FB
F7
00
04
03
02
00
03
09
F8
11
03
07
0E
F4
00
02
FC
05
0C
F9
FF
04
04
02
FD
01
02
FC
00
FC
FD
FF
F9
00
01
02
FF
04
0D
0F
03
0D
FB
FC
F4
FA
01
EC
F2
FC
06
F0
FF
F5
FB
FE
F9
00
F6
08
FA
F6
0A
0D
08
0D
FB
F9
07
04
04
FF
F3
FC
05
07
FC
09
F5
F7
F7
EF
05
17
01
09
F5
00
12
00
09
08
FB
0E
08
09
05
0C
FE
E4
F8
FE
02
00
17
00
03
FC
05
0A
03
F7
FD
0C
F5
F2
FB
FB
05
FE
FC
01
FC
08
12
06
0B
01
08
F2
07
06
01
04
00
02
F6
F6
FD
FE
EF
FC
F1
F0
F9
03
FB
0F
05
F9
F9
FC
F1
FD
00
F6
FB
EE
FC
0D
F3
F1
10
0A
FE
02
06
FB
FA
ED
07
EF
0C
FD
03
09
08
FD
09
10
08
0B
00
FD
11
F7
06
F2
02
FB
FE
FC
FD
F9
FE
03
0C
01
01
02
FF
FF
05
01
00
F8
FA
07
02
FC
F9
08
04
03
04
01
05
FC
00
04
04
01
02
05
00
FA
01
08
06
FC
07
FF
F4
01
06
0D
FA
02
F5
07
0B
FE
0B
02
F7
FF
03
01
FF
06
FD
02
FD
02
FD
FD
FB
03
FF
02
00
F7
0B
FB
FB
12
FF
01
02
FF
FC
F8
F6
FE
07
F9
F9
FB
02
FF
FA
03
FE
FD
01
FF
FE
01
00
02
FF
FE
01
00
09
01
00
08
FB
01
06
04
06
E6
F1
EE
03
F1
FF
F9
01
FF
00
00
0F
04
FE
FF
FB
0C
09
05
FB
00
FD
09
00
FE
FB
F8
0C
02
FF
03
F5
EE
F2
F9
09
04
FE
01
07
F9
0F
0D
14
FF
03
12
01
FD
16
FE
FC
F6
F5
FD
09
05
0F
04
02
FC
04
08
04
F3
05
0B
F6
F6
F4
06
0A
FD
FF
F3
FB
04
17
04
07
00
05
F2
10
FC
04
01
00
F9
FF
05
07
FD
F1
F5
FE
FC
F5
F5
FD
FE
FB
08
F5
07
02
F6
F1
FA
FE
EF
FD
07
F0
0C
FD
11
00
FE
F5
F2
F5
E9
FA
FC
0C
FC
FF
19
12
07
02
0E
0A
03
01
F0
F9
F3
FE
F9
FB
05
06
FD
FB
FE
02
FC
FF
05
F8
F7
F6
F8
00
FD
04
FA
F6
04
02
F6
FF
08
0F
07
FE
FA
08
FD
00
F9
F0
00
FD
F7
EF
FB
03
0C
0E
FC
16
FD
FF
FA
02
07
03
16
F7
08
0D
07
13
E7
FA
FA
FD
FE
FE
06
03
F7
FB
03
FD
FB
FD
05
FC
FC
FC
01
FB
0F
FF
0C
F9
00
03
01
F8
F5
02
F9
05
F2
FB
F9
FD
00
FC
01
FD
FF
00
01
FC
FC
00
02
FF
FF
01
FD
05
05
F7
0C
00
05
FF
04
02
EA
E7
FD
00
F8
F9
F2
0A
F8
FF
F7
FE
FF
01
FE
FD
06
09
04
04
01
05
0D
FC
FA
FF
00
FF
FF
F6
F9
F8
FB
F5
FF
FE
05
09
F5
14
0D
02
05
08
08
0C
07
03
F3
05
08
0E
F4
F3
FE
06
0D
0F
0C
0A
06
FD
06
04
F6
09
F8
F1
05
FF
FD
FE
FC
FD
FF
FE
00
09
04
02
FD
04
F7
FF
F6
05
01
0F
01
08
06
0A
00
F0
F6
FF
FD
FE
05
03
F7
F8
FB
FB
FD
03
F0
07
F8
00
FB
FD
0E
E7
03
FB
06
FC
00
FC
FD
02
EE
FB
F5
F6
F1
FF
0F
07
FF
00
0C
0D
FF
F3
F7
F7
FE
FA
00
FA
F9
FB
FF
FF
FC
F9
0D
09
07
FE
F3
F8
EF
FB
FF
01
F6
01
02
01
04
02
0B
03
FE
FB
F8
FF
F8
F9
FB
F0
00
02
F9
F2
01
F5
FD
0A
F9
09
F9
08
01
0B
07
05
05
F5
06
10
0F
09
FC
F5
FF
F9
FC
FD
03
FB
04
01
FD
FF
00
FB
00
FE
FF
02
FC
0A
FD
01
09
09
05
11
FD
05
FE
0D
01
02
F4
EE
F6
FC
FE
FC
01
00
00
01
FE
00
FF
00
00
FE
00
00
FC
FC
F3
F8
1A
FA
FA
FD
05
07
EB
F3
FD
F5
FD
FC
F9
02
F7
04
FA
FD
09
03
05
FE
07
0E
0A
02
FE
03
04
02
FD
01
F9
02
FD
F6
FB
F9
F6
F7
FC
02
02
0B
FD
06
FB
FF
05
FB
04
F9
FF
FB
F9
01
FE
03
FB
FA
FA
F9
08
04
06
05
04
08
10
F8
FD
0E
00
02
09
F8
00
ED
FF
05
04
F3
FA
03
03
FF
03
F8
F4
FD
0D
10
F6
05
08
04
04
00
F9
F3
F6
08
FF
FC
05
FF
F6
FF
00
FE
02
04
FB
08
05
06
EB
0B
07
E9
F8
F8
F0
05
F8
02
FD
FE
E9
F7
0B
FB
F7
00
04
F6
FF
FD
FB
07
FC
FF
FD
F3
07
FF
03
F8
FD
00
F2
EF
FE
FA
09
FC
04
09
F1
FF
F4
00
16
FE
08
F5
FE
03
0B
FE
FB
04
00
03
00
01
00
05
04
F6
F4
F6
F9
EC
01
FA
0D
01
FB
04
01
01
04
0B
09
FD
05
F2
04
12
0A
03
F7
FE
F5
FD
00
00
01
FB
01
00
03
00
FB
FA
03
FE
FD
FF
02
03
F6
FA
0D
05
06
02
0A
04
01
0F
FD
FF
FF
FF
F9
FB
FD
FE
01
FC
00
01
02
00
FB
FD
00
00
FE
FF
FE
FA
FE
FC
13
F9
FD
FE
05
FC
E5
EC
08
F9
F4
F4
F7
01
EF
08
FD
0D
06
01
0E
F8
FB
0D
0A
02
FD
FD
02
04
FE
F3
00
01
08
08
F7
FF
03
F7
FA
FE
0B
05
0D
0F
FC
02
F6
08
0B
00
03
05
01
05
FD
03
01
F1
0E
F9
00
0F
04
F7
01
FF
13
F8
01
06
04
FD
08
04
0D
F2
0F
05
00
FD
01
08
05
06
FF
F5
F4
FA
09
0B
F4
0E
01
F9
0A
09
01
0A
F9
02
08
F8
FD
FA
07
03
10
F5
06
02
FB
07
FA
00
FB
0A
06
F0
F6
F9
FA
0C
F9
FB
FA
FE
F4
FA
04
FC
00
F7
FD
F3
00
FC
FC
01
FE
FB
05
FB
01
F8
FD
03
00
FE
FE
F6
01
FD
00
FF
01
03
F6
0B
F9
FA
08
F8
0E
FC
FB
FF
08
FF
F9
03
00
F8
07
FA
FA
F1
FF
F0
FF
04
F3
E9
FD
F7
FF
01
FC
0A
FE
F8
00
FE
07
01
02
FE
0C
0B
FE
08
FA
FF
FD
01
FE
FC
01
01
00
01
FD
00
00
FB
00
01
00
00
03
06
F7
FF
F8
06
FF
04
05
04
08
11
FB
09
00
F5
04
FF
FF
00
01
00
FE
00
FF
FE
00
00
FF
02
FF
FD
FF
FB
03
02
11
00
01
00
07
FE
EF
F6
FB
00
EF
F6
F9
07
01
06
FE
07
06
FF
07
F8
F2
06
06
08
FD
FF
FA
06
FC
F3
04
05
03
07
02
F8
F2
F8
FC
FF
09
06
FE
0B
02
03
FE
FD
03
F8
03
FA
00
0F
06
FF
FE
03
01
F9
06
FE
00
FA
ED
03
06
FE
01
03
07
01
01
01
05
F4
06
01
FC
FD
04
F7
FD
03
02
F1
FF
F0
03
02
FF
0A
F9
FA
08
0D
01
FB
FE
0B
F2
00
FF
F3
02
FF
04
FE
05
04
03
05
FA
FE
F1
0B
0A
F6
F2
F3
04
FF
F9
09
FE
FA
F4
04
09
FC
FC
00
00
F1
F9
F8
00
01
FB
03
FB
FB
FD
05
FF
FC
04
F9
FA
F9
01
FF
01
FF
FF
02
FE
0B
FB
02
05
FE
09
00
FA
FE
0A
02
F5
0C
FB
03
05
FA
02
FF
FB
00
FB
F7
F2
FB
FF
01
03
FE
FE
06
FC
00
05
FD
0C
02
FD
FF
02
07
FE
04
F8
02
FC
00
FF
FE
06
00
04
FE
04
FD
F9
FC
00
FE
FD
00
FF
F8
FC
05
F9
04
FC
F7
02
06
FE
0B
FE
02
01
F8
0A
01
FF
FF
03
01
FF
FF
01
FF
FE
FE
FF
FF
FF
FF
00
07
FE
FC
1B
01
04
02
FF
FE
E7
F7
00
F9
FA
FE
FE
04
00
FE
00
05
00
02
00
FB
F2
03
FD
0D
F8
FA
FC
00
FD
F2
04
FA
F8
00
F7
FD
F2
F9
F6
FD
08
00
FC
FC
FB
F7
F9
FF
00
F3
04
FE
F9
03
FC
01
04
FB
05
F8
FC
F5
F3
F8
FD
FD
06
07
F8
0C
FF
FA
01
03
03
F3
06
FA
FA
F3
FD
FA
04
0D
05
F2
FE
F5
05
01
03
03
FA
F4
01
0B
F9
08
00
02
F1
07
00
F8
FE
F9
FB
FB
F8
00
F3
06
FA
05
01
0B
F8
F9
F4
F8
01
FF
FC
07
FE
00
FB
04
06
01
04
FE
F0
EE
FE
F9
00
00
FC
07
FC
00
05
01
03
FD
04
F9
EE
FA
03
03
FC
01
03
FE
FC
06
F9
05
FF
F7
0A
FE
F5
FC
03
02
02
0B
04
03
FD
FE
02
00
01
04
04
03
F2
F5
FF
FC
02
01
00
0A
00
FC
07
03
02
01
04
FF
FE
04
F8
02
06
0A
06
FC
FB
FF
FF
FB
02
FE
01
FF
FB
01
03
02
FE
FF
FB
F8
FA
FC
FE
02
F3
FB
0A
02
F9
04
07
01
FC
05
0A
FE
FE
00
00
00
00
FF
01
FE
FE
00
02
01
FE
00
00
05
FE
F4
16
FB
07
04
05
F9
E8
FA
0A
07
F7
04
01
04
FC
FC
01
08
FF
FA
FD
FA
FB
03
EF
09
0B
05
06
09
FF
FB
00
06
08
00
FB
FC
F5
FA
FA
FF
04
FC
02
0E
00
F8
FF
09
01
09
04
0A
FB
FF
03
FE
0A
03
05
02
FA
02
FB
F7
09
FC
FD
07
F8
FD
07
00
03
FC
FE
F6
FC
05
FC
F3
06
FB
FD
09
FA
FB
FE
FA
FC
00
F7
FE
02
FD
FD
0A
FF
FF
FA
FD
FA
07
FA
FA
05
FA
FD
F9
FA
09
F5
FA
F8
09
01
10
FD
FE
F7
FB
00
03
F8
F8
00
06
F8
04
FC
F6
FB
00
F4
EE
FC
FC
FF
F5
F7
FE
00
FC
00
FF
FB
FD
F9
FA
F4
FB
FA
07
FB
F9
FD
00
03
02
FE
0D
FF
FB
0A
FC
FE
F9
FE
00
03
01
03
04
01
09
07
F5
04
01
F3
F9
F9
03
00
03
02
01
F5
09
00
FA
FF
06
FD
03
00
01
FE
FF
00
00
09
FE
03
02
02
FD
02
00
03
02
FD
FB
FF
03
00
02
FF
01
01
04
FC
FB
F2
FE
FA
04
02
02
FF
FF
F7
05
06
00
03
00
FF
00
FF
FF
00
00
FE
FF
FF
00
FF
00
FE
FE
FE
06
FE
FD
0D
F9
07
12
08
F8
F5
04
01
0E
EE
03
FD
10
05
00
07
10
FF
05
0E
F4
F6
FE
FE
0A
08
01
09
0C
F8
02
01
04
FE
F8
FC
FB
F1
FB
FE
02
01
FD
01
00
03
FF
FE
FE
03
01
FF
FE
03
FF
01
01
07
03
00
FC
07
FD
FE
03
04
06
FE
01
01
00
FB
00
07
00
0A
F2
F8
09
F6
FB
03
02
FF
0C
FE
FD
FE
F9
01
FE
FE
01
F6
00
FA
05
F7
F5
00
F2
FE
04
03
FE
06
03
F8
0A
02
07
04
FB
00
00
F5
FF
04
03
FC
FC
00
FF
F7
FD
02
02
FC
FD
04
FD
F3
F9
06
F5
FC
FD
FD
FE
FF
FC
03
FD
05
FC
FC
05
FA
F8
05
FF
06
03
FD
01
04
06
00
05
02
03
FF
F5
09
FF
FA
FE
F8
FD
FE
02
F6
05
04
FB
08
01
FD
08
00
FD
FF
02
0E
03
FB
FC
0A
FF
01
01
FF
FA
05
04
FC
00
00
FD
FC
01
00
07
05
FF
FD
FC
03
FF
FF
01
FE
FE
FE
FF
02
03
01
FF
02
FD
05
00
F8
FF
FB
03
FF
FF
FC
FD
02
09
07
01
0F
FE
FF
FF
00
FE
FE
00
FE
FF
FF
FF
01
01
FF
FE
01
05
FA
F2
17
F6
02
01
05
F3
F9
03
0C
0F
F7
F0
FF
0D
00
06
0B
09
FD
FB
0E
FE
F4
01
F9
05
03
FE
FD
04
03
FD
05
08
FE
FE
FE
F9
01
00
02
03
04
FB
02
FF
00
FA
FB
FD
02
03
FB
00
04
FE
06
08
04
05
09
04
FF
FA
FB
FF
05
06
00
FC
04
FF
09
09
06
04
03
FD
FE
FE
FC
FF
FF
00
01
04
03
FB
FC
FA
03
FE
FB
07
06
FA
01
09
00
FA
FC
00
FE
02
01
FD
04
FA
F9
0B
FC
FA
04
02
02
FA
FB
01
01
08
FD
FC
FF
01
01
F8
FA
FD
F5
F0
03
F9
FB
01
FD
F0
FC
FF
F7
01
03
FB
FB
FA
03
F7
FC
F8
01
FE
FA
FC
00
05
FE
FD
00
FA
FF
01
04
FE
02
F9
01
08
F5
01
F6
F9
F6
FB
F9
FF
F9
FC
01
FB
FF
FD
08
FD
FF
00
07
05
02
00
FF
01
02
FF
FF
04
02
01
00
01
00
03
04
03
00
FB
02
02
01
FB
03
00
00
FF
01
FA
FF
00
02
00
FC
01
01
FF
01
FA
FC
FF
03
00
00
F8
05
00
07
0A
01
04
0B
FF
FF
FD
FF
FF
00
FF
FF
FE
FF
FE
01
00
FD
FF
00
FD
F9
FA
18
04
01
06
FA
EF
FD
00
04
08
F8
03
00
05
04
04
0E
04
FF
FC
03
03
F5
03
FB
FC
F8
F8
F8
FF
FE
FC
04
FB
02
FB
FB
FC
F8
FC
01
01
00
02
05
03
00
FF
FA
FD
02
01
03
FF
03
FE
04
07
FC
03
04
07
00
FB
00
00
06
FD
FF
FC
03
03
FE
04
FC
06
04
0B
FF
FA
02
03
06
EF
F9
00
FB
03
F7
F6
03
FF
F6
00
00
FE
01
04
FD
FB
F8
FB
FE
FE
06
00
04
02
02
06
00
F8
05
FF
09
F3
FA
F9
F6
02
FB
FD
02
F8
FA
FC
FA
FA
F4
F6
02
03
00
01
FF
F5
01
FF
F7
FF
00
FD
FE
FA
03
01
03
06
FF
F8
FF
FA
05
00
F9
03
04
F7
01
FE
FE
FC
07
FE
FF
04
FA
F8
FC
FD
F7
FA
FD
03
FE
FA
0A
FE
01
01
FC
F5
FC
00
03
FD
F4
00
01
00
00
FF
FD
FE
03
04
00
01
01
FF
04
02
F8
02
02
02
00
01
02
01
01
03
FE
FD
01
FF
01
FF
00
FF
02
06
02
FD
FE
04
03
07
04
FE
00
FE
08
05
FC
F8
06
00
FF
FE
00
00
00
01
FF
FE
FF
FE
01
FF
FF
FE
00
06
FD
F4
13
0D
04
00
06
EA
F9
FF
07
05
FE
FB
01
FC
02
03
08
FF
00
FA
01
FF
FA
FA
FD
02
FD
FA
F9
03
FE
FA
00
FE
FD
FD
02
F9
02
FC
07
02
FC
02
05
03
00
04
FE
FA
01
05
00
FD
05
FE
01
03
F9
07
05
FB
FF
01
04
FA
FB
05
05
FC
FF
FD
04
03
01
FD
07
00
FF
FD
00
01
04
FB
F7
02
F9
02
FC
F9
FB
F7
FA
05
FE
FD
FE
04
02
FE
00
FA
01
FD
04
01
FE
00
02
01
FF
FB
FF
02
03
07
FF
FD
00
FC
06
01
FC
07
05
FC
FA
FB
F6
F9
02
0A
00
04
FB
F7
FD
FC
F8
FF
01
FE
FC
FF
FD
FE
00
02
FF
FE
00
FC
FF
FC
FE
FF
FE
FC
FF
FD
01
FC
04
00
04
FF
FF
F8
00
00
00
05
FF
FC
FD
FD
00
01
01
00
FF
00
00
FE
00
FF
FF
FF
FE
FE
00
01
00
01
01
03
FF
01
02
FE
00
00
00
00
03
01
00
FF
01
02
FF
03
FE
00
00
FF
01
FF
01
00
FF
00
00
03
04
FD
00
08
04
FC
04
FE
06
02
FE
FF
06
00
FF
FF
00
00
FF
02
FF
00
00
FF
00
FF
FF
FF
FF
02
FE
FA
08
02
FD
05
02
F6
07
00
08
03
FF
FC
FE
FD
02
01
06
FE
FD
F7
02
F9
02
F9
02
05
02
00
F6
00
FD
01
00
FB
FE
05
00
FD
02
FC
05
00
FB
FF
02
FF
00
FF
01
01
01
FF
FD
FE
01
01
FF
00
FF
00
01
00
00
FF
01
03
00
01
FF
FD
02
01
01
00
00
FF
FD
FE
FF
FE
FF
FE
03
01
01
00
FF
FF
00
FE
00
FF
01
00
FE
01
03
FC
FD
06
03
FB
02
FD
05
01
FC
00
05
FC
00
01
01
FD
FF
FE
01
FA
00
00
01
00
00
FD
FE
FC
FA
F9
F9
FB
01
08
00
07
F6
F7
FA
F9
FB
02
02
FD
FC
00
FE
FC
FE
04
FE
03
FE
FC
FE
FE
FD
FF
FE
FC
FF
FF
FE
FD
01
FE
00
01
FE
FD
01
FF
FD
FF
FD
FC
FE
FE
00
FF
FE
01
00
01
FF
FE
01
00
FF
FE
FD
FF
00
FF
00
00
00
00
00
00
01
FF
00
00
FF
00
00
00
FF
FE
FF
FF
00
FF
00
00
FF
FE
00
00
00
FF
FF
FF
00
00
01
03
FF
03
FE
FF
00
01
00
00
02
00
FD
00
FF
FF
FF
00
FF
00
FF
01
FF
FF
FF
FF
00
FF
FF
00
FD
FD
01
03
FC
06
FE
03
00
FF
01
FE
00
FB
FE
FE
01
00
02
FD
FC
F8
00
FA
04
00
02
02
FF
FF
F8
FD
FC
00
00
FF
FF
05
FD
03
FE
FE
FE
FE
FF
03
FD
00
00
FF
00
00
FF
FF
00
00
01
00
FF
00
FF
00
00
FE
01
FF
00
01
00
01
02
01
00
00
00
01
00
00
01
FE
00
FF
FE
FE
00
FF
FE
00
FF
FF
00
FF
FF
FF
FF
FF
FD
01
00
FF
FC
FF
FC
FE
FF
FF
FF
FF
01
FF
F9
FF
FE
FF
00
FF
FF
FF
FF
00
FF
00
FF
FF
00
FF
FF
FB
F9
FB
F9
FB
FC
FF
FF
02
F6
F7
FB
FA
FB
FE
FA
FC
FC
FD
FE
FC
FE
00
FF
01
FC
FC
FE
FD
FC
FF
FC
FE
FD
FF
FE
FD
FE
FE
FF
00
FE
FE
FF
FE
FE
FE
FD
FC
FE
FE
FE
FE
FF
FF
00
01
FE
FF
00
FF
FE
FE
FC
FF
00
00
00
FF
FF
00
FF
00
00
FF
FF
00
FF
00
00
00
FF
00
00
02
FF
01
FF
00
FF
FF
00
FF
00
FF
FF
FE
00
FF
FF
FF
00
01
02
02
00
00
00
00
00
00
00
FF
FF
FF
FF
00
FF
00
FF
01
FF
FF
FF
FF
FF
FF
FF
FF
FD
FC
FF
FF
03
04
01
05
FB
FD
00
FD
00
04
04
FF
00
00
FF
FB
FC
FD
01
FC
03
00
01
01
FE
01
FE
FD
FC
FD
FE
FD
01
01
00
02
FD
FD
FE
FE
FF
02
FD
00
00
00
00
00
FF
00
00
FF
01
00
00
00
FF
00
01
FF
01
FF
00
FF
FF
00
FF
FF
01
00
00
00
FF
01
01
FF
FF
FF
FF
FF
FF
FF
FF
00
FF
FF
FF
FF
00
FF
FE
FD
FD
FE
FE
FE
FE
FF
00
00
FE
FE
FF
FF
FF
FE
FD
FF
FF
FF
00
00
00
00
00
FF
FF
FF
FF
FF
00
FF
FF
FB
F9
FE
FA
FB
F8
FB
FE
FF
F6
F6
FD
FB
FA
FB
F7
FE
FC
FF
FC
FC
FC
FE
FE
00
FC
FB
FE
FD
FC
FE
FB
FE
FD
FF
FE
FE
FE
FE
FF
00
FE
FE
FF
FE
FE
FE
FD
FE
FE
FF
FE
FD
FE
FE
FE
FF
FE
FE
FF
FF
FF
FE
FC
FF
00
00
00
FF
FF
00
FF
00
00
FF
FF
00
FF
00
00
00
FF
FF
00
FF
FF
FF
FF
00
FF
FF
FF
FF
00
FF
FF
00
00
00
00
00
00
00
FF
00
00
FF
00
00
00
FF
00
FF
FF
00
FF
FF
FF
FF
FF
00
FF
FF
FF
FF
FF
FF
FE
FD
FC
FE
01
00
FD
FF
01
01
FE
FE
01
FE
FF
FD
FB
FD
00
FF
01
FD
FF
FE
02
FD
03
02
00
00
FE
00
01
FD
FC
FE
FE
FE
FC
FF
FF
01
FD
FD
FF
FE
FD
FD
FC
FF
00
FF
00
FF
FF
00
FF
FF
01
00
FF
00
FF
00
00
FF
01
FF
00
FF
FF
00
FF
FF
01
00
00
00
FF
01
01
FF
FF
FF
FF
FF
FF
FF
FF
00
FF
FF
FF
FF
00
FF
FE
FE
FE
FE
FE
FE
FE
FF
FF
FF
FE
FE
FF
FF
FF
FE
FD
00
FF
FF
00
FF
00
FF
FF
FF
FF
FF
FF
FF
00
FE
FE
FB
FA
FE
F9
F7
F9
FB
FC
FE
F7
F6
FC
FB
FA
FB
F7
FD
FC
FF
FC
FB
FB
FD
FD
FF
FC
FB
FE
FD
FD
FD
FB
FE
FD
FF
FE
FD
FD
FE
FF
FF
FE
FE
FF
FE
FE
FE
FD
FE
FD
FF
FE
FD
FE
FE
FE
FF
FE
FE
FF
FF
FF
FE
FC
FF
00
00
00
FF
FF
00
FF
00
00
FF
FF
00
FF
00
00
00
FF
00
00
FF
FF
FF
FF
00
FF
00
00
FF
00
FF
FF
FF
00
FF
00
FF
00
00
FF
00
00
FF
00
00
00
00
00
FF
FF
FF
FF
FF
FF
FF
FF
00
FF
FF
FF
FF
FF
FF
FE
FE
FD
00
FF
FD
FD
FF
FF
02
FD
FD
FF
FE
FF
FE
FD
00
FF
00
01
02
FF
00
01
00
02
01
02
00
FE
FF
02
FE
FD
FF
FD
FC
FC
FE
FE
00
FD
FC
FE
FE
FE
FD
FB
FF
00
FF
00
FF
FF
00
FF
FF
01
00
FF
00
FF
00
00
FF
01
FF
00
FF
FF
00
FF
FF
01
00
00
00
FF
01
01
FF
FF
FF
FF
FF
FF
FF
FF
00
FF
FF
FF
FF
00
FF
FE
FF
FD
FF
FE
FE
FE
FE
FE
FF
FE
FE
FF
FF
FF
FE
FD
00
FF
FF
00
FF
00
FF
FF
FF
FF
FF
FF
FF
00
FE
FE
F7
F7
FD
FB
F6
F6
F9
FD
FE
F7
F8
FE
FC
FA
F9
F7
FA
FA
FE
FE
FB
FA
FB
FF
FF
FC
FE
00
FE
FD
FA
FB
FC
FD
00
02
FD
FD
FD
01
FF
FE
FE
00
FE
FE
FD
FC
FC
FC
FF
00
FD
FD
FD
FF
FF
FE
00
01
FF
FF
FB
FC
FF
00
00
00
FF
FF
00
FF
00
00
FF
FF
00
FF
00
00
FF
FF
FF
00
00
FF
FF
FF
00
FF
00
01
FF
00
FE
FF
FF
FF
00
01
00
FF
FF
FF
00
00
00
00
00
00
FF
00
FF
FF
FF
FF
FF
FF
FF
FF
00
FF
FF
00
FF
FF
FF
FE
FD
FE
FE
02
FF
FD
FE
01
00
FD
FE
03
FE
FF
FA
FC
FF
00
01
04
02
FF
00
03
00
01
00
01
FF
FE
FF
01
FC
FC
FF
FF
FC
FC
FD
FF
00
FD
FE
00
FE
FE
FC
FB
FE
FF
00
02
00
FF
FF
FF
FF
00
03
01
00
FF
FD
00
FD
FE
00
02
00
FF
FE
FF
FF
00
03
02
00
FF
FD
01
FF
FF
FF
FF
FF
FF
FF
FF
00
FF
FF
FF
FF
00
FF
FE
FD
FE
FF
01
FD
FE
FE
00
FF
FE
FE
00
FE
FF
FD
FD
FD
FE
FF
01
FF
FF
FE
FF
FF
FF
02
02
FF
00
FC
FE
